<Nnet> 
<Splice> 360 40 
[ -4 -3 -2 -1 0 1 2 3 4 ]
<!EndOfComponent> 
<AddShift> 360 360 
<LearnRateCoef> 0  [ 0.07728282 0.1117264 0.1449541 0.1515242 0.1503652 0.1429014 0.1420732 0.1428803 0.1396776 0.1334921 0.1291071 0.1261819 0.1266664 0.1232136 0.1214717 0.1173006 0.1133005 0.1118284 0.1115616 0.1106867 0.1113643 0.1143497 0.1205322 0.1267465 0.1280404 0.1299786 0.1271881 0.1209076 0.1168982 0.114467 0.1141205 0.1114402 0.1050776 0.1033755 0.09892312 0.09163528 0.0890454 0.08976767 0.09181533 0.09616481 0.07711815 0.1117873 0.1450579 0.1515772 0.1503522 0.1428217 0.1419466 0.1427598 0.1395689 0.1334044 0.1290734 0.1261673 0.1266264 0.1231405 0.1213944 0.1172421 0.1132472 0.1117755 0.111593 0.1107428 0.1113834 0.1142307 0.1203692 0.1265846 0.1278624 0.1297719 0.1269718 0.1207769 0.1168028 0.1143239 0.1139462 0.1113571 0.1050369 0.1033765 0.09895469 0.09171221 0.08917858 0.08990994 0.09197251 0.09627897 0.07705552 0.1119403 0.1452069 0.1516428 0.1503466 0.1427639 0.1418402 0.1426547 0.1394814 0.1333339 0.1290415 0.1261722 0.1266022 0.123086 0.1213184 0.1171751 0.1131877 0.1117365 0.1116567 0.1108368 0.1114214 0.1141476 0.1202504 0.1264486 0.1277139 0.129578 0.1267659 0.1206385 0.1167239 0.1142188 0.1138035 0.1113024 0.1050181 0.1033665 0.09898805 0.09179952 0.08931663 0.09005003 0.09210758 0.09639199 0.07703056 0.1121044 0.1453599 0.151726 0.1503644 0.142714 0.1417487 0.1425748 0.1394175 0.133279 0.1290149 0.1261556 0.1265765 0.1230284 0.1212518 0.1171311 0.1131577 0.1117297 0.1117046 0.1109197 0.1114777 0.1140857 0.1201305 0.1263356 0.1275912 0.129397 0.1265797 0.1205044 0.1166523 0.1141424 0.1136733 0.111254 0.1050211 0.103387 0.09903737 0.09190237 0.08946089 0.09021585 0.09226866 0.09651477 0.07704938 0.112315 0.1455332 0.1518452 0.1504358 0.1426984 0.1416797 0.1425279 0.1393702 0.1332334 0.129018 0.1261752 0.1265764 0.1229991 0.1212168 0.1171189 0.1131594 0.1117413 0.111744 0.1110014 0.1115568 0.1140662 0.120049 0.1262585 0.1274938 0.1292193 0.1263957 0.120402 0.1166352 0.1140972 0.1135399 0.1112146 0.1050434 0.103434 0.09909305 0.09201576 0.08962099 0.09039429 0.09244322 0.09665654 0.07706821 0.1125257 0.1457065 0.1519645 0.1505071 0.1426828 0.1416107 0.1424811 0.1393228 0.1331877 0.129021 0.1261949 0.1265764 0.1229697 0.1211819 0.1171068 0.1131612 0.1117529 0.1117835 0.1110831 0.1116358 0.1140467 0.1199675 0.1261813 0.1273964 0.1290417 0.1262117 0.1202996 0.116618 0.114052 0.1134065 0.1111753 0.1050658 0.103481 0.09914873 0.09212915 0.0897811 0.09057272 0.09261779 0.0967983 0.07713695 0.1127458 0.1458771 0.1520901 0.1505885 0.1426753 0.1415667 0.1424531 0.139296 0.1331555 0.1290136 0.1262025 0.1265616 0.1229193 0.1211266 0.1170843 0.1131699 0.1117843 0.1118152 0.1111583 0.1117225 0.1140388 0.1199011 0.1261179 0.1273255 0.128886 0.1260245 0.1202221 0.1166341 0.1140721 0.1133318 0.1111664 0.105109 0.1035072 0.09919547 0.09223733 0.08992805 0.09076158 0.09278645 0.09689642 0.07722335 0.1129693 0.1460647 0.1522402 0.1506984 0.1427082 0.1415555 0.1424635 0.1392841 0.1331521 0.1290645 0.1262745 0.1266129 0.1229188 0.1211221 0.1171086 0.1132278 0.1118747 0.1119206 0.1112811 0.1118334 0.114091 0.1198917 0.1261356 0.1273327 0.128811 0.1259161 0.1202274 0.1167527 0.1141812 0.1133599 0.1112491 0.1052444 0.1036411 0.09934238 0.09245929 0.09017694 0.0910451 0.09305125 0.0970913 0.07743379 0.1132905 0.146311 0.1524354 0.150857 0.142792 0.1415938 0.1425278 0.1393265 0.1331966 0.1291431 0.1263728 0.1266946 0.1229793 0.1211895 0.1171673 0.1132792 0.1119806 0.1120485 0.1114439 0.1119867 0.1141813 0.1199419 0.126209 0.127394 0.1288226 0.1259198 0.1203307 0.1169821 0.1143837 0.1134798 0.1114283 0.1054779 0.1038782 0.09957726 0.09275401 0.09050465 0.09142265 0.09340237 0.09736959 ]
<!EndOfComponent> 
<Rescale> 360 360 
<LearnRateCoef> 0  [ 1.001129 1.006832 1.002014 1.000078 1.000992 1.002995 1.006393 1.007459 1.007745 1.009409 1.011824 1.013162 1.013643 1.01499 1.017171 1.019777 1.02254 1.022568 1.021371 1.020908 1.020027 1.018315 1.015491 1.011536 1.0086 1.006557 1.00719 1.010384 1.011243 1.010181 1.010978 1.015708 1.020535 1.021952 1.025661 1.030592 1.0335 1.033163 1.030627 1.026841 1.001343 1.006926 1.00207 1.000241 1.001251 1.003361 1.006811 1.007914 1.008262 1.009908 1.012245 1.013519 1.014028 1.01541 1.017641 1.020208 1.022927 1.022931 1.021696 1.021204 1.020344 1.018745 1.016023 1.012191 1.009387 1.007508 1.008168 1.011279 1.01214 1.011168 1.012045 1.016732 1.02153 1.022993 1.026643 1.031408 1.034221 1.033847 1.031304 1.027626 1.00149 1.006922 1.002069 1.000384 1.001495 1.003687 1.007192 1.008332 1.008736 1.01039 1.012671 1.013857 1.014398 1.015802 1.018096 1.020629 1.023287 1.023263 1.021995 1.021487 1.020633 1.019154 1.016509 1.012799 1.010134 1.00843 1.009123 1.01216 1.012989 1.012101 1.01307 1.017716 1.022485 1.02401 1.027601 1.032185 1.03491 1.034511 1.031967 1.02837 1.001584 1.006925 1.002055 1.0005 1.001718 1.004022 1.007579 1.008733 1.009186 1.010834 1.013064 1.014189 1.014739 1.016185 1.018538 1.021037 1.023651 1.023579 1.022299 1.021746 1.020883 1.019508 1.016987 1.013392 1.010844 1.009334 1.010041 1.013005 1.013796 1.012983 1.01407 1.018698 1.023418 1.025002 1.02856 1.032949 1.035599 1.035155 1.032625 1.0291 1.001667 1.006859 1.002045 1.000589 1.00188 1.004304 1.007926 1.009093 1.009602 1.011258 1.013433 1.01449 1.015049 1.016544 1.018964 1.021424 1.023973 1.02387 1.022598 1.022023 1.021125 1.019827 1.0174 1.013938 1.011521 1.010217 1.01094 1.013818 1.014547 1.013822 1.015043 1.019657 1.024322 1.02597 1.029502 1.033714 1.036279 1.035794 1.033254 1.0298 1.00175 1.006793 1.002034 1.000678 1.002042 1.004587 1.008273 1.009454 1.010019 1.011682 1.013802 1.014791 1.01536 1.016902 1.019391 1.021811 1.024295 1.024162 1.022896 1.0223 1.021367 1.020146 1.017814 1.014485 1.0122 1.011102 1.011841 1.014632 1.0153 1.014662 1.016018 1.02062 1.025229 1.026942 1.030448 1.034481 1.036961 1.036435 1.033885 1.030501 1.001725 1.006673 1.002009 1.000741 1.00217 1.004823 1.008556 1.009785 1.010407 1.012074 1.014167 1.015078 1.015645 1.017217 1.019758 1.022145 1.024569 1.024402 1.02317 1.02257 1.021587 1.020436 1.01818 1.014982 1.0128 1.011926 1.012707 1.015403 1.015986 1.015418 1.016943 1.021573 1.026108 1.027952 1.031398 1.035236 1.037647 1.037065 1.034518 1.031225 1.00167 1.006524 1.00196 1.000774 1.002258 1.005003 1.008794 1.010058 1.010753 1.012417 1.014457 1.015293 1.015872 1.017485 1.02008 1.022408 1.024775 1.024582 1.02335 1.022746 1.021756 1.020672 1.018502 1.015397 1.013317 1.012663 1.0135 1.016094 1.01662 1.016147 1.017826 1.022466 1.026937 1.028919 1.032325 1.035969 1.038317 1.037679 1.035134 1.031927 1.00152 1.006298 1.00186 1.000766 1.002285 1.005099 1.00895 1.010252 1.011037 1.012711 1.014714 1.015474 1.016061 1.017684 1.020313 1.022621 1.024973 1.024716 1.023499 1.022887 1.021873 1.020838 1.018733 1.015733 1.013754 1.013304 1.01423 1.016754 1.01717 1.016777 1.018627 1.0233 1.027705 1.029814 1.033212 1.036671 1.038928 1.038236 1.035686 1.032555 ]
<!EndOfComponent> 
<ConvolutionalComponent> 1056 360 
<PatchDim> 8 <PatchStep> 1 <PatchStride> 40 
<LearnRateCoef> 1 <BiasLearnRateCoef> 1 <MaxNorm> 30 
<Filters> 
 [
  -0.2394042 0.227226 0.01110188 0.08609298 0.1568145 0.2075969 0.2031565 0.0753516 -0.2812622 0.1899407 -0.08154254 -0.07697635 0.09991033 0.1215158 0.07648755 -0.0912142 -0.2697397 0.1635189 -0.1388444 0.05102386 0.02162742 0.04323246 -0.04259717 -0.1309588 -0.2635432 0.1905934 -0.1231753 0.1114206 -0.04973022 -0.04260135 -0.1621796 -0.2538737 -0.07875998 0.2045948 -0.0071228 -0.0675865 -0.1528564 -0.1489615 -0.2311198 -0.3472692 0.1027872 -0.1767045 -0.1323391 -0.09889988 -0.1371206 -0.1094064 -0.3480454 -0.4179089 0.1224735 -0.140941 -0.1748044 -0.2247785 -0.2207318 -0.3705425 -0.4028208 -0.538236 0.649725 -0.6376597 -0.1695787 -0.4658077 -0.3402633 -0.2575509 -0.5172313 -0.4758984 0.6047539 -0.6031018 -0.07445839 -0.4633035 -0.2150862 -0.360384 -0.3404015 -0.4314497 
  -0.03970191 -0.50296 -0.8237426 -1.490763 -1.625799 -3.913625 -0.1406732 4.893357 0.076944 0.1919128 0.1525666 0.2084023 0.4738351 -0.5732055 4.803597 1.133778 -0.06656682 0.05498685 0.03109039 0.23576 -0.3832805 2.434302 2.119992 -2.721489 -0.06516811 0.1278637 -0.00923249 0.1489907 0.4940017 1.946442 -1.415673 -1.73514 -0.08409774 0.02020523 -0.2943677 0.5965518 0.08161813 0.1760008 -1.106648 -1.488573 0.06329846 0.1280154 0.2050978 0.1950582 0.05173561 -0.3153807 -0.6435036 -0.538699 0.0641816 -0.001446871 0.1068763 0.06753036 -0.1261406 0.2732793 -0.4010516 0.0378027 -0.1146811 0.04618175 -0.09461436 0.009955435 0.04127833 -0.01172486 0.03690013 0.2644146 -0.02211653 0.05677857 -0.0368104 0.02398772 -0.09590124 0.3419375 -0.04092479 -0.01536033 
  0.1341858 0.2553142 6.429214 -6.264921 -1.332385 -0.2572475 -0.3788796 -0.5630263 0.1676251 -2.148165 5.655239 -0.7023715 -1.752161 0.4382161 -0.6780977 -0.3253933 0.1397545 -1.558476 -1.093831 6.102705 -2.504098 1.038959 -0.127258 -0.01827454 0.03802288 -0.8176927 -2.829991 4.350896 -0.3999181 0.443578 0.3434926 0.2956263 -0.09929216 -0.4104654 -2.33954 1.177019 0.8830411 -0.06239944 0.4719992 0.1991115 0.004907932 0.09370189 -1.209484 0.4296247 0.1166716 -0.07629309 0.1523909 0.1594949 0.1219204 0.2272799 -0.4689784 0.009833219 0.245745 0.009113911 -0.2050882 0.03022072 0.1943789 0.2926286 0.2218293 0.2505939 0.04395273 -0.1074983 -0.1635164 0.1289741 0.1019788 -0.02434014 -0.6337657 -0.2230934 -0.03096309 -0.1113506 -0.08801793 -0.2254955 
  -0.07438884 -0.799434 -0.1039396 13.44153 -11.26305 2.082062 -1.834965 -0.07111839 0.5502403 0.3892033 2.181182 -15.49497 13.79749 -0.6683357 0.8143716 -0.1245172 -0.07077425 0.08699127 -1.075491 1.462086 -0.7553731 -1.95388 1.449963 0.1123107 -0.1717672 0.1110357 -0.2080352 0.9399789 -2.090799 1.01291 -0.835759 0.4187155 -0.2330142 0.1942074 -0.6706294 -0.09463385 0.4330225 -0.37561 0.1974489 -0.2937485 -0.004831443 0.0266379 0.1815283 0.08797084 -0.05574117 -0.0350189 0.005381116 0.0323581 -0.05012145 -0.003730066 0.04059069 0.0271161 0.1244537 0.1962869 0.001201022 0.02231546 -0.08830257 -0.1124198 -0.1574159 -0.1013959 -0.1168545 -0.1260266 -0.01944009 0.09751046 0.2344712 0.1303274 0.1510718 0.01459978 -0.02937574 -0.0002854317 -0.08185975 -0.1086718 
  0.001220789 -0.04806905 0.4242828 3.115236 3.117501 2.172825 1.284487 1.313618 -0.06527361 0.005381229 0.8673202 -1.31274 -0.7740754 -0.9251261 -0.4209478 -0.442501 0.03145723 0.2820879 -0.4102011 -0.2827125 -1.585859 -0.3056126 -0.231878 -0.3588026 0.06046743 -0.0101898 -0.5101537 -0.9545375 0.2108536 -0.9344168 -0.1736434 -0.2789241 -0.03021875 -0.1137968 -0.225541 -0.01682424 -0.4947835 0.1007064 -0.2792671 -0.1288329 -0.0385403 -0.05917843 -0.1113676 -0.1376667 -0.1580632 -0.05953809 0.01169736 -0.02406225 -0.02138358 -0.00217567 0.01713925 -0.1241892 -0.01522016 -0.04106217 -0.03473121 0.01068789 -0.03063986 0.003060044 0.03276497 -0.008355021 -0.05231171 -0.04820447 0.0253791 0.00505928 0.04217056 0.09286813 -0.02787307 0.06544835 0.03405144 0.1619393 0.05281008 0.160538 
  0.05326894 0.1527048 -0.9778516 0.161865 0.5359923 -0.04121408 0.3445369 -0.05252707 -0.04570369 0.1338629 -0.9170871 0.3223591 0.1843646 -0.03242726 0.1957563 0.07449088 -0.05673184 0.1755289 -0.8520242 0.05924216 0.05927167 -0.2711386 0.1372376 -0.01704551 -0.05760818 0.2314869 -1.333201 0.4188861 -0.4515338 -0.1562395 0.007401836 -0.09446719 -0.07531378 0.2447883 -2.796247 1.693281 -0.8355688 0.2213303 -0.2232932 -0.1077074 0.004520388 0.05647666 -1.964984 1.675632 -1.284879 0.2566136 -0.292436 0.06620961 0.1500247 -0.1845512 -0.9163042 1.096852 -0.9267491 0.6763176 -0.3384944 0.141742 0.3238651 -0.7275556 1.364761 -0.6985476 0.1137044 0.3627429 -0.2820396 0.1501772 0.739121 -1.563779 10.91485 -4.513194 2.245634 -0.5693722 -0.05372627 -0.2194131 
  -0.7144671 -0.8428498 -0.5841814 -0.1443864 1.044369 0.7063499 0.5580072 0.4368474 -0.5245071 -0.4632913 -0.214237 -0.1119643 0.5503888 0.2013602 0.2494423 0.162527 -0.515801 -0.4758999 -0.2248423 -0.113287 0.4714822 0.07959999 0.2001117 0.148059 -0.4674664 -0.3796933 -0.1322087 -0.05178095 0.3483447 0.04842801 0.1374688 0.141561 -0.3956542 -0.3105642 -0.05160932 0.01931851 0.3312198 0.08697111 0.1963651 0.1288826 -0.3698525 -0.2395332 -0.1036618 0.08737393 0.2292324 0.08032216 0.1380134 0.07358242 -0.3807341 -0.18027 -0.1256572 0.09375294 0.3009488 0.01951119 0.07003339 0.07476237 -0.3670385 -0.2597662 -0.05273009 0.06679596 0.11095 -0.07793146 0.08003265 -0.04970048 -0.349291 -0.2008784 0.06357399 0.1139244 0.2706017 -0.1691148 0.0955543 -0.2111356 
  -0.2212422 -0.5645854 -0.6943784 -0.3457627 -0.562374 -0.1756081 -0.3432986 -0.3630304 0.009460499 -0.2425858 -0.2857638 -0.1950661 -0.1846852 -0.04540436 -0.08659232 -0.03570532 0.01502341 -0.2153661 -0.2930989 -0.09573948 -0.2233754 -0.03396765 -0.171425 -0.1544505 0.01595278 -0.1757463 -0.1445292 0.005889707 -0.1121643 0.03468355 -0.07510236 -0.07670674 -0.009577959 -0.0805402 -0.06048537 0.03176046 -0.008013767 0.06687945 0.05888386 0.03745044 0.02658855 -0.08450876 0.05915473 0.06056224 0.03061242 0.02932825 0.04855882 -0.001037325 0.04284511 -0.02415385 0.08267456 0.1125276 0.06743566 0.05207609 0.03727774 0.07143566 0.03927949 -0.04022198 0.09090001 0.01548954 0.0453126 -0.06003962 0.01575022 0.03407851 0.09088488 0.04502895 0.1939408 0.1757232 0.1361584 0.06811588 0.01235286 0.2563429 
  -0.06722281 -0.1616197 -0.5380469 -0.9241295 -0.5688705 0.6936786 1.800951 0.4853762 -0.01160787 -0.03670985 -0.2138513 -0.6291543 -0.438733 0.295262 1.174392 0.0865678 -0.03192561 -0.04325459 -0.1966781 -0.4959945 -0.4651181 0.3822432 1.055717 0.2976285 -0.03569963 -0.04958029 -0.2199297 -0.4639578 -0.4251344 0.3208275 0.892259 0.1856296 -0.03774324 -0.0542958 -0.2513905 -0.4951266 -0.42209 0.2251303 0.6262773 -0.02529786 0.02445608 -0.04917809 -0.1562191 -0.414963 -0.3444944 0.1666083 0.5514998 -0.0832401 0.03736329 0.05215757 -0.08495985 -0.3561003 -0.275777 0.1821711 0.4948427 -0.04714068 0.1127941 -0.003363337 -0.03049321 -0.2145763 -0.202952 0.3487994 0.3934734 0.01284807 -0.09502704 -0.08130483 -0.1906018 -0.4312384 -0.3220223 0.2954663 0.3760379 -0.2025596 
  0.005506222 -0.2919303 -0.5192909 0.0687353 0.01001471 0.4836203 0.3334283 0.3717565 0.2139768 0.03884171 -0.4971374 -0.3602203 -0.4051817 -0.06323428 -0.04913218 0.04062394 0.2322455 0.5278761 0.4032398 -1.163468 -0.6870679 -0.5734422 -0.1818545 -0.09852686 0.2254216 0.3479423 1.882377 -0.3911557 -1.274403 -0.7894522 -0.2483377 -0.3342432 0.2037054 0.05915848 1.04055 2.381806 -0.585906 -0.7495417 -0.413492 -0.5668664 0.02297108 0.03375801 0.1060723 2.569382 1.877334 -0.3351242 -0.1653001 -0.6413686 -0.05405856 -0.1101207 -0.3221115 0.2828551 2.467092 1.198466 -0.179731 -0.09686264 -0.2415285 -0.08851152 -0.96446 -0.9229473 0.5632075 1.164414 0.9305793 0.2131071 -0.2421928 -0.2408888 -1.04386 -1.424555 -1.783808 -0.2384914 0.6421075 0.4288497 
  0.2149314 -0.01110887 1.471679 2.394704 1.561104 -0.9991007 -0.6862011 -1.967507 0.04572981 -0.01615374 0.1793755 0.6397526 0.1229261 -0.6965421 -0.5848444 -0.9956932 0.01530445 0.07277786 0.2340854 0.1290557 0.1332189 -0.6067339 -0.4141545 -0.7701595 0.02744812 0.02883902 0.1658391 0.0238332 0.103419 -0.3859081 -0.07004332 -0.3121487 0.02843653 0.0995803 0.1501276 0.1989407 0.1701482 0.1267403 -0.03262631 0.1540962 -0.02106903 0.0981017 0.1274203 0.01489955 0.2113528 -0.0195733 0.0971393 0.2276805 -0.004542802 0.04179922 0.03024307 0.0485334 0.06712919 -0.08839855 -0.0570131 0.117274 -0.008325216 -0.007642773 -0.0001051832 -0.07654373 0.008764952 -0.2492883 -0.1246109 -0.02942535 0.0370788 0.02036705 -0.07898644 0.1048813 0.1340351 -0.04020235 -0.1107218 0.07141083 
  0.007630738 0.1566887 0.04834602 0.008436576 -0.04609163 -0.227374 -0.1274796 -0.1327472 0.09863267 0.2572725 0.04783127 -0.08760127 0.0214082 -0.2235817 0.01191793 -0.01597276 0.2519256 0.3254128 0.106721 -0.09592468 -0.1646167 -0.2306843 0.03555767 0.01531539 0.2468396 0.3202225 0.06507056 -0.2235831 -0.2739824 -0.2868979 0.05480251 -0.02118438 0.2792016 0.3534786 -0.0414368 -0.3370093 -0.3717628 -0.2304076 0.05951174 0.02193574 0.3585718 0.4779508 0.01190128 -0.3754679 -0.4414887 -0.3270452 0.07671969 -0.05138119 0.533951 0.6978652 0.08816426 -0.2735185 -0.6551648 -0.258637 -0.02002271 0.02695969 0.5145347 0.9212443 0.3869312 -0.3203238 -0.5517179 -0.3954449 -0.01207464 -0.09389216 0.4269299 1.239467 0.7794715 0.03923831 -0.8554316 -0.6387786 -0.1469456 -0.2054894 
  0.1718097 0.3532286 0.695002 0.6594329 0.4911436 0.4292303 -0.4026806 0.2706649 -0.04691451 -0.09424873 -0.4582101 -0.3969299 -0.9436243 -1.090253 -1.386762 -0.2789457 0.04473076 -0.1302902 -0.205758 -0.7877749 -0.5848126 -0.8417727 -1.300407 2.274874 -0.0107441 -0.1945094 -0.2515459 -0.587283 0.08625128 -1.564611 2.186172 1.923004 -0.06983049 -0.07371125 0.01422189 0.1460241 0.03354561 -0.03512684 4.378858 0.4867639 -0.1631669 0.07633891 -0.1250944 0.1611493 -0.143194 2.166144 1.624466 -1.219599 -0.1237665 -0.1425423 -0.2221178 0.1993683 -0.130054 1.90975 -1.266838 -1.811033 -0.2866019 -0.08204433 -0.3796172 -0.05298522 -0.2840845 0.155038 -1.759405 -1.470938 0.2419306 0.2994176 0.6065028 0.7571313 1.196649 -0.3139923 -0.981818 -0.7680147 
  3.199406 -1.542958 -0.8559897 -0.7902014 1.772639 -0.193168 -0.6476229 0.161101 1.474747 -1.059712 -0.5430578 -0.6409138 0.958187 -0.3485127 -0.2840693 -0.0973147 0.9796905 -0.874323 -0.5641168 -0.5625851 0.7871992 -0.3843625 -0.3979517 -0.09959967 0.6592598 -0.6774671 -0.4714954 -0.3499018 0.5946087 -0.2197716 -0.3221611 -0.06266114 0.4058349 -0.332067 -0.1563108 -0.277043 0.5272563 0.04255645 -0.07985755 0.08076662 0.3817162 -0.1934898 -0.2016611 -0.1658501 0.4182453 0.03864316 -0.05875698 0.1300597 0.3566706 -0.2116243 -0.155909 -0.2481868 0.2945134 -0.07220168 -0.0530674 0.05734724 0.3098173 -0.1593131 -0.02806868 -0.1512407 0.1923282 -0.1241065 -0.1080689 -0.06980164 0.4572499 -0.1031589 0.3558502 0.03986241 0.3618596 -0.1395926 -0.05193929 -0.1348624 
  -0.1903023 -0.2634528 0.9729475 -1.022082 -0.262823 -0.01148414 -0.2088959 -0.1998152 -0.1017275 -0.2137921 1.418787 -0.5244589 0.01665053 0.2081289 -0.00499541 0.08784135 -0.05096738 -0.1682433 1.597713 -1.036992 -0.003753078 -0.06938571 -0.1242568 -0.1890219 -0.01237216 -0.2789068 1.839865 -1.110374 0.01417241 -0.0369262 -0.09138555 -0.171159 -0.01229506 -0.4423033 2.001847 -0.7128311 0.1460511 0.1839359 -0.090996 0.01913192 0.002787357 -0.337606 2.247223 -0.7975223 0.05800573 0.1646275 -0.07053472 -0.02937069 0.008975971 -0.3543353 2.09774 -0.7791215 -0.07840715 -0.0601158 -0.1915127 -0.1700694 -0.02272308 -0.4276222 1.741743 -0.6977333 -0.1538229 -0.148649 -0.1887832 -0.3625086 -0.07041107 -0.4160735 1.632484 -0.7395137 -0.2212317 0.02117526 -0.202584 -0.4609589 
  -0.08016096 1.071036 -1.374209 -1.090162 2.60757 -0.9064466 0.4279444 0.1893754 -0.07441067 0.6557473 -1.160064 0.01685429 1.236094 -1.171994 0.3049408 -0.4691957 0.01691609 0.8669776 -1.598365 0.3251099 1.009193 -1.132412 0.5067382 -0.2152515 0.01666167 0.6783975 -2.094651 1.017166 0.1942808 -0.6970292 0.4960885 -0.1543079 -0.01261103 0.2332813 -2.901898 2.242615 0.1060928 -0.554952 0.4264433 -0.04312714 -0.01014068 0.01736256 -1.978007 2.357999 -0.8054065 -0.09326657 0.3854935 0.1742589 0.1136984 -0.2312799 -1.76214 2.591004 -0.8718809 0.3298098 0.1738084 0.2583655 0.1666736 -0.5672818 -1.474233 2.796657 -1.369564 0.168672 0.08408413 0.3940553 0.3463007 -1.154384 -2.42492 3.682077 -1.954209 0.7561427 0.01895587 0.3898669 
  0.08209315 -0.06979802 -0.1538098 -0.07998704 0.01683988 0.06209092 0.1279198 0.005138129 0.1378452 0.2856993 0.4633518 0.6843706 0.2702547 0.1094364 0.2058578 0.08126571 0.1049413 0.009717742 -0.04332452 -0.291425 -0.09766841 -0.3186371 -0.1094949 -0.1941689 0.04258851 -0.07435513 -0.1323131 -0.2464987 -0.2372521 -0.3897011 -0.2524953 -0.1349608 0.05944702 0.4108207 -0.1695614 1.136902 -5.727145 7.121206 -2.197652 1.051629 0.394457 -0.6506504 1.209151 -3.55242 10.12819 -5.803385 -0.1594387 1.994938 -0.3413307 -0.1606262 -1.149582 3.820822 1.051125 -4.840456 6.4147 -1.963518 0.04545052 0.7171999 2.160849 -0.6643769 -4.400883 4.97008 -2.132428 0.02409949 -0.4523919 -0.5467962 -2.259962 -1.15528 -1.171387 -1.109134 -2.083992 -1.244976 
  0.06145195 -0.07331272 -0.07478053 0.1022492 0.07586271 -0.2895 -0.412035 -1.572896 0.08103316 -0.03280365 0.03824637 0.2082361 -0.1332506 0.09046382 -0.05754725 -0.007722847 0.01479912 -0.01109967 -0.04018954 -0.2234086 0.01498928 -0.02971105 0.1003247 0.4498116 0.03157804 0.01387135 0.03065343 -0.3299705 0.2273376 -0.1484413 0.1644198 1.026368 -0.02995359 -0.01137226 0.1055124 -0.2734139 0.2641031 0.02028523 2.101386e-05 1.531629 -0.09446167 -0.0467911 0.09273288 -0.487765 0.2397567 -0.0777721 -0.1206585 1.548252 -0.113559 -0.08173454 0.1289526 -0.6932336 0.2247834 -0.03732703 -0.3325795 1.690442 -0.01715544 -0.09503841 0.3550843 -0.815423 0.04153402 -0.2236052 -0.3156193 1.66778 0.08386195 -0.1728544 0.4873061 -1.219009 -0.2860024 -0.6889639 -1.046813 1.478698 
  -0.7042352 -0.8693596 0.07219147 0.418743 -0.5620811 -0.08587159 -0.0282066 -0.1191617 -0.8101203 -0.3957963 0.6864826 0.5166558 -0.170497 0.3388024 -0.007979029 0.1952592 -0.8311087 0.007133214 1.364888 0.1315205 0.2454954 0.4031455 0.2337308 0.2969117 -0.8549765 0.5969043 1.367665 -0.2423295 0.4723894 0.3671576 0.2219391 0.2700687 -0.6551684 0.9648908 0.7514815 -0.5132713 0.5440634 0.1287477 0.01511081 0.005880997 -0.2567683 1.521584 -0.06959122 -0.6410391 0.2709949 -0.1779429 -0.09570485 -0.1114035 0.5631154 1.329047 -0.7104442 -0.5809392 0.2482201 -0.3316939 -0.151157 -0.2054795 1.261726 0.8134664 -0.9034078 -0.1810366 0.2670972 -0.2926183 -0.0373288 -0.0569583 1.901225 -0.6732012 -1.900035 -0.1822419 -0.252182 -0.5646458 0.005374538 -0.2780869 
  -0.4350236 0.01628259 -3.488554 -2.536619 -0.4461263 -0.8776801 0.2280788 0.01523303 -0.09198039 0.01265833 -1.315634 -0.9567835 1.198979 0.008464558 0.1224642 -0.3306052 -0.0390911 0.3561558 -3.220973 3.295382 -0.1270671 0.4611814 -0.02610849 0.2184298 0.2106972 0.164572 -3.23732 8.819721 -3.676999 1.439477 -0.5122718 0.1630693 0.6242414 -1.385355 11.31285 -8.09632 3.017097 -0.7383289 0.2059582 -0.1210804 0.4047949 0.1130712 0.4626043 0.08442385 0.1170311 -0.03895595 0.1048963 -0.05876459 0.1100063 0.1404292 -0.03969152 -0.04901652 -0.09167199 -0.05006373 -0.197597 -0.05081357 -0.02721427 0.1124087 -0.5615024 0.3490221 -0.147276 -0.2135915 -0.01911988 0.0368378 0.007299734 -0.2457814 -0.4605135 0.1770323 0.03730963 0.1960543 0.0779527 0.01859598 
  -0.09562313 1.540178 1.855187 -0.5485147 -0.1251732 -0.1772626 -0.08943012 -0.4593611 -0.1228689 1.039551 1.035512 0.3142996 0.07568277 0.2429727 -0.04751623 0.01596763 -0.08236235 0.9052454 1.013774 -0.04599693 0.4829057 0.09303483 0.1093361 -0.05687347 0.03498 0.6171254 0.520048 -0.1606044 0.4023986 -0.01583458 0.06163909 -0.03598293 -0.01418864 0.3940234 0.01405709 -0.2129549 0.1552628 -0.203976 0.05158402 -0.1392868 -0.06706326 0.06711241 -0.1017649 -0.4619689 0.01070152 -0.3193462 0.0161709 -0.1199969 -0.2270441 -0.1769818 -0.2807159 -0.5000698 -0.05362377 -0.07564037 -0.1107485 0.02308982 -0.2896273 -0.3691682 -0.3996855 -0.4807008 0.02139689 -0.09747485 0.06997331 0.07184584 -0.4119312 -0.6144158 -0.7473487 -0.3625608 -0.2352047 -0.01962451 0.02646568 0.05668046 
  -0.1160995 0.6197174 0.8300305 1.295299 0.974223 -1.303661 -1.103839 -0.2690549 -0.2796189 0.06236791 0.09794495 0.771287 1.116245 -0.3249085 -1.095687 -0.3032239 -0.09893653 -0.03853829 -0.15897 0.1972582 1.500353 0.05625637 -1.069821 -0.4966704 -0.07808518 -0.256683 -0.2914127 -0.4076339 1.184215 1.166489 -0.8763895 -0.4856194 -0.03093025 -0.3489598 -0.316176 -0.5493112 0.4572862 1.830775 -0.2038246 -0.6268296 0.04957848 -0.3943678 -0.5062017 -0.5856825 -0.3612255 1.692162 0.8370059 -0.6177269 0.04865451 -0.3613339 -0.4550398 -0.5857602 -0.7348416 1.127311 1.375843 -0.5583196 0.02228601 -0.08418376 -0.4255335 -0.5859954 -0.771993 0.2318836 1.694897 -0.04176056 0.2165454 0.06780123 -0.472163 -0.7738939 -1.334623 -0.6093043 1.480301 0.9216577 
  0.02839922 0.04338657 0.04759782 0.08777289 0.1304739 0.1661701 0.1176658 0.208766 -0.2244665 -0.1826747 -0.2280623 -0.243548 -0.4689947 -0.6173372 -0.4124983 -0.6642683 0.2162679 0.1363098 0.1554855 0.1492333 0.2131727 0.3581079 0.2434776 0.2574815 0.1296995 0.1059349 0.1231551 0.1404889 0.173037 0.3942999 0.4844716 0.1479629 -0.1694208 -0.1148532 0.8693439 -0.5451236 2.451086 -5.963742 0.222143 1.23178 0.2951265 -0.5976274 -1.828105 -0.1883796 -5.696221 15.18221 -7.050568 -1.799662 -0.6268509 1.717525 0.4533503 4.267576 -1.346801 -13.10064 10.12736 -0.768783 0.6777855 -2.079665 1.41201 -6.530258 10.5853 3.133249 -2.045981 2.453173 -0.2299883 1.030121 -0.9327622 2.950479 -6.079735 0.4785402 -1.709091 -1.089363 
  0.07409149 0.1271814 -0.07580876 0.1907501 0.1623733 0.04578906 0.08977351 -0.1593129 0.05717887 0.1808134 0.2001292 0.3955881 0.1805549 0.1792046 0.07912121 0.06345815 0.02899616 0.07166729 0.1832469 0.05225042 -0.173654 -0.3499885 -0.3685762 -0.5131361 0.02690968 0.01745678 -0.008060232 -0.09003725 -0.6039234 -0.6396421 -0.8325878 -0.6849241 0.0249129 -0.1435599 -0.1542167 -0.4451168 -0.8189895 -1.04129 -0.9198688 0.01746284 -0.05383524 -0.08069748 -0.02963383 -0.4370116 -0.7107393 -0.7320478 0.4519728 1.743954 -0.104294 -0.2302244 -0.1155993 -0.5065026 -0.0883057 1.022145 2.390329 1.47533 0.004899369 0.1841813 0.06865479 0.3052203 1.193835 2.575464 1.645308 0.1087167 -0.1214551 -0.07161427 -0.4172009 0.3624664 0.9101927 -0.3743568 -1.735117 -2.030328 
  -0.001416539 0.02979714 -0.08544322 0.1822338 0.01232281 0.05878214 -0.1962612 -0.1064924 0.01070303 0.02714554 -0.02629752 0.05381459 -0.1703049 -0.1068626 -0.2517058 -0.03188125 0.06076009 0.01123667 0.07391688 0.07159841 -0.04595636 -0.05557842 -0.1056394 -0.01188951 0.05978888 -0.01182623 0.04955037 0.09812421 -0.1085463 -0.06730976 -0.03098458 0.05310632 0.04916004 0.03049167 0.02818088 -0.01153767 -0.1683396 -0.04948757 -0.05303218 0.07986764 -0.05616992 -0.01154913 -0.02225205 -0.09589181 -0.1371568 -0.04478221 -0.0258869 -0.03006092 -0.1876535 0.04509662 -0.007603417 -0.1747432 -0.1162319 -0.1148422 0.08044687 0.1230526 -0.2326034 -0.06960121 -0.2553516 -0.2588322 -0.196049 -0.2034578 0.7073941 0.2805232 -0.5068921 -0.2291535 -0.5693325 -0.15393 -0.02996424 1.949152 2.664275 1.712642 
  -0.1354176 -0.2811117 0.1602732 0.8761981 -0.9129088 0.7642933 0.3059919 0.4768488 -0.113189 0.02763381 -0.2223874 0.7476146 -0.8043646 0.2306259 0.1202468 0.06381851 -0.00230136 0.03685666 -0.1655998 0.8693342 -1.301637 0.1421364 0.1779035 -0.1527516 0.04239208 0.1630453 -0.5429314 1.545752 -1.153956 -0.5255011 0.6055039 -0.5527939 0.1128727 0.1193137 -0.752064 1.782768 -0.1459797 -1.49435 0.9168897 -0.5633208 0.1366943 0.1549733 -0.9319133 0.9754568 1.238364 -2.704706 1.079885 -0.1240701 0.2705989 -0.1692935 -0.70146 -0.1321763 3.04391 -3.074039 0.6711459 -0.03501527 0.2829581 -0.4308785 -0.2603784 -1.445821 4.167675 -3.23493 -0.08713841 0.4008898 0.5840102 -1.04226 0.4831042 -3.112296 7.086725 -2.514984 -1.298638 0.8822109 
  -0.003400037 -0.08412915 -0.03112639 -0.09432465 -0.04545468 -0.05897011 -0.06490991 -0.06867352 0.05058617 0.0784252 0.1035794 0.1287145 0.03111464 0.05959692 0.01269501 0.05978872 -0.0201109 -0.01149127 -0.02240636 -0.1211878 -0.1023811 -0.06455919 -0.1011742 -0.1099199 -0.02536683 0.006404787 -0.05140738 -0.04919848 -0.04304364 0.05332004 -0.07575886 0.02924817 0.101123 -0.04144697 0.2365142 -0.07506636 0.9679354 -0.9970025 1.298755 -0.5846151 0.1481165 0.2649855 0.5609185 0.2171946 -0.7081246 0.5431839 -3.132491 1.110433 0.07155955 0.128709 0.07104144 0.05547123 0.3941078 -1.724907 1.195712 -3.51977 -0.21445 -0.137598 -0.6273449 0.8523136 -4.542943 7.63656 -8.822789 -2.942327 -0.04003554 -0.1227758 -0.1638815 -1.032938 4.075474 -5.2803 9.805573 6.066288 
  0.04704893 0.1923595 0.2672274 -0.03302566 0.2661156 -0.2919098 0.09863127 -0.1579721 -0.01590003 0.07686094 -0.1880227 0.3840382 -0.06067736 0.01995032 -0.1500078 0.03730803 0.007738971 -0.05915021 0.5025556 -0.08727891 0.2040879 -0.1544007 0.07018992 -0.04916812 0.0077975 -0.04340021 0.5354112 -0.1169121 -0.1000954 -0.1440269 0.01676907 -0.05230678 0.01440128 -0.01801802 0.1940763 -0.1698254 -0.1339331 -0.2318433 -0.09615919 -0.05969968 -0.02217088 -0.06278311 -0.02167202 -0.1077719 -0.1872335 -0.09327287 -0.1084364 0.01069597 -0.03008558 -0.166404 -0.1822174 -0.3888391 -0.2322578 -0.1397366 -0.03190099 0.03158831 -0.06063484 -0.1526936 -0.6673611 -0.1389433 -0.1883126 0.06853791 0.1729264 0.2172612 -0.1017058 -0.2439194 -1.392919 -0.3468307 -0.5604761 0.5843758 0.03882446 0.08738203 
  -0.1291501 0.1012643 -0.1034892 0.06645956 -0.1509615 -0.05542481 -0.07985637 -0.04931248 0.0008215634 -0.02323889 -0.1312053 -0.01862544 0.04304713 -0.04601745 0.3401205 -0.3335931 -0.06706693 -0.06265082 -0.105993 0.1564272 0.1942431 -0.2753358 0.6774672 -0.4651337 -0.07732557 -0.009440263 -0.07201292 0.1655974 0.340494 -0.4857051 0.9155365 -1.000385 -0.01882505 0.1181277 0.02601921 0.006720536 0.4809057 -0.9772679 1.382771 -1.544248 -0.08247785 0.1379407 -0.09664796 -0.002639814 0.5659877 -1.175863 1.882294 -1.829834 -0.009917638 0.0325753 -0.1946986 0.02294786 0.7193637 -1.457258 2.276115 -2.105263 0.05740528 0.08186609 0.004554204 0.2337385 0.790651 -1.416423 2.830863 -2.02951 0.07030243 0.2611405 0.2021817 0.5731444 0.8916178 -2.359262 3.131593 -4.092772 
  -0.564344 1.032346 -0.9414972 2.617162 -6.590427 8.639659 -4.433877 1.242679 -0.3404986 0.794222 -0.8023666 2.306663 -4.619228 4.878319 -3.117839 0.7343115 -0.2005869 0.8567626 -0.8831322 1.665433 -3.427436 4.202394 -2.774223 0.7443925 -0.1657737 0.8047795 -0.8130338 1.528386 -2.538127 2.724426 -1.701931 0.2227861 -0.1888926 0.6988468 -0.7933446 1.270641 -1.813704 1.599532 -1.153489 -0.1516089 -0.3362827 0.7384994 -0.5091294 0.8667861 -1.172088 0.3616634 -0.0474231 -0.05728424 -0.2908035 0.4963574 -0.6749197 0.4143035 -0.2410683 0.4227462 0.1053175 -0.2184409 -0.406577 0.3434722 -0.2434879 0.2893949 -0.06958292 -0.5260729 0.3908856 0.3854979 -0.3406575 0.6674634 -0.1414374 0.1199684 0.08360362 -0.4632446 0.1906754 -0.5040119 
  0.1038433 0.2393952 0.6212227 -0.5924107 -0.992575 -1.314767 -0.7246612 -0.9469076 -0.04358865 -0.06518167 0.6049384 2.085613 0.6022924 0.7387137 0.09885623 0.06761416 0.005309491 -0.08787701 -0.1111253 0.2994677 2.076759 1.445776 0.6431076 0.4849014 0.0640261 -0.1344974 -0.1022303 -0.2987728 0.1268915 0.7082697 1.006317 0.8903866 -0.09720176 -0.1925002 -0.9375097 -0.8596246 -0.9895341 -0.5005839 -0.2760785 0.2867408 -0.09144674 -0.07879886 -0.9488584 -0.7752301 -0.9795134 -0.9811766 -0.8045012 -0.5298685 0.04993099 0.03562751 -0.2137851 -0.8878859 -0.6251237 -0.7392721 -0.6483866 -0.554047 0.01144662 0.1449595 0.5471211 0.1519359 -0.09398147 -0.3113815 0.1106818 -0.3802753 0.01026033 0.03400715 1.089055 1.594731 0.9742814 1.013618 0.4873165 0.459933 
  -1.547152 0.8377041 0.6487271 -0.005911683 -0.4652229 -0.01501059 0.155086 -0.387755 0.02923592 1.060407 0.01937089 -0.1243106 -0.540022 0.03140647 -0.3106709 -0.3344915 1.068211 0.7748714 -0.2488288 -0.2961202 -0.4297505 0.09510548 -0.262192 -0.1301 1.370523 0.3856956 -0.3359908 -0.5421354 -0.2484726 0.04593659 -0.3094092 -0.06679792 1.29025 0.1412128 -0.5164936 -0.6898153 -0.2386974 -0.1481398 -0.3109972 -0.1394764 1.260616 -0.2588531 -0.4308429 -0.6589946 0.01836821 0.08735792 -0.2350052 0.006831436 1.023649 -0.4162372 -0.410988 -0.5302806 0.2717593 0.2062819 -0.063932 0.2360158 0.6454712 -0.4097886 -0.3331379 -0.4419822 0.3764058 0.3166409 0.01955459 0.2802579 1.11019 -0.9016678 -0.8490525 -0.6250214 0.6042737 0.3391068 -0.1810534 0.131089 ]
<Bias> 
 [ -7.721681 -5.146975 -4.39938 -2.843619 -2.303792 -2.457342 -2.151548 -2.700736 -2.337081 -5.285273 -3.023061 -2.763413 -3.630222 -2.467456 -1.859177 -3.148614 -2.41997 -2.627258 -5.264685 -2.353671 -3.188984 -4.033483 -4.320922 -2.80805 -3.592792 -3.941484 -2.901101 0.3898611 -2.728783 -3.486511 -2.112686 -2.810958 ]
<!EndOfComponent> 
<MaxPoolingComponent> 352 1056 
<PoolSize> 3 <PoolStep> 3 <PoolStride> 32 <!EndOfComponent> 
<Rescale> 352 352 
<LearnRateCoef> 1  [ 0.4640737 0.2125618 0.1744325 0.1487986 0.2235646 0.2806521 0.1922191 0.3787621 0.2214672 0.3010711 0.3227664 0.2850227 0.1563104 0.171812 0.1881734 0.1625627 0.1492295 0.1684971 0.1919485 0.2305448 0.5336792 0.2411252 0.2874413 0.2655402 0.2960685 0.1192596 0.1605408 0.3227011 0.1283564 0.1520445 0.2147156 0.1948904 0.363753 0.2268583 0.2156873 0.2093795 0.2100362 0.2058478 0.2218848 0.2634725 0.1888213 0.2422884 0.2390086 0.3768404 0.167943 0.3090991 0.1896878 0.1414254 0.1302396 0.1973668 0.1952882 0.1532446 0.2335059 0.1843019 0.3167711 0.2686739 0.3012339 0.1545801 0.1439082 0.249026 0.1519303 0.1342502 0.1329031 0.1827039 0.23199 0.2864873 0.3360284 0.2408505 0.1840381 0.1662202 0.1797354 0.2076547 0.2069293 0.211849 0.2077965 0.2765491 0.2293746 0.1126599 0.2424959 0.1356841 0.1120001 0.2395367 0.1901557 0.1661035 0.2356261 0.1685562 0.2042061 0.3027983 0.3778895 0.1348681 0.1755792 0.2703657 0.1382911 0.1142712 0.1411731 0.1520755 0.1461604 0.2443198 0.197657 0.2545255 0.2359511 0.1272739 0.1694992 0.2203902 0.2222667 0.1961127 0.1736104 0.2062564 0.1776378 0.2174807 0.1523688 0.1340758 0.1381776 0.1777283 0.1560888 0.1271544 0.2084211 0.1694038 0.1282244 0.2291969 0.3223682 0.1709818 0.1920146 0.1962381 0.1160185 0.108953 0.1416966 0.1870072 0.1632448 0.1999348 0.202008 0.2415533 0.2622785 0.1391249 0.153155 0.1999609 0.2015265 0.1749979 0.1992912 0.2650906 0.1860913 0.2065138 0.1277467 0.1562284 0.170356 0.2138699 0.166832 0.1021088 0.1876298 0.1859351 0.1132138 0.1842306 0.2410627 0.1917728 0.3137763 0.1718709 0.08857781 0.100782 0.1425258 0.1973043 0.1278872 0.180773 0.195327 0.177567 0.2781225 0.2886882 0.1969316 0.1853794 0.2139047 0.1948795 0.1952976 0.2428369 0.151109 0.1373979 0.1845553 0.2069194 0.1887936 0.2229215 0.2195992 0.1284257 0.1977042 0.1952516 0.1107937 0.1629495 0.2159469 0.1703484 0.1860975 0.2235462 0.1304473 0.0925069 0.1805753 0.2379547 0.1581818 0.1951021 0.1946308 0.163923 0.2034571 0.2487432 0.227628 0.1077933 0.172708 0.1975753 0.1898582 0.1985502 0.1675152 0.1351786 0.281848 0.2279294 0.2269274 0.2804334 0.2229026 0.1246166 0.1757848 0.1926347 0.1028009 0.1809812 0.2379731 0.2186544 0.2061165 0.3472564 0.2930822 0.1056315 0.167717 0.2045146 0.1301437 0.2472388 0.2100051 0.1485907 0.1645385 0.1922482 0.3412012 0.1250822 0.2513447 0.2152364 0.2158468 0.2006672 0.156482 0.2153575 0.2143374 0.1702006 0.1453531 0.2285345 0.2424396 0.1522611 0.1894989 0.1934997 0.1179935 0.1882399 0.2171955 0.1819193 0.1281865 0.297805 0.1657478 0.2051575 0.2093158 0.2127124 0.1830899 0.1881498 0.1935466 0.1185403 0.1346368 0.1603331 0.262753 0.3243648 0.2928776 0.2569451 0.2253552 0.2130788 0.1149538 0.2415237 0.2170706 0.1625734 0.101499 0.1985593 0.3430782 0.2236491 0.1912621 0.2119588 0.1215828 0.143179 0.1932769 0.1754367 0.1143819 0.2818567 0.1943247 0.2143279 0.2492882 0.2672502 0.1325528 0.1503182 0.1539942 0.1306108 0.11209 0.1346216 0.2494591 0.4186615 0.3996373 0.1940441 0.1715139 0.2211611 0.1276121 0.2049281 0.2072099 0.1238236 0.1048576 0.1948286 0.2598407 0.2208812 0.2534115 0.207202 0.1171766 0.1432167 0.1730222 0.1490489 0.1532822 0.2138775 0.1813554 0.1611734 0.4302382 0.1937154 0.2794918 0.1530692 0.1058455 0.1029323 0.1583549 0.09327148 0.1889831 0.2605311 0.2807767 0.4125081 0.2638521 0.1600252 0.1519022 0.1000238 0.1061535 0.06117513 0.1012557 0.1687434 0.1530576 0.1204069 0.1850362 0.1862521 0.1518249 0.1672567 0.2030859 0.1081013 0.1398143 0.1966726 0.2019017 0.1346921 0.2762991 0.2045421 ]
<!EndOfComponent> 
<AddShift> 352 352 
<LearnRateCoef> 1  [ -0.6945284 -0.4353529 -0.239715 -0.9707571 -0.3138326 -0.8609496 0.05436881 0.5462539 -0.3012745 -0.3213896 -0.4898197 -0.581945 -1.263951 -0.6913312 -0.7770995 -0.5720214 -1.045777 -0.8999192 -0.8575794 -1.624337 1.453025 0.1827839 -0.9183954 -1.125492 -0.8423273 -0.3276839 -1.104311 -0.2083137 -0.3076382 -0.1147541 -0.6265498 -0.3910249 -1.852446 -0.4276598 -0.7202616 -0.416143 -0.9467255 -0.2331727 -0.1822041 -1.173082 -0.4341871 -0.660747 -0.0724784 -0.05355403 -0.5192288 -0.001448969 -0.2932118 -0.1678717 -0.0689263 -0.01344281 -0.09233698 -0.3792294 -0.005569323 -0.3265225 -0.4849456 -0.8022443 -0.4409911 -0.8507215 -1.239688 0.1231998 -0.3873366 -0.9199476 -0.6620581 -0.3347129 -1.569414 -1.657274 -0.7123828 -0.6243838 -0.1659338 -0.4652864 -0.5041434 -0.6241558 -0.4130047 -1.121388 -0.1553588 0.2636586 -1.643113 -0.3765414 -0.5905381 -0.6352937 -0.303159 -0.4184308 -0.4098094 -0.1370199 -0.3589187 -0.6461908 -0.9106919 -0.8104886 -0.4530337 -1.046403 -0.9262092 -0.4978623 -0.9905433 -0.8340067 -1.061785 -0.7161343 -0.4121903 -1.386285 -1.527582 -0.7799171 -0.5293462 -0.9930526 -0.7372725 -0.5467219 -0.4641065 -1.179748 -1.156669 -0.7050024 -1.39728 -0.3832275 -1.122897 -0.7915915 -0.1838674 -0.8168079 -0.9827374 -0.9802155 -0.4556165 -1.065461 -1.452408 -1.022263 -0.5867528 -0.9582387 -0.9571422 -2.483062 -1.266035 -1.450661 -0.7372774 -0.984764 -0.6466776 -1.412177 -1.790198 -0.9780909 -0.3669289 -0.7927393 -1.219415 -2.025369 -0.5944737 -1.208035 -1.138352 -1.243902 -1.019827 -0.6420841 -0.326022 -0.3089166 -0.02463489 -1.436629 -1.579803 -1.186114 -0.9351646 -1.617272 -1.748367 -1.277803 -0.8453468 -0.3724819 -0.6523927 -0.4371295 -2.127549 -0.9464277 -0.5934614 -1.383741 -1.478287 -1.223192 -1.43844 -0.5879468 -0.253751 0.9750566 -0.3155486 -0.5247952 -0.5976068 -1.025799 -0.5552096 -0.5596494 -1.067242 -0.704492 0.08120402 -1.058438 0.1443875 -0.0549752 -1.184739 -0.4891712 -0.3077641 -1.040699 -1.367558 -0.8907983 -0.6105227 -0.7925406 -0.2377689 0.02296022 -1.227498 -1.488813 -0.8224741 -0.8256477 -0.3736187 -0.9840792 -1.448035 -0.6747462 -0.4290249 0.0401755 -0.8311599 -3.101534 -0.3563984 -0.8793795 -0.6286875 -0.6222913 -0.9192691 -0.6729818 0.2156336 -1.171032 -0.2985197 -0.6391345 -0.7976248 -0.6509947 -0.1207004 -0.8557002 -1.244321 -0.6587902 -0.0464094 -0.9680131 -0.5430648 0.5891488 -0.5832124 -0.8207463 -1.122353 -0.09228174 -0.008369697 -1.087128 -1.232188 -1.026547 -0.5836855 -0.04646956 -0.2741949 -0.4651724 -0.1363664 -0.5943682 -0.9310087 -1.044097 -0.9462351 -0.5121557 -0.1999938 -0.4402234 -0.4787132 -0.6549659 -0.6907459 -0.3006358 0.0880267 -0.8109857 -1.368753 -0.957917 -0.6432219 -0.7141022 -1.0737 -3.281936 -1.670305 -0.4780392 -0.08479637 -0.7178887 -1.359701 -0.8200158 -0.958056 -0.9703504 -0.9513379 -0.1511645 -0.8957511 0.7553222 0.1074387 -0.4087977 -0.4881893 -0.429208 -0.6020933 -0.7496879 -0.5988232 -0.2578364 -0.347037 -0.4742108 -0.4535651 0.1935188 -0.2082707 -0.7573631 -1.084738 -1.209364 -0.9489789 -0.8696113 -1.18019 -0.5240497 -1.099424 -0.4160598 -1.655328 -0.4219979 -1.003972 -0.5839454 -0.9108226 -0.757556 -0.7730162 -0.04966233 -0.5940638 -1.640029 -0.09895758 -0.9001461 -0.3954953 -0.1466613 -0.18955 -0.3214411 -0.1132787 0.3155851 -0.5544687 -0.9469343 -0.2746171 0.1347072 -0.1415627 -1.179011 -1.895442 -1.461717 -1.449197 -1.568808 -1.585063 -0.9213663 -1.075062 -1.222868 -3.008376 -0.9120361 0.1611738 -0.6526656 -1.022342 -1.28433 -0.1941645 -0.9480785 -1.761243 0.2207521 -0.7502221 -0.6455059 -0.3202985 -0.9133903 -0.4309719 -0.6694657 -0.5048859 -0.796931 -0.3464798 -0.1788451 -0.5220022 -0.7676632 -0.7087818 -1.525306 -1.978058 -1.083738 -1.154479 -1.189571 -1.08435 -0.8792216 -0.8184496 -0.8831916 -0.6740208 -0.2641839 ]
<!EndOfComponent> 
<Sigmoid> 352 352 
<!EndOfComponent> 
<ConvolutionalComponent> 256 352 
<PatchDim> 4 <PatchStep> 1 <PatchStride> 11 
<LearnRateCoef> 1 <BiasLearnRateCoef> 1 <MaxNorm> 50 
<Filters> 
 [
  0.2083645 0.4198314 -0.5093843 -0.06352244 -0.3472658 0.659878 0.2715145 0.1065538 1.148689 -0.1615375 0.9468247 0.3798265 -0.7463874 -0.4102584 -0.6412113 -0.8675144 0.1326969 -0.4228438 -0.8743469 -0.03326473 -0.3038118 -0.3913694 -0.2796942 -1.116261 -0.6705014 0.2961221 1.159088 -0.321467 0.3725677 0.04312064 0.2559185 0.808355 -0.1322902 -2.011131 -0.5282149 0.1267778 0.2758666 -0.9213555 0.4271138 1.372444 -0.01125045 0.02446536 0.7879704 1.059626 -1.282831 -0.1010877 -0.1838968 0.4458943 -1.426761 -0.01857622 -0.3695918 1.214396 -0.2889435 1.148053 -0.2477572 -0.09279197 0.3242316 0.2129296 0.5505124 0.1365961 -0.3236044 -0.2028834 -0.6085036 0.4808208 -0.1020659 -1.034014 -0.357282 -0.2313578 -0.4991423 0.04244621 -0.6847461 -0.5753419 -0.1655331 -0.5898533 -0.4081042 0.05221025 -0.3012959 -0.3961627 0.125723 0.4461607 -0.002482351 0.0074518 -0.5854208 -0.06262083 0.1028789 -0.5300257 0.450401 0.07276528 0.279158 -0.1688353 0.5757795 -0.6769105 0.4557164 -0.9751695 0.1884489 -0.3568535 -0.08269107 0.2605295 0.06623741 0.1603571 0.006716461 0.05698818 -0.02484308 -0.3075092 -0.5685976 0.4525887 -0.3789782 0.0285369 0.004961791 0.5582066 -0.265596 -0.03928753 -0.1407381 0.05768469 -0.06434987 0.3464797 0.1863292 -0.3850065 -0.04452132 -0.19879 0.01892448 0.1318575 -0.6296094 0.2930223 0.4431815 0.09781916 -0.1885577 -0.05144392 
  -0.2255581 0.4886903 0.2910807 0.1580336 0.5628979 -0.04636225 -0.6306782 -0.01139089 -0.3335482 0.07207974 1.130187 -0.3095338 -0.04151536 0.3829513 -0.3045056 0.1741277 0.02777968 0.8204745 0.2292285 0.07897261 -0.5030786 -0.7073849 0.4607696 -0.1478987 -0.2274252 -0.8085772 0.1662734 -1.462725 0.7665922 -0.6468549 -0.2731597 -0.7299931 -0.391095 -1.360591 -0.737439 -0.1314148 -0.7590384 -0.893585 -2.395591 -0.1210488 -0.5212527 -0.7224271 -0.7063295 -0.2114609 -0.2315725 -0.3985009 0.54059 1.079351 -0.05732625 -1.294253 0.1233567 -0.6297344 -0.3797507 0.04958487 0.2180947 -1.177081 0.270285 0.8556845 0.3485313 -0.4573136 0.5202217 -0.01349959 0.5856822 -0.9295709 0.07452317 -0.172143 -0.5438973 -0.4174651 0.2101298 -0.3283701 0.3078641 -0.04310481 -1.110885 -0.149782 0.3538136 0.5744554 1.097411 0.04546044 0.3880731 0.4578452 -0.3694569 0.1484447 -0.09691349 -0.697575 -0.2398037 -0.4924218 0.2258236 -1.417492 0.1700717 -0.1322117 0.4863917 -0.1156348 -0.05166005 0.06052974 -0.520628 0.4635214 -0.2081158 0.06143839 -0.5868651 -0.1909379 0.6237843 -0.2036101 -0.322838 0.2318373 0.5338902 -0.7550182 0.1726859 0.460741 -0.2559477 -0.6650187 -0.5680676 0.4794382 -0.4418813 -0.3276338 0.3691725 0.1967573 0.1296082 0.5774388 -0.2072439 0.4115033 -1.8148 0.131102 1.006147 -0.1505418 -0.3773784 0.7711315 -0.2336884 0.4379331 
  0.2634109 0.2197293 0.3601809 -0.2330853 -1.220908 0.8905125 0.1308892 0.01446216 1.270488 0.1741565 -0.1029941 0.4123368 -0.2738536 0.2463994 -1.04092 0.007339565 0.2121133 -0.2491955 0.3878858 0.3168385 -0.5989388 0.425566 -0.6409255 0.5040729 0.4504491 -0.5957888 -0.1200098 -0.8371412 -0.1041704 0.2123869 0.7162662 0.4083942 0.7474375 -0.4217864 -0.08323269 -0.1672318 -1.242295 -1.272846 -0.5235967 -0.6157925 -0.1607713 0.5689983 0.223083 -0.7587537 -0.07661522 -0.1465598 -0.721403 0.00450315 0.07120802 -0.1883454 -0.3578382 -0.9311978 -0.005074251 -0.1170831 1.967594 -0.1911366 0.6279546 -0.8327365 -0.3574447 0.2266463 0.430272 1.013321 0.9664785 0.3744721 0.5363869 -0.07214112 -0.4864176 -0.3607763 -1.475806 -0.5058147 0.2271913 0.3635631 -1.063288 -0.197816 0.07357675 -0.3132273 -1.246363 -0.8814858 -0.3593634 -0.3266128 -0.3586176 0.0008084028 -0.2858939 -0.429602 0.5592036 0.8664342 -0.3478358 -0.4139405 -0.4995902 -0.0714299 0.4149823 -0.7602772 0.444041 -0.1720008 0.08596752 0.4922143 -0.03366011 -1.05179 0.6716568 0.2909366 0.2108172 -0.26817 -0.2408872 0.004236779 -0.3149172 0.7519655 0.0006331255 -0.1407769 -0.1273628 -0.1256885 0.7554048 -0.4741343 0.06111804 0.2909532 0.3194659 0.4777812 1.361892 1.051569 0.005416472 0.2181191 -0.01825618 1.155221 -0.4914694 0.4007318 -0.6349595 0.03290879 0.9626938 -0.1268624 
  -0.01993996 -0.458344 0.4769605 -1.495308 -1.012623 -0.9654449 -0.2021071 0.9266421 -1.633104 -0.199999 -0.33867 -0.814532 -0.4175833 0.4609887 -1.211423 -0.9399375 -0.1594935 -0.7018943 0.8248356 -0.0939714 -0.1662773 -0.6650694 0.3372194 -0.3733792 0.08506109 -0.9820842 -1.335641 -0.5480082 0.2231949 0.3511042 0.4904086 0.2320921 -0.04912038 0.8546696 0.3286152 -0.6412202 -0.6974758 -1.732439 -0.2853101 0.1899262 0.3989166 -0.04814668 -0.07291751 0.1036576 0.3731854 0.1212906 -1.045079 -0.5090146 0.1117456 -0.01268659 0.8289782 -0.2770803 -0.3203346 0.4236854 0.09983516 0.03383331 0.3175243 -0.9571427 -0.7078599 -0.6263832 -0.3430171 -0.3416743 0.06496447 -0.01512087 0.7065821 0.1444733 -0.09124218 -0.07566651 0.5638767 0.1729119 -0.9422802 -0.07411743 0.06838089 -0.2362549 0.1801473 -0.1796381 0.1479128 -0.1499317 0.2294848 0.2974627 -0.1099358 -0.5882326 0.4410314 -0.1973904 0.1763154 -0.3066528 -0.4150981 -0.1969221 0.6879689 0.3205154 0.07912387 0.4156989 -0.5639058 0.002954823 -0.1871664 -0.3953731 -0.5438902 -0.02278688 -0.5394775 -0.7447931 -0.1375054 -0.1885624 -0.01427181 0.2365853 0.1849436 -0.2584225 -1.113582 -1.002358 0.4199543 0.003628866 -0.4334651 0.2798187 0.03662675 -0.3287516 0.7211792 -0.3640999 -0.1604144 -0.8098494 -1.739385 -0.3780864 -0.5628788 0.172514 -0.2107479 -0.1209044 0.02082066 -0.09643214 0.2813075 -0.5677301 
  0.5874028 -0.07330986 -0.5094331 0.03000114 -0.2936471 -0.2067334 0.2837503 0.1227044 -0.5787583 -0.4372118 -0.5331135 -0.434052 -0.07780576 -1.04996 -0.1167786 -0.2583079 0.1778893 -0.5163407 -0.3044137 0.8265264 -0.2462782 -0.05498984 -0.02440346 1.136461 -0.6852139 -0.5823377 2.560202 -0.2466711 0.3519738 -0.2090611 0.18756 -1.667464 0.2495749 0.04399548 0.3539696 -1.010733 -1.039783 0.05581711 -1.361348 0.4080844 -0.1287178 -0.04678556 -0.9050367 0.8704199 0.4374017 0.3482893 -0.03489288 0.2181635 0.119028 -0.1176258 -0.3246562 -0.6683037 -0.2232623 -0.6829876 -0.4508595 0.1044118 -0.5402545 0.2069177 -1.031872 0.09716807 0.3528736 0.01534218 -0.1447185 0.3083428 -0.4316172 -0.4279584 0.3976868 0.1460629 -0.479391 -0.4360487 -0.3412568 -0.2734722 -0.5559857 0.20417 0.006739384 -0.04890537 0.8975378 0.05154642 0.03689825 -0.3733951 0.6019052 -0.07201788 0.06443595 -0.1377864 -0.2769391 0.4085195 0.9699171 -0.03183572 0.7341528 0.4015409 -0.3375767 0.8705904 -0.2286954 0.07227487 0.4273235 -0.3751203 0.2100378 0.128152 0.1955764 0.1386591 0.4750925 -0.2164404 0.1922211 0.01367055 0.1185481 0.7646139 -0.3448748 -0.03235479 0.2962717 0.1945208 0.1298001 0.08250047 -0.7545294 0.2661193 0.2642556 0.06377868 1.478264 -0.7711633 0.2315117 -0.9017921 0.8280578 0.2398203 -0.1695149 0.1539197 1.010807 0.1250293 0.3059658 -0.2018318 
  -0.3365766 0.2797599 0.05988949 -0.2863708 0.3675921 0.1937644 0.2879738 0.2928074 -0.402305 0.1350441 0.3052708 0.7494054 0.2208415 0.1561719 0.2772439 -0.7670902 -0.1527069 0.1100793 0.5037715 0.4582899 0.9833645 0.08911175 0.6443872 -0.07230172 0.1745993 0.08129699 -1.068242 -0.6990663 -0.07606259 0.5158908 -0.04720025 -0.1041028 0.4380153 0.7567283 0.3915948 -0.7398219 0.368267 -0.05024697 -0.2113836 0.02624203 0.6636861 -0.04479213 0.1090143 1.641849 0.2662067 -0.4288366 -1.023721 -0.166664 -0.2502343 -0.5579389 1.773627 -0.1294494 -0.2525541 0.04393375 0.3654391 -0.5489393 -1.101331 -1.165672 -0.301752 -0.02342355 -0.9614027 -0.1596983 -0.5638653 -0.160328 -1.164903 -1.345628 -0.01007669 -0.5438924 -0.7087935 -0.0931282 0.1740586 -0.6680089 -1.529066 -0.5611981 0.2467523 -0.2498519 0.5774943 0.5964667 0.05684753 0.1678618 0.1437227 0.345078 -0.2837923 0.4662014 -0.6431661 0.1001561 0.07784723 -0.1339059 -0.7149813 -0.4837357 0.1639725 -0.04130002 0.1626667 -0.7395787 0.3925277 -0.1347126 0.1423365 -0.8539471 0.04007873 0.9432042 0.4253384 -0.1436579 0.3575033 -0.01911698 -0.1115809 0.6020951 0.5068755 0.2115563 0.2742193 -0.5299334 0.5063033 -0.2681092 -0.07970961 0.2076494 -0.3524567 0.1261108 0.03654271 0.9014916 0.1867221 0.7341305 -0.2053723 1.090698 0.4776528 -0.48196 -0.02119847 -0.4669545 0.008595629 0.05633248 
  0.3413644 -0.9747778 0.2580644 0.570257 -0.2604725 0.8085841 -0.4764851 0.659604 0.3254444 -0.4760956 1.134041 1.350346 -0.2904025 0.2427914 0.3910646 -0.7792127 -0.204225 0.6270202 -0.2803493 -0.5712472 0.1825299 -0.480547 0.5320984 -1.246923 0.4540031 0.2109811 0.512633 0.1637114 0.8655964 -0.05713401 -0.3191753 0.5035155 -0.07795566 -0.2432336 0.1244927 -0.5296055 -0.2695743 -0.6449778 0.790215 0.248859 -0.1880065 0.1897192 0.6491233 0.58463 -0.3647842 -0.3315795 -0.1941374 -0.4521601 0.181607 0.5196524 -0.0723869 0.2881974 -0.4382494 -0.7955487 -0.9555649 -0.7345467 -1.391594 -0.1710034 -0.7867476 -0.3061914 -1.072639 1.404624 -0.153117 -0.8479582 0.3664191 0.3158958 0.6242725 1.054345 0.04124032 -0.3534136 0.841787 0.5481803 0.1277741 0.5914107 0.4482238 0.05628957 -1.16359 0.3204028 0.8770638 -0.02469611 -0.7898769 0.2321908 -0.6277248 -0.5508351 -0.2808065 -0.153803 -0.01657264 -0.4309797 0.6057945 0.03438661 -0.6814076 0.3100727 -0.1815219 0.1662644 -0.6802872 -1.016257 -0.2780122 -0.04520322 -0.3200577 -0.8724214 0.1425339 -1.07199 -0.3703583 -0.6356329 -0.3580907 -0.2253402 -0.2594284 0.4181321 -0.7740465 0.1249109 -0.2441815 0.1573991 -0.3085357 0.01966369 -0.221379 0.6397607 1.157038 -0.353569 1.017541 0.06065249 0.6535116 1.111201 0.08787594 0.7589591 1.283411 0.08869407 1.816342 0.3164784 
  -0.6096539 0.5548681 -0.2647695 -0.459054 0.3513711 -0.1709231 -0.1419159 0.615418 -0.5970314 -0.2169541 0.5664055 -0.3121322 0.5282516 -0.2370814 0.9175186 0.2206563 0.605938 0.08571812 0.1810471 0.4541769 -0.1878931 0.5567148 0.4018181 -1.2487 -0.46124 0.8294057 -0.2071606 0.05100503 -0.3730036 -0.9126837 0.2551131 -0.3964505 0.2224414 0.2608272 -1.546897 0.04958907 -0.782383 -1.492626 -0.8361667 -0.1695239 -0.587803 0.4173265 -1.575844 -1.573921 -0.2571269 -1.783869 -0.9652525 0.5194763 -1.02631 -0.1892476 0.4452752 -0.8451191 0.6671991 -0.5525413 1.441638 0.2075445 -0.4492276 -0.8802956 0.8992302 -0.03230092 0.3879137 -0.8466895 0.5649806 0.1355853 0.385246 -0.05124622 -0.5806605 -0.3300421 -0.1426594 -0.4669463 0.05981855 -0.0855527 0.5208976 0.3935651 0.7600141 -0.6037736 0.374143 -0.1792563 0.06449166 0.4913119 0.04951953 0.5296047 -0.08031023 0.2581881 0.04145095 -0.08654945 -0.2003632 0.3183351 -0.08947118 -0.1070371 0.03339749 0.1730187 0.139586 -0.3132255 0.0861173 -0.5270683 0.2693574 -0.3067487 0.3911316 -0.2719902 -0.3249728 0.00880378 -0.2201388 -0.5120043 -0.08156277 0.3025643 -0.07137269 0.07451202 -0.04399158 0.952287 -0.3588872 -0.380076 0.3084024 -0.350915 -0.7187209 0.1242314 0.2031121 -0.5975083 0.5016283 0.1886314 1.58449 0.1396603 -0.3101629 0.2199934 0.5496482 -0.3202632 0.06524131 0.2054408 
  0.7086778 0.04066033 0.3771862 0.09309714 -1.679788 0.1159562 0.6930271 -0.07934618 1.053995 -0.44451 -0.008098115 0.1899738 0.3278572 0.4734697 0.3218148 -0.1134062 -0.7465362 -0.1701312 0.4668981 -0.2826987 -0.004368846 -0.1005661 -0.1189427 -0.6539394 0.04091357 -0.02678503 0.9924154 -0.9336723 0.6059487 -0.08252038 -0.1422625 -0.8013417 -0.233148 -0.3566122 -0.3350582 -0.7035742 -0.009693104 0.05541496 1.275088 0.1652059 -0.1189918 -0.9446329 -0.3653184 0.09420846 0.0036783 -0.7821885 0.3372318 -0.0929419 -0.01313485 0.941047 0.7072344 -0.616681 0.5993102 0.6842408 -0.4919781 -0.1396168 -0.3484665 -0.5054316 -0.5386363 -0.5139217 0.8729849 -0.527184 -0.5960259 0.3857408 -0.1017377 0.9105023 -0.4353828 0.3158438 0.1675305 -0.3439053 0.324375 0.226605 0.7454627 -0.003519913 -0.5539646 -0.6618142 -0.03058064 -0.7470943 0.1928738 -0.702966 -0.1774222 1.32512 0.333815 0.6232822 -0.6405838 -0.3284451 -0.3534234 -0.1798009 -0.1892909 0.3691425 -0.5830573 0.05526274 1.568514 -0.3126443 0.4268794 -0.2943218 -0.4353276 -0.5798019 -0.7665449 -0.2744747 0.02491773 -0.2320377 -0.4659525 0.4020535 -0.09874967 0.1001992 0.4817098 0.0581749 0.1007625 -0.4015422 -0.2737328 -0.4190942 -0.2787695 -0.6051444 0.2379357 0.1088591 0.02862228 0.4766602 0.00435074 -0.06268475 -0.3382285 -2.046585 0.2648157 0.2494157 -0.5494604 1.39397 -0.4573142 -0.6188004 
  -1.362329 -3.223714 -0.7342502 -0.5815325 -1.413388 -0.01963775 -0.5267278 -3.031804 -0.02342881 1.203796 -0.5513053 -0.8393278 -1.018962 1.491436 0.5189851 -0.4562424 1.050589 -0.1131988 -0.9579177 0.8112195 0.1430967 -0.3018852 -0.2393358 -0.3217821 0.5975825 -0.2224178 -0.4744797 0.3649804 0.01355739 -0.08757004 0.1220671 0.2111801 0.02891593 0.9726002 0.02637358 -0.942595 -0.2947135 0.230229 -1.067039 0.7644209 0.01106135 -0.08043468 -0.6142398 0.2230934 0.7406181 0.09261461 -0.7364917 0.9350739 0.3182563 0.2265071 -0.1168077 0.1446979 -0.001071287 -0.5150542 0.4800047 -0.2989967 -0.158314 0.06080108 -0.1870428 -0.08844524 0.1186984 0.0249858 -0.08005394 0.2921203 -0.00371696 0.3010979 -0.2857217 0.1891948 0.4633884 -0.5071989 -0.1994265 -0.4719839 -1.036878 0.1681378 -0.5808604 0.03841966 -0.2114366 -0.173921 0.04791254 -0.2323379 0.2031434 -0.0900652 -0.3053125 0.4018696 0.1234853 -0.3440074 0.1423211 0.2653434 0.2230702 0.002215725 -0.3029254 -0.2972852 0.3556956 -0.08133398 0.09475373 0.08099268 0.2414984 0.5700833 0.2147147 0.2599278 0.2803439 0.1673588 -0.4528506 -0.1937449 0.1743485 0.1125108 0.2303484 -0.2866432 0.04029636 -0.008833698 0.008555837 0.5027382 -0.089124 -0.07059453 -0.2366849 0.2217946 -0.02350248 0.2122363 0.3832781 0.4127632 -0.3607194 -0.3067573 -0.3668827 0.01369801 0.5529051 0.7296464 0.219637 0.4436511 
  -0.4831597 0.4524681 0.5463496 0.09742428 -0.4654475 0.2307767 -0.05484379 0.09930745 1.038249 0.02215287 -0.4128342 -0.06467069 -0.191236 0.402858 0.2956917 0.01284635 -0.09451696 0.07934429 0.2422926 0.3366301 1.041302 -0.5289555 0.2889894 -0.2105213 -0.1742093 -0.5650705 -0.9738842 -0.4737087 0.02015304 0.2079513 -0.2529821 -0.4152828 -0.9554685 -0.2952778 -1.258987 -0.1549306 -1.321242 -0.2073817 -1.982355 1.251572 -0.4306623 -0.210705 0.2740137 0.2977814 -1.434998 0.2832019 -0.9282704 -0.7540899 -2.778467 -0.6773795 -2.187386 -0.5987352 -0.9396184 -0.5070307 -1.94266 -0.1716435 0.03451645 0.661878 -0.7528206 -0.5293397 0.02234315 -0.7224241 0.2756249 -0.8016092 -0.2287607 -0.4489558 0.925593 0.5471671 0.163655 -0.3733445 0.05809682 0.2455316 0.1201883 -0.1795951 0.7948487 0.1709523 -0.3037571 -0.08052463 -0.1575951 -0.3464276 0.1172561 0.1788009 -0.1515816 0.2770318 0.1097246 0.4332701 0.5466903 0.4876291 -0.1176974 0.01398734 0.02763797 -0.04029348 0.4001698 0.3837184 -0.1978852 -0.1927701 0.7711012 -0.26112 -0.1113673 0.3953259 -0.1583889 0.7858579 -0.09266648 -0.2629363 0.3351891 0.1008507 0.21438 -0.5365024 0.1878621 0.1313643 0.4474821 -0.3444207 0.4522964 -0.03931523 -0.420893 -0.1178742 -0.4024685 0.3798154 -0.2142691 -0.06449979 0.3158391 -0.2125374 -0.6176912 -0.2840322 -0.1749126 -0.2208109 -0.1301328 -0.2768927 
  0.3175566 -0.2528684 -0.4613949 0.3185816 0.2910899 0.07913819 0.2021693 0.2421695 0.3535286 -0.4009345 0.2537522 0.3803202 -0.4457792 -0.2429325 -0.1750898 -0.6793293 0.4457189 0.01872902 -0.7522814 -0.1510625 -0.3277032 -0.933619 -0.3885905 -0.5413344 -0.05173829 -0.08455501 -0.4185861 0.2793646 0.1170308 0.04589888 0.4671872 0.0641681 0.5740756 0.8195069 -0.2125981 1.68655 0.279395 -0.4095213 -0.6050256 0.5595427 -0.4912912 1.106378 0.04971439 -0.8397253 1.076697 -0.1004664 0.8936641 -0.1054324 -0.5756405 -0.9983811 -0.8589289 -1.618354 -0.03507728 0.8121347 -0.7539608 -0.5936982 -0.1446447 -1.106955 0.06030561 -0.001557419 -0.2696519 -0.780718 -2.440785 -0.1866229 -0.4056901 -0.483163 -0.105157 0.3715917 -1.55804 -0.4359578 -0.7790569 0.5053221 -0.507722 -0.00621149 -0.5944833 -0.3562628 -0.5400703 0.2945609 -0.1621904 -1.065718 -0.1756136 -0.4170953 0.6278328 -0.03949615 1.047981 0.1856835 -0.7780918 -1.24594 0.02993112 0.2544325 -1.574873 -0.551937 -0.5359967 0.1500801 -0.124156 -0.2556988 0.01485971 -0.5030056 -0.648178 0.03440402 0.3441177 -1.043744 -0.2001925 0.1448997 0.0157268 -0.08354419 0.0819386 -0.3005758 0.5264672 -1.098708 0.2386147 -0.05363936 -0.319262 -0.06815862 0.04431875 -0.3768229 -0.6893752 0.7852536 0.2897539 -0.3095508 0.565934 -0.2216503 0.4670348 0.1792182 -0.09735923 -0.2265837 -0.04629762 0.5697786 
  0.1704526 0.5118819 0.3636879 -0.7292815 -1.306065 0.2054356 -0.170252 -0.5761096 -0.8689494 -0.3984497 -0.7381768 1.010618 0.2635226 -0.08022444 0.6267117 -0.5316721 -1.495525 0.5789012 0.1549215 0.3010412 -0.1950653 -0.1734692 0.04335118 -0.4451969 0.1592395 -0.0407801 1.036311 0.04597485 0.01221064 -0.2666142 -0.05539837 -0.1251924 0.2909385 -0.7477822 -0.4888515 0.2930355 -0.1105769 -0.1163547 0.2794073 0.5995648 0.2070789 -0.2224704 -0.08010142 -0.3229103 0.08543945 -0.6222762 -0.03522308 -0.4655386 0.5864468 -0.7149701 -0.1819564 -0.0828121 -0.1274095 -0.7314981 -0.3685426 0.006304061 -0.02134284 -0.7972354 0.08618057 -0.867832 0.316135 0.1897266 0.1894334 -0.8405492 0.09519281 0.1593753 -0.09142932 0.3068952 -0.512741 0.6806172 -1.06455 -0.3192686 -0.5586487 -0.1227542 0.1519383 -0.5126587 -0.1129997 -0.3223444 0.05764049 0.142688 0.2458791 -1.476928 -0.4930493 -0.3465835 -0.3189529 -0.8781072 -0.565657 0.4427829 0.2235872 -0.05832621 -0.6756899 -0.8426558 -0.9244773 -0.372909 -0.6694131 0.3689457 -0.3282133 0.08267282 -0.58349 1.159117 -0.483346 -0.1892803 -0.161851 -0.7722625 0.5367251 0.07553383 0.2242223 0.6166294 -0.2407684 0.5479012 0.429001 -0.1217223 0.1961596 -0.1204184 -0.3761533 -0.1653675 -0.1192206 0.849901 1.469155 -0.3433884 -0.716445 0.4854361 -0.4631714 0.3061949 -0.5807086 -0.8649904 -0.008006076 0.1471787 
  -0.08485304 -0.05600988 -0.2284223 0.4180375 0.7191721 0.4823782 -0.2241722 0.5755354 0.01486324 0.08344086 0.3088744 -0.4731587 0.1210241 -0.2018793 -0.03017798 0.1460067 -0.310857 -0.1218288 0.4698954 0.3675407 0.1689087 -0.3282823 -0.1619034 0.6996161 -0.1196217 -0.1484862 0.2128433 -0.09361488 -0.5967119 0.9104797 -0.1270775 -0.5243267 0.2469414 -0.03199665 0.0946096 0.09300706 0.04330464 0.3579578 0.5183464 -0.05374702 1.051601 -0.08446701 0.3590006 0.2435023 -0.4235294 -0.03445532 0.2173627 0.3410144 -0.7946526 0.3929146 -0.2000564 -0.001476398 0.1438728 0.2591268 -1.184333 -0.1485265 -0.2513037 -0.706751 0.6758106 0.9512919 0.5109605 0.04079518 -0.4197665 -0.1215614 0.3258558 -0.2628067 -1.198656 -0.02415495 -0.4168732 0.2342234 0.4742142 -0.577549 -0.5074714 0.6117841 0.2447886 -0.3661257 0.4163436 -0.8662047 -0.2903953 0.1983327 0.1827681 0.893276 -0.2059565 -0.5008766 0.1304645 0.3173409 0.2354896 0.08110052 -0.3798554 -0.1815 -0.3840515 -0.3020101 0.3668112 -0.6284578 -0.6505067 0.8633878 0.8358404 -0.09405273 -0.2771259 -0.5440779 -0.5984783 -0.7637866 -0.619835 -1.190094 -0.2640813 -0.01425182 0.3418204 -1.303864 -0.677192 -0.1911435 -0.2883895 -0.2355349 -0.1127124 -0.4018831 -1.126586 0.2728801 0.353473 1.103361 -1.504622 -0.1465478 -0.1057766 -0.6088779 -0.7895062 -0.9812238 -0.1744085 -1.002688 0.2802417 0.4761398 
  0.9720815 -0.3851621 -0.2987554 0.2959721 -0.9145913 0.05717626 0.3874282 0.4144544 -0.4249021 -0.02469884 -0.1507023 -0.1725281 1.098245 0.3321385 -0.02465486 -0.5693629 0.9402091 0.0212814 -0.1278151 0.5168052 -0.00984174 -0.6989586 -0.3694636 -0.1396707 0.1519521 0.6553708 0.8267031 0.6337875 0.1626376 -0.0003150858 0.7207141 0.4778151 -0.6999496 0.4733486 -0.1614319 -1.272052 0.4973266 0.6255879 0.4611045 -1.400919 -1.443951 -0.08498399 -0.26528 -0.2448062 0.1860739 -0.4146387 -0.5488157 0.4848994 -0.7445276 0.1092795 -0.8318827 -0.5391605 0.6754887 1.010376 -0.02753863 -1.044904 -0.3582137 -0.05742006 -0.6192926 -0.8062763 0.3106067 0.7785739 -0.04404889 0.2234166 0.4013342 -0.3305079 1.122282 -0.297468 -0.6631641 -0.5499696 -0.3538182 -0.4192141 0.06654635 -1.491305 1.155136 0.6582841 0.8471912 -0.2129695 0.5717348 0.6590427 -0.08649198 -0.802744 0.2413979 -0.2099329 1.977378 -0.2605425 0.5022265 -0.6619676 -0.8236403 -0.5577601 -1.182578 -0.4301678 -0.4556353 -0.7594159 -0.8643358 -0.3321823 0.3945963 -0.3412915 -0.04824118 0.4259231 -0.3798852 0.6962237 0.09774055 -0.02424054 1.047189 0.2440234 0.2054463 -0.4842577 -0.5305114 -0.4231833 0.686395 -0.6084243 0.5256986 -0.02155719 -0.04616303 0.560458 -0.8652949 0.7639356 -1.150549 0.4968037 -0.4713451 0.2614723 -0.5244853 0.1402517 -0.5728125 0.01665074 0.5168845 -0.6920411 
  -0.623535 0.1688798 -0.1838026 -0.2265776 0.7490407 -0.2585801 -0.06998368 -0.03085597 -0.06176382 -0.2715665 -0.2819846 -0.02841481 -0.2196037 0.003074613 -0.3250579 -0.2903659 0.1036495 0.06045412 0.5351024 -0.1117235 -0.04646461 0.1504284 0.08293605 0.0960756 0.1712608 0.04343394 -0.05035917 -0.003369508 0.006162454 -0.323314 0.08972894 -0.2571088 -0.2614853 0.08374897 0.330996 -0.7426534 0.2249772 -0.2197897 -0.2803746 -0.02501119 0.004577379 0.1388554 0.3182485 0.03620474 -0.06813467 1.031334 -0.4816561 0.1430328 -0.59873 0.3846918 0.1940057 -0.4054988 0.08533461 0.08734242 0.3020201 -1.018762 0.3938596 -0.3919927 0.127347 -0.1649326 0.4123717 0.8504282 -1.040496 -1.388601 -0.1881084 0.04292308 -1.351468 0.1378855 -0.1128433 -0.201044 -0.6732476 0.2175969 0.2365264 -0.2896258 -2.049303 -0.2891709 0.1111118 -2.198997 -0.5471402 0.02535852 -0.8696866 -0.9268976 -0.7721886 -0.3282933 -0.2620084 -2.488298 0.1445037 -0.1367906 -2.574565 -1.090188 -0.2485833 0.1557627 -0.5447376 -0.4043334 -1.154918 -1.978401 -1.682187 0.01719369 0.2126705 -0.1559794 -1.210268 0.02372915 -0.2435885 -0.6603492 -0.1733944 -0.6721776 -1.036768 -0.6199195 -0.6655322 0.3899665 -0.8070436 -0.7500066 -0.1435591 0.1039863 -0.2487615 -0.2849579 -0.07779778 -1.144148 -0.1002402 -0.5118296 0.922756 -0.5160397 0.03202279 0.4185449 0.9089779 -0.5631964 -0.2651243 0.6054038 
  0.433122 0.6420029 -1.104042 -0.552864 0.183734 0.007770168 0.07542171 0.1528648 -0.2071268 -0.1097163 0.7260346 -0.8128675 0.1003233 0.1845061 0.4437574 1.170215 0.0578858 0.380627 0.3487658 0.03709294 0.007656155 -0.1856338 0.08932186 -0.6652007 -0.3490345 -0.07963304 1.271989 -0.2696072 -0.1744777 0.08963343 -0.1332197 0.07268414 -0.7743379 -0.4151239 -0.2593385 -0.1292114 -0.05797308 -0.6079209 -0.551047 -0.2129264 0.2427369 -0.06701531 0.3078684 0.9279747 -0.8899373 -0.4008994 -0.6345884 -0.2933568 2.69861 -0.5975453 -0.729162 -0.5655832 -0.5334291 -0.3143954 -0.07766145 0.08580279 -0.1815842 0.1158828 -0.4624399 -1.509747 -1.325648 0.6781917 -0.9948224 -0.1422788 -0.9919664 -0.4387577 -0.4207394 -1.29729 -0.1357269 -0.7911124 -0.6278484 0.08509869 -1.662136 -0.2531298 0.8916441 -0.2839438 -0.7420362 -0.4318249 -1.137631 -0.6982601 -0.2725469 -0.0977974 -0.5468871 -0.2925276 0.434155 -0.3827045 -1.049531 -0.2339126 0.5475598 -1.258366 0.09784494 0.2917348 -0.005440728 -0.002152794 0.09040791 0.3723327 0.3948227 0.4137367 -0.1569834 -1.18953 -0.3957762 0.7702014 -0.02635806 0.5448146 0.3598794 0.1618892 0.3523358 -0.7479393 -0.1025301 -0.3160447 0.5659457 -0.06583427 0.1604151 -0.4883961 0.04896831 0.03801069 -0.1563003 0.2876354 0.6013637 -0.3299206 0.1217142 -0.885251 0.5105371 -0.2848406 0.1643907 -0.1930858 -0.403704 -0.2537047 
  0.3644405 -0.0006691649 0.3408481 0.01432241 -0.2477897 0.08438168 0.295485 -0.05837877 -0.1609371 0.6819971 -0.1484507 0.5739356 0.1204626 -0.3406067 0.3126675 -0.05070074 0.154817 -0.07478242 0.3795041 -0.005570074 -0.550858 0.7455406 -0.6633636 0.09819606 0.1672102 0.1883585 0.3063891 -0.1638876 -0.03049054 -0.1368695 -0.1133936 0.3083111 1.123209 -0.8165442 0.2431186 -0.8760847 0.07790091 0.515692 -0.2376316 0.306637 -0.1351681 -0.4607138 -0.2604848 -4.891391 -1.050215 -1.201233 -1.068634 -0.2023773 -0.1632636 -0.7110401 0.8196579 -0.7883539 -1.384395 -0.08991119 -8.22308 -0.8368522 -0.7981178 -0.6286846 -0.4221242 -0.4825504 -0.9254277 -0.03119989 0.1926871 -0.1851791 0.01962341 -2.852597 -0.713526 -0.4063869 0.4539616 -0.4125486 -0.06092828 -0.4075618 -0.2689677 -0.1249033 -0.5824618 -0.1102121 0.1887477 -0.02179399 -0.1784962 0.1899285 -0.3897404 -0.0653114 0.2848811 -0.2010811 0.3585863 0.3922161 -0.1424704 0.1018899 0.04708303 0.4606559 -0.1376051 -0.02115816 0.5672687 0.1709178 0.2524096 -0.2415455 -0.1543148 -0.3563232 0.11848 -0.4961714 0.5449496 -0.05221553 -0.3088619 -0.04173913 -0.03509139 -0.02057955 -0.1092375 0.3802807 0.00611621 0.348554 -0.03073809 -0.3758392 -0.3965326 0.3046631 0.07809036 0.5471155 0.1152188 -0.05236323 0.190894 0.146768 0.03267024 0.08583448 0.1512633 0.2788657 0.2106308 -0.09939478 -0.2086616 0.2694236 
  -1.63285 -1.395118 -0.9880763 -2.570001 -1.041853 -9.374931 0.1684917 -2.193385 -0.3579394 -3.868957 -0.1437939 -0.9618706 -0.2477891 -0.3022798 -0.2711277 -0.4043228 -1.079843 -0.3841336 -0.9623148 -0.8211018 -0.491943 -0.144923 0.3789705 -0.2718048 -0.0263631 0.3537468 -0.1969891 -0.3125363 -0.1562446 0.05523654 -0.1728341 -0.1204841 0.4111234 0.5960411 0.08946518 -0.4834518 0.319975 0.3230754 0.272992 -0.03738847 0.2662193 0.07316426 0.1086779 -0.1143341 0.2181736 0.07444971 0.09812924 0.6263303 -0.3460931 0.42253 -0.04450979 0.05902797 0.07887912 0.300021 -0.2588141 0.2068885 0.1905351 0.08006369 0.3940534 0.4389667 0.04996582 -0.09386364 -0.3450897 -0.04420794 0.273846 0.01594793 0.08742718 0.3054508 0.01682083 0.08587931 0.2645188 0.1509636 0.03661279 0.1296334 0.2953498 0.1295515 -0.2433021 0.3206168 -0.3698175 -0.02391682 0.05381177 0.1144286 -0.1089529 -0.09092318 -0.08428667 -0.02260479 0.3197465 -0.3390224 -0.09176961 0.260044 -0.3085305 0.3844113 -0.03339552 0.07107177 -0.2240275 -0.1159754 0.2067884 0.163422 -0.2622136 -0.1036477 0.3511487 0.2150498 -0.01645494 0.02546536 0.04931874 0.1426419 0.3835192 -0.1945675 -0.253995 -0.07598327 -0.04861671 -0.02374436 0.3008596 0.08896942 -0.04414085 0.2887709 0.1789032 -0.4449819 0.1528882 0.08133185 0.3911457 0.7584146 0.1591542 0.06399646 -0.2243724 0.02760055 0.2412554 0.09451517 
  0.1048016 -0.04081567 -0.001936744 0.2144468 0.04210832 0.01774319 -0.1374867 -0.1529176 0.2693732 0.3406906 -0.0009720827 -0.1513368 0.2640311 -0.345443 0.08301901 -0.04239507 0.1515644 0.02366197 -0.4590888 -0.05036049 0.2884401 -0.05436306 -0.2685275 0.150864 0.09012321 -0.0406025 0.3200175 0.2622831 0.05284516 -0.143912 -0.02043624 0.08875857 0.04441375 0.285315 -0.1241587 0.3657149 -0.1825219 0.1276966 -0.1514408 0.1587341 0.04732053 -0.02459081 0.2004357 0.305896 0.005468511 -0.05194504 0.1961031 0.2497318 0.471438 0.1244398 -0.0844571 0.1329746 -0.02958615 0.09386027 -0.106239 0.3139592 0.05282903 0.004001055 0.07919735 -0.02725878 -0.2555295 0.269519 0.1453217 0.2174937 0.07723539 0.1607164 0.2753122 0.2501204 -0.05701732 -0.01664805 -0.1219628 0.06335214 -0.09653457 0.3069474 -0.07177023 0.2282513 0.1556141 0.2683609 0.1517054 0.3059601 -0.0744862 -0.03344622 -0.1548179 -0.1633395 0.04515148 -0.2425941 -0.2425568 0.1044329 -0.126265 0.4535635 0.2007896 -1.723396 -0.1938555 0.06920005 0.02062481 -0.0798614 -0.103576 -0.1707871 0.07226878 -0.5194167 0.1274142 -0.4190469 -2.559462 -0.06930766 -0.3973348 0.05322067 -0.1291635 0.1087382 -0.2095419 -0.3843195 -0.8163612 0.01252299 0.09984596 -8.643796 -0.4420289 0.04256135 -0.8755054 -0.7824557 -1.067465 -0.2308589 -0.6044593 -1.038923 -0.6634074 -0.3844806 -8.734833 -1.27103 -0.9667789 -1.060869 
  -0.3021472 -0.2448348 -0.204672 -0.007086109 -0.3392788 0.4189506 0.2311179 -0.7068352 1.070676 0.3868206 -0.5876076 1.112829 0.05805597 -0.03369464 -0.1296322 0.5125009 0.05781294 -0.1814779 -0.2266253 -0.7285935 0.3901395 0.3085421 0.3044203 -0.1383636 0.07326721 -0.3698674 -0.1532085 0.04961595 0.1275774 -0.6753399 -0.009963466 -0.9306564 0.5269113 0.2874103 0.3475946 -0.9101717 -0.1413944 0.2901609 0.3157222 -0.2840386 -0.07409066 0.4270747 -0.3334559 0.5555353 -0.01228706 0.1766784 -1.298507 -0.1343345 -0.7603087 -0.3933303 -0.1156925 0.4435267 0.2824308 1.035667 0.2002562 -0.6424552 0.6239777 -1.418722 -0.02438501 -0.3111818 0.1862291 -0.301634 0.5580754 0.6583018 -0.2082188 -0.1877764 -0.01704144 -0.1482098 -0.7778202 -0.651379 -0.6500668 -1.065826 0.1450402 0.6702784 -0.12805 -1.094305 0.8153961 0.6706263 -0.3282443 -0.1164238 -0.352074 -0.08822998 -1.065836 -0.6616378 -0.9915206 1.118316 -1.29442 -0.7897193 0.8537521 -0.9966873 -0.2031388 0.3538273 -0.7457587 -0.9894711 -0.1885644 -0.1678681 -0.2138312 0.1594496 -0.1466521 -0.5708221 -0.8506724 1.181048 -0.2141346 -0.1231304 -0.216523 -1.324015 -0.3095488 -0.04396463 0.5107023 0.4802195 -1.119651 -0.2891228 0.501357 -0.2002225 0.05383397 0.002610148 -0.8400271 0.6764753 -0.5111797 -0.126692 -0.1531471 -0.2018678 0.3463401 -0.6943235 -0.005822402 -0.1773886 0.2712092 -0.0367718 
  -0.08036564 1.032916 0.5955325 1.222042 -0.6134802 0.1449665 -0.06209551 -0.03316526 0.2476803 -0.4051074 0.4872277 0.271893 0.132686 0.1451772 -0.01698161 0.4443224 0.2897749 -0.05545424 -0.1736896 0.3856117 -0.3906711 -0.7872757 0.2278109 -0.09077237 0.2585174 0.2485734 -0.3405149 0.9160927 -0.7112652 -0.1527883 -0.08058377 0.5706357 0.1195081 0.3065045 0.7356864 0.1832623 0.005282924 -0.9195401 0.2122754 0.1128808 0.06514579 0.02912928 0.2792159 0.2909055 0.5363774 0.7280307 -0.2000954 -0.3430154 0.6156468 0.3272338 0.295699 -0.9375169 -0.02751799 0.5087614 0.1487487 0.31141 0.542275 -0.4364571 0.3934683 1.01241 0.3555084 -0.353148 0.2445888 0.2193144 0.7497912 -1.026632 0.3688173 -0.08280317 -0.05267772 0.5949712 0.5888348 -0.6259546 -0.6567551 0.5168 1.005789 0.0256528 0.6096595 -0.3474742 0.3914135 -0.3177247 0.4496897 0.2597222 -0.3012093 -0.7768593 0.1713124 -0.2352947 0.1396765 0.1325523 -0.3792142 0.1450822 -0.4272253 0.2614394 -0.1741597 0.005556649 -0.750764 -0.4295632 0.5617049 0.2669236 -0.4797737 -0.08853853 0.5901657 0.05302679 -0.4017489 0.2258937 -0.0460282 -0.4966697 -0.416409 0.3738596 0.1885571 0.02024117 -0.4654154 -0.68115 -0.3449188 -0.3929997 0.2005184 -0.5883721 -1.221252 -1.548405 0.7376274 -0.5005569 -1.590907 -0.2271162 -0.907653 -0.4696564 -0.08581933 0.2241492 -0.5226354 -0.015624 
  -0.08075228 0.497878 0.2450602 -0.182884 -0.002190899 -0.2222895 -0.3229781 0.2654704 -0.3690723 0.2357167 -0.7346478 -0.9421794 -0.2848384 -0.1158254 2.373537 0.3215905 -0.9190623 1.175365 0.06178939 0.4210032 -0.08818146 -0.1148326 -1.182655 1.256045 -0.08317454 0.9911345 -0.3155049 0.6052524 1.025044 -0.2591131 0.6376619 0.9061751 0.2424912 -0.6639482 0.3586817 -0.1424419 1.479471 -0.3587811 0.07482936 -0.2821401 -0.09300773 0.3805911 0.698729 0.188936 -0.3569766 0.3994591 0.03750666 0.3001988 -0.5050651 -0.6194939 -0.4071532 -0.3219042 -0.2915237 0.5874434 -0.7215971 -0.5191711 0.7049323 0.01727222 -0.08756682 0.5743494 -0.1873365 -0.6595346 -0.0926517 0.09779898 0.2205587 -0.09315762 -0.07627562 0.04550856 0.3110082 -0.4143444 0.05605916 -0.1165849 -0.5203214 -0.02917275 -0.08027885 -0.1533912 0.1047702 0.1834167 0.3756568 -0.2076888 -0.3900696 -0.2054876 -0.3188339 -0.01748105 0.05664052 -0.08008504 0.2294625 -0.2135572 0.6636877 0.04891453 0.124537 -0.1183078 -0.2797232 -0.08620834 -0.2079201 0.3355907 -0.6485832 -0.1129635 0.4880544 0.06812891 0.1163621 -0.1573411 -0.3950636 0.05205016 -0.06280809 -0.1399099 0.4175535 0.04266782 0.5436259 -0.3011914 0.379167 -0.3494692 0.09643004 -0.2638261 0.4721619 0.0418853 0.7512541 0.541293 0.07403325 0.3375007 0.7178729 0.1956985 -0.4962698 -0.16836 0.2128591 0.4920762 0.4390745 -0.2225347 
  -0.3267774 0.05211925 -0.3130503 -0.5298291 0.7297896 -0.1027169 0.1434954 -0.09700441 -0.4955781 -0.2610561 -0.6290116 -0.5047891 0.1461699 0.04912101 -0.4285088 -0.6400419 -0.1603577 -0.4694225 -0.5229084 -0.3336079 -0.7433801 -0.7522385 0.9205357 -1.839282 -0.09044698 -0.2598999 0.7925146 -1.2669 -0.3805521 -0.782735 -0.2607954 -0.3050005 -0.7328528 -0.265161 -1.653289 -1.001693 0.2275557 -0.7044265 0.5393704 -1.283497 -0.07224116 -0.1559273 -0.177999 0.3346314 -0.02697691 -0.396161 -1.6874 -2.633446 -0.01161947 0.4088583 -0.9913394 -1.103871 0.6232536 0.9153305 0.2732174 -0.7452385 0.8286992 -0.3973808 -1.447215 0.6824485 -0.4810328 -1.515995 0.3342149 -0.8907226 0.6577125 -0.835279 0.1490969 -0.2629757 0.4987441 -0.1260455 0.4085958 -0.4752988 -1.015224 0.1599265 -0.8655472 0.3116523 0.06783704 0.7066699 -0.1948894 0.4437942 0.4478628 0.2464927 0.4668883 0.0641039 0.7368027 -0.05715207 -0.2533841 0.6662631 -0.4285223 0.5565668 -0.06672683 -0.3867961 0.2050242 0.3138311 -0.1029895 0.2832749 -0.1428714 0.4438554 -0.04875018 -0.1254888 -0.0609501 -0.08832942 -0.4263889 -0.05344284 -0.06393345 -0.09616038 0.2570935 0.1434972 0.2391565 0.0723401 0.1761209 0.1688345 -0.06848671 -0.1764214 0.02030738 0.09856082 0.6612248 0.6207364 0.2274981 0.4480488 1.081589 0.1537802 0.3864984 0.3388166 0.4232623 0.4205552 0.7024014 0.2324704 
  0.4102041 -1.131703 0.9569665 2.139264 -0.5434344 -0.09429876 0.2549075 0.1241404 -0.4160445 -2.203643 0.06547076 -1.083458 -0.6606424 0.2697664 0.1025338 -0.4645077 -0.3059681 -0.2805277 0.05432917 -0.6223665 -1.320397 0.2380629 -0.440594 -0.4225413 -0.1360549 -0.3973554 -0.03989388 -0.2793989 -0.1642308 0.7149451 0.06773005 -1.005826 0.4948289 -0.3251242 0.05408399 0.2652503 0.02645949 0.2754829 -0.08014838 1.123585 0.3410661 -0.655086 -0.6465542 0.6997024 -0.6156711 -0.31545 -0.3907923 0.005978758 0.3906905 -0.2886212 0.552299 -0.5092308 -0.113006 0.0858525 0.4300207 0.3292618 -0.1054984 -0.5381607 -0.4917612 -0.4195803 -0.4220399 -0.7903484 -0.1353164 -0.335768 -0.279094 -0.4485665 -0.3979658 -0.6044821 0.4166442 -1.193068 -0.5335918 -0.7358171 0.3260313 -0.3313484 0.3814555 0.2034561 -0.3317619 -0.1621049 -1.548343 0.1300561 -0.4189 -0.3201889 -0.5789071 -0.1812587 -0.2110467 0.6508138 -0.05741687 -0.3416208 -0.6225044 0.2134649 -0.1708461 0.008878493 -0.4892184 -0.05537328 0.339358 0.3902428 -0.6362403 0.744454 0.5655771 0.5134195 -0.4285359 0.3501078 0.1581736 0.200947 -0.01863319 -0.1356279 0.3635651 0.4466519 -0.1079114 -0.286318 -0.01780586 -0.1563189 0.3121719 -0.01405284 0.1424155 0.5877904 -0.318473 0.4359987 0.8548602 -0.1237152 0.7844282 0.5422125 -0.383706 0.07080244 0.3091044 0.3564596 0.9682248 0.1369179 
  -0.3849875 0.236779 -0.1824574 0.06750273 0.3975818 0.3804009 0.5369925 -0.09837157 -0.8117017 -1.092159 -1.69677 0.79804 -0.9533413 -0.05478446 -0.356029 2.090322 -0.905786 0.1380685 -1.253502 1.030789 -2.761847 -1.927699 -0.01282066 -1.43813 0.3084047 -0.4485619 -1.049893 -0.2778067 -1.972904 -0.04058198 0.008580192 -0.5261889 -0.2026549 -0.2017837 -0.1426937 -1.484077 -0.3881936 -0.6209597 0.1744746 0.1692078 -0.5834856 -0.4125296 0.3817255 0.8499226 0.1197141 -0.1995859 -0.5671247 0.5971295 -0.4451144 0.6661409 0.4122643 0.04761435 -0.2533207 0.1607357 -0.3841448 -1.050967 -0.3836818 -0.1271418 0.5038128 0.282239 0.2397228 0.7398754 0.351888 0.2247707 -0.4758022 -0.5362438 -0.1481213 0.8779489 -0.05656537 -0.461508 0.2984044 0.2024486 1.114418 -0.621103 -0.1471182 -0.1153511 -0.1076261 0.5580032 0.1038141 -0.1237582 0.108854 0.1875865 -0.04395639 0.1139105 0.2171513 -0.3829841 0.01918804 -0.09071614 -0.2841994 -0.2012571 -0.1159675 -0.004876749 0.156176 0.3153622 -0.1141848 -0.1642246 -0.3494798 0.210513 0.3767216 -0.3631021 -0.01462745 0.08359569 0.4669719 0.2199954 0.03481937 0.08525431 -0.004940393 0.0316982 -0.1724114 0.2775376 0.2111203 -0.02244739 0.4411934 -0.1172256 0.3131993 -0.1826528 0.1558628 -0.03788754 -0.1017399 -0.1365739 0.2397489 0.1413528 0.8148856 0.3770866 -0.394194 -0.1476224 -0.1525246 0.3331704 
  0.6954886 -0.1594437 -0.01491206 0.2391325 -0.9306381 0.06728571 0.4057504 -0.20601 0.1793213 -0.01328371 -0.390226 -0.3765653 0.1257028 0.2361246 -0.05613546 0.24953 -0.3060341 0.5798008 0.05887853 0.2363319 0.1567454 0.3348162 -0.009082908 0.699019 -0.09207248 0.1760133 0.2145684 -0.007158905 0.6087952 -0.2185455 0.06894302 -0.1755333 -0.5901503 -0.1868095 0.204612 0.09497284 0.5354646 0.06664132 -0.370617 0.02522201 -0.5488645 -0.06757811 0.008248554 0.6893733 -0.5563315 0.3591691 0.1448394 0.5987183 0.2912898 -0.1754533 0.3609658 -0.5197558 -0.04316769 -0.2456306 0.225013 -0.3455847 0.04412541 -0.2261874 0.5789623 -0.02232268 -0.4208542 0.2340499 0.6704392 0.2371295 -0.5756536 -0.2893826 0.5754929 -0.4586883 0.3025503 0.4675155 -0.1680759 0.2613557 -0.1572926 0.1893612 0.2018991 0.1944252 -0.2617998 0.03209608 -0.107586 -0.8954238 0.3132837 -0.2779849 0.2449867 -0.01776538 0.6825305 0.2751718 -0.5653726 0.990975 -0.690566 0.2478645 -0.641159 0.2009131 -0.2359986 -0.2510535 -0.7031215 -0.2695208 0.3141454 0.05916994 0.3187564 -0.2586076 0.2035574 -1.120279 0.03656032 -0.2476321 -1.215269 -0.6603555 -0.2825223 -0.1405044 -0.2655357 2.239415 -0.1848298 0.1520506 -0.9849691 -0.2175119 -0.9674725 -0.01780953 -0.08060985 -0.6616448 -1.178277 -0.2408526 1.515456 0.1132983 1.724109 -0.3078982 0.2184886 -0.8132337 -0.03961221 -0.1783245 
  0.0685233 -0.1820084 0.08971526 0.04182801 -0.4037801 0.7160079 -0.6369151 0.3488732 0.1357387 0.2113234 -0.8802473 -1.053583 -0.02786379 -0.7167132 0.4155336 -0.4942348 0.3093587 0.3740865 0.06737491 -1.025087 0.6541467 0.1517256 0.02542972 0.1291096 -0.2327121 -0.4797705 0.5296002 0.6010162 0.225917 -0.4146438 -0.6253238 0.1674398 0.9537299 0.1468828 0.1401801 0.1297119 -0.6570483 -0.07853563 0.5465033 0.4555072 -0.1698892 0.2054197 0.4486682 -0.2543123 0.03368435 -0.2657886 0.09683693 0.5573092 -1.107334 0.6945726 -0.4020461 -1.308559 -0.1667832 0.008927714 -0.1705472 0.2014455 -0.4056408 0.1795214 0.905729 1.847423 0.08200539 1.1335 -0.2101395 0.3878919 0.4364177 -0.6335093 0.7715042 -0.1995915 -0.4357768 0.2635254 0.2954823 -0.4232295 -0.292471 -1.365689 -0.02216694 -0.1703778 -0.4167316 0.3669546 -0.6159854 0.4553897 -0.2499662 -0.8619058 0.1029241 0.540877 -0.8666573 -0.9411145 -0.05586072 -0.3553404 -0.8452036 -0.8479814 0.2217184 -1.028509 -0.5530915 0.2501207 -0.08952282 0.1675287 -0.1082439 -0.7737086 -0.1189296 -0.4939856 -0.3212656 -0.05456935 -0.1971803 0.1983587 0.841701 0.4380114 0.113796 -0.3010387 -0.03916604 -0.07869822 -0.2916039 0.937726 -0.1688507 -0.1128963 0.8722863 0.05155901 0.3773241 0.7754681 0.2810653 0.08130474 0.5033199 -1.103679 2.043946 0.2757214 -0.1672239 1.384684 -0.2551754 0.9529427 
  -0.3837997 0.6532764 -0.2238874 0.1397136 -1.034868 0.6315866 0.5398417 -0.1258359 -0.4125022 -0.2807433 -0.04447283 0.04360045 0.9427163 0.4492457 0.4238258 0.9059232 0.06573482 -0.1461847 0.3388528 0.9550375 0.5244146 0.9699225 -0.5199739 -0.002549227 0.2895129 1.130101 0.6069436 0.1831415 -0.1583412 -0.101822 0.06377982 -0.6096315 0.2589166 -0.1028369 -0.8294638 1.453393 0.68713 0.1284359 -0.4617636 0.6120288 -0.4751193 0.05181243 0.2509553 -0.5448763 -0.1823957 -0.6335526 0.6365415 -0.4222414 -0.9148965 0.08153011 0.4353558 0.1593574 0.1107728 -0.2907596 0.741903 1.221206 -0.4825904 -0.4164749 -1.294045 -0.1582021 -0.4214508 0.769626 -0.7515159 0.08380721 -0.3901921 -0.3662929 0.7843391 -0.2173522 0.1884458 -0.2431087 -0.09151351 -0.2658258 0.08144167 0.07632732 -0.8045936 -0.0522701 -0.5501206 0.2715411 -0.2446719 -0.1053291 -0.06254926 0.05504224 -0.0804901 0.2172751 0.06325216 -0.2201366 0.2415625 -0.02214343 -0.08065086 0.7618505 -0.2762387 0.4632026 0.1067255 0.4365153 -0.1558888 0.07335527 -1.240239 0.4688395 0.1364749 -0.9201124 -0.0350973 0.238596 0.02968941 -0.1467183 0.2085651 -0.6973549 -0.7214572 -0.792379 -0.7816301 -0.80669 -0.4481166 0.6027377 -0.127626 0.2180516 -0.08905 0.3558251 -0.7377104 -1.019763 -1.344491 -0.3666323 -1.144992 0.8034619 0.5112602 0.4002399 -0.4912138 -0.4689963 0.6673607 0.5553241 
  -0.2387172 -0.1921716 -0.221875 -0.3689113 -0.3824265 1.091959 1.108374 1.566861 1.689933 -0.4874367 -0.5551602 0.9068167 0.7123601 0.1556025 -0.3965223 0.06965428 -0.3828668 -0.5436558 0.3267736 0.1178206 -1.584921 -0.164534 0.4819639 -0.1236412 -0.123928 0.6929119 -1.152778 -0.1937922 -0.09186736 0.01347319 -0.7092645 0.3567427 -0.1215237 0.2444929 0.6890213 -1.055948 0.1038442 0.3938883 -0.804008 -0.01070846 -0.7752385 -0.2056277 -0.481427 -1.024052 -0.2066701 -0.2245275 0.2389617 0.4831721 0.468912 -0.1458179 -0.07764111 0.3018205 -0.3598554 -0.04506395 0.2117814 0.1666063 -0.4880513 0.5109858 0.7707393 0.1829399 -0.2215442 -1.201371 -0.09146561 -0.1705307 0.6007618 1.126575 0.3220848 0.2129042 0.0005525724 0.2736894 -0.4286309 -0.4477247 -1.258816 0.3276809 -0.2566858 -0.212417 -0.2578987 -0.4711968 -0.01509228 -0.190674 0.1528895 -0.8542371 -0.8038683 -0.08827794 -0.4476073 -1.246707 0.5959389 -0.1071063 -0.2569661 0.3533619 -0.1230167 0.2866896 -0.7501489 -0.04164119 -0.1040279 -0.07833897 0.1346824 1.560047 -0.03617843 -0.5684143 0.6013014 0.3120861 0.06460138 -0.08451471 0.02108479 -0.3552624 0.8535178 -0.1730277 0.7890695 -0.3198197 0.2641773 0.3682248 -0.06751455 -0.0415405 -0.1545302 0.0480857 0.06054206 1.05144 -0.1064575 -0.5639452 1.073786 -1.089076 0.678165 -0.0003195844 -0.4013788 -0.5141422 0.6902273 -0.6296688 
  -1.474398 0.1721937 -0.1654295 0.08886436 -0.667699 0.2466018 0.04383604 -0.4932644 -0.1863362 0.1137852 -0.1162764 -1.034858 0.1635682 -1.699784 -0.07739376 -1.56049 1.708458 0.4439151 1.511081 0.8728828 -0.4474187 -0.8255746 -0.1399888 -0.9826131 -0.957326 0.2394765 1.20442 -0.8909077 -0.01903621 0.4377203 0.2821769 -0.2069602 -0.1700358 -0.3924187 0.1895405 -1.051187 0.2558682 0.481066 1.190325 0.1221395 1.324453 -0.043311 -0.4365094 -0.2548788 -0.7460881 0.5890654 -1.825844 -0.428907 -0.316273 -0.1575229 -0.7032118 0.3111464 0.1470771 -0.197171 -0.1527162 -0.06022099 -0.1402073 -0.5143437 1.003392 -0.07756393 -0.3319335 0.1939565 -0.3497647 -0.09922607 -0.3601976 0.4908824 -0.5640423 0.817665 -0.1754132 0.2522697 -0.4007441 0.2284508 0.4285281 0.01867322 -0.2193321 0.3090937 -0.7030859 0.6901488 0.1176918 -0.6110319 0.2159264 -0.01592136 -0.391014 -0.6194934 -0.2324971 0.1261289 -0.8382353 -0.5702099 -0.2271495 0.5602407 -0.1044842 0.1048605 -0.3790364 0.8016806 0.3092761 0.1573351 -0.130809 0.5279734 0.02507777 -0.5458492 0.4570713 0.0008369425 0.3224213 0.527527 -0.09446467 -0.02553065 0.549396 0.1837487 -0.08236193 -0.0521178 0.3056137 -0.2567486 0.09073524 -0.1716 0.03160774 0.002493453 -0.1677408 0.285616 -0.02419933 0.09379625 -0.1431154 0.3021641 0.2927958 0.1193997 -0.721224 0.04706399 -0.226603 0.1801834 
  0.7748943 -1.445981 -0.7048099 -1.538375 1.065879 0.1428752 -0.6885188 0.6130031 -0.4776733 -0.02803979 -1.337784 -0.618517 -0.4529057 -0.2147861 -1.133315 -0.5299498 -0.3212672 -0.08986538 -0.1241608 0.472597 0.1057202 -0.0123363 0.5812566 0.2956394 -0.6949565 -0.2971885 -0.2797538 0.287426 0.3003529 0.253229 0.02680638 -0.1278625 -0.5924339 0.2650302 -0.09703279 0.09980829 0.4545752 -0.08314897 -0.274788 -0.1720418 -0.2672446 0.2148355 -0.003033838 -0.07140967 -0.2921067 0.8428419 -0.007575526 0.4006922 -0.6305558 0.1521143 -0.6067188 0.4044293 0.1822429 -0.0210357 0.1539266 0.6955882 -0.02156213 -0.1876502 0.380124 -0.2773049 -0.04316176 0.5075635 0.1745527 0.5576081 0.2936675 0.006991844 0.2996759 0.2833959 -0.1311965 0.2375376 0.1766283 0.1449561 -0.352252 0.5919493 -0.1332368 0.048116 -0.2805866 0.269616 -0.1980835 0.2545257 0.06794239 -0.1828867 -0.1409567 0.05211636 -0.2795596 0.6602598 0.303654 -0.1121992 -0.3329741 0.06504784 -0.09613458 0.07550813 0.06157881 -0.04756907 -0.8809751 -0.1283487 0.01167076 -0.1681291 -0.3018928 -0.4850088 -0.2687446 -0.04826833 -0.4352305 -0.2415833 -0.6277528 -0.7914287 0.4475867 0.7262179 -0.376566 -0.2324241 0.3912112 -0.7625417 -0.216154 -0.3092645 -0.07355729 0.5629677 -1.023448 -0.1591461 1.934671 0.1400507 -1.582847 -0.9748918 -0.630625 -1.099854 -0.7125905 0.6526347 -0.2300931 -0.4087636 ]
<Bias> 
 [ 1.825006 3.73703 0.1373918 6.320574 -0.03049981 -0.2414904 -0.9788997 1.07561 1.901704 2.363594 3.394042 4.859948 3.931011 2.282773 0.5826937 8.347689 4.255483 3.779932 5.956283 4.903773 4.090971 -0.1611032 -2.419066 3.653585 2.951417 3.190803 -0.7199336 0.08091272 0.5095512 0.4247168 1.102908 3.675242 ]
<!EndOfComponent> 
<Rescale> 256 256 
<LearnRateCoef> 1  [ 0.2028332 0.2201378 0.1781081 0.1956921 0.2138846 0.240102 0.2136044 0.2327169 0.2288818 0.1796016 0.182597 0.3510237 0.2033036 0.2592381 0.2027114 0.1968515 0.2392219 0.2357787 0.206504 0.2635098 0.2188365 0.1932766 0.1960727 0.2170857 0.2237568 0.217161 0.2101361 0.2192992 0.229312 0.1939794 0.2250438 0.1935477 0.3046238 0.2392243 0.2357229 0.2507218 0.2544071 0.2751463 0.2458688 0.39181 0.2725529 0.2113521 0.2622377 0.2103803 0.2313188 0.2431543 0.2463837 0.3822502 0.2360137 0.2658073 0.2524514 0.2879569 0.2264869 0.272442 0.3095967 0.2433747 0.2708021 0.3167199 0.2480553 0.2450477 0.2498448 0.2255039 0.2289915 0.2336598 0.3226892 0.2499763 0.2955688 0.2995373 0.2705528 0.2721295 0.2162192 0.2789188 0.2967415 0.3191348 0.2947779 0.2633309 0.2321782 0.2696958 0.280016 0.3868518 0.3004379 0.285811 0.3818705 0.3350546 0.2970029 0.30292 0.3474704 0.3095975 0.2520203 0.2606789 0.2508593 0.2770069 0.2917684 0.239443 0.2392672 0.2781848 0.2490731 0.2560666 0.2777346 0.2792602 0.374042 0.3034061 0.2475052 0.2808839 0.2471536 0.2362898 0.3113884 0.3028081 0.2681909 0.2284196 0.275574 0.2806933 0.3021728 0.3009158 0.2767974 0.3934266 0.3607452 0.2515895 0.2489323 0.2637366 0.2618177 0.3634058 0.2973776 0.3208387 0.321811 0.2850168 0.2635499 0.3023775 0.2754087 0.2798153 0.2622469 0.2614472 0.2804728 0.2579493 0.200172 0.2760358 0.2339287 0.3189281 0.2620834 0.2509157 0.2433288 0.2942281 0.2448319 0.2913966 0.2665444 0.2975601 0.4481491 0.401276 0.2428406 0.2639569 0.2888339 0.2607007 0.2356896 0.2891477 0.3283578 0.2525465 0.2982323 0.2246451 0.3126402 0.2547875 0.313712 0.2649228 0.2887569 0.3003661 0.2540068 0.2798099 0.2293942 0.3327397 0.2386034 0.2509763 0.2902239 0.2424855 0.2742776 0.2968671 0.2588095 0.3188503 0.3097292 0.2776344 0.2341727 0.3578756 0.2953965 0.2518498 0.2466265 0.2466482 0.2468183 0.2505329 0.3116136 0.2093847 0.2926289 0.259821 0.2536996 0.3505451 0.2316572 0.2439319 0.2170022 0.194707 0.2551157 0.2364989 0.2115861 0.282139 0.2323168 0.2313699 0.2431514 0.2383746 0.2684249 0.2260011 0.2515381 0.3375584 0.29533 0.2241924 0.3465905 0.2558236 0.2376732 0.2532704 0.2155628 0.2465963 0.2263195 0.2538068 0.3289748 0.2350918 0.2790952 0.2062427 0.2786201 0.2686101 0.187032 0.2133292 0.2447203 0.2708131 0.1749862 0.2996607 0.1932559 0.2621904 0.2029182 0.2245883 0.2729001 0.2329442 0.1907835 0.1992875 0.1954524 0.2220716 0.1992269 0.2324087 0.1773308 0.3177912 0.2254896 0.2045279 0.2341593 0.2259517 0.1622596 0.1937651 0.2553423 0.1852313 0.1933529 0.1916536 0.2022406 0.2125511 ]
<!EndOfComponent> 
<AddShift> 256 256 
<LearnRateCoef> 1  [ -2.339083 -2.387516 -2.211244 -2.077857 -2.347598 -2.226328 -2.416611 -2.323276 -2.671423 -2.217384 -2.240273 -2.782438 -2.324172 -2.509513 -2.288959 -2.305265 -2.692964 -2.420829 -2.515746 -2.896597 -2.262986 -2.191426 -2.308542 -2.557118 -2.316036 -2.493448 -2.106727 -2.320253 -2.285853 -2.374407 -2.532372 -2.17024 -2.599134 -2.562074 -2.549493 -2.496934 -2.446026 -2.131316 -2.332184 -2.564201 -2.626769 -2.400004 -2.128897 -2.570969 -2.402854 -2.663969 -2.750945 -2.798705 -2.631946 -2.632653 -2.4479 -2.638437 -2.35327 -2.982307 -3.025799 -2.392474 -2.28881 -2.644799 -2.541637 -2.416326 -2.689901 -2.522818 -2.521688 -2.437859 -2.589896 -2.566794 -2.240675 -2.819032 -2.436052 -2.834295 -2.490876 -2.398905 -2.519241 -2.55594 -2.51507 -2.539855 -2.39763 -2.606382 -2.393878 -2.9585 -2.512065 -2.521634 -2.229898 -2.757487 -2.807605 -2.358465 -2.434932 -1.994546 -2.315309 -2.667722 -2.477818 -2.643693 -2.644392 -2.451395 -2.482806 -2.498419 -2.42924 -2.677394 -2.528329 -2.391201 -2.55168 -2.525886 -2.636202 -2.454929 -2.487876 -2.504326 -2.540551 -2.70459 -2.673606 -2.392601 -2.411233 -2.410018 -2.343729 -2.753401 -2.521936 -2.732772 -2.969076 -2.605879 -2.426565 -2.427685 -2.640562 -2.414611 -2.487242 -2.659618 -2.463567 -2.741808 -2.298792 -2.565585 -2.426496 -2.520994 -2.682402 -2.412509 -2.531987 -2.619263 -2.308394 -2.342821 -2.164224 -2.969105 -2.274973 -2.508548 -2.547839 -2.576329 -2.557085 -2.552942 -2.601964 -2.911667 -2.067175 -2.639771 -2.336955 -2.208586 -2.332038 -2.67056 -2.322818 -2.440637 -2.983303 -2.328732 -2.709265 -2.318023 -2.258301 -2.359332 -2.593509 -2.590702 -2.918373 -2.357871 -2.49632 -2.773683 -2.406489 -2.697095 -2.271464 -2.477728 -2.865003 -2.554747 -2.392348 -2.551418 -2.780288 -2.596224 -2.433512 -2.490956 -2.347974 -2.147341 -2.486613 -2.479692 -2.514244 -2.317672 -2.537894 -2.383232 -2.523848 -2.369854 -2.519356 -2.554793 -2.797134 -2.353687 -2.267718 -2.164717 -2.537626 -2.350661 -2.8608 -2.585733 -2.595293 -2.770007 -2.353453 -2.391527 -2.484834 -2.241173 -2.212112 -2.296335 -2.350701 -2.373825 -2.656587 -2.591343 -2.497112 -2.139386 -2.383337 -2.419365 -1.897932 -2.684499 -2.406813 -2.580781 -2.70103 -2.688517 -2.231041 -2.484016 -2.261587 -2.417463 -2.34276 -2.534116 -2.317684 -2.293115 -2.358755 -2.329081 -2.352978 -2.815192 -2.426858 -2.27511 -2.643404 -2.365477 -2.316788 -2.351474 -2.497414 -2.051868 -2.391381 -2.600802 -2.309772 -2.403187 -2.427328 -2.430871 -2.308403 -2.546905 -2.426501 -2.508449 -2.547048 -2.454897 -2.495034 -2.443642 -2.580141 -2.228824 ]
<!EndOfComponent> 
<Sigmoid> 256 256 
<!EndOfComponent> 
<AffineTransform> 256 256 
<LearnRateCoef> 1 <BiasLearnRateCoef> 1 <MaxNorm> 0 
 [
  0.07922453 -0.7195743 -0.1531808 -0.991594 -0.2975875 -0.2941735 -0.4992069 -0.1900075 -0.01742333 0.08552478 -0.3817872 -0.02071028 -1.155028 -0.128945 1.280596 -0.884229 -0.553389 -0.6127309 -0.4537177 -0.05209279 -0.2412432 0.6681911 0.7957807 -0.2076957 -1.14387 -0.2395117 -0.1169213 0.5976347 -0.1171059 0.1563908 -0.8716215 -0.6173083 -0.2658995 -0.892853 0.972611 0.01688723 0.9185251 0.8127859 -0.5429634 -0.2386727 -0.1964281 0.2173426 -0.07452452 -1.073865 -0.07470255 -0.2593495 0.2030902 -0.7288382 -0.5223802 -0.4995207 0.2387609 -0.4788618 -0.515314 0.6236216 0.3577569 -0.8305262 -0.03589285 -0.4480216 -0.1815111 0.2983949 -0.06962391 0.6760659 -0.05330222 -0.5462497 -0.7300259 -0.4699963 0.3688205 -0.1387099 0.3044113 0.3753786 0.1112126 -1.069315 0.2041128 0.02233431 -0.0145196 -1.039831 -0.7638483 -0.2734181 0.002645347 0.08925969 -0.2538303 -0.5921394 -0.3116804 0.04566904 0.03678861 0.6746324 -0.4444239 0.1164779 0.06719557 -0.8665883 -0.1080613 0.2114788 0.4770218 1.182647 0.1370752 -0.4672461 -0.4294082 -0.3869995 0.135345 -0.8863438 0.1632247 0.6607122 -0.07896151 -0.520449 0.03170549 0.3031414 -0.04500021 0.08400506 -0.410461 0.5471666 0.4353259 -0.6152965 0.2524209 0.2164971 -0.3326436 0.8036326 -0.01315441 0.01935549 0.9087784 -0.158816 -0.225962 -0.5887811 -0.1295698 0.6787913 0.2930697 0.2036822 0.05203103 0.1412978 0.1789413 -0.2670132 0.5570813 -1.41325 -0.09773056 0.3010102 0.05537062 0.3218521 -0.1783908 0.0771597 0.1569754 -0.5318878 -1.003556 -0.468882 0.221245 -1.52087 -0.001352344 -0.1219514 0.0245641 -0.1802527 -0.1658992 0.165396 0.3806046 -0.7117063 0.1009321 0.0411002 0.03104237 0.2942139 0.5571103 0.6193689 0.2274916 -0.4253298 0.07759889 0.4497633 0.2074175 -0.8524918 0.2354954 1.03851 0.5407091 -0.2562298 0.1214512 0.7359539 -0.427343 0.1387397 -0.2522888 -0.373421 0.02887185 -0.8895149 0.01520716 -0.1724088 -0.4010049 -0.439246 -0.7293033 0.332316 0.1245343 -0.1370212 0.3524877 -0.2769296 -0.3332956 0.140865 -0.04768355 0.7186505 0.1810064 0.397104 0.1583961 -0.634033 0.5593401 -1.182186 0.102304 0.2583959 -0.1419962 -0.2591192 -0.3858928 0.5135525 -0.5121991 -1.025084 -0.03691859 -1.098052 -0.3955452 0.5665677 -0.3709278 -0.04530926 -0.3586884 -0.9692681 -0.5416378 0.2638078 1.3862 -0.450933 0.07658163 -0.159264 0.1499355 0.3610296 -0.5418562 0.6743445 -0.002591374 0.193629 -0.3991899 -0.344833 0.0119725 -0.2978131 0.321076 0.903761 -0.3932328 -0.1343002 -0.2430396 0.5764923 0.2036776 -0.5414969 -1.085256 -0.7290752 0.2839581 -1.290257 -0.3862057 -0.7768859 -0.554674 0.2001475 -0.1690006 0.02763647 0.4580826 -1.23716 -0.226824 0.2688172 -0.6181298 0.7139088 1.318394 0.6473105 0.7280929 -0.2184794 
  0.223745 0.06046224 0.7454044 -0.7441428 0.1212828 -0.6074482 0.05282737 -1.343256 0.4246144 -0.4009718 0.4592162 -0.3835773 0.4149388 -0.874498 -1.002224 -0.3930147 0.1515608 0.5897685 1.086629 -0.0932185 0.1387984 0.7472422 -0.1403743 -0.1754346 0.5958296 0.8669997 -0.3373324 -0.2794631 -0.02940518 0.4995823 -1.788251 -0.4834914 -0.02420216 0.1232937 -0.5583799 0.252727 0.09023508 -0.5123515 0.5340872 0.312784 0.07651258 0.6289199 0.6478834 0.169343 -0.03953664 0.05086106 -0.04583577 0.465651 -0.5375462 -0.8277106 0.3825568 0.01272835 0.6337526 0.1403462 -0.4041069 0.002783476 0.5390005 0.1939754 -0.3087295 -0.5934184 0.263373 0.2643277 -1.23448 -0.5835215 0.6022466 -0.01012053 0.2393738 0.4974996 0.8023311 0.1413949 -0.3820744 1.087437 0.6633249 -1.50828 0.6795951 -0.2805966 1.06974 0.4770256 -0.333097 -0.212026 -0.498876 0.07508282 0.07068758 -0.04079977 0.4612007 0.4535189 -1.506054 1.163682 1.104415 0.26985 -0.1173859 -0.1988314 0.2218973 0.09763833 0.6786688 -0.2579113 -0.5089804 0.5700908 0.138563 0.1388512 -0.2724673 0.05813414 0.06325554 0.3080269 0.4695388 -0.590245 0.3800443 -0.988811 -0.2857284 -0.4394845 0.5037441 0.2828709 -0.4502768 -0.7100652 -0.714109 0.4216659 -1.03919 -0.7344965 0.2462636 0.3749294 -0.5174395 -0.3285302 -0.098468 0.8456259 -0.2063032 -0.4502294 0.6535957 0.5765159 0.01894983 -0.0902333 -0.6283681 -0.2791727 -0.4982051 -0.7828699 -0.1620207 0.254559 -0.596119 0.8243619 0.6937296 0.04904032 -0.3280254 -0.4566751 0.5191398 0.1150595 -0.02042137 -0.2771287 -0.5740902 -0.4226073 0.703316 -0.7434415 1.08481 -0.3803135 -0.5257427 1.166872 -0.238573 0.5767778 -0.7019923 0.8308347 0.2820559 0.3464891 -0.183169 -0.6216133 -0.8399882 0.5266417 0.4067263 0.05050417 -0.2015593 0.1696649 -0.1049707 0.1729387 -0.7096059 -0.162496 0.04359177 0.05784518 -0.5191296 -0.3257138 0.1243456 -0.6969525 -0.1415787 0.1082715 -0.654249 -0.1113232 0.6825246 -0.04596843 0.08619062 0.8115041 -0.01950967 -0.2332639 0.3586769 0.2326234 -0.5428934 1.349187 1.129204 0.07195166 -0.3455955 0.4276379 -0.1615498 -0.04141827 0.347084 0.544674 0.026192 -0.01199253 -0.6641767 -0.2749668 0.1626996 -0.05021064 0.5906134 0.1937099 -0.1247479 -0.5206659 0.1085933 -0.4492994 -1.813656 0.1712723 0.6969829 0.7193012 0.6780745 0.9395047 -0.0004602548 -0.8136225 0.9157136 0.3439208 0.02716591 0.3645912 -0.1213916 -0.5567611 0.1063285 -1.003262 0.3721727 0.1493484 -0.1180074 -0.2919979 0.6487275 0.6393804 0.05927113 -0.001681969 -0.2372209 0.3576089 0.003762202 0.1874579 0.02716043 0.690546 -0.1436831 -0.1565429 -0.2663634 -0.2730308 0.1960783 0.1536418 -0.1773497 -0.2393156 0.3752526 -1.03205 0.132479 0.4710978 1.582703 0.1879035 
  -0.6778033 -0.5765158 -0.5898709 -0.5133548 0.5294412 -1.196896 0.3055458 -0.6101868 -0.4577726 -0.3614751 -1.218803 -0.6213145 0.02729268 -0.1399651 0.4197186 0.6809255 0.6162041 0.5368636 0.6339497 0.5320744 0.1989216 -0.2269305 -0.5221702 -1.158042 0.3549936 0.355747 -0.6043739 0.4204498 -0.4843945 0.1345797 0.1241855 -0.4652187 0.2091523 0.05458374 0.7842373 -0.1515313 -0.24845 -1.089924 0.388467 0.4034677 0.3475408 0.6158358 -0.6404273 -1.217137 0.1626874 0.1676403 -0.08337853 1.145406 -0.1306297 0.9761926 0.02195913 1.073223 0.3755722 0.343573 -0.4926479 -0.2712716 0.03976478 -0.3103354 -0.3919395 -1.465221 -0.3786353 0.1025586 -0.3829642 0.1422099 0.06218346 0.1036107 -0.9502699 0.7858165 0.3054725 -0.9634196 0.666585 -1.888715 -0.4085907 -0.3322654 0.3948062 0.8393565 0.06267352 -0.1129655 0.388795 -0.02150578 0.3899186 -0.5374476 -0.5503504 0.4212132 -0.8019884 -0.3795714 0.6223588 -0.4559605 -0.3854468 0.2406388 -0.520752 0.2370559 0.3399169 0.5171077 0.5890293 -0.3766609 -0.03871908 0.2384477 -0.3009478 0.2977132 -0.0976762 1.610896 -0.6953908 0.415748 -0.1016828 0.2385874 -0.3031193 0.7429042 0.349178 -0.3958014 -0.5796537 -0.5388448 0.2354126 0.2068151 0.5635244 -0.556778 0.875654 -0.5671915 0.1879274 -0.3071961 0.2673279 0.5114208 0.3561892 1.232963 -0.08937426 -0.1201673 0.1104197 -0.1725859 -0.9030185 0.6696699 0.1015664 0.2438613 0.3148018 0.5389108 -0.6066114 0.250368 0.1296644 -0.5652442 -0.004432086 0.158834 -0.4841777 -0.04995035 0.02240414 0.3114467 0.01033848 -0.09220202 0.2399493 -0.1887956 -0.8105823 -0.4475051 -0.06816514 -0.3081783 -0.8970646 -0.02497671 0.2880687 -0.5580869 -0.8047676 -0.892269 0.238574 0.432198 0.5573521 0.2330585 0.2990852 0.2260114 -0.4695887 0.4167007 0.7650402 0.03087527 1.650994 -0.2422704 0.1700651 -0.01939566 -1.192148 0.1450078 -0.2168054 0.5288177 0.6894475 0.8073367 -0.50984 0.3508429 -0.1197474 -0.380415 -0.08134625 0.07482 0.112119 0.3386207 -0.4242875 -0.5225627 0.9227976 -0.4369052 -0.6713436 0.942598 -1.078947 -0.5902919 -0.1837078 0.9954177 0.4744358 0.8472213 0.226712 -0.2655764 0.08856482 -0.3372269 0.6189719 0.7196787 -0.1291013 -0.2384673 1.037406 -0.3758754 -1.618739 -0.1097398 0.03952929 0.3928465 0.09564433 0.1240855 0.3564034 0.3783862 -1.229576 -0.1994262 0.8454756 -0.2913126 0.1497203 -0.491226 -0.2890002 -0.0566844 -0.06794193 -0.7166156 -1.088213 -0.1798593 0.1195231 -0.200939 -0.1940639 0.1195792 -0.149165 0.03520763 -0.7999868 -0.5083331 0.200088 0.2769946 -1.160721 0.944775 -0.8258445 0.5618859 -0.294006 0.02795591 -0.3665746 0.1954134 1.253989 0.7898241 0.4844966 0.1886535 -0.3288746 0.1135134 0.9345196 0.4675189 -0.2559486 -0.215218 
  0.3612236 0.09347766 -0.1802334 1.715922 0.3696041 -0.3662728 -0.5849047 0.1089655 0.3761765 -0.6012566 -0.3605587 -0.1526065 1.434652 0.004707756 0.1862339 -0.3765774 0.589905 0.01359481 1.194334 0.4108648 0.3702084 -0.5970137 -0.1027766 0.7502524 -0.159914 0.4003439 0.3562487 0.6373487 0.06772655 -1.080353 0.6287296 0.9911483 -0.3999278 0.8510026 -0.9759798 -0.04716943 0.5159324 -0.1742021 -0.06201208 -0.4784155 0.005945282 0.6222149 -0.1197041 0.02929148 0.8281878 -0.3668132 -0.1994701 0.2433751 0.5223802 -0.5495607 0.6588354 0.05623231 -0.4844012 -1.545335 0.4251392 0.6599318 -0.1767209 -0.2958014 0.0506843 0.7649585 -0.4255814 -1.269106 -0.1451464 0.3073665 0.5762181 0.5753419 0.6241586 0.7281744 -0.8510025 -1.259299 -0.1362345 -0.1871537 0.09898101 1.554398 0.7817133 0.04130931 -0.1335629 -0.08124518 -0.01401775 0.2417417 -0.2912522 -0.167326 0.05328531 -0.0686759 -0.5533414 -0.3019931 0.1072238 0.4972593 0.4806843 0.7488767 0.2389621 0.0003628271 -0.002101462 -1.067215 -0.07533345 0.8860146 -0.0959604 -0.2298708 -0.4929934 0.2151384 -0.1786447 -1.388747 -1.405236 0.08434124 0.5192168 0.7012682 0.04354595 0.431647 0.1358764 -0.7552847 0.3256482 0.6751322 -0.1183196 -0.7425649 0.4300207 -0.5901184 0.4185385 -0.3610464 -0.3010594 0.2985497 0.253881 1.300684 -0.5698884 -0.04078972 0.5616857 0.5144588 0.2214415 0.376467 0.2908258 -0.4962489 -0.3132318 0.6895487 -0.2093936 0.3792935 0.03236579 0.6733117 -0.01248984 -1.230712 -0.8395776 -0.2269676 1.143157 0.1851933 -0.1141166 0.7641532 0.004764604 -0.4532116 1.693537 0.5953785 -0.3713236 0.4315327 0.1432106 0.4570545 0.5979413 0.6440658 -0.3329381 -0.1478534 -0.3942853 0.5964031 0.04159599 0.2488845 -0.8743494 0.2871075 -0.2847695 -0.01840834 0.102162 -0.1513217 0.3208809 0.2352559 -1.105902 1.018481 -0.6217552 0.2395684 0.2023578 -0.06967302 -1.013094 -0.01015809 -0.3618012 0.1421739 0.8202125 -0.1641422 0.4548617 -0.8157628 -0.7082526 -0.1985159 0.3165385 0.2839436 -0.01194002 -0.0773211 -0.1316377 -1.644523 0.369172 -0.2735535 -0.6321957 -0.06350291 0.1731539 0.7944034 0.345859 -0.5341396 -1.157624 0.1445898 0.2916437 0.1049782 -0.3715179 -0.6519986 -0.350427 0.8475623 0.2240216 0.4541677 0.06717873 0.3938112 0.0512659 0.6168108 0.2333058 -0.5111259 -0.8061487 0.7618925 -1.143676 0.151326 0.3992735 0.5862298 0.1056289 -0.8081408 -0.1336005 1.421355 -0.5504683 -0.3155013 -0.2202369 -0.3138298 -0.621671 0.1376622 0.1979939 -1.076805 0.02799675 -1.368538 0.2152511 -0.2059124 -0.1142324 -0.2831829 0.2424768 0.7109603 -0.5503557 -0.1894523 2.823807 0.6316926 1.235117 -0.8010166 -0.3690065 0.08114745 0.6404563 0.3150215 0.1681674 -0.3844389 -1.032103 -0.3910434 -0.8955207 0.1261701 
  0.3187583 -0.1830062 0.5672498 0.2196737 -0.174374 0.6209602 -0.07079195 0.4135735 0.2211269 -0.3056884 -0.09691577 0.576594 0.2335474 0.5065839 0.1415998 -0.257343 -0.1664061 0.7566398 -0.6665648 -0.7111925 0.8585178 -0.3907812 -0.4022439 1.078428 0.3269711 0.1798323 0.02197946 0.08918364 -0.08317024 -0.4351189 0.4593959 0.221927 0.3946327 -0.2138508 -0.2722909 0.8769445 -0.4800303 0.0517115 -0.01724445 0.5367985 1.308241 -0.2075872 1.012287 -0.8582408 -0.8665171 -0.1726363 0.3353572 0.891304 -0.0003234225 0.8414574 0.3054489 0.4174935 -0.1272855 0.1144174 -0.08862922 -0.1855432 0.0711526 0.186892 -0.2155397 -0.1597654 0.5099708 0.01473107 -0.05208481 0.2467653 0.5698892 -0.894885 0.7839983 -0.5870075 -0.1288899 -0.1496256 0.01632107 -0.4547205 -1.467845 0.02163932 -0.1447266 -3.096378 0.2175786 0.3572477 -0.2828211 -0.2182544 -0.6625853 0.1592034 -0.1130924 0.2681512 0.3216756 -1.669681 -0.1948005 -0.7023779 -0.02205728 0.09839535 -0.09316076 -0.838599 -0.1505188 0.1788819 -0.2362564 -0.1458433 -0.06899705 -0.1912671 1.070397 0.5186713 -1.084953 1.502252 0.6627077 -0.01013969 -0.1443024 0.1593541 -1.872404 -0.9887736 1.208486 -0.1811813 -0.7990219 -0.04935981 1.368256 0.4473495 -0.4123306 0.01682817 -0.32158 0.9626703 -1.017438 -1.188984 -0.09258076 0.05574609 0.2355631 0.02168848 0.2584411 -0.4033093 -0.4332441 0.0734392 -0.5987278 -0.3517085 0.7277635 -0.5786039 1.188763 0.4688404 0.08662584 0.08459429 1.25023 0.6590199 0.587779 -0.2191653 -0.0890715 -0.1059133 -0.175965 0.8210038 -0.6570611 -2.413404 -0.07349821 -0.3001522 -0.7567298 0.9947936 -1.079482 0.3364716 0.1803524 0.05726598 0.06994502 0.4003825 0.4255536 -0.2570374 -0.2892545 -0.07236128 -1.226289 -0.5476513 -0.03921657 0.3824144 0.1971693 0.00102229 0.2830502 -0.3271683 0.00885966 0.03642896 -1.280558 0.4196485 0.7220722 -0.8960287 0.2410104 0.1299912 1.579905 -0.2999208 -0.5293472 -0.5069225 0.2640985 0.02722029 -0.1957248 0.2495703 -0.04192102 0.05707784 0.2705933 -1.519414 -0.7925203 0.1553715 0.05904037 0.6594006 -0.4618903 -0.3401965 -0.03653326 0.06186736 0.490547 -0.3798003 0.2324008 0.2043006 -0.159597 -0.08017402 -0.1686338 0.1655113 0.2898899 -0.4610447 0.0635962 -0.6108134 0.1995999 -0.7063988 -0.1368076 -0.1383372 0.7962807 -0.7165769 -0.2531601 0.268413 0.225606 -0.3971112 -0.5635787 0.03143126 0.1185319 0.3534731 -0.1024288 0.167345 -1.043767 0.3124542 0.4311291 -0.7745622 -0.3190532 -0.9555267 0.3141797 0.2862997 0.6226515 -1.055483 1.333272 0.7472084 0.2552656 0.2809141 0.3831674 0.5379498 -1.544553 -0.4642266 -0.2361506 -0.02882342 0.4402773 -0.7040448 0.1654606 0.4168601 0.2452534 -0.1975957 0.5828344 0.09307344 0.2042073 -0.3559296 0.3744533 0.3639519 
  -0.1548645 0.5195762 0.2189646 0.09731717 0.7926413 -1.183129 -0.192179 -0.1790144 -0.05777347 0.9864988 0.7858667 -0.4935013 -0.280386 0.4966981 0.4152009 0.8707625 0.3284136 0.3724678 0.3188328 0.3752013 -0.2650834 -0.1499793 0.8799604 -0.1074165 -0.6537409 -0.1437116 1.10176 -1.012465 -1.526486 0.8747565 0.3353105 0.3852972 -0.2837019 0.3447143 -0.2390039 -0.2973714 0.210452 -1.223764 -0.9623647 -0.5046793 1.362013 -0.5504424 0.2696934 -0.7729971 -0.5759606 -0.327332 -0.4108652 0.2800208 0.9549569 0.08555777 0.4394383 0.09941256 0.7555228 -0.4341619 -0.7876152 -0.9575132 0.6888466 0.8393196 0.1645941 0.5015386 -0.08991475 -0.1680782 -0.8401548 -0.02048211 0.3447624 -0.2137253 -0.1848067 -1.218912 -1.208153 0.3540569 0.7635268 0.2305019 0.1380583 -0.1453544 -1.311736 -0.04561915 0.6645452 0.9181016 0.09041765 1.11808 -0.1156862 0.2653934 0.2964048 -0.3872297 -0.2259062 0.2087241 -1.46949 0.7680612 -0.3485228 0.5079809 -1.192408 0.3348104 -0.5099366 -0.3333584 -0.2708042 -0.9200128 -0.1926822 1.009273 0.258498 -0.1192328 0.008723214 -0.4168414 -0.3546559 -0.1833851 0.2653567 1.216562 0.2973472 0.1913259 0.2661609 0.2245211 0.1365001 -0.2912975 0.524528 1.416911 0.706804 0.6879629 -0.3880247 -0.08846374 -0.5489386 0.5503336 -0.5183881 -0.3836035 0.5934302 0.1423132 0.5497753 0.1037926 -1.0898 0.2564897 -0.1243539 0.01535787 0.1978996 -0.426447 0.4316727 0.783585 -0.03657866 0.5666642 1.065531 0.1457132 0.6625422 0.4169804 0.3366103 -0.05076145 0.1649522 -0.1392736 -0.2647795 0.3442912 -0.7594424 0.0788968 0.4102622 -0.4602655 0.3219313 -0.9200689 -0.4243532 -0.02406249 0.3674985 0.2454373 0.6192941 -0.2200776 1.097926 0.3101867 -0.5364728 -0.4390024 0.09311022 0.6408772 -0.5208203 -0.5119384 -0.2828842 -0.5465574 0.5867449 0.4825609 -0.2997381 0.396879 -0.9732322 1.114161 -0.5564852 -1.372354 0.2594195 -0.219959 0.6945344 -0.4860421 0.0888077 -0.2586107 -0.2818045 -0.1178562 0.2739004 -0.2283155 -0.2958259 -0.06441693 -0.9454495 -0.4088499 -1.272465 -0.8327028 0.955322 -0.07783032 -0.6389001 -1.634816 -0.7610359 -0.8060079 -0.6562023 -0.292347 -0.1553936 -0.6242195 -0.07823439 -0.8043727 0.8567783 -1.247926 -0.567923 0.4055471 -0.04680113 0.004802909 -0.0810059 0.2844062 0.0499017 0.9438314 -0.4074328 0.5043063 0.2574937 0.1161332 -1.925184 0.4633557 -1.312217 0.5822191 -0.07849164 1.020562 -1.615628 0.1591474 -0.5825298 0.8051502 -1.314848 -0.01525544 0.5087197 -0.8415321 0.05775521 0.8307132 0.05029534 0.375087 -0.2338496 1.605353 -0.4472061 -0.42034 -0.5206729 -0.07205632 0.3251292 0.07671338 -0.9994473 0.3009528 -0.6916144 0.3015348 -0.733476 1.522621 0.2593261 0.1529305 0.824995 0.1346036 -0.7085227 0.6086814 
  -0.2362171 0.192459 -1.074005 0.1306639 0.4218024 0.01143976 0.001292078 -0.401435 -0.02865056 -0.1035581 -0.5616913 0.09320651 0.1819243 -1.412206 -0.1986776 0.4512978 0.3157086 -0.4372934 -0.2675356 0.8904099 -0.142151 -0.4497811 0.2310724 -0.103871 0.4481008 -0.07229639 -0.6783602 -0.04662953 0.1734376 0.9738402 0.5204002 -0.9257808 0.6168477 0.7973341 -0.297348 -1.832803 0.4546869 -0.220583 0.04827857 -0.1003036 0.7988423 0.7082292 0.0286323 -1.148718 -0.6945979 0.8958851 -0.3872624 0.579453 -0.0371527 0.8845143 0.1105313 0.941471 -0.3111902 0.3222399 -0.4287271 0.2264655 0.1299751 -0.1747048 -0.46105 -0.7950224 0.3623992 0.1361457 0.3217583 0.2951166 -0.008899254 -0.1832723 0.8180993 0.1049814 1.084993 0.2037413 0.01179606 -0.6481819 0.3958777 0.007611973 0.4667932 0.5286506 -0.3032753 0.829691 -0.3386872 -1.012982 0.6687155 0.8611231 -0.5629911 -0.001639521 -0.5088418 -0.3433475 -0.05033116 0.0436361 0.7662268 -0.4456781 0.1874327 0.4704144 0.1407338 -0.5271814 0.2885315 -0.3893379 0.6050189 0.1617354 1.108905 0.8301246 0.2722833 0.387477 -0.8831952 0.2461646 -0.2169242 0.2854014 0.03413739 0.2999935 -0.9502934 0.6239362 0.9482754 0.1527345 0.8141456 -0.3181559 -0.1814533 -0.6600533 -0.2054525 -0.4650941 -0.0231595 0.5185854 -0.7040226 -0.2207333 -0.2531944 0.3028735 0.279838 -0.335944 -0.6532906 -1.026761 -0.7830504 -0.3938668 -0.1009497 0.5059775 -0.2993399 -1.03184 0.4624301 0.1788776 0.3607226 -0.6621862 -0.03869122 0.1909355 -0.08710331 -0.751502 -0.2182137 0.3650745 -1.487176 0.1170444 -0.1358746 -0.09463239 -0.008493005 1.008681 -1.429353 -0.1503166 -0.2124207 0.591882 0.04192218 0.2640857 -0.07887439 -0.7042888 -0.04278248 0.8597132 0.6237561 0.2401844 -0.4176084 -0.244884 -1.46453 -0.166191 -0.4467937 0.0621304 0.9495966 0.525411 -0.07501174 0.8476949 0.09944448 0.4434773 -0.0850013 0.2474425 0.1563476 0.06364691 0.0986999 0.3003452 -0.4697985 0.1951538 -0.1705974 0.2891287 -1.08767 -0.2349003 0.6788254 -0.3558273 1.035944 -0.5382895 -0.3253774 0.5041154 -0.3821732 0.4841783 -0.2972102 -0.6321451 -0.06176607 0.1371347 1.30393 0.230905 0.3838565 -0.2737269 -0.4624315 -0.114263 0.0171213 -1.127522 -0.9212212 -0.04394018 0.237737 0.0353165 0.03045202 0.4639719 0.1577767 -0.1538461 -0.4703603 -0.2753711 0.04688592 0.4026463 0.3425298 -0.3531089 -0.6682899 0.4695703 0.07896186 0.8905764 -0.585142 -0.02796809 0.6112749 -0.8620996 0.1053195 0.350663 -0.4290404 -0.2481283 -0.4293624 0.2438241 -0.2297961 -0.2453578 0.719622 0.6583902 -0.6136715 -0.9695412 0.08399144 -0.2481097 -0.9689842 -0.2127701 0.02098743 -0.7641942 0.6777807 0.06684797 0.332139 0.2504489 -0.3265938 1.3073 -0.2736398 0.1586249 -0.1653256 -0.7064814 
  -0.02432524 0.2683523 0.4011093 1.824929 -0.1628031 -0.2274102 0.8153145 -0.4254637 0.9797394 -0.08655243 -0.5515016 0.07880579 0.5767493 -0.9152677 -0.6450153 -0.08611397 0.6171385 -0.3618091 1.664384 -0.02622815 -0.8930382 -1.586389 -2.508497 1.133696 0.3655865 0.4206083 0.3548306 -1.11238 -0.9242516 0.4338947 -0.8872749 1.405293 0.7233143 -0.3552831 -1.517671 0.4406374 0.3827538 -0.006223794 -0.2700557 -0.4730897 -1.216582 1.254602 0.03638838 -0.08138763 0.166984 0.6528971 0.1908336 0.01312533 0.4414555 0.1023706 1.516873 0.3347834 0.5070684 -0.6879333 0.1868254 0.3944446 -1.728467 1.030664 -0.839081 0.1192717 -0.1180446 -0.6174421 0.5927116 0.1286613 0.6053745 -0.7664546 0.1902932 0.5763103 -0.9998784 0.8845078 0.2443465 0.2638839 -1.010854 1.756229 -0.5180502 -0.1841335 -0.5527943 0.1568968 0.1485411 0.3289332 -0.0005644272 1.19467 -1.889966 -0.04359472 -0.1606793 -0.4395851 0.4661396 -0.1315218 -0.4857824 0.8423356 -0.6793333 -0.2866515 -0.2317791 0.807543 1.200465 1.136504 0.1126071 0.3606205 -0.3571945 0.9034111 -0.005375729 -0.1117123 0.296175 0.4779744 1.423588 -0.9896707 0.4582048 0.662525 -0.05480868 -0.2997005 -1.473192 -0.1643223 -0.4112241 0.6123953 1.22052 -0.6545013 0.9497648 -0.448967 -0.7826414 0.2830454 0.7251016 -0.1757551 -0.3785882 -0.1366974 1.085652 0.3992689 0.2686194 0.2573285 0.9727774 -1.002175 0.316687 0.7152556 -0.1038537 0.6256803 0.1598433 0.3651892 0.805446 -0.5228956 -1.097917 0.2584228 0.8332219 -0.6098866 0.4554764 0.5248247 0.5632831 -0.9589735 0.8772875 -0.2239122 -0.3113507 0.6006967 -1.867042 -0.01075447 0.8684746 0.7715764 -0.6982231 0.7959154 0.5437306 -0.2821364 0.1339962 -0.4670032 0.8269181 0.7277296 0.05255147 -0.7577844 0.1615543 -1.736237 0.3658963 -0.684968 -0.7014629 1.21245 -0.5971398 0.8839279 -1.277368 -0.1624067 0.001413296 -0.3484445 -0.03666107 0.5292287 -0.8893816 0.6456063 0.8464829 0.7441313 0.5415763 1.288015 0.1325416 0.6105823 0.2002084 1.016074 -0.6100001 -1.825515 -0.5793394 0.3215998 -1.263222 -0.7322465 -1.083727 -0.7255557 0.2025066 -1.01265 -1.226952 0.7443853 -1.262264 0.9785132 0.8009894 -0.660971 -0.9868481 -0.07117043 -0.01329978 -0.38929 -0.5118925 0.1942343 0.1655309 0.06528328 0.110239 -0.001443118 0.2761781 1.114587 -0.1833979 0.04264472 -0.09587647 0.5147954 -0.4537293 0.004423677 0.9913945 1.133914 -0.4351309 0.7132256 -0.6033833 -0.3288443 -0.133139 -0.5455107 -0.6183901 -0.63041 -0.2232246 -2.016114 0.1141307 0.9340045 0.4407686 0.05574658 0.7019944 0.2251444 -0.8565787 0.1215921 1.75545 -0.08376755 -0.2930232 -0.05732285 0.6289249 0.5619387 -0.7835848 -0.2448149 -0.03896618 0.4389394 0.6161742 0.07286672 -1.357631 -1.480872 
  0.4893027 0.8384216 -0.3683178 -0.07097517 -0.05895529 -0.02603613 -0.09551929 -0.2614403 0.2931503 0.237949 -0.3670171 0.07957464 -0.3023933 -0.4907295 0.3340355 -0.1114328 -0.4699861 -0.1638919 -0.76175 -0.2744919 -0.3801914 -0.2785878 -0.1392768 -0.105479 0.8369963 -0.3523032 0.8025196 -0.3489281 0.1769456 0.06199421 0.1054104 0.02383092 0.2070283 1.360711 -0.8417422 0.3514612 -0.1528977 0.4699006 0.5906798 0.1502387 -0.2968864 -0.9242429 -0.4655749 -0.2437079 0.8349572 0.5767367 0.01801557 0.2115056 0.3130379 0.2421651 0.6695873 0.1673629 0.2811201 -1.752765 -0.4209508 0.5722741 -0.02906375 -0.5288436 -0.1477804 -0.3250829 0.01243755 0.4513348 -0.5810734 0.04441143 -0.04469134 -0.2098453 0.3853729 0.1302109 -0.8361869 -0.04565547 0.08373185 -0.915976 -0.05735099 0.2651076 0.6329826 -0.1120803 -0.1255881 0.02923696 0.008745166 0.1161583 -0.2282125 0.2533672 0.05381016 -0.03378841 -0.08674961 -0.3558237 0.01506398 -0.3699198 0.2004847 0.3051668 -0.9319103 -0.03600487 -0.245679 0.2773245 0.03201374 -0.3833861 -0.415644 0.1911067 0.5724891 1.118717 -0.4612661 0.2537118 0.7592267 -0.1489173 -0.6315651 0.355871 -0.4953293 -0.3852158 -0.05030291 1.314904 1.16792 0.1421732 -0.3891413 -0.3379351 -0.07746144 0.520007 -1.27091 0.5806403 0.03216666 1.484742 -0.7693969 0.9020889 0.2727725 0.4293802 -1.069179 0.7067393 0.2192919 0.9390111 0.8494446 -0.6675601 -0.06299715 0.2661504 0.01125012 0.07697414 0.1622937 0.5945216 0.185321 0.2911313 0.9041795 0.3307871 -0.3376082 0.4551346 -0.5928857 0.4671366 -0.3374194 -0.4180626 -0.0845663 -0.7086238 -0.7908463 -0.5661618 -0.8127682 -0.7150558 1.200351 0.2491401 -0.1150799 0.3922583 0.395059 -0.502162 -0.6899427 0.5061278 1.045309 -0.1076059 0.79206 -1.69787 1.038671 -0.5793056 0.2795624 -0.7697425 0.8272317 -0.3157396 -0.02057464 -0.4516397 0.9481807 0.710043 -0.04594467 0.2303951 0.2770353 0.5741743 -0.7535955 -0.08494782 0.05487538 0.2653871 -1.288021 -0.07222374 0.1907314 1.381463 0.7211813 -0.2305792 -0.1177041 0.1863046 0.3656315 0.2608303 -0.7177762 0.08077598 -1.587371 -0.6751432 0.7099223 0.0481228 -0.01029153 1.268198 -0.3995225 0.02284408 0.4175629 -0.3696782 0.09265699 -0.7110122 0.9072852 -0.07518235 0.3718229 -0.3631798 -0.01099401 -0.3179193 -0.4807483 -0.07077819 1.11875 -0.2403737 -1.01587 0.2136743 0.04367244 -0.2783782 0.9525568 -0.012719 0.3761517 0.3533615 -0.4885285 -0.08843583 -0.6273287 -0.5790067 -0.1553149 0.2799203 -0.3885975 -0.2074747 0.7408264 0.9043978 -0.135808 -0.2456248 0.144378 0.7236031 -0.3835757 0.06938216 0.7813553 0.2472115 -0.5025892 -0.6481595 -0.09912284 0.345871 -0.3379225 -0.3377624 0.2561657 -0.8503821 -0.02177372 0.7385224 0.0983942 -0.3651278 1.478592 -0.4630294 
  1.234497 0.7709257 0.04187902 0.6745794 0.3609335 -0.5601521 0.01706187 0.4500625 -0.9839098 0.4147469 -0.3888043 -0.09896804 -0.5490981 0.5218323 0.6196036 -0.2733659 0.326734 0.1585949 0.1537657 0.3365259 0.06361904 -0.1099021 0.03179928 -0.1575268 1.476613 0.7075287 -0.2067071 0.1138427 -0.002158488 0.03572682 0.9352209 -0.2137986 -0.1469451 0.05620042 -0.4297269 -0.7521213 -0.171012 0.1838401 0.5140803 0.3403797 -0.8957679 0.1958931 -0.5795049 0.1582512 0.04411091 -0.3508517 0.1546514 0.02654152 0.6378174 -0.1852739 -0.4498634 0.1798261 0.8548778 -0.525886 -0.1164287 -0.3690057 -0.1585485 1.346567 -0.8951766 0.3167228 -0.3192998 -0.809571 -1.27397 0.9128312 -0.03760561 -0.06127217 -0.4288397 -1.284832 -0.2343289 0.116999 0.4876019 -0.2808057 -0.2941884 1.231737 0.2551528 -0.275217 -0.06630785 0.1548204 -0.5275243 -0.3868243 -0.2269268 0.1938903 -1.120569 0.5604038 0.6227739 0.1943848 0.1504133 0.435862 -0.1897046 -0.4297284 -0.3341441 -0.7416056 0.2879684 -0.9644984 -0.8619865 -3.008943 -0.1809063 0.1266239 0.8618718 0.5861159 -1.162919 0.2575943 0.02322317 0.2961067 0.3945076 0.7694336 0.6251195 -0.4397385 -0.03377724 0.4374691 0.05777337 0.0612407 -0.7190023 0.07663894 -0.4204703 -0.05583857 0.7013794 -0.2431045 -0.1879955 -0.3227071 -0.3715383 -0.8601865 -0.2862031 -0.2395937 -0.5359758 -0.7913739 -0.3207706 -1.233666 0.3269083 -0.4154666 0.3258289 -0.5719208 -0.2482492 -0.2735565 -0.3212536 0.19828 0.937081 -1.387496 -0.0660326 -0.1321802 0.5568126 -0.5870479 0.3163505 -0.7193099 -0.005666681 -0.07658433 1.880736 -0.1684767 0.01045275 0.08684905 0.421244 0.06095289 -0.6110869 -0.3010587 -0.1576215 0.3995387 -0.08400021 0.5682979 -0.6586435 -0.1164992 0.8349485 -0.7285239 0.9403219 -0.5934884 -0.327386 0.05352863 0.5164786 -0.5600731 0.4537284 -0.01262006 -0.1011893 0.3162009 0.6729866 -1.163331 0.6529117 0.4505819 0.3041598 0.2989649 0.7070065 0.4956748 0.3538305 0.9046624 -1.874885 -0.4354322 -0.1623604 0.1999086 -0.1284207 -0.4146247 0.2105763 -0.2292733 -0.3720986 -0.9109731 0.6828767 0.5330307 0.2474512 1.246261 -0.1874893 -0.04355748 -0.2701775 0.4800581 -0.10447 -1.021575 -0.1339931 0.2073689 -0.254112 0.539287 -0.7173765 -0.7375579 0.7924825 0.2843553 1.09726 -0.5486665 -0.3604946 -0.9831395 -0.4784299 -0.2452441 -0.9303614 -0.3144431 0.0416752 -0.5015841 -0.2149387 0.3423799 -0.4024761 0.6441195 0.1800908 0.2340972 -0.4618702 -0.3485165 0.2257153 -0.1636086 0.1508691 0.3318158 -0.3929937 1.071939 -0.2251846 0.01278317 -0.578946 0.2680328 0.3926944 -0.0908493 0.5468618 0.6627113 -0.2129909 -0.1687207 0.4866445 -0.1538328 0.1120184 0.3956168 -0.5491232 -1.277048 0.347409 0.1150677 -0.3635731 0.5637743 0.6623889 -0.06516314 
  0.2107129 0.1898979 -0.2194728 0.5641983 0.9605349 -1.001628 0.08963468 -0.9067839 0.1302151 -0.3327875 0.03438028 0.6320844 0.3142899 0.6696507 0.5045186 0.3120097 -0.3912844 1.012718 0.4969191 0.6442664 -0.4775343 0.1506787 0.7890285 0.4833357 0.1016978 0.116256 0.08196698 -0.2327207 0.3597244 0.2156119 0.119249 0.4791458 -0.4976406 -0.6780479 -0.4686817 0.4971073 -0.2354932 -0.06983157 0.208431 -0.7458274 -0.7598096 0.02312367 0.2130634 0.2291551 0.6137546 0.2364227 0.7317118 0.2745874 -0.3461061 -0.3023157 -0.1068795 0.4517978 0.1363027 0.131789 0.0146885 0.1815852 0.8346629 -0.4336045 -0.4709669 -0.2149327 0.1232851 -0.612368 0.2435134 0.1303023 -1.6073 1.132785 0.2375226 1.288562 -0.2032644 0.5345154 -0.4595283 0.4290887 0.2476146 0.2177084 -0.2103284 0.01618976 0.6213164 -0.4134672 -0.403317 -0.9105439 0.6292222 -0.3421669 -1.030769 0.6042699 0.6559299 -0.1796168 -1.46419 0.4256229 0.9841402 0.4324724 -1.294174 -0.2055788 -0.3018683 -0.02973465 -0.5216749 -0.1533773 0.771715 0.7545736 0.08104108 -0.3771724 0.4616579 -0.6984851 -0.2114512 0.05041904 -0.5273947 -0.1166079 -0.4176211 -0.4657058 -0.436428 0.4260606 -0.7354037 0.07250753 -0.04882471 0.2587788 -0.6329318 -0.0006584985 -0.1561059 0.5637166 0.5832254 -0.3807065 -0.3697506 -1.664601 -0.1162384 0.4999979 -0.350163 -0.4387916 -0.1395879 -1.082036 -0.147315 -0.3687937 -0.4703103 0.4055054 0.1500626 0.3649078 0.6106967 -0.4665411 0.4316692 0.7653927 0.3521914 0.235553 0.860972 -1.07301 0.2323269 -0.6955317 -0.4301558 0.02551118 0.6979229 -0.7028484 0.1340121 -1.192394 -0.3831816 0.04143675 -1.651695 -0.164227 0.4901508 0.4236671 -0.3354004 -0.7683648 -1.302476 0.05011221 0.05765921 -0.7772272 0.2222879 -0.4680551 -0.8166502 -0.01272993 -0.07339711 0.1931608 0.2662122 0.4839618 0.1426311 0.04216329 0.7305627 -0.1825863 0.2864081 0.04540161 0.5479568 -0.9657444 0.1637028 0.7981308 0.2198235 0.4559174 -0.5808001 0.4386015 -0.4444886 0.7797881 -0.1709992 -0.4023274 -0.06977026 0.7690352 -0.1297027 -0.1057125 0.6563163 0.5671285 -0.3624536 0.7218754 -0.9859039 0.501116 -0.1063419 -0.381729 -0.5345145 -1.058789 -0.002404193 -0.08475661 -0.5712277 -0.2420746 -0.1369562 -0.899866 0.7914873 -0.2430434 -0.1557858 0.3705852 -0.3304943 -0.4322959 0.1830545 0.3510652 -0.4806465 0.5003889 0.007614251 -0.4878041 0.2440965 0.2490406 -0.650936 0.282883 0.2822085 -0.4310537 0.3092253 -0.4005707 0.3410673 -0.7786326 -0.2721789 -0.1691732 -0.5041712 0.332049 -0.6278607 0.5375499 0.1243251 -0.1989286 0.3340284 0.09970947 -0.2258437 0.2614437 0.1464224 0.344778 -0.2306848 -0.4258585 0.5309093 -0.2230364 0.3495707 -0.1217144 0.4096889 0.7134653 -0.8047174 1.219029 0.6047056 -0.3598063 
  0.6052259 -0.2621376 -0.1579433 0.3367845 0.02675922 -0.5915519 1.037975e-05 -0.05694734 0.3066945 0.06973243 -0.275912 -0.1506032 0.2186298 0.1109769 -0.1101583 -0.2945206 -0.5980561 0.5851006 0.01458176 0.9412854 0.6996461 0.6013601 0.2706203 0.4548144 0.6741011 -0.7418987 0.0843531 0.8253044 -0.3467139 0.2836663 -0.09205385 -0.640461 0.009089324 -0.3037198 0.6208628 -0.01272949 0.03696936 0.01117377 -0.7074582 0.3644357 0.04216949 -0.2365465 0.2598397 0.3669523 -1.27988 -0.4096313 0.02020138 -0.03472253 0.5762054 0.261639 -0.725503 0.506946 0.551469 -0.2694959 -0.07551886 -0.3866653 0.07619429 0.4172004 -0.6609327 -0.5090773 0.4885503 0.7066366 0.6338163 -0.1942845 -0.557545 1.279362 -0.0576432 0.6311801 -0.3422508 -0.3789049 0.1794856 -1.171709 0.253375 0.8225602 -0.6645722 -0.3132397 0.04860108 -0.8789457 0.2886808 -0.4075075 0.3312119 -0.1958253 0.5876983 -0.9478205 -0.5307107 0.6109777 -1.285252 0.4246226 -0.3012779 0.09742168 -1.609205 1.021914 0.8124249 -0.3433518 -0.1630781 0.7344124 0.8782764 -0.7915844 0.2788021 0.3753515 0.3942269 -0.02571244 0.7058449 -0.4855809 -0.07095936 0.1704496 0.1698124 0.1828682 -1.108739 -0.4611807 0.3539607 0.5782513 -1.241819 0.4902797 -0.3418108 -2.252652 -0.4131668 -1.773354 -0.5457534 -0.1055297 0.01754453 -0.5610291 0.3745768 0.3293498 0.8532128 -0.291669 -0.9751084 -0.6362078 -0.5996203 -0.7938658 -0.3764696 -0.2767088 -0.5065084 -0.526557 -0.2575007 0.5045386 0.4880499 0.2667398 1.173289 -0.6923159 -0.4203089 -2.008176 0.6036709 0.001278815 -0.04738663 0.00791059 -1.217676 -0.115322 0.8091228 0.109792 0.4189614 -1.043218 0.6708324 -0.9419233 -2.859888 -0.1365803 -0.1732488 -0.206021 0.3902849 1.14906 0.2378919 0.2406621 0.5227593 -0.4379558 -0.09484787 0.381218 -0.1692149 -0.6537721 -0.6078281 0.1548956 -0.1713636 -0.2673263 -0.6705354 0.1956438 -0.6124794 0.07205471 -0.07965426 -0.02637899 -0.01111966 0.4510807 -0.3962263 0.08404925 -0.1975441 0.1254437 -0.1689573 0.1729558 -0.3644084 -0.5876502 -0.7503255 0.4865604 -0.02053054 -0.7876154 0.002885863 0.0901708 0.889295 -0.3815476 -0.2840866 0.6150177 -0.467687 -1.105441 0.3740131 0.3135169 -0.2008578 0.1131943 0.8266805 0.233273 -0.2873361 -0.6611821 -1.447822 0.02052293 -0.1835857 1.24484 -0.4589368 0.6779453 -0.1028453 0.3694956 -0.2421608 0.5292832 -0.7448282 -0.17337 -0.3526041 -0.3759848 0.333944 0.4401062 0.1605697 0.272508 -0.576032 0.3893267 0.0602741 0.2837442 0.115553 0.4177585 0.1400709 0.5906485 0.553058 -0.2871485 -0.5334603 0.8613827 0.352378 0.3738064 0.3241863 0.2800817 -0.1349754 1.585943 0.1590473 -0.351653 0.4811673 -0.1340013 0.3957367 -0.3807309 0.3157673 -0.3917718 0.2296151 0.2466517 0.06043856 0.6027296 
  -0.2272321 1.154184 0.9023991 -0.9319888 -0.1023484 -0.1500196 0.4580864 0.06309254 -0.7365423 0.0573887 -0.1208982 -0.005723915 0.06466147 0.1977705 0.6154005 0.1470578 0.2144441 0.9383337 -0.06479346 0.2136746 -0.3472742 -1.335888 -0.1882464 0.2343559 0.08578341 -0.2356744 1.033845 -0.5567344 -0.2396876 -0.08360006 0.822813 -0.08335391 0.3484253 0.05336658 -0.2225589 0.1284416 -0.1546561 0.3989818 -1.04525 -0.05376557 0.2402632 -1.116402 -0.02639289 0.2823172 0.5446757 0.7567154 0.1036236 0.4490974 -0.1438634 0.1369717 -0.1033506 -0.4424258 0.7239496 -0.1244715 0.422408 -0.1726624 0.7294312 -0.1821593 0.9721732 0.1378784 0.1566733 -0.2301538 -0.2046061 -0.12323 -0.04696504 0.87735 0.3070917 0.5316368 0.499072 0.08833939 0.2663499 0.4479317 0.2665677 -0.1787521 0.9817501 -0.9285036 0.4064628 0.3326346 0.272755 -0.1588433 -0.4626348 0.04457112 -0.5414401 0.002364293 -0.543565 0.2728036 0.3138785 0.2413692 -0.7850751 -0.4931563 0.05700894 -0.309257 0.2373486 -0.421342 0.01197749 0.1535663 0.07908861 0.06615509 0.8550013 -0.7871077 0.02177178 0.5938592 -0.2095465 0.4242029 -0.6144297 0.8750844 1.328997 0.4554125 0.2522009 -0.6225516 -0.3234359 0.2047976 -0.5407339 -2.81126 0.0896377 -0.4539207 -0.2342643 0.6542696 -0.2512193 -0.8743234 -0.5542734 0.04059691 -0.6853275 0.855577 0.1519366 0.9285973 -0.8100481 -0.1043404 0.6085683 0.2253018 0.3071418 1.229749 -0.04407053 -0.9144084 -0.1517348 0.1172649 0.213053 0.04287298 0.2898652 -0.6831472 0.6903483 -0.1844767 -0.1519118 -0.1493315 0.1257142 0.8440975 0.07416564 1.01483 -0.1683513 0.4121405 -0.2814302 -0.8230957 -0.1661999 0.7644316 0.2917488 0.2033361 -0.3581393 -0.5700456 -0.03163094 -0.5378295 -0.2773782 -0.1095663 0.9524392 -0.7053367 0.777738 -0.03031325 0.1122836 0.3276881 0.0008147345 -0.4962224 0.001375628 0.2350283 0.2977458 0.7757979 0.2280721 0.2868719 0.9288524 0.3483906 -0.3865134 0.03628635 0.9689649 -0.2241721 -1.091035 0.007517564 -0.6265723 0.07390422 -0.3108475 0.5093545 -0.4714808 -0.5925809 0.2050052 0.2655371 -0.9046634 -0.1478891 0.06582527 0.02452031 -0.5848725 0.3066162 0.726867 -0.1225391 0.4735749 0.4664075 -0.01678035 -1.233037 0.2806236 0.2339831 -0.358887 0.08886021 -0.1419462 0.8864464 -0.2651339 -0.2160463 0.2592488 0.1515432 -0.4541982 0.8737888 0.3810585 -0.3986804 -0.4439079 -0.5912126 -0.6261364 0.002118071 0.3811048 -0.4008652 -2.209249 0.7032296 0.5403535 -0.384615 -0.1901469 -0.3293339 -0.2519244 0.270942 -0.3824194 -0.6286398 -0.176036 -0.3558125 0.03096005 -0.2212028 0.3287559 -0.3866715 0.253024 -0.1498592 -0.5710027 0.553211 0.5155355 -1.116283 -0.1098147 0.2658868 0.03018278 -0.03819679 -0.07641434 -0.4502191 -0.3566466 0.3774684 0.2286283 -0.3289248 
  0.8247951 -0.04135176 -0.1491781 0.1619268 -1.366414 0.5560288 -0.04228507 -0.09882004 -0.5031499 0.3389147 -0.2190439 -0.5170722 -0.05621322 0.6716502 -0.0173157 0.240894 0.3638689 0.3497835 0.5522228 -0.4810679 0.7961186 0.106351 -0.5979884 -0.7081779 -0.102994 -0.01208271 0.04803962 -0.3683698 0.6411381 0.09672046 -0.5438778 -0.06943954 0.04290604 0.1865042 0.2060915 1.07865 0.3472818 -0.4638354 -0.0466148 -0.4831418 -0.8833176 0.2064117 0.1659023 0.4897679 0.4194909 0.1726436 0.3298278 0.3057274 -0.5929099 -0.1393625 0.2250602 0.4733434 0.0004793961 0.3302261 -0.3920008 -0.4032599 -0.3027709 -0.04792466 0.2040951 -0.1699223 -0.5012197 0.2741635 -0.02816772 0.1466405 0.2433623 -0.2205251 -0.2028229 -0.559916 0.1387747 0.338089 0.4635632 1.095394 -0.2288876 0.02171109 -0.5172222 -0.3642728 0.06366733 0.1380677 0.535725 0.5601886 0.5257326 -0.02534043 -0.1963801 0.08704067 0.2924489 -0.1129103 -0.05021352 0.02135997 0.03896012 -0.3927323 1.467261 -0.5453451 -0.2294365 -0.2695296 0.03580101 0.5847376 0.08226436 -0.8936088 -0.644699 -0.689888 -0.1362101 -1.568878 0.4782181 0.2124004 0.2934936 0.6008611 -0.421005 0.3653726 0.146037 -1.043941 -0.7615269 -0.04605734 -0.03274042 -0.06733654 0.005430989 0.2211786 -0.485869 1.265774 0.8226 0.1746268 0.5634387 -0.1579382 -0.6777169 -0.3153665 -0.1472127 0.1550159 -0.5347586 1.300288 -0.8894807 0.8378412 -0.3120656 -0.4279533 -0.7335302 0.669356 -0.3315799 -0.2782996 0.09329478 -0.3241045 0.3305073 -0.1737228 0.3096502 1.163296 0.2429341 -0.8942416 0.464268 -0.08692777 -0.1038847 -0.02273497 0.9365174 -0.865042 0.4538885 0.2970291 1.265798 -0.3616553 0.2648151 0.08740204 0.2597852 0.7651134 0.4394543 -0.2666169 -0.06153388 -0.6525154 0.2258453 -0.4136145 0.347375 0.8447459 -0.5743211 -0.5288925 0.8663704 -0.3705732 0.2976302 -0.6191562 -0.1142223 -0.5027734 0.1577623 -0.4361838 0.1589474 -0.2964799 -0.697538 0.2940051 -0.7051756 -0.1946255 -0.3346196 0.6134841 -0.07585251 0.1402482 -1.20573 0.6656662 -1.154332 0.3717242 0.2189977 -0.2311019 -0.5111977 0.02839305 -0.8239618 0.4109233 -0.1453239 -0.1423897 -1.170111 -0.6112822 0.03865742 0.04153499 0.004885587 1.016493 -0.1858234 0.1497429 0.1435215 -0.4217235 -0.1327809 -0.6374993 -0.1681596 0.3176123 -0.4161635 0.1487965 0.3123368 0.6235606 -0.6612335 0.5378578 -0.2581933 -0.1583846 -0.6645063 0.234055 0.4447026 -0.2588133 -0.1719842 -0.4452904 0.5676811 -0.4681111 0.4544818 0.7097799 -0.4620712 0.5551186 1.58581 -0.365962 0.3618515 0.6018779 -1.184741 0.3005598 0.02924133 0.5061728 0.02791556 0.1081339 0.5927824 0.9684215 -0.09709164 0.2132722 -0.6546272 -0.5251824 -0.9450917 0.1395852 -0.3291007 -0.9313826 -0.5052388 -1.407939 -0.1930516 0.08404101 
  0.5649494 -0.2799748 -0.4004287 -1.020581 0.1671546 -0.8189679 -0.7538438 0.4116266 -0.5271079 0.06706554 -0.1371821 -0.750945 -0.5845634 -0.3596806 0.5325519 0.2919853 0.3793415 0.469545 0.512687 0.07406342 0.6679847 -0.5601454 -0.6704799 0.1082564 -0.7487824 -1.032485 1.167624 -0.01328645 0.5940819 -1.474489 -0.2904466 -0.4925155 0.5863053 0.1578 -0.1378453 -0.7528686 0.2130686 -0.3071729 -0.3790534 -0.7842652 1.019666 0.5017453 0.5583552 -0.495877 0.1448112 -0.6167825 -0.01701258 -0.4765899 0.5789009 0.9441925 -0.1911281 -0.1597424 -0.3911177 -0.2690752 -0.0329992 0.2016703 0.2059795 -0.5014195 -0.2647335 0.2894226 -0.04857809 -0.6177363 0.5410715 0.3912533 0.7097238 -0.009785852 -0.7511714 -0.1970174 0.150664 -0.05199409 0.8656621 -0.4913978 0.160298 -0.6279553 -0.3520189 -0.127408 0.168761 -0.0301466 -0.07659896 -0.07891109 -0.3367078 1.022351 0.2941637 -0.9306254 0.01459019 0.5337544 -0.6112998 0.1301074 -0.4084759 0.3419875 0.4741949 0.2081208 -0.285342 0.3152002 0.8090302 0.41523 -0.04118286 0.9574237 -0.4436505 0.1896566 -0.2987351 -0.9303625 -0.5026866 0.08221405 0.3218047 0.09923113 -0.0792306 -0.08332047 -1.433066 -0.222087 -0.231163 -0.07963392 0.8819898 -0.3756562 -0.1238131 0.1631786 0.0852057 0.3763135 0.2393304 0.1780399 0.7406647 0.1664791 -0.3673785 -0.3547081 0.1312706 0.1217998 -0.3787628 -0.2798988 -0.1015464 0.3238445 -0.5537655 -0.9262514 0.2041286 0.4627569 0.3908092 0.3257062 0.5228763 -0.4396829 0.1156192 -0.01132215 -0.0719135 -1.040279 0.1309528 -0.9676203 0.1003183 0.2742902 0.6688897 -0.1725082 1.210473 0.3784087 -0.7469094 -0.232778 -0.227675 -0.262771 0.2152407 0.283295 -0.2781954 0.5616173 -0.3982487 1.004096 -0.59213 0.04683345 0.9667048 -0.1191077 -0.2946402 0.6229116 -0.3839177 -0.7009881 0.7890494 0.1496767 -0.5811642 0.2693753 -0.3483721 -0.9810563 -0.2075976 0.5186183 0.04769522 0.2968586 1.191468 0.4541745 -0.08177199 0.3987411 -0.371573 0.5381122 -0.2041482 0.3946362 0.1624092 -0.09448647 -0.3907603 -0.4215997 -0.4281618 -0.1842097 0.5837591 -0.7232049 -0.6373572 0.7001659 0.1982687 0.797403 0.2316697 0.8414458 -0.7392185 -0.9030186 0.05955167 -0.9067935 0.5961912 -0.5640818 -0.03510997 0.1714395 0.4041848 -0.6585298 0.3522803 0.260527 -0.03059353 0.04268278 -0.02136726 -0.08105025 -0.4004418 0.1769361 -0.2758874 -0.2891192 -0.07385821 0.2538038 -0.04585507 0.2294385 1.215053 -1.069247 0.4137486 -0.4601215 -1.469298 0.01881342 0.1727327 -0.2549907 -0.04444008 0.2766333 -0.05025006 0.4165297 0.07291217 0.2726631 0.4184359 -0.1574787 -0.5788341 -0.3123313 -0.5241427 0.4637376 -0.535031 -0.3960036 0.9193308 -0.02613069 -0.4015188 0.1734627 0.4805633 0.1009438 -0.01394918 0.01671832 0.144961 -0.3373655 
  0.06555379 -0.6115557 0.7818064 0.827679 -0.5173597 -0.006424929 0.1612096 -0.3747789 -0.5806079 0.234881 -0.4346465 -0.2464418 0.3807034 0.01376481 0.2567107 -0.2290228 -0.01722245 0.2484972 -1.102962 0.09241861 0.02304388 -1.072322 -0.4356742 -2.106368 -1.014272 -0.4994766 0.09514984 0.4889802 -0.3312153 -0.8892444 0.2130048 0.1042472 -0.4904892 0.2714151 0.05525781 -0.5345553 0.5390452 -0.4595208 0.111534 -1.123467 0.3238103 0.007911966 0.05393351 0.2230248 0.4437979 -0.1173739 -0.6800019 0.03131013 0.8935035 -0.3257266 -0.3752274 0.5069094 -0.3015166 -0.5527094 -1.251755 0.2407449 -1.122057 0.1563964 0.1516585 -0.2223329 0.342802 -0.4004613 -0.7698648 0.1787243 0.644214 -0.4611307 0.2876052 -0.9825773 -0.9575385 0.3118792 -0.04189055 0.2209426 -0.1942392 -0.5983664 0.2278485 -0.3329057 -0.6444018 1.203248 0.04982996 -0.6084915 0.8035738 -0.5482466 -0.234971 -0.3478614 -0.6531572 -0.3827647 1.017781 -0.4511437 0.9156259 0.2399081 0.5107895 0.332778 -0.1881183 1.156771 0.6292093 -1.442684 -0.2816839 0.09938134 0.3741891 0.1167645 -0.9057784 0.2159983 -0.3406622 0.1040733 -0.4803829 0.8386105 -0.05933539 0.5573847 0.6387353 0.2471315 0.1810813 -0.04895278 0.7277943 0.02667703 0.2241816 -0.08441802 0.1052463 0.2539584 0.3355691 0.195974 -0.2643676 -0.07677583 0.1903081 -0.4789757 -0.1536956 -0.2974271 -0.2265823 0.2805102 -0.3784363 1.268031 0.4215729 0.5481262 -0.3743048 0.2057351 0.06037003 0.702035 -0.5446312 -0.873214 -0.3234653 -0.695788 0.4883844 0.3924105 0.4048889 0.9158211 0.2806671 0.1403904 -0.4610707 -0.6374109 -0.4527818 -0.5458457 -0.6735789 -0.01848917 -0.1807324 -0.009076237 0.7177235 -0.2491837 -0.6036373 0.02437171 0.4582265 -0.8884489 -0.3697518 0.03365904 -0.9373723 -0.522476 0.820395 0.03749114 0.3808195 0.3890917 0.5419531 0.2232831 -0.1195973 0.4206081 0.03777556 0.4845581 0.2878872 0.2676975 0.07208741 -0.2739489 -0.5442949 -0.06729046 -0.1026907 0.3604624 0.3237497 0.6639212 -0.03512714 0.04879415 -0.3905568 0.6828859 -0.4936386 0.2195628 -0.1213982 0.6662343 -0.1533434 0.1241895 0.07870193 0.3797568 -0.02219403 -0.3161258 -0.1215699 -0.06883338 0.08029238 0.428838 0.2612871 0.4385312 -0.8929587 -0.2288236 0.7421339 -1.309309 -0.788083 0.08633932 -0.699366 0.4834415 0.78675 0.5149459 -0.6759849 0.3456302 0.4767565 0.3274753 -0.3227139 -0.1562172 -0.005398123 0.2037038 -0.3437487 0.05715688 -0.3223352 -0.5985591 -0.150024 -0.5903227 -0.1151863 0.2422075 -0.4490157 -0.5891024 0.07379656 0.3329486 0.1764669 0.3730405 0.1795098 -0.7059037 -0.5465782 0.1109006 0.08148673 0.004907737 0.3001671 -0.4394633 -0.1078115 0.1518846 -0.2171327 0.2389183 -0.110869 0.2660801 -0.4678694 0.1466078 -0.6909637 -0.6330082 0.4863557 -0.228777 
  -0.7674225 0.4291792 -0.5139002 0.1906393 0.2123367 -0.1612168 0.2255075 -0.416051 0.5215163 0.5815926 -1.304394 -0.01952174 -0.6052488 0.7307042 -0.3767656 0.5435494 -0.2372284 -0.5307651 -0.3721818 0.169224 0.4421897 0.07948836 -0.02227205 -0.3405733 -0.3977026 0.1198162 0.7579643 0.09043319 -0.1594304 0.4912689 0.5152175 -0.8341781 0.1338192 -0.2814556 0.3320101 -0.2372199 0.2451507 0.2180258 -0.0572764 -0.727482 -1.699579 -0.2642745 0.1168183 -0.07997109 0.1416625 -0.4392022 0.3642092 -0.486654 -0.06071241 1.04436 0.3414913 -0.1716377 1.033969 -0.7399068 -0.1474504 -0.03502264 0.04263123 0.1640133 -0.2494919 -1.16217 0.00757466 -0.2096128 -0.07208244 -0.1537555 -0.1959828 -0.3526672 -0.2915021 -0.039808 -0.3658286 -0.7125838 -0.288335 -0.1517023 0.1062011 0.07753062 0.5801538 0.2973449 0.5142288 0.4681993 0.4746964 0.3031848 0.2814629 -0.4349717 -0.2570149 1.331345 0.3702168 0.5499308 0.1905132 0.3989291 -0.04529608 -0.008722402 0.6919835 -0.8217722 -0.5675626 0.3765055 0.2405878 0.1639057 0.3016708 0.19478 -0.05323868 0.4413674 0.3124379 0.4340139 -0.2040551 -0.4880519 0.3326358 0.08112372 0.5528104 0.604524 -0.6470353 0.4725312 0.004737638 0.2754448 -0.08486718 -0.1074696 -0.4178358 -0.1709544 0.5122897 -0.5687086 -0.5280743 0.7195933 -0.1318721 0.106416 0.8080382 0.1195849 0.390863 0.5319878 0.1816274 -0.4055752 -0.7207739 -0.8322873 0.1622086 0.6133031 0.06725706 -0.06639072 0.1267719 0.899644 -0.2858805 -0.2972238 0.2851147 -0.3402439 0.004768744 -0.4565263 0.7025902 -0.2579599 0.2681326 0.3917847 -0.2005253 -0.5344883 0.6412033 0.202635 -0.4150683 -0.6332188 0.2710452 -0.3782 -0.04072102 0.1116191 0.06313703 -1.449685 -0.3373835 0.01937338 0.5657117 0.5705318 -0.3574692 0.07180264 -1.615509 -1.194194 -0.3985326 -0.8727062 0.2658232 -0.1577492 0.1893477 -0.825927 -0.3953702 0.1168075 0.2710941 0.7235558 -0.4716784 -0.06268825 0.0004441329 0.4886239 -0.1331115 0.8523766 -0.175612 0.1397779 -0.1508273 0.7295376 -0.4450434 -1.030639 0.3098848 -0.361862 0.1411028 0.8773867 0.3188143 0.4783431 -0.07328274 -0.6613374 -0.3559053 0.5681629 1.014803 0.1497671 -0.6784285 -0.1109032 -0.1801287 0.672164 -0.2106871 -0.2082249 -0.3603289 0.2083417 0.8305107 -1.312506 -0.4159129 0.04539688 -0.07566412 -0.2967471 0.04877486 0.3136417 -0.157175 0.7146886 0.3951155 0.8884364 0.3343809 -0.2122385 0.913664 -0.42389 0.4441425 -1.023908 0.4495085 0.4711719 0.7708912 0.03160734 0.5938123 0.8505599 0.2707147 -0.02067807 -1.040123 -0.2910264 0.06361031 -0.03926819 -0.2654774 -0.1597489 -0.1973017 -0.05270259 -0.009538045 0.4081011 -0.1913945 -0.2584774 0.1505078 -0.1223774 0.1158766 0.6201164 -0.2589684 -0.04235452 0.783716 -0.13526 -1.24484 -0.7493992 
  0.1772587 0.7509224 -0.7477444 -0.03313683 -1.567292 -0.5467039 -0.6915621 -0.4747564 0.3547062 0.2873698 -0.6192203 0.7554897 0.1997728 1.24943 -1.288359 2.30597 0.2059666 -0.1689371 -0.1153115 1.869982 -0.1889783 -0.09546735 -0.01964933 -0.08017697 -0.7406479 0.1265579 -0.9428802 0.4415895 0.8311344 0.7022724 0.9765804 1.007695 -0.6305743 0.2411158 -1.081569 1.04503 -0.5975389 -0.4966683 -0.1139319 -0.5142388 -0.09763508 -0.2977473 0.2647216 0.0711781 0.1709609 0.08322058 -0.03754039 0.6485716 -0.05989355 -0.02259703 0.3099681 0.9961653 -1.395913 -0.82236 -0.6551478 -0.4887652 -0.1413708 0.2436583 0.5584739 0.327741 0.6287634 -0.7772468 -0.7170138 -0.1826534 -0.5345653 0.2481175 -0.1416472 0.3968423 -0.02772722 -0.1475051 -0.5650541 -0.3570375 0.1483827 0.1353241 0.1662145 -0.3343938 0.5893929 0.1203216 0.5773167 0.3794059 -0.1077935 0.03051594 0.4845397 0.5370055 -0.6387014 0.940029 -1.040274 -0.419667 -0.5248545 -0.1340054 -0.9009274 -0.4608876 0.3931515 -1.143266 0.4049866 -0.167168 0.08582862 0.1276397 -0.1801444 -0.8169352 -0.5798411 -0.9796039 1.180365 0.4356311 0.484647 0.333571 -0.06689351 1.241894 -0.1221891 1.256835 -0.2496132 0.9259708 0.263252 -0.008809895 -0.6473152 0.6566192 0.9792475 0.4902275 -0.3633884 0.08954132 -0.05304445 0.09513432 0.4569006 -0.3519248 0.1731555 -0.5475683 -0.1367552 0.02792676 -0.1239804 0.8904703 -0.1647239 0.1917901 -0.9373234 -0.8684124 0.2450481 -0.7742903 0.0328463 0.413121 -0.1695275 0.3561732 0.505581 0.6909953 0.3800344 1.095823 -0.2865742 -0.2108734 -1.276668 0.9629619 0.4916441 -0.1741343 -1.323588 0.4253714 0.131269 -0.3971491 0.04030743 -1.02344 0.8331279 0.4248174 -0.5730382 0.0670713 -0.106964 0.1390262 -0.7469935 0.8176324 -0.08545643 -0.3537626 0.2765371 -0.2745198 0.05199369 -0.5948949 -0.009330818 -0.8500501 -0.7854508 -0.08702803 -0.3663902 0.5260161 0.337219 -0.3319374 0.08513846 0.2878654 -0.08163859 0.127254 0.1104077 -0.3180738 0.693589 -0.4642563 -0.5922384 0.460402 -0.3338841 -0.8178134 -0.2500908 -0.0855609 0.6150586 0.3577899 -1.208776 -0.3379957 -0.7206437 -0.5627049 0.7855574 0.7060426 0.1055048 -1.18952 -0.2999435 0.3957938 -0.6261721 0.1205859 0.03150484 0.5165908 0.6223899 0.1372442 -0.3810977 -0.589622 -0.01139859 0.03806064 -0.4522783 -0.2477637 0.2424589 -0.5089393 -0.6351592 0.2484053 -0.5548755 -1.002809 0.0676316 1.615039 -0.3235742 -0.4872334 0.06664542 0.06364676 -1.855111 -0.8399593 -1.235119 0.3466463 0.4060282 -0.2049987 1.051658 -0.1164301 0.7226644 1.434539 1.119137 0.4481386 0.8733922 -0.08410181 -0.02435685 1.638741 0.4403299 -0.1019189 0.4685971 -0.6364461 0.3500221 -0.09508416 -0.09592495 0.08084894 -0.1642501 -0.2232617 0.03585462 1.613275 
  -0.587658 -0.5818062 0.2644555 -0.4412357 0.07680865 0.6977015 0.2503705 -0.3838324 1.400176 0.04090256 -0.3337137 -0.73957 0.1086425 -1.515991 -0.2133244 -0.2848065 -0.005340485 -1.096303 -1.440581 -0.433916 -0.06118369 0.5403246 0.5275903 0.4544691 1.634518 -0.1977983 -0.5118743 -0.1470443 -0.5151521 0.7722636 -1.25158 -0.2652114 -0.2448039 0.4924158 -0.5887566 -1.198274 -0.2662259 1.005475 0.07204135 0.7999749 0.1895888 0.5332324 -0.5040498 0.3034143 1.203141 -0.5638688 -0.1048041 0.04464291 -0.6943407 0.8168081 0.6327143 0.3994645 0.2553861 0.8333012 0.3504928 0.1085333 -0.8259081 0.9783361 0.3282594 -0.4875976 0.9637671 1.327897 -0.5975807 -2.720254 0.8333907 -0.287322 0.7652029 1.171414 -0.5468439 -0.09233423 0.8019008 0.14335 0.05552793 0.3260136 0.8007861 0.5500298 -0.5424727 -0.2636569 0.4338313 -0.310584 0.08542207 0.2626979 -3.602888 0.234318 -0.442519 0.5845525 0.880682 0.1982295 -0.6140271 -2.101948 0.2643488 0.3275977 1.142852 -0.3457595 0.4169933 0.9415144 -0.650675 0.3306346 0.5183616 1.483311 0.02141227 0.08637523 -0.7770352 -0.7984048 0.7173869 -0.4340377 0.6350584 0.2972386 -0.2066144 -0.127753 -0.8072346 0.3826814 -1.359982 -0.2686511 0.0580982 0.03584548 0.2227637 -0.2330097 -0.06902215 0.3090323 -0.04442864 0.9275807 0.1050386 -0.367722 -0.8712718 0.1076811 -0.4267144 1.424972 0.4975152 -0.342098 0.4291945 0.4175756 0.5245922 -0.1126606 0.06214675 0.111244 1.110956 -1.727255 -1.41088 0.141359 1.332834 0.233169 -0.5385495 0.5049187 -0.1614683 -0.6486998 -0.08791067 -0.01972422 -0.5801877 0.1761056 -1.165371 0.8437587 0.5788306 -0.4480803 -0.0535195 -0.3930347 0.03515961 -0.1588158 1.517698 -0.03938157 1.173931 0.6265684 0.4351479 0.1310654 0.3983495 -0.3983149 -0.1873042 -0.3072558 -1.659876 0.004091687 -1.736884 0.1432328 -0.8858701 0.389314 0.1016227 0.3873633 0.875542 0.2868426 -0.4591174 -0.2768332 0.4584756 -0.5015635 -0.092638 0.589887 -1.38914 0.6339465 -0.435794 0.09676554 0.1594476 -0.3353892 0.5517265 0.00754529 -0.7310849 -1.033864 0.1960553 0.1344909 0.3201629 0.2157806 0.04735486 0.4417684 0.06915003 -0.7088845 -0.1295166 -0.01150458 -0.4660228 0.5764527 0.08346491 -0.9419454 0.344469 -0.1117591 -1.012768 0.7640405 -0.1190691 -0.4532446 -0.190092 -0.7235545 0.2748871 -0.5005455 -0.1755597 0.456935 0.3968932 0.4045134 0.7785771 -0.5727738 0.6634294 -0.1534309 0.3829899 -0.4147057 -0.2745814 -0.1242591 0.112176 0.3853502 0.06863165 -0.5038894 0.2281267 0.4828251 0.4112662 0.1381402 -0.1527252 -0.2553422 -0.3954121 -0.1788295 0.3195328 -0.5799254 -0.03084807 -0.5323209 0.6139959 -0.6905708 0.5408826 0.09767713 0.2612231 -0.6814255 0.08899141 0.04098425 -0.4859781 -0.09934121 
  0.3720165 -1.183947 -0.2856562 -0.228466 -0.6420296 0.1820162 -0.8587542 0.401636 0.3443985 1.133344 -0.002465885 0.676282 0.1455203 -0.04507982 1.419409 0.4703019 0.2261333 -0.3239671 -0.342392 0.8070525 0.4427662 0.9769803 -1.423581 1.08018 -0.202677 0.6256797 -0.06380415 0.5106791 -0.4980941 -0.6263887 -0.10753 -0.9219621 -0.8385855 0.4598221 -0.03585767 -1.996905 0.4781815 -0.009626502 -0.09493686 -0.433582 -0.1752122 -0.02621874 -0.8719 0.7122055 0.8707824 -0.4004933 0.345088 -0.1561832 1.092391 0.2882973 -0.3021758 0.523019 -0.3568097 -0.4166764 -0.04343041 -0.4080659 -0.4744004 -0.8608229 -0.9967565 0.3020417 0.4648669 0.4406524 0.004347556 -0.6965883 -0.2263937 0.5025797 -0.3958915 -1.26501 -0.2171908 -0.3568128 -0.4416459 -0.5124653 -0.9107046 -0.4705655 -0.1288754 -0.2143133 -0.84923 0.7477097 -0.3014502 0.2562842 -0.2223751 -0.3428121 -0.7737568 0.2002682 -0.9585935 0.1064404 0.3758729 -0.212284 -1.827718 -2.530921 1.066957 0.5124683 -0.2104628 0.403072 -0.1053457 0.7498966 -1.230936 -0.2788484 -0.07766666 -0.2680062 -0.4314108 0.2355905 -1.107326 -1.151695 0.8470052 0.09466261 0.3895018 0.605116 -0.01230655 -0.7187997 0.3049099 -0.2460504 -0.3291258 -0.2415064 0.821798 -0.7114388 -0.2699131 0.1019366 -0.3127228 0.4271568 0.1986074 0.7686812 -0.08269385 0.2513233 -0.7844784 -0.4747369 0.1100531 0.3022842 0.1914411 -0.3846752 0.01968747 0.6847061 0.07662133 0.7515302 0.7723528 0.2173484 0.5874701 -1.208643 -0.3531573 0.6998389 0.7019078 0.01165399 -0.1618085 1.347893 -1.353376 0.4280045 -0.2842809 -0.6658733 1.350133 -0.8944137 -0.2990339 -0.7546152 0.4201447 0.132009 -0.1009949 -0.2544584 -0.2137715 -0.1735652 0.3275989 0.3919506 -0.3134753 0.3603531 0.942292 -0.9772121 -0.5102141 0.3831505 -0.4335777 0.5144258 0.1101568 -0.2241961 0.9041423 0.3019295 0.173164 0.3390059 -0.3517864 -0.2520396 0.8773449 0.1037649 -0.3955216 -0.2614758 0.6489741 -0.1266623 -0.05818648 0.07477321 -0.7600589 -0.8292778 1.222979 0.3107751 -0.4354477 0.1610246 0.8900694 -0.1529102 -0.399941 1.10297 0.2919905 1.117366 0.6556839 0.5674533 0.05420587 0.2347056 -0.4045364 -0.3178645 0.08544718 0.5491965 0.2202597 -0.2137101 0.1489963 0.5557733 -1.137937 0.8231373 -0.4303487 1.259872 -0.06843568 0.03269669 -0.1637475 0.4249424 0.1421532 0.1237277 0.05369714 0.5341816 0.2891436 -1.073353 0.03405945 0.2470507 0.9729 0.6121508 0.01057792 0.1118564 -0.1096337 -0.2377124 -0.6720206 0.6204027 0.5697628 0.4873384 0.07312675 0.03813871 1.007667 0.4357979 -0.02861476 -0.09658217 -0.1850485 -0.1485257 0.2734018 -1.143574 0.7238177 0.06303887 -0.3147217 0.5869322 -0.1189502 -1.127186 -1.152059 -0.4210463 -0.1832893 0.4589406 -1.971501 -0.5706437 
  0.2003398 0.5195115 -0.8928005 0.8804945 -0.742601 0.09010709 -0.6529171 -0.1698101 0.3096122 1.940641 -0.6619841 -0.6856734 1.195522 -0.07402289 0.330718 -0.5254478 -0.2602271 -0.760822 0.5627828 -0.521134 0.1343408 0.145085 -0.02306695 0.151982 -1.045074 -0.05477216 0.3222162 0.2345814 0.3854352 -1.557854 0.1419712 -0.3029434 0.2637372 -0.4978418 0.6575683 -1.264561 0.5531826 -1.087885 0.9660454 -0.5938687 -0.03807359 -0.2550806 1.147349 0.4014719 -0.4934919 0.3338538 0.4262381 -0.1209581 -0.4007303 0.03418427 -1.005042 0.241901 -0.2594662 0.8236982 -0.9673526 -0.4335749 1.369627 -0.791957 -0.1889624 0.2913581 -0.07663032 -1.008395 0.4704473 -2.278718 -0.8528865 0.4361879 1.358137 -0.3441534 0.1464142 -0.5313827 -0.3107543 -1.705041 0.926226 0.1693398 1.054421 -0.1301347 1.254351 -1.334997 -0.5609423 -0.3128304 -1.517832 0.6683267 0.9833082 -0.3631282 -0.1087731 -0.6438538 -0.09229566 0.07883995 1.0572 0.3757897 -0.7690932 -0.5921305 -0.8678951 -0.9814709 -2.22891 -0.4083763 0.8917781 1.262852 -0.03456796 0.9003568 -0.1293629 -0.2580074 -0.3124896 0.7990031 0.5541598 -2.568032 0.4089743 -0.1147907 0.6818203 0.07260595 -0.5439087 0.09188845 0.9661134 -0.2132995 0.7158177 -0.05777377 -0.7327639 1.314719 -0.1662748 0.650436 -0.6518728 -1.277438 -0.172855 -0.4101014 0.003329162 0.1392454 -0.3532651 -0.7227794 -0.04111234 0.2555048 -0.4102103 0.1574717 1.626862 0.0333688 -1.32626 -0.2211981 0.4037904 1.501023 -0.7307778 -0.2978342 0.7867349 -0.248156 0.3926955 -0.2089621 0.09581005 0.7851586 -0.2629946 0.4255195 0.4600954 -1.18743 0.1223121 0.3401526 -1.44031 0.05188903 0.2917128 0.2800976 -0.1937952 -0.316458 -1.191149 0.6813365 1.081815 -0.2992974 1.284222 -1.296821 -0.5943847 -0.04510988 0.1012752 -0.1696937 -0.0312953 1.526244 0.7094646 0.8019339 0.2087728 -0.3804946 -1.008013 0.1184242 -0.2422932 0.1345482 1.365959 -0.2482473 0.8824469 0.3840061 -1.744743 0.5333907 -1.135232 0.6502946 0.4384956 -0.5638359 0.5397973 0.3308158 0.7460392 0.2840408 0.1375986 -0.07042091 -0.1111333 2.058036 -0.1643289 -0.9723486 0.2938784 0.1213059 -0.05083172 -0.6561104 -0.1390588 -0.1268708 -0.8388819 0.7068796 0.2863424 0.4440692 0.6224152 -0.1211358 1.39793 -0.1304293 -0.6144187 -1.612554 0.2239734 0.4793815 -0.4991362 -0.26011 -0.5306576 -0.7573922 -0.1978516 0.2722036 -0.7232414 1.385528 -0.009667008 -0.4558398 -1.251584 -0.1634855 0.1186572 -0.09607362 0.02659164 0.19524 -0.4217641 -1.486848 0.06093527 -0.3444406 -0.9189262 0.5278401 -0.1024503 -0.002219854 0.05494457 0.3612634 -0.252494 0.06857568 -0.1619712 -0.4639938 -0.3643537 -0.007805184 0.8072008 -0.1224189 0.8486809 -0.2474489 0.2388493 1.147055 0.7190711 0.2505005 
  0.55594 -0.6100677 0.5102801 -0.2819791 0.8993126 0.3432009 -0.01068991 0.108962 -0.4889785 0.2983774 -0.1595336 -0.2314303 -0.2371876 -0.2747069 -0.6472807 0.6674415 -0.2258522 0.1139575 1.319645 -0.1032422 0.2925031 -0.9309328 -0.06556347 0.8224084 0.2854424 -0.2828098 0.03810661 0.4535485 0.9359099 0.3144772 0.2303431 -0.3587238 0.5485001 -1.500289 -0.5326723 -0.8302744 -0.5106676 0.1051867 -0.2317972 0.7277983 -0.5283459 0.3925598 0.7462531 -0.6608971 0.4982224 -0.6680042 -0.2807978 0.4199677 -0.3366463 -0.9804802 0.6193078 0.3781309 -0.2750882 0.6094465 0.4132914 0.04100144 -0.7236611 0.8007898 0.1609631 0.1817213 -0.03383137 -0.4808498 -0.431836 -0.1767195 0.4669655 0.8266878 0.4936932 0.196649 1.191028 0.2767726 0.1086388 -0.02828122 0.249589 -0.5478398 -0.8478285 -0.2507585 1.012069 0.3226429 0.9830262 -0.262869 1.267367 0.4432237 -0.8607887 -0.4268539 0.33054 0.427369 -0.1047361 0.3542233 -0.2814164 0.1908234 -0.2686647 -0.07142448 0.5438334 -0.1613681 0.5404026 0.08897163 0.8271662 0.001693459 -0.8944665 -0.310569 -0.3590817 0.1643428 0.2591738 0.6971064 0.4429146 -0.9953439 -0.4306473 -0.2303858 -0.206265 0.3281498 -0.6041674 -0.2744531 -0.4823673 -0.2425224 -0.2756462 0.2395277 0.2681174 0.287951 0.5625498 -1.243719 0.5108045 -0.1458775 0.1165831 0.2516696 0.2777243 0.1112829 -0.556451 -0.3066468 -0.09334876 0.6090457 -0.1714573 -0.3231781 0.09980414 -0.9339467 0.1389572 -0.2873985 1.174081 0.21736 -0.1832107 -0.03163635 0.2065055 -0.1884667 -0.1332386 -0.6332216 1.184387 -0.2718094 -0.336235 -0.07972248 0.2131294 0.2822685 0.03166672 0.4856895 -0.6702731 0.4067022 0.3430597 -0.696259 0.06876218 -1.562959 -0.4343954 -0.8810714 -0.07976175 0.7008185 0.1581899 1.343285 -0.9628753 0.5027807 0.3543654 0.6559238 0.977623 0.09639753 -0.5605217 -0.07067823 -0.1457265 0.01069509 0.1265245 0.268295 0.1122566 0.002231568 0.05067113 -0.06713291 -0.4610615 0.1580117 0.2683665 0.5093882 -0.77536 0.3568229 -0.944612 0.5774967 0.7834633 0.08707015 0.3696338 0.3406239 0.397006 -0.3665689 0.6222568 0.4378906 -0.1492392 0.1307898 -0.3147111 -0.9764834 0.1704553 0.2695472 0.4144745 -0.01216213 -0.7614132 0.5188747 -0.1412775 0.4197388 -0.4634254 0.2157973 0.09066782 0.2268097 -0.4829041 -0.7510817 -0.8328926 0.4352666 0.5319469 -0.4633296 -0.4136756 -0.2702699 -0.5045934 0.01034678 0.1805763 -0.6664026 -0.6389796 0.5518067 -0.06961042 0.7309927 -0.4536821 0.002845964 -0.2261174 -0.5258428 -1.049497 0.2678152 -0.7731594 0.4715312 -1.11827 0.1331723 -0.6760665 0.77573 -1.07655 0.02082535 -0.1787789 0.05653644 0.2137463 -0.1961431 -1.520692 0.8323683 -0.2528263 0.852518 0.1179568 -2.87868 -0.36415 0.6887353 -0.73327 0.5303871 
  0.09400733 0.2790134 -0.07502665 0.6722625 -0.6377188 0.2708001 0.9228611 0.02960739 -0.03329909 0.5044764 -0.6695324 0.01907325 0.04629482 1.20979 0.6450819 -1.277042 0.3063224 0.5640665 -0.6346344 0.7954921 0.2234479 -1.239276 0.4747703 -0.03055389 0.3716104 -0.08175761 -0.004618973 -0.02818524 0.7612767 0.7937947 0.07704717 0.2853604 0.4801313 -0.612825 0.4632096 0.2544345 -0.008417709 -0.1455215 -0.3814582 0.01564666 -0.9491189 -0.1882925 0.3326502 -0.3059135 0.6644412 -1.680983 -0.8422643 -0.3422838 -0.5350323 -0.9970483 0.09769429 -0.7768838 -0.340452 -0.497042 0.6714446 0.6899074 -0.2242746 -1.139032 0.464372 0.251103 -0.3818747 0.3094389 0.7876456 0.5877615 -0.4557234 -0.2925679 -0.2246258 -0.08282377 1.066872 0.08866744 -0.6701791 0.1060048 -0.5568037 -0.7278192 0.002544418 0.3203142 0.4688498 -0.4916251 0.1345032 0.1559104 0.3496169 -0.403698 0.387949 0.03384366 -0.8939301 -1.134416 -0.08322406 -0.1707018 0.3993952 -0.4238546 0.4779129 -0.3729861 -0.8036225 -0.2441075 -0.462965 -0.02963964 -0.5795957 -0.6739805 -0.4117567 0.2226669 -0.05586238 -0.3571841 -0.6965854 0.05952314 0.5116273 -0.8673252 -0.3598912 0.9178234 0.4543302 0.04939516 0.06230671 0.2196786 0.7391799 -0.3092755 0.337973 2.430121 -0.4313128 0.1437683 0.07477172 -0.004556863 -0.4122735 0.2429872 -0.3257388 0.03090479 0.2345677 -0.2416844 0.08617356 0.06020854 -0.2348423 -0.07396218 0.3506194 0.1059811 -0.6334987 0.2228834 -0.199293 0.2202569 -0.6186286 -0.1723083 -0.001081926 0.02306887 0.3938338 0.7995892 -0.4995725 -0.08731914 0.1583299 0.6135653 -0.8459425 0.4319699 -0.03222333 -0.844378 -1.478064 0.0754652 -0.2472304 0.8240107 1.183492 0.6067683 0.01164141 0.4942383 0.3603172 -0.3871415 -0.4579131 0.1871881 -0.4046992 -0.1566885 -0.1217862 0.2780239 -0.6619313 0.7720075 -0.006263417 -0.2274306 0.007653244 0.4187902 0.8090224 -1.376805 -0.33205 0.8016106 -0.5235938 -0.3269847 0.516609 3.218757 -1.789308 0.620025 -0.534998 -0.341992 0.554089 0.3019069 -0.09334108 -0.678057 0.07863536 -1.011509 0.3210552 0.07957781 0.09599002 -0.9339717 -0.01800617 -0.007231151 0.1895759 -0.9024788 0.8576413 0.1615892 0.0267206 0.2793663 0.1646113 0.9844993 -0.4549798 0.7822477 0.3142037 0.429954 0.5742345 0.07307625 -0.01776066 0.2977934 0.4968004 0.261831 0.1733503 0.2822511 0.3930008 0.3525915 0.6742694 0.1419501 -0.5068837 0.3487061 -0.1268367 -0.7713324 0.7576806 -0.083322 0.191796 0.02575934 -0.5506042 0.5636895 -0.7194478 -0.6103173 -1.307093 0.4191878 -0.2325393 -0.6421992 -0.1518889 0.1552108 -0.214259 0.1905925 0.8395922 -0.05374503 0.2723291 -1.127546 0.3122678 -0.1029995 0.02672335 -0.3465619 0.9231241 -0.5926741 -0.2704501 0.4789056 0.2288237 -0.5400215 -0.5931463 0.4070437 
  -0.2090488 0.3089363 -0.3412707 -0.08088124 0.07705627 0.1202469 -0.01777023 0.9063412 0.3861757 0.004785828 0.477974 -0.9599324 -0.672287 -1.082401 -0.5890259 -0.008607027 -0.3713854 -0.4502854 0.4676318 0.2240137 0.4748386 -0.5230938 0.5621533 0.9491395 0.6519065 0.4327072 0.3747943 -1.060961 0.6258439 0.2528386 0.05762994 0.1275666 0.5152806 -0.1054592 -0.5583333 -0.09481987 0.9019148 0.02141122 0.2131983 -0.515062 -0.2762347 0.08409598 -0.2064996 -0.3517758 -0.1756547 -0.1335765 0.2811505 -0.5473984 0.01584893 -0.780681 -0.7058649 -1.070662 0.241123 -0.4307651 -0.8522284 -0.4263304 -0.1178944 -0.496668 0.1084221 0.05445119 -0.3663009 0.6457695 -0.1783594 0.1198866 0.4272741 0.5635747 -0.3463126 -1.562151 0.4014052 -0.2497506 0.3418639 -0.5303619 -0.2167141 -0.6616428 -0.4886034 0.0140017 0.5809761 0.7863674 0.2712074 -0.5764962 0.4960876 -0.3088365 -0.5467368 -1.181034 -0.18816 0.6275343 -0.01834505 0.3587445 -0.5283071 0.5509554 0.0626484 0.5980197 -0.3126612 0.2049269 0.390855 -0.4432373 0.05714443 0.005250015 -0.3982039 0.6586725 -0.3058516 0.1942346 0.1532741 0.1541097 0.7129809 0.1631279 -0.2719465 -0.107149 1.408335 -0.4375817 -0.3234905 -0.07247311 0.04277503 -0.1049247 -0.5300629 -0.4938294 -1.021796 -0.2966866 0.4830324 0.3222407 -0.4704523 0.2105783 0.1743782 0.485151 -0.2384101 0.847151 -0.3703077 -0.110732 -0.645794 0.5384119 0.1657702 0.4840972 0.01937876 0.3704225 0.8865677 -0.2257441 0.5182014 -0.1892142 -0.55092 -0.7980542 -1.065193 -1.298163 0.04944881 0.4925754 0.6700355 -0.1471129 0.2348973 -0.9941131 0.2601391 -0.6633502 0.4213067 0.3517561 0.7281471 1.03981 -0.3393673 0.2833469 0.1185477 -0.3792486 0.02233255 -0.07375398 0.5315489 0.2845149 0.2161334 -0.5638145 -0.7654521 0.2294806 -0.2434428 -0.1789239 1.184303 0.6107101 -0.5169047 -1.100139 -0.796477 0.1792928 0.305311 -0.1084456 1.011349 0.116715 -0.8014176 -0.6857659 -0.0684732 0.2861628 -0.6407639 0.230039 -0.06285805 0.2321099 -0.05030843 1.141545 0.489659 0.463755 -0.6272683 0.3090657 0.5304427 -0.05357686 0.1787399 -0.7379218 0.1693103 0.5592977 0.3552507 0.473908 -0.3675653 -0.296704 0.2445391 0.1719201 0.411752 -0.7174637 0.50371 -0.4893582 -0.8583826 0.0823571 0.1812965 0.2102554 -0.6359494 -0.1406995 -0.07493011 0.375225 0.7963456 0.2785707 0.1503687 -1.619081 -0.1321682 0.1461024 0.005996939 0.06092841 0.4287372 -0.05344446 0.1228375 0.2897415 -0.4715624 -0.4511924 -0.4138149 0.09320217 0.5268726 0.07146411 -0.5424136 0.3520109 0.1245805 -0.4606312 0.2221847 0.3374242 -0.100394 -0.5057195 -0.2394189 -0.08012787 0.1032326 0.454067 -0.3798975 -0.1994582 -0.6973379 -0.2740626 -0.1377676 0.615822 0.1032804 0.4097148 0.2609106 -0.04832622 
  -0.9432393 0.3472565 0.2647952 0.9536917 -1.525103 1.060791 0.260387 1.451331 -0.8942451 0.1667151 1.633261 -0.002738291 -0.7318857 0.3852682 -1.41684 0.2642311 0.1953962 -0.8943747 -0.01701275 -0.04689863 0.0252597 1.204661 0.6940959 -0.3720276 -0.2049642 1.012917 -0.8867272 0.375012 0.9848412 0.1610114 -0.1013946 -2.4544 0.2162641 1.50463 1.647867 0.2544769 -0.3658384 -0.9292646 0.6285871 -0.6171402 0.6191508 1.093061 1.616903 0.3148918 0.2157821 -0.5284334 -0.1988901 -0.7775235 0.3187083 -0.2620787 -0.06129217 -0.03288929 -0.3021305 -1.108382 -0.1556051 0.004599638 0.6071935 -0.5210322 -0.3300534 -0.5160723 -0.8772216 -0.3589834 -1.885429 -0.1833711 -0.1599675 0.8835923 0.03930987 -0.03301513 0.6702904 0.6873233 -0.559746 0.4109849 -0.612731 -0.948083 0.6211946 0.2832229 0.1930632 0.7271156 1.069191 -0.5469219 -0.4043979 -0.6265548 -0.4242809 0.2806619 0.147149 0.06967427 0.08589139 0.5072621 -0.2179057 -0.1057635 0.5065773 0.5025564 0.2524048 0.7487952 0.7367846 -0.7508417 -0.516495 -0.206126 0.7072651 -0.6190545 0.0717693 0.07123992 -0.7685074 0.03206601 0.3111877 -1.337358 -0.1452972 0.5565865 0.3933274 -0.07008649 -0.3056069 -0.5444838 0.2545287 0.1339856 -0.3585354 -0.8873563 -0.9859215 -0.1946313 -0.7716594 -0.0238046 -0.03617268 0.3234027 -0.3998772 0.04213378 -0.878608 -0.5437199 0.3474995 0.01826942 0.4492078 -0.05158932 0.4883906 0.2946523 -0.3984095 -0.3181314 0.1160363 -1.43405 -0.1830082 -0.4115772 -2.098301 -0.1054289 -0.8006271 -0.07151993 0.4303665 0.4950349 0.04316855 0.5255331 0.2151476 -0.8645084 -0.6163288 0.06648423 0.5740582 -0.7382753 -1.083605 -0.3005973 -0.6366619 -0.3570084 -0.4743969 0.8024191 -0.9065069 0.6310779 -0.4310943 0.08504761 0.2046856 0.8826873 0.2532546 -0.5351801 -0.5525026 0.3448886 0.2552867 -0.1822455 -0.36395 -0.1144439 -0.3684966 0.6290487 0.2497976 0.04940031 0.6245041 1.012599 -0.2250764 0.08593758 0.5333281 0.06031402 0.5901273 1.279744 -0.4989614 0.360924 0.1222622 -0.004432 -0.4992274 0.1483831 0.1733102 0.41229 -0.9578212 -0.9032957 0.1188397 0.510861 0.7758015 -0.661217 -0.4381995 -0.04685389 0.5100216 0.4703294 -0.9944819 0.09450683 -0.139262 0.1010204 0.7725036 -0.6854045 -0.5381721 -0.4906448 -0.6360982 -0.3807811 0.6465262 -1.187342 -1.297843 -0.9723146 1.528937 -1.765249 0.1557478 -0.239572 0.6078543 -0.1912929 -0.4097313 0.08609904 0.6484997 0.1609979 -1.036088 0.07746591 -0.04243135 -0.3028976 0.3185407 -0.1716757 -0.4403622 -0.6283327 1.042864 -1.06568 0.4562824 -0.6876414 -0.6125892 0.4031984 1.148843 0.2614774 0.8842821 -0.5930512 0.7634984 -0.5546836 -0.1421226 0.9144424 -0.7374585 -1.822813 0.3736719 -0.2698838 -0.2637911 0.1844121 0.6274387 0.1546047 
  -1.050857 0.5328882 0.2253944 0.2489481 -0.01169313 -0.512048 -0.8336548 -0.09316775 -0.3118974 0.4294916 0.3421051 0.477845 -0.1980294 0.5587344 -0.5462393 0.7324153 0.4577423 0.8431684 0.2825561 -1.24854 0.01962594 0.6779705 -0.6848916 -0.26723 0.01177243 -0.6741291 -0.2715584 -1.104238 -0.5570829 0.3698064 0.3353178 -0.9371437 0.007910868 0.2850221 0.5311055 0.1019731 -0.8394665 0.8610618 0.1052551 0.316401 -0.1349736 0.09113178 0.2563489 0.04218233 0.2347827 -0.813441 -0.08131334 0.03394868 0.4957555 -0.09075613 0.2653817 -0.1409156 0.1233339 -0.7486021 -0.4074255 1.194368 0.8251381 -0.7474253 0.09238876 -0.6018064 0.2189089 -0.6563299 -0.4158796 0.262648 0.4673741 -0.1158189 -0.04775941 0.4109904 -0.2982289 -0.3365152 0.2791166 -0.6504583 -0.1538381 -0.7101722 0.4549187 0.5269907 -0.06850868 1.297221 -0.08028036 -0.1401443 -0.4473002 -0.7520036 0.1435638 -0.509784 -0.8198129 -0.05435338 0.2207575 1.16791 -0.606481 0.5746682 -0.1144231 -0.2652428 -0.7852827 0.4753754 0.5589947 -1.090071 0.3749934 0.8657608 -0.4416203 0.5260214 -0.1579822 -0.009937766 0.07539091 -0.4112738 -0.7956616 0.351123 1.608042 0.2170109 0.09664552 -0.4589996 -1.114388 0.4594334 0.7367569 0.9742121 -0.01157845 0.5173709 -1.115747 -0.1502919 1.021468 -1.391397 -0.05286622 0.8202448 -0.2513646 0.1786066 0.3232577 0.1902533 0.2487662 0.4947386 0.2688889 -0.1466141 -0.03952989 -0.1383086 0.4672382 -0.1611685 0.4739642 -0.6725169 0.6533345 -0.4082474 0.5114381 1.194498 0.6118244 0.2647641 0.06122975 0.144765 -0.05350116 0.5628815 -0.1087474 -0.8197616 -0.3321584 -0.4378762 0.4432833 0.1898404 -0.2575598 0.3728338 -0.1275151 0.7212574 0.1825876 -0.7586617 0.2032893 0.06907486 0.9061223 0.02120689 0.293486 0.6848853 -0.3898799 0.2919998 -0.5166287 0.8643696 -0.5429192 0.4850916 1.211948 0.3951487 -0.3906156 -0.6411539 -0.8349324 0.3353487 0.4006568 0.4140661 -0.5661812 -0.1819295 -0.1339185 0.8530316 0.3797415 -1.588004 0.4710627 -0.1256842 0.04313518 0.7229447 -0.2761742 0.5789807 0.1527874 -0.001275445 -0.4692151 -0.7390308 0.1510128 0.2054175 -0.01795617 -0.576916 0.4776671 -1.59512 0.2999191 -0.7542108 -2.806986 -0.802084 0.1450339 1.070911 0.1532814 0.2983027 -0.07064535 -0.2304469 0.5376493 -0.3479051 0.248498 -0.4573551 0.4359972 1.373813 0.2740458 -0.7717676 -1.063683 -0.5423509 -0.7831316 -1.434308 0.6539021 -0.5804075 -1.035887 -0.4681701 -0.2579934 0.09557142 0.1139891 0.3094546 -0.4597135 0.4636219 -0.08218057 -1.18541 0.4691563 1.128709 -0.5295575 0.4152709 -0.03601563 -0.7706195 -0.01405789 0.4396345 0.08212707 0.04006255 -0.1998214 -0.7383338 0.5421626 0.3894121 -0.5826854 0.06318013 -0.442195 0.3167871 0.6197833 0.09692979 -0.1995241 0.1114075 
  -0.2295016 0.935057 -0.8939922 0.3241118 -0.3346782 -0.4278488 -0.1384599 0.7454377 -0.2242754 0.1246567 0.2859589 0.9014548 -0.5776405 0.1351994 -0.8228341 0.7611966 -0.4756027 0.3017803 1.177195 0.6791767 -1.074969 0.7556438 -0.1012134 0.5852048 -0.196547 0.3854231 -0.03864713 -0.2391857 0.3671382 -0.4670948 0.6969718 1.203278 -0.3233017 -0.4002638 -1.644004 -0.1010332 -0.3161162 -0.2809166 -0.1651346 -1.151131 -0.04171595 0.2141638 0.6477049 0.5239704 -0.5789533 -0.5092762 0.5046446 0.6678164 0.9906229 0.9438366 1.97187 -1.069039 0.9967388 -0.4094841 -1.110902 0.4859014 1.064399 -0.6888718 0.02383448 0.03898755 -0.1943988 -1.356483 0.641706 0.01426695 -0.1398149 -0.1248871 0.1333123 -0.1806731 -0.642872 -0.1966016 -0.9478392 0.5378219 0.2450579 -0.4883171 0.3363301 -0.8701228 1.363041 0.4330495 -0.1708572 0.5947785 0.2311862 -0.09340175 -0.711354 0.3689364 0.6631083 0.0935507 -0.3706627 0.1343081 0.4975665 1.033206 -0.8761718 -0.3981265 -0.3725332 -0.6325443 -0.3417661 -0.5939779 -0.2511034 0.8087156 -0.6228939 -0.7760671 -0.09757662 -0.6182141 -0.3662005 0.3762653 -0.7478185 -0.3065021 -0.04333668 0.7784867 0.4002655 -0.3128167 0.8153985 -0.09847058 0.5992881 -1.013658 0.8412176 1.588576 0.09030474 -0.8398228 0.5637869 0.7995791 -0.3573534 0.09986537 -0.8493245 -0.3247239 -1.45067 -0.4150012 0.4048285 -0.5113956 -0.3712353 0.2685077 -0.2591004 0.4773035 0.5617191 -0.2376616 -0.2549285 -1.228187 0.3134612 0.8308736 -0.05266345 0.1191829 0.3136595 -0.08629425 -0.5560993 0.3027163 0.7184907 0.4229018 0.002414243 -0.37683 0.2809263 -1.871859 -0.8630025 0.1770696 0.2724747 -0.2374746 0.003519229 -0.03058345 -0.3211417 -0.5304925 -0.3682929 -0.1851059 -1.038926 -0.2123615 0.2883792 -0.1197911 -0.09484658 1.275744 -0.6744829 0.2674879 -0.03929263 0.4351806 -0.3693213 -0.8588978 -0.1627532 -0.2888127 0.8915669 0.2551996 0.6561655 -0.5354281 0.996981 -0.8872437 0.2580238 -1.223913 -0.7785566 -0.7930189 -0.02047045 0.45327 -0.3992812 -0.1689786 -0.7633414 -0.8306802 0.5745795 0.1338718 0.1535584 -0.6907724 0.04105082 1.084181 -0.5522691 -1.527835 -0.5654271 1.03261 -0.2755028 -0.1392001 0.2422307 -0.1362674 -0.7410298 0.8409041 -0.3371262 0.5398037 0.9305537 -0.05552936 0.5700888 -0.9139569 -1.263613 -0.4415281 -0.03731942 0.8968624 0.04228112 0.2144719 -1.305516 0.2493826 -0.8000402 -0.001527363 -0.6336599 0.4711198 0.5079211 0.3633201 -0.5502816 0.02964742 -0.1902485 -1.41578 -0.9113523 -0.9305412 0.1129488 -0.3608457 0.5569137 -0.1926336 -0.02073597 0.4938809 -0.3472469 -0.3931932 0.0688966 0.6452596 0.7185308 0.08180597 0.4602357 -0.5376095 -0.2795287 0.1118525 -0.3007972 -0.0674275 -0.1393352 0.7526867 0.8263214 1.149702 1.135997 -0.3145835 
  -0.1469835 0.4002997 0.5970114 0.141757 -0.7170444 0.03117631 1.136894 0.9899829 0.4141811 1.801985 0.3193715 0.5020011 0.8260228 0.8882966 0.3916938 1.331639 0.5169222 -0.7923726 -0.4156038 -0.3774354 -0.556856 1.084776 -0.163663 0.1337003 0.2047483 -0.3579281 0.5926322 -0.8178235 -0.3552013 0.2710757 0.2874762 -1.389186 0.7466931 -0.7537628 -0.4634238 1.288561 -1.004286 0.1070369 -0.8380984 0.572937 -1.445656 -0.199634 -0.4003021 -0.5030156 1.543769 -0.2196106 0.112295 0.8660835 0.6958222 -0.2030347 0.3051723 -0.6914607 0.9276105 -0.597006 0.6183941 0.4403 -0.7699718 0.66301 -0.501196 0.8856909 0.5407785 -0.3038446 0.3804571 0.8952762 -0.729509 0.4412653 0.6331326 -0.4613673 -0.1419499 0.3072469 -0.2431963 -0.5636277 0.05934155 1.045112 0.2761014 -0.1960037 -0.5752507 -0.1105032 -0.06944167 -0.143997 -0.07757084 -0.4718269 -0.3067238 0.129425 0.9644625 0.01370933 -0.3482367 0.3224882 0.5751241 -0.3663092 0.05808038 -0.3406179 0.5861561 0.376116 -0.8054235 0.4541372 0.2937507 -1.401571 0.9375713 0.5726125 1.430468 0.1577498 -1.20468 -1.195178 -0.5443336 -0.6329021 0.2529368 -0.7701322 0.9858142 0.06019327 -0.1394757 0.7029853 -0.3352861 0.2257062 -0.1678923 -0.9822479 -0.7064839 -0.5044125 -1.266084 -0.08847512 -0.6418191 -0.4039619 -0.02799367 0.1386725 0.5510666 -0.4803388 -0.6550964 0.8302217 0.2131043 -1.328829 -0.07469597 1.423069 0.5002605 -0.9519186 -0.08757898 0.06900101 -1.053775 0.3982988 -0.4717747 -0.8437437 0.09575811 -0.4381806 -0.07935273 0.8088684 -1.336461 -0.1107076 0.4176966 0.4559558 -1.288469 0.5385315 -1.648001 -0.4708745 -0.3871717 0.6390539 -1.203889 -0.2158856 0.4393391 0.2081662 0.06823877 -0.5033481 -0.678958 1.555927 -1.733442 0.3229059 -0.08518609 -0.5933641 0.3824098 0.005147259 -0.1834691 -0.5690508 -0.2043651 0.4989028 -1.461152 0.7428395 0.2621288 -1.326389 0.4828216 0.4768874 0.3415746 0.07422099 -0.898272 -0.2818862 0.494621 1.538467 0.1299557 -0.529368 -1.12214 1.10582 -0.8042613 -0.3100283 -0.5968131 0.3673822 -0.6331668 0.4669418 -1.309164 0.1761934 0.1966452 0.2351331 0.7301508 -0.02265887 -0.2957763 -0.173114 0.3689682 0.8572698 -0.1299425 -0.7567186 -0.04726763 -0.05358277 0.1757774 0.2039154 -0.4989474 1.128726 0.5306402 0.2479343 0.6143574 0.2602242 -0.2434801 -0.4699913 0.7273265 0.1005057 0.03642976 0.7397438 -0.4990251 0.6530532 0.232514 0.2158212 -0.4253251 0.257302 -0.07095028 -1.510755 -0.5275834 0.2736632 0.04597545 -0.8468368 0.135947 0.166204 -0.03542417 0.3433303 -0.2125431 0.5363683 0.1137772 -0.457938 0.191224 -0.02543889 0.6752052 -0.1225523 -0.1887332 0.515704 0.2335787 0.4001124 0.6002475 0.21303 0.4415894 0.6923575 0.7250878 -0.6738523 
  0.7994742 0.002733811 -0.6166683 -0.5356945 -0.6962401 0.6294535 0.1705905 0.0689014 0.1422399 0.3023781 0.8743833 -0.1228699 0.809251 -0.6603417 -0.5214863 0.3065822 -0.3762201 0.7258964 0.0007042315 0.3825945 0.03708724 -0.5715344 -0.116735 -0.05166063 1.026147 -0.4807725 0.06350262 0.003682429 0.2167596 -0.03940309 0.06910474 0.8089504 0.8322587 -1.411965 -0.2833154 -0.1438172 -0.1374947 0.04762628 -0.6985583 -1.053544 -0.6795439 -1.251916 -0.5771421 0.6306513 -1.211714 -0.1233364 0.1434431 -2.004527 -0.3281386 -1.161504 0.2966124 -0.4557895 0.3900129 0.3332657 0.7612405 1.109868 0.5606266 -0.14573 0.7344586 1.457595 0.6744306 0.1532824 0.374345 0.01870351 -0.3171292 1.006622 0.2566151 0.2035742 -1.260334 -1.399456 0.6729356 2.16302 0.4015428 -0.3718404 1.048872 0.4504115 0.6652339 0.4615422 -0.1110831 0.4323611 -0.3484131 0.1823282 -0.07270402 0.03965781 -0.2130738 0.8260128 0.1156779 -0.5571825 -0.358802 0.1710412 0.5592844 0.1414134 -0.6152465 0.2882515 -0.2744191 0.6886893 -0.7920493 -1.087401 0.3468592 -0.9194537 0.5067232 -1.718847 0.3925264 -0.8993014 -0.2791502 0.2884833 0.6735657 -2.272918 -0.3131933 -0.8890421 -0.3475565 0.2633238 0.9702865 -0.8794597 0.3834688 -0.3613844 -1.328897 -1.225158 -0.8785829 0.4144977 -0.5517101 -0.01299323 -0.5939307 0.6994336 0.475919 0.5361106 0.6730401 0.04762795 0.6327714 1.045115 0.2417476 -0.02671478 -0.603698 -1.191282 -2.293278 0.9978217 -0.7007071 -0.6393568 0.01582188 -0.04591769 0.2638628 0.7301695 -0.1381217 0.05833138 -0.7574425 -0.60428 0.2252954 -0.04809269 0.857734 0.5981852 -0.544091 1.628974 0.2849043 -0.4279532 -0.5386541 -0.1430006 0.5580382 0.8788975 -0.6260298 -0.5827716 1.073271 -0.09709462 -1.186735 0.1571692 -0.1061191 0.2304058 -0.01807993 -0.2204333 -0.4137063 -0.636511 -0.02849622 0.3001731 -0.8558695 0.4354624 0.4976112 0.562656 -1.125423 0.3803254 -0.4976065 0.03377544 0.6222382 -1.145193 0.02553293 0.4083923 -0.3993648 -0.6666207 0.5693117 0.9042109 0.2463499 0.2618068 0.8796082 -0.106587 -0.5885623 0.8943413 0.246861 -0.3442499 0.1724936 0.4995857 -0.1897309 0.602154 1.197992 0.9772368 -0.6294102 0.5735173 0.1427846 0.2503957 0.593852 0.5008797 0.651886 0.683958 -0.2048244 -0.1429998 -0.2736785 -0.06984185 -0.5082108 -3.297374 0.6130547 0.6529503 0.308114 -0.8179814 -0.8061445 0.2586946 0.07268366 0.06678841 0.2436999 1.241237 -0.0674253 0.02019818 1.159352 -0.9789168 0.09745485 -0.5131274 0.6257142 -0.07215995 0.5252324 0.2828257 0.2785514 -1.374867 1.229345 -0.1276141 0.4049748 -0.135322 0.3202317 0.04726698 0.5582172 -1.664918 0.3611972 -0.5519334 0.4786496 0.3549457 0.06858501 -0.7693849 -0.3303116 0.6774327 -1.437598 -0.332635 
  -0.1223109 -0.05454073 -0.1280317 0.3909275 0.5615458 0.5091491 0.1300887 0.08424065 0.5409949 0.3823282 0.2485969 -0.2528206 -1.236149 0.4922593 -0.453478 -0.3051901 -0.2311112 -0.2974888 -1.094543 -0.156058 0.3910952 0.3953113 -0.1088254 -0.2572428 -0.1517184 -0.5284998 0.1594789 0.6641005 -0.1753201 -0.3401333 0.2575523 -0.03644665 0.1879308 0.4815042 0.06866452 -0.5365525 -0.327022 0.9535627 0.8281837 -0.1735443 0.8454054 -0.3185821 -0.1233354 -0.2772113 0.3513901 -0.1081313 0.4752024 -0.7371232 0.3864327 -0.3493341 -0.1172322 -0.222004 0.4145326 0.627974 0.7011831 0.04041279 -0.4211281 -0.1738618 0.1935833 -0.7580618 0.5891988 -0.1846504 0.1046956 0.9037395 -0.04168821 0.3891169 0.1060177 0.08456176 -0.3482412 -0.4238384 0.4424233 0.1896421 0.1488077 -0.05200111 0.3765647 -0.4534252 -0.7648171 0.3104959 0.0811743 -0.4979999 0.04980813 -0.02040279 -0.08104566 -0.1109319 -0.2411107 0.7402087 0.4966867 0.02745539 0.1806618 -0.295274 -0.346903 0.5331429 -0.1292075 0.6809942 -0.08369674 -0.01526654 -0.1821526 -0.1681476 0.1817748 -0.5123776 0.2701383 0.4510374 -0.2265071 0.04047031 -0.2312247 -0.2649981 -0.0413396 -0.1540515 -0.2562344 0.4226167 0.002409583 -0.07456136 -0.02187753 -0.2483079 -0.01960619 -1.215675 -0.4329403 -0.3716614 0.05781757 -0.8140159 0.170828 0.296283 -0.6501465 -0.5334494 -0.03367704 -0.05441171 0.277916 0.2637315 0.2053677 0.1589848 0.5518821 -0.180253 0.02148904 0.06441699 -0.3522875 -0.3118559 0.06436681 -0.6667138 -0.1631696 -0.3181297 -0.229486 0.07011637 0.2299341 -0.7945924 0.5491557 -0.536388 0.3400671 0.5441498 -0.4324399 0.05251328 0.5461374 0.4292453 -0.7281467 -0.07380437 -0.4520983 0.360568 0.3549682 0.2395318 0.1360074 -0.4623517 0.4100896 -0.1335188 -0.4785333 -0.1309952 0.1587324 0.3761987 0.8118747 -0.1703064 -0.3811612 0.1723557 -0.1813586 0.1693158 -0.260343 -0.1591408 0.1565821 -0.1913049 -0.7303287 -0.3753585 -0.4782889 0.06473748 -0.15962 0.1717723 -0.4047409 -0.3588282 -0.4746457 -0.142621 -0.05652383 -0.2353948 0.8041496 0.3423276 -0.182724 0.1835061 -0.7363132 -0.5281026 -0.1632648 -0.5077076 0.04932777 0.4984652 0.3786077 0.5076275 -0.3122887 0.3637945 0.2817695 -0.3828125 -0.2461901 -0.01471626 0.4211334 -0.5466701 -0.817514 -0.008476795 -0.3400789 1.818332 -0.2717102 -1.07725 -0.03098892 0.2322011 0.2105957 -0.2392179 0.6725593 -0.2536823 0.4283759 0.08718254 0.48411 -0.6417614 0.2968129 -0.2185713 0.2337938 0.00499771 0.4348141 -0.02830145 0.2780706 0.2776868 0.5562804 -0.09035932 0.2600828 -0.672469 -0.7159484 -0.181455 -0.3690248 0.05203015 -0.3514138 -0.1317571 -0.8356838 0.7522343 -0.07939203 0.04580924 0.7505525 -0.1246011 0.202037 0.2816564 0.5581976 -0.1788453 -0.3578913 -0.2880315 0.3078286 -0.6616547 
  0.6617826 -0.1893408 -0.1292296 1.363186 0.1452686 0.285474 -0.4484344 0.3296203 0.03322883 -1.00583 -0.02234264 -0.0116301 0.4333452 0.04538118 0.634216 -0.1067386 -0.217381 -0.6848689 1.391454 0.08865808 -0.2512916 -0.6148577 -0.5474644 -0.499396 -0.3182104 -0.03354754 0.6493006 1.022429 -0.7236238 -0.1525655 0.1743919 0.8347281 0.1448297 -0.3532656 0.7801756 0.4144001 0.5090603 -0.35274 0.2885889 -0.8293955 0.07515494 0.9635718 0.4699849 -0.2008906 0.7371011 -0.3762784 -0.6240333 -0.06543921 0.2255468 0.1785264 0.1359503 -0.5653605 -0.07261901 -1.398027 -1.49859 0.3291484 -0.2026219 0.1806456 0.09634726 0.07649051 -0.6455045 -0.5915185 0.2253263 0.2098112 0.4290099 -0.5594352 -0.5774848 -1.016127 0.7583141 -1.124966 -1.245349 -0.308609 -0.5681933 0.3095503 -1.074599 -0.647362 -1.321766 -0.2175271 -0.09173056 0.2960932 -0.6692378 -0.009710678 -1.189313 0.008145311 0.7436723 -0.4325449 -0.1876675 -0.178018 -0.359586 -0.1500976 -0.338929 0.07940135 0.7871506 -0.5519674 1.835783 1.289938 -0.1118077 -0.4207588 0.1583688 0.6697538 -0.2531548 -0.9537945 1.148024 -0.9333555 0.343492 0.6163058 -0.01500607 1.023772 -0.4721173 -0.06534701 0.3906954 0.5082869 0.003299941 -0.1935938 0.9188368 0.4602236 0.7153301 -0.7280779 -1.042072 0.743674 -0.01456363 0.032669 -0.08672789 0.6217711 -0.2303828 -0.06391649 -0.5512463 0.1506865 -0.2653304 0.4260202 -0.2625137 0.2142887 0.2079507 -0.5667843 -0.4121681 0.1547893 -0.4742792 -0.269347 -0.2682598 -0.09569156 -0.1407471 -0.2190134 -0.6223017 0.2028818 -0.5186877 0.4475709 0.4911439 0.1057555 -0.5476414 0.3302909 0.4493914 -0.214663 1.424112 -0.2889622 0.3571784 0.04139256 0.6254407 0.3313174 0.01884576 -0.4924391 -0.7408611 0.5238341 -0.07441287 0.557526 0.5443397 0.5285208 -0.5616518 -0.4307015 0.4497834 -1.02168 0.9675318 0.1598189 0.9319234 -0.1147449 -0.08566608 0.09377434 -0.1196159 -0.1211723 -0.2337538 -0.6402661 -0.3329138 0.3745444 0.6378762 -0.2063548 0.4120098 0.6600494 0.2143167 -0.2487378 0.5409802 -0.1903667 1.1278 0.05137329 0.4746778 -0.1221623 0.1733717 -1.704865 0.3873626 0.503955 0.1783276 0.329032 -0.1463931 -1.050921 -0.5652877 -0.1468921 0.5455652 -1.221512 -0.07750039 0.143646 0.4139649 0.03426181 0.4918519 -0.4844775 0.5939452 0.2493602 -0.1064932 0.3516143 -0.07527661 -0.6694176 0.07443326 -0.2624623 -1.027401 0.2078357 -0.716181 0.4428294 0.0247351 0.5980202 0.3481778 0.5570922 -0.6360055 -0.5761805 0.4091446 -0.4227401 -0.4792399 0.7864891 -0.223418 -0.009967814 -0.2142415 0.5851036 0.1242814 -0.4777869 0.5196718 -0.6269487 0.6646204 -0.06636456 0.05015368 -0.6324006 -0.9911587 1.012396 -0.8387968 1.124076 -0.3200488 -0.03924464 -0.6739647 -0.6557899 -0.6042181 0.8287911 
  0.7140366 0.2551482 -0.4909674 0.4263756 -0.6346934 0.5967653 0.2189324 0.7498926 0.2423603 -0.007111119 0.5291672 -0.2717781 -0.3878607 -1.365701 0.001597714 0.6120197 0.6174662 0.8472475 0.6454583 0.3729769 -0.9611273 -0.1131939 -0.5527234 0.4566361 0.2657292 0.01554556 0.3062901 -0.9696071 0.2778699 -0.387063 -1.084997 -0.0922271 0.08470726 0.8624066 -0.44714 -0.3383387 -0.5344521 -1.065873 -0.1209257 -0.05572039 -0.1751661 -0.07323814 0.1048882 0.9559742 -0.0164358 0.09617449 -0.09942795 0.4421477 -1.702747 -1.083011 0.2232114 0.03198351 -0.07139935 -0.1875819 0.2435823 -0.08959205 -0.09104811 -0.0001440065 -0.4053654 -0.3660475 0.2193979 0.08698516 0.4161223 0.03326551 -0.5141469 -0.5990468 -0.03354154 0.04840033 0.2780046 0.5031695 0.03533516 -0.7759404 -0.993453 -0.2809404 1.162069 0.977706 1.085389 -0.39636 -0.6162977 -1.600661 0.5577614 0.1499165 -0.05705366 0.8596531 0.5094172 -0.5169811 -0.7003539 -0.1701208 -0.6428052 0.06335206 -0.1156964 0.1671648 -0.1376968 -0.1197961 -0.7807041 0.1358356 -0.9877783 0.01757181 -0.4646042 -0.2627723 -0.01433123 -1.166754 -0.08890916 0.4358647 0.3571749 -0.6849698 -0.8608947 0.319936 0.3852594 -0.4692257 -0.3045907 0.6470453 -1.002056 -2.196397 0.524606 1.107401 0.1537599 -0.300404 0.7327541 1.359948 -0.09013845 0.07675427 0.5808748 -0.06119309 -0.831161 0.006002636 0.3134573 -0.1968253 0.1992731 0.6478235 0.1306083 0.2700677 -0.9857666 -0.2130176 -0.8816559 -0.001835783 0.2463918 0.443423 -0.6520633 0.8132532 0.5004964 0.1865498 0.2332923 0.605298 0.8929803 0.1078696 -0.03076821 0.6546497 -0.6553324 -0.1960463 -0.04102089 0.2369249 0.3468376 -0.2818957 -0.2588235 -0.1558719 -1.544814 0.0710106 0.237169 -0.1414589 0.1852833 1.009313 -0.354259 -0.7211186 0.1472581 0.6280202 -0.9577638 0.3952299 -0.1865368 -1.154894 -0.2861662 0.5591254 1.403376 0.01255429 -0.7848987 -0.1892637 0.0148338 0.1920321 0.05537171 -0.2677797 -0.4140052 0.5102882 0.4492086 -0.1283686 -0.1756265 -1.13499 -0.1593008 -0.2671661 0.4700559 -0.37305 0.06500952 0.004804194 0.2445304 0.4527853 -0.1736668 -0.2490734 -1.104634 -1.472939 -0.726723 -1.092631 -0.3067579 0.6158129 -0.1568909 -0.6109819 -0.3422964 0.9884045 -0.01752506 1.039665 0.007439627 1.343035 0.08053111 -1.111453 0.260331 -0.08161967 -0.143369 -0.7308979 0.7885429 -0.3624203 -0.009140895 0.3906864 -1.298263 0.7227532 -0.432169 0.4284433 -0.5181782 1.06027 -0.810077 0.127723 -0.02027673 0.5136166 0.04287401 -0.9401873 0.5419496 0.1835914 0.5141475 0.551371 0.5587855 0.6151475 0.1262723 -0.3622224 -0.03593408 1.110127 0.3085132 0.2873245 0.1359656 0.05432578 -0.784699 0.2482184 0.1345286 0.008720558 -0.4708158 0.3206166 0.4977817 0.3923749 0.1502305 0.3272519 
  -1.273331 0.63036 0.9705478 -0.1853822 0.03505413 0.2768228 0.04783718 -0.09744155 -0.2412039 -0.06736259 -2.064575 0.08774155 0.4524529 -2.156523 -0.5402145 0.009773619 0.748144 0.07996446 -0.0441161 0.7394642 -1.266327 -0.6625823 -0.848873 -0.3950409 -0.1772378 0.1571484 0.9034887 -0.4221822 -0.6868696 0.6526216 0.1021706 -0.7475972 -0.5335132 0.4006719 -0.6076493 -0.4964181 -0.2876607 1.059698 1.222207 0.5750994 1.112991 -0.3738996 -0.3208228 -0.05484559 0.1763572 0.8977596 0.3291889 -1.169408 -1.07468 1.169036 -0.1753854 -0.268355 -0.004403449 0.4507227 -0.007444082 -0.2015353 -0.1076908 0.4505391 -0.3445034 -0.3994387 -0.9674035 -0.2226421 0.9306406 0.6226867 0.5701885 -0.6690066 -1.232492 0.005621925 0.06915065 0.2849114 0.3230369 -1.822338 0.4259911 -0.06260986 0.293669 1.079219 1.036804 -0.2303133 0.5613921 0.5382408 -0.6698081 0.2980676 0.02256798 -0.1098253 -0.667955 0.4806086 0.07605028 0.9401529 -0.7915619 -0.2054238 0.7099863 0.2659784 0.6539537 0.1489802 0.1457156 -0.09914053 -0.5468894 -0.3654819 -1.463972 0.6614692 -0.4293744 0.3477832 -0.5921263 0.1860036 0.06753708 0.3473241 1.448621 -0.9021983 -0.9005975 -0.8103119 1.002146 0.4195852 -0.5784402 0.4443795 -0.281807 -0.4771975 0.01344427 -0.6139381 0.4792544 0.4557956 1.436796 0.5895539 0.2615284 -0.4262393 -0.6728338 -0.03446994 -0.6671916 -0.6067519 -0.4277366 0.5015302 -0.121825 0.4602825 -1.112943 -1.075485 1.071288 0.3664228 0.1604996 0.05738806 -0.988566 0.3395447 0.5849888 -0.0209863 -0.3329074 0.5280745 1.226574 0.8675438 0.1217146 -0.2826443 -0.3243674 -0.6558418 -0.3288361 -1.076921 -0.6139246 -0.3154656 0.1316008 0.5374061 -0.3065338 0.3989089 0.3454595 0.2508865 -0.08784959 -0.4527861 0.06803124 -0.6023419 -0.004800349 -0.9077381 0.7028155 -0.1117902 -1.202323 -0.06371638 0.531082 -1.781041 -0.3234396 0.5873423 -0.1985199 -0.3464577 -0.636556 0.808192 0.321041 0.4942861 -0.9717349 0.6365392 0.4318348 0.0115105 -0.2105892 0.2280397 0.07242148 1.764109 -0.6468405 0.9338406 -0.4376073 -0.2748746 1.168304 0.1328753 -0.5773698 0.3966197 -0.3614375 0.8121119 -0.03562198 0.2166316 -1.614509 -0.1519505 0.04178428 0.03640637 1.167036 0.4698255 -1.227131 0.4158658 0.5555741 -0.1132385 -0.02834643 -0.05283008 0.3771924 0.7240129 0.1255016 0.05614913 0.5501736 -0.8257187 0.04071537 0.4852686 0.1656974 0.5229369 0.3906001 0.06897423 1.139057 1.290307 -0.2384026 0.5336841 -0.2117557 -1.043786 -1.328661 0.4577658 -0.8857556 0.4848233 1.257263 -0.3586722 -0.08494716 -0.6130695 -0.5836205 0.6416657 1.255231 0.345156 -0.06061316 -0.01516386 0.5274459 0.2866349 -0.1300347 -0.08211174 0.7307601 -0.5315231 -0.2398073 0.4132481 -0.8915654 0.5898317 1.130491 -0.239965 
  0.6721076 -0.1771598 0.5020865 -0.004336381 -0.02838441 -0.04466233 -0.2615798 0.6938938 -0.3755637 0.2467413 -1.041433 0.5017909 1.666862 -0.4567547 -0.4974328 0.6327605 -0.2024355 -0.4776158 0.8142582 0.6304564 0.2277876 0.1935267 0.2541341 0.7714247 -0.6270614 0.2389999 0.4742594 -0.2319408 0.1885921 -0.614315 -0.01654608 1.108189 -1.578107 0.05775607 -0.8074505 0.3623349 1.589313 -0.5950956 -0.7753837 -0.2440832 -0.4934719 1.014671 0.8898358 -0.5714557 0.3373894 1.523268 0.1969851 -0.2476258 0.5548881 0.02262692 0.07416812 -0.0318529 -0.1028004 -0.5339594 -0.859179 -0.09297464 0.1246842 -1.595401 -0.7835474 0.9665513 -0.7023406 -1.115966 0.04311203 -0.450687 -0.839205 -0.2675293 -0.654053 -0.3962246 -1.866289 0.5662438 -0.8811604 0.7694952 -0.4159823 -0.2901509 0.07862023 -0.7518643 -0.7005767 0.3752584 0.538379 -0.5212626 0.3559324 0.05647651 -1.342764 -0.7060086 -0.7454076 -1.531746 0.9183021 0.1966299 -0.0207341 -0.6431344 0.3572053 0.843248 -0.6397997 -0.4577334 0.713469 0.9938787 -0.9650713 0.07767592 -1.038164 0.224053 -0.9601963 -0.4514497 -0.8116695 -0.3060308 0.3272128 -0.5787745 -0.5095602 0.204367 0.9985741 -0.6025245 -0.2580461 -0.001884239 -0.2353354 0.2065133 0.7755679 -1.106877 -0.8173397 0.2693134 0.3759739 0.4111557 0.05612772 -0.2656329 -0.2329701 -1.221672 0.2421429 -0.2963001 0.4938349 0.3644899 0.7122006 0.07331687 0.9829702 -0.2292723 0.1497615 0.126751 0.5480836 -0.1589697 -0.467962 0.6064631 -0.6494346 0.9808058 0.5055053 0.4650859 0.2946519 0.08833236 -0.6369351 -0.605445 0.008160494 -0.5595345 0.02333523 0.352967 -0.7516955 0.5464977 0.7393485 0.9102403 -0.06796844 -0.9734998 0.118283 1.066702 0.6184591 -0.01799222 -0.1788816 -0.5904265 0.2984128 0.6177011 1.2818 -0.3597702 0.7142157 0.0833718 -0.1735194 -0.9162554 0.3892545 -0.1392411 -0.1974435 0.07710814 -0.1112526 -0.372368 -0.5111281 -0.5840867 -0.6294638 -0.3709435 -0.5130883 -1.107703 0.5033467 0.04236585 0.5545697 -1.27502 0.4105246 1.081903 -0.3975176 -0.7676652 -1.022277 0.0608044 0.9670161 -0.2848422 0.8557816 0.5853745 0.8133231 -0.247021 -1.524117 0.437063 0.04252348 0.4186265 0.7104805 -0.4777102 -1.500156 -0.2798977 1.178241 0.05804419 0.4858764 0.01052378 -1.590152 1.005153 -0.08247925 0.9865025 -0.3848918 -0.002629788 0.1988542 0.6023819 -0.03786304 0.8667732 0.4619885 -0.2589203 0.9265753 -1.837273 -0.2828297 -0.429986 0.04956209 0.5182372 -0.8115968 -0.4667356 -0.3055777 -1.099931 -0.192287 0.6734905 0.7724895 -1.171927 0.1717107 -0.1038046 -0.2558407 0.9875121 -0.3633146 0.4935203 -0.5811236 0.5932189 -0.003743452 0.3457118 -0.4223075 0.1335054 0.06374372 0.02225209 0.7444283 0.07646719 -0.8263047 -0.04487276 -1.889917 0.1247971 
  -0.06512129 -0.1716025 -0.6554964 0.3584698 -0.493602 0.2823141 -0.02277732 0.4324151 -0.352011 0.6311976 -0.5682799 0.01843958 0.6170849 -0.09734718 -0.3468277 0.5541062 0.8842627 -0.3385053 0.4029551 -0.3931899 0.2194586 -1.164042 -0.8588498 -0.4905167 0.04175082 0.006351345 -0.5827702 0.2993566 -0.3235509 0.2600991 0.7317063 0.009384706 -0.2015767 0.2338287 0.386313 -0.4264242 0.09397239 -0.6808474 -0.05462072 -0.1664055 -0.3438724 0.4984859 0.1107619 0.3348634 0.4885532 -0.371504 -0.3900993 0.647442 0.1896765 0.1073514 0.5669361 0.7461898 -0.2510543 -0.75582 0.1423832 -0.2458451 0.2298907 0.113979 -0.3709521 -0.3139236 -0.9283492 -0.1515989 0.3530774 0.4784768 1.107063 -0.5041103 -0.03102675 -0.1350415 -0.6162339 -0.3396188 0.2281255 -0.1317724 0.009014516 0.8346353 -0.1734367 0.5719537 -0.1313583 0.1583119 -0.2016742 0.182659 0.2360672 0.3850299 0.2418427 -0.578398 -0.1677381 -0.1991995 0.3386383 -0.01620201 -0.411134 -0.2160135 0.6287712 -0.2038394 -0.244625 -0.5058632 0.5687442 0.009299344 -0.4193443 0.3403794 -0.1439627 0.9787688 -0.1710189 -0.2126718 -0.3463641 0.2321984 -0.7260912 -0.2723067 0.6690273 0.07225434 -0.02366466 -0.2201567 0.1260334 1.122816 0.7922945 -0.4485666 0.1435751 -0.8552046 0.6061664 -0.560844 -1.156134 0.3112708 0.05288066 -0.2907992 -0.3936758 -0.6803991 -0.4132783 -0.2922342 -0.5511184 0.1566188 -0.0557668 0.3576376 -0.1285381 0.1607493 0.2618653 -0.5851516 -0.4273292 0.0863843 0.0006445633 -0.8273445 0.2095615 0.03587579 0.6713994 0.4892274 0.06408753 1.280939 -0.161562 -0.0285241 -0.173986 -0.2858617 0.4904284 -0.0732244 -0.6374713 0.04827333 0.3892197 -0.2453655 -0.3545168 -0.4533422 -1.113258 -0.2276726 0.4134247 0.6083372 0.2502765 -0.3723453 0.06761471 0.2809297 0.2270764 -0.3632145 0.08374524 0.01026257 -0.8403776 0.6336392 -0.3334145 -0.2751201 0.9986483 1.329114 -0.07590683 0.5373791 0.5870603 0.9245473 0.3121465 0.1101559 0.5198538 -1.194473 0.5225536 0.6533078 -0.1058139 0.2110313 -0.02672737 0.07258527 -0.2022914 -1.177661 0.7601224 0.2194717 -1.013259 -0.07055764 -1.212186 1.110533 -0.07354838 -0.5846617 0.1198565 0.4367819 0.02257914 0.3660157 -0.7016524 1.084321 0.4293559 0.6307827 0.166677 0.02441628 0.6536262 0.1159276 0.1890736 -0.1693108 0.1441064 -1.360015 -0.3063492 0.0534493 0.6188123 0.02914857 0.2175668 0.3153965 -0.3053574 -0.2914877 -0.1741089 -0.01304293 0.5362694 0.03975454 1.0558 0.1215566 -0.4332822 0.07032165 -0.4703806 0.6152053 -0.3189166 -0.6723157 0.06301786 0.8007884 0.7290919 -0.6403377 0.1120356 0.5392589 0.4832831 0.1050832 0.5026596 0.3016349 0.6654159 -0.8073198 0.1112921 0.2805164 -0.0004908059 -0.345447 -0.1678237 -0.3792796 -0.3989662 -0.7143254 -0.8288513 -0.3713291 
  0.6305273 0.07328039 -0.5835327 0.1190453 -0.2468452 0.5658367 0.8682054 -0.3608788 0.158181 0.9486072 0.3225657 0.1406985 -0.007402 0.1386475 0.5242835 0.3848622 0.4930992 -0.9226127 -0.3341941 0.5035647 -0.8643686 -0.6642202 -0.6125537 0.112607 0.462915 -0.1148054 -1.442547 0.8854245 0.08827987 0.9471956 0.3780694 -0.02792357 -0.01525184 -0.698108 1.046075 0.6517277 -0.06860072 -0.3860015 -1.174021 0.07387234 0.5606424 -1.081818 -0.4335523 0.7106764 -0.6955781 0.1479369 0.4740497 -0.1224847 0.4425793 -1.133183 -0.1477384 0.5537892 -0.2003609 0.4503371 -0.3817022 -0.7644706 0.5602887 0.5681487 0.6385838 -0.01165401 -0.381685 -0.7819887 0.2350262 -0.06076083 -0.4111671 0.03249241 0.5434835 -0.5618986 -0.4296925 -0.1028944 -0.4802614 0.8865705 -0.2653216 0.721418 0.6883759 0.4622122 0.02562054 -0.05727343 -0.1110009 0.1032203 0.9007826 0.5313454 0.3994716 0.2525406 0.9268894 0.5674092 -0.1147222 0.4702778 -0.06856341 -0.2242255 0.9958153 -0.6944905 0.2605883 0.5784838 -0.7481781 -0.3938303 -1.530417 -0.2763067 0.5787538 -0.4973859 0.04837029 -1.531729 0.5066527 0.005421408 -0.1519402 -0.9881021 -0.0287441 -0.6126997 1.022338 -0.4833016 0.7612019 0.2926186 -0.5611158 -0.4173265 -0.2861985 -0.0220693 0.2379355 -0.9197986 -1.424378 0.2184957 -1.314038 0.3318788 -0.2736486 0.1293727 0.287812 -1.106255 0.6473124 -0.3285556 0.198847 0.530894 -0.08272974 0.6352688 0.1249472 -0.5865688 0.5921375 -0.02992016 0.4538724 0.4681998 -0.8546505 0.4940855 0.2145946 -0.6206676 0.3296508 -0.02445796 -1.058921 -0.2081754 -0.004368848 -0.2614463 0.2788394 0.5545112 1.013482 -0.314698 -0.451997 0.2966456 -1.420324 -1.2796 -0.009022018 0.5521423 0.7779609 0.03086213 0.6544778 0.2780692 -1.218304 0.2262035 -0.1164776 -0.0013109 -0.350832 0.4931026 -1.139018 -0.3110702 -0.02530817 0.2293701 0.4398125 0.112991 -0.1959202 -1.840154 -0.2583306 -0.162938 0.3662647 -0.9946579 1.005371 -0.7741202 0.2602777 0.05186121 0.296653 -0.6765111 -0.7436503 0.3605138 0.5081114 -0.02643928 -0.5512637 0.6446201 -0.6168645 0.4457822 -0.6424788 0.3677657 0.1540375 0.1819322 -0.06601848 0.01016632 0.5472522 0.4476296 -0.174439 0.3704 -0.5423805 -0.7925778 -0.5829154 -1.783788 0.02019307 0.6799451 -0.3694467 0.4534215 0.4492528 -0.2693307 -0.2044017 -0.03572121 0.314636 0.3437067 -1.061212 1.191242 -0.199436 0.2336121 0.3474604 -0.2165444 -0.9871992 -0.1379915 0.2982053 -0.0748865 1.235355 0.3369725 0.2904514 0.1318229 0.6211019 -0.4558891 -0.7887772 0.5468072 0.4405546 1.206547 0.298575 -0.3119516 0.1944696 1.329242 0.1692354 -0.2890228 -0.3264335 0.2075574 0.02591249 0.1770054 0.08987389 -0.7515773 -1.272644 -0.5970759 0.1008202 -0.49518 -0.1165973 0.2600863 
  0.2127849 0.1882635 -0.3715688 -0.5363117 1.352541 -0.6378633 -0.0009867868 -0.4081562 0.2435197 0.4749643 0.7084879 -0.465234 0.002596594 -0.6045383 0.530095 0.3734381 1.034747 -1.138487 0.6935068 0.2925664 -0.3687421 0.1665863 -0.4002764 1.272074 0.6641592 -1.274723 -0.2039346 -0.1830264 0.2449009 0.5304083 1.077249 -0.05330491 0.4632765 -0.1707125 0.007057718 -0.1219756 -0.0697623 0.1496604 0.3204125 0.7594112 -0.3292636 0.4124967 -0.5956897 0.3393909 -0.5527037 -0.2994671 -0.3887092 0.5520897 1.077765 -0.2780854 -0.6902097 0.1111807 -0.9080863 -0.01411331 0.884622 -1.035448 -0.6270939 -0.09063535 -0.5574217 -0.1178203 0.07198408 0.384064 1.006807 0.2984982 1.493422 -0.3085768 -0.3842978 -0.08813418 0.6086985 -0.8915969 -0.02035357 0.7971247 -1.154584 0.214778 0.5688357 0.08636576 -0.1526755 -0.1901779 0.3513563 -0.1215913 -0.6932667 0.1897571 -0.0211634 0.07743473 -1.672645 0.4315385 0.3638244 0.3167809 -0.7155024 -0.1779263 0.7271193 1.187199 -0.002321314 -0.2546988 0.5418835 -0.3460286 0.5565615 0.2261389 0.1134653 -0.5552751 0.05668455 0.6471387 0.1995313 1.134124 -0.05580675 0.7247232 -1.457753 -0.7581994 -0.2779984 -0.7833388 0.1352638 0.01227169 -0.4446298 -0.3301753 0.2506988 -0.1141495 -0.2377856 -1.14254 -0.2138647 -0.6468235 -0.1585474 0.2842832 -0.6174708 -0.4303086 -0.5708983 0.2729192 -0.1152031 -0.09455495 -0.3677376 0.5222104 0.4216641 0.441984 -0.08890145 0.04487401 0.4875441 -1.262158 0.1709808 0.1275468 -0.2681091 -1.015293 0.08149854 0.3362697 -0.5561529 0.8621829 0.8894257 -0.8869867 -0.4712174 -0.5085914 0.3314305 0.4678111 -2.045526 -0.08216348 -0.5540679 0.4180878 -0.70768 -0.5978429 0.1796419 0.2374661 -0.8960371 -0.4758749 -0.4383521 0.1260369 -0.07155957 0.1127885 0.1899595 -0.4404148 -0.404715 0.2313935 0.9004726 -0.09211493 -0.3911076 1.210424 -0.5984773 -0.4192745 -0.05521109 -0.02146495 0.1093702 -0.03853014 0.2556964 0.02839941 0.2509717 -0.2811607 0.9420594 0.8867425 0.3596832 0.06692178 -0.1740323 -0.8843086 0.7975764 -0.286109 -0.7292127 -0.3581846 0.1151655 0.04126589 0.4603541 1.555059 -0.1917816 0.7264549 0.6128071 -0.6552357 -0.5535255 0.2452641 0.8220417 0.8832898 0.5428627 0.1684007 -1.323742 0.423705 0.02584368 0.1904784 -0.2426941 -0.0645225 -0.5069773 -0.05877338 -1.247727 -0.4084506 0.6793978 -0.4207262 0.1948392 0.008376648 -0.8109262 0.3830286 -0.640628 -0.149204 -0.3796665 -0.3647689 -0.212827 -0.5655627 0.67376 0.04515634 0.3954294 -0.9057002 0.003401003 -0.4137021 -0.4890731 0.6786233 -0.3097885 -0.145494 -0.3365816 0.4598798 0.545325 0.1983132 0.3633996 -0.462731 1.173813 0.7309963 -1.377675 0.9545768 -0.4074473 0.6239722 -0.4146539 -0.5561738 -0.1225871 0.5339215 0.8635271 0.3565792 
  0.4828966 0.02466356 1.170719 0.3346653 0.06599328 -0.4556839 0.3003255 0.8069425 -0.4809763 -0.01814413 -0.1935994 -0.5759531 1.616842 -0.833493 0.9727297 0.3454609 -0.1199133 0.489779 -0.03426929 0.2315789 -0.4742 0.1634559 0.7602493 0.8786126 1.274827 0.8424798 -0.03658229 1.062302 0.9599348 -0.9318907 0.1498169 -0.3085264 -1.619563 0.2443334 -2.941844 -1.191083 0.9415371 0.02600341 -0.424716 -0.9361914 -0.1789047 0.7534943 0.1122587 -0.2685337 -0.05880247 0.550132 0.6955134 -0.09416624 -0.1715621 -1.121308 -0.7411513 0.4053332 -0.7173847 0.4037997 -0.8217683 -2.225482 0.5946568 -0.5259789 -1.120211 0.1178754 -0.2973715 -1.94765 -1.296164 -0.4511186 -0.1276001 0.6242664 -0.4806263 0.3930521 0.09043114 0.7655606 -0.3015177 0.5952286 0.4337174 0.8213925 0.01177608 -0.3501957 1.013204 -0.4104701 -0.2150806 0.6185342 0.5059616 -0.3397956 -0.4786722 0.08718858 0.1693019 -0.9539041 0.6501427 0.4744181 -0.09797135 0.09448083 0.04704998 -0.7007958 0.05812565 -1.320345 0.7982576 -0.2360196 -1.179672 0.3526557 0.1614498 0.2055553 -0.8352371 -0.6347299 0.3861963 -0.6668678 0.1685413 -0.1546505 0.05253992 0.4669697 0.4086134 0.2580858 -0.6845535 0.5729997 -0.03362206 0.06404923 0.2176634 -0.1600089 -0.4065405 0.08411036 0.1930808 0.4107853 0.6198028 0.2527765 0.5022475 -1.443133 -0.3958785 0.3549239 1.008494 -0.7031009 -1.39598 0.9082381 0.1507264 -0.02109215 0.8013553 0.1620588 0.2268875 0.92211 -0.977616 -0.9043843 -0.2840756 -0.180308 0.3024677 0.7344165 -0.4502673 0.6795709 0.3376159 1.284171 0.2320245 -0.1632922 -1.083495 0.05667648 -0.1662749 0.4172361 -0.2503521 0.6950127 -0.6237829 -0.04317528 -0.3091909 -1.040313 1.011635 1.600621 -0.1560624 -1.848871 0.3460352 0.1739665 -0.5894759 -0.107767 0.04792584 0.7501842 -0.6543263 -0.383303 0.7433232 -1.286578 -0.7531552 -0.4639446 -0.4978139 0.4999393 -0.6009316 0.4066618 -0.8106233 0.1149135 0.03768053 -0.07233234 0.5948432 -0.3466606 0.1363823 -0.8785425 0.4026971 -0.03862635 -0.4738245 -0.3008344 1.177776 -0.08691985 0.5057929 0.03476938 1.72425 1.313165 -0.4970872 -0.176805 -0.684993 0.6427035 0.8292263 -0.8567464 -1.334262 -0.410529 -0.1664798 0.1091089 1.43212 0.2589436 -0.2761379 0.6529022 -1.525352 -0.1816296 -0.4215385 -2.259636 -1.135163 0.04298024 -1.266279 0.08011518 -0.3679007 0.3390836 1.31918 0.6663137 -0.4940987 -0.1996288 0.5700484 0.3039427 -0.2592834 -0.4764783 -1.354954 0.5268351 -1.040411 0.5622574 -2.116506 0.6884995 0.5179928 0.6743522 0.3989479 0.9627357 0.7896386 0.4517264 -0.6377783 -0.8976911 1.156581 -0.1627348 0.3775557 0.008536578 -0.7880055 0.8102332 0.7002947 -2.46495 0.2532232 0.111874 -1.295167 0.7748317 -2.305297 -0.2345558 
  -1.468385 -0.2992911 0.670714 -0.5131357 0.3742518 -0.8116338 -0.263086 -0.3561361 0.4331469 -0.2569682 0.9759542 -0.06854261 0.361881 -0.1147796 0.02614669 0.05508251 0.6926403 0.7810723 0.09752343 -1.773271 -0.7750212 0.486524 -0.7154636 0.3125151 0.9819788 0.3947587 -0.6972824 -0.6656635 -0.1579341 -0.8803014 0.01156688 0.2169657 -0.6871403 0.5444025 -0.3101103 -0.2162414 0.106217 0.1207618 -0.4797616 -0.1193229 0.434991 0.207812 -1.099932 0.1145065 -1.092309 0.1104975 -0.9390942 0.423222 -0.265879 0.2691829 0.1308573 -0.5497841 -0.2958493 0.4460902 -0.01805806 0.6588755 -0.3573068 0.753226 -0.8141268 -0.02628095 -0.2998338 0.04374498 -0.3190844 1.001663 0.4870898 0.3716752 -0.3427413 0.1934244 0.6650954 0.5211437 0.09425973 -0.295403 -0.3415667 0.3578817 -0.7173275 0.3181866 0.005481292 -0.4587595 0.002146463 0.2350413 -0.2983414 -0.442101 0.01255301 -1.783442 -0.6851635 -0.1088818 -0.3465211 -0.9742652 -0.5002584 0.0827573 -0.7317763 0.4442203 0.1471978 0.1381442 -0.2485868 0.4911873 0.2995662 -0.3260616 -0.6544425 0.1731265 -0.3383684 -0.310701 -0.5450268 -0.0989629 -0.8458455 -0.2548436 0.05472937 -0.5412832 -0.4026805 -0.8704357 -1.614455 0.008814086 -0.1064776 0.3791063 0.1473885 0.1181361 -0.3953518 0.9361839 -0.2006281 -0.1668419 -0.6218635 -0.2002219 -0.3034429 0.2454679 -0.3615324 -0.4138391 -0.325689 0.2259534 0.3466732 0.5103432 0.2346137 -0.114926 -0.1180742 0.06147362 -0.4618868 -1.418242 -0.09907856 -0.7785818 0.841053 -0.07747135 0.02216917 0.757055 0.1905054 0.6552374 0.1003326 -0.7941604 0.324099 0.6620449 0.4761095 0.2660698 0.5534968 0.5290453 -0.564807 0.1044475 -0.7803156 -0.78154 -0.3459789 0.5945518 -0.1255683 0.4809528 -0.04041767 0.5411372 0.459486 0.4596017 -0.1549972 0.01301031 0.02678663 0.595638 0.6180773 0.04151938 0.496192 0.6276093 0.06519442 0.8625078 -0.1185256 -0.03946787 -0.07032276 -0.400497 -0.2875317 -0.4108113 0.4436222 0.3672481 0.6996298 -0.09897224 -0.5214922 -0.3783916 -0.5142241 0.1855763 0.2194266 0.1589239 0.6520925 -0.2324382 -0.8678635 0.1996848 0.5149767 0.09961279 0.1803575 -0.2851304 -0.136649 -0.02819183 0.4357533 -0.1186859 -0.4214085 0.5771884 0.3748567 1.311136 -0.2669506 -0.1887998 0.4803704 0.9466478 -0.07362925 0.3580666 -0.5419092 -0.3622678 -0.4130204 -0.5138707 0.5066022 -1.76126 -0.4595622 0.0374192 0.6170001 -0.07866713 0.3498518 0.2158889 -0.7376736 0.09341623 -0.03459217 -0.6407942 0.03135035 0.08772913 -0.4191125 0.7700647 0.05196472 -0.3382726 -0.07316615 1.046597 -0.3944653 0.02131415 0.198393 0.3079664 0.3614071 -0.4637831 -0.4076961 -0.07473632 1.047004 -0.1265423 -0.06966496 0.6498939 0.3074521 -0.525842 -0.765799 0.5172549 0.4964531 -1.378434 0.0771006 0.2238105 
  1.414711 -0.7084842 -0.5680981 0.09358376 0.224086 0.2401288 -0.3986458 -0.513438 -0.9116008 -0.3406766 0.2390465 0.2691533 -0.292911 -0.01442477 0.7738034 -0.8047555 0.2929617 -0.2147664 1.393976 0.2065888 -0.3309547 -2.05392 -0.9127934 0.3311034 0.8996107 -0.4567288 0.02634474 -0.7574861 -0.9407241 -0.8458021 0.01231392 0.4005076 0.5011889 -1.193376 0.04504363 0.7708347 -0.2040487 -0.5082082 0.1571321 -0.006917215 0.4407221 1.229329 0.5668047 0.7025517 -1.000298 -0.5026703 -1.352255 0.7711267 0.5352747 0.9279934 -0.8605585 0.6266945 -0.464354 -0.7939471 -1.094865 0.04098491 -1.368492 0.5514803 -0.4934409 0.04684447 -0.2841194 -0.3850167 0.5094375 0.3063283 0.8938676 0.1744582 0.693422 -0.5601364 0.2598514 -0.25866 -0.3441646 -0.1442784 -0.1722686 0.0537097 -0.4478403 1.070343 0.1562058 -0.05764205 0.6874117 0.1984029 0.08694363 0.4593836 -0.062988 0.9712268 0.1176637 -0.2871442 -0.4112521 0.2544371 -0.6737124 0.3323727 0.5949196 0.1399979 -0.8073886 -0.2735254 0.4473 -0.3406338 0.858041 -0.2235094 -0.1115796 0.5864205 -0.9651798 -0.1040082 0.2142051 1.078098 -1.099438 -0.3004649 0.02659175 0.1814618 -0.2648673 0.2022011 0.1147845 -1.015402 -0.7560279 -0.1665407 1.170386 0.02772705 -0.01999375 -0.05002992 0.5930841 -1.217945 0.8487279 -0.2639343 -0.2095134 0.4865364 0.7984285 -0.01706814 -0.3379028 -0.162985 -0.5591186 -0.1212118 -0.4450648 -0.186595 0.2684963 -0.5768518 -0.1505144 0.7996898 0.2970783 -0.554704 0.6668742 -1.754211 0.3226158 0.847631 0.09042389 0.274281 0.2976308 0.8883603 0.5753257 -0.906491 0.6787313 0.0510386 0.3293634 0.2973204 0.4559469 0.9432526 0.07551837 -0.3371933 0.03983202 -0.6425104 -0.01763065 -0.8538928 0.52143 -0.07854663 0.09401412 0.7172205 -0.5485954 -0.6984957 0.09605068 0.4358558 0.47346 -0.1425331 0.5927437 -0.6377928 0.1220019 -0.2462153 -0.3081974 -0.3317946 -0.4724999 0.5072972 0.8447675 0.4530258 0.2162139 -0.03560945 0.5239336 1.221553 0.1730981 -0.450423 0.2856155 0.6384086 -0.9562289 -0.06478953 -0.01936779 -0.4004774 0.776021 -0.5374567 0.3955434 0.3675937 -0.09773 -0.9058893 -0.09400679 -1.298 0.09690028 -0.884165 -0.6261842 0.406827 0.7578496 0.6764867 0.3020238 -0.3539806 -0.09396284 0.1655262 0.4514234 -0.7587608 0.545315 1.181625 -0.6267058 1.006538 -0.03151651 1.114438 -0.5411576 -0.6990117 -0.09516367 0.7192479 -0.7265024 -0.633284 -0.5946683 -0.6430369 0.03668752 0.4073061 0.3012397 0.1660519 0.3699642 -0.1277507 -0.9854413 0.7127385 -1.377278 0.4029602 -0.2845843 1.468588 0.2969508 0.481236 0.1292084 -0.03313145 1.046728 -0.241585 0.1872569 0.1711497 -0.9385314 0.1385115 -0.180292 0.3350128 -1.045242 -0.8041501 -0.9136786 -0.741411 -1.065747 0.7449227 
  0.1213086 -0.4118775 0.5083337 -0.6861085 -0.4789368 0.0529371 0.02951243 0.2239695 -0.8502458 0.06531978 -0.5128267 0.9106839 0.6469777 1.040686 0.324501 0.9530843 0.2228186 -0.07146924 0.6619334 0.01484813 -0.3210024 -0.3742286 -0.1181352 0.506994 0.3377804 0.0402367 0.6759971 -0.3947199 -0.7606338 -0.03350096 0.3417592 -0.4151704 -0.1042355 0.6219841 -0.02049803 -0.298018 -0.07787345 0.3697618 -0.623441 -1.025933 0.40342 -0.1578903 -0.5813419 0.06722265 0.6448988 0.3742668 -0.9548768 0.9171161 -1.710234 -0.3361656 -0.2080396 -0.4060747 -0.007785636 -1.170477 0.1232807 0.6160947 -0.05636836 -0.890884 0.8531493 1.201034 -1.06903 0.6743468 -0.3663282 -1.534698 -0.7940176 0.8699406 0.4302151 0.3860112 -0.6278142 0.1683634 -0.3577967 -0.7028466 0.9371884 -0.5371353 0.5443839 -0.2231315 0.459195 -0.4999074 0.06530367 0.1645392 0.157288 0.8364384 -0.2244194 0.4967808 0.2947531 0.4807844 -0.8468001 -0.2582733 -0.2582858 -0.175611 -1.761369 0.2483382 0.5954451 -0.9747021 0.920794 0.02928814 -0.1525029 0.4947668 -0.0772877 0.3328515 0.03090833 0.2219582 -0.08664451 0.08036774 0.6525711 -0.5973611 -0.3544315 -0.01500606 0.2516981 0.6810574 -0.0904062 0.1845905 -0.1701355 0.5420432 0.6947648 0.3660394 0.3384883 0.2306607 0.1512304 -0.32005 -0.1420794 -0.01332576 0.04135787 -0.1074755 0.4659159 0.1062406 0.8299546 0.2461691 0.6726393 -0.1403596 0.3147667 -0.4481166 -0.2874685 -0.2380362 -0.525318 -0.1023373 -0.1397674 0.6822954 0.1750893 0.1687754 0.1299312 0.8189418 -0.7549449 0.5121363 0.8226268 0.5762556 0.54491 0.8105208 0.07203046 -1.778177 -0.01390655 1.258801 -0.7651703 -0.1363133 -0.1519463 0.7712357 0.4348444 -0.5969548 -0.3705749 0.3187936 0.5896337 -1.084243 0.08813298 0.4354174 1.270417 -0.3386663 -0.5929873 -0.3153846 -0.9151152 0.4840934 0.0270639 0.1931978 -0.1080617 -0.6981293 0.07445577 -0.2956096 -0.4049784 -0.2216734 -0.8550778 -0.5668529 0.0375111 -1.33775 -0.02415954 -0.4422205 -0.5475715 0.2711779 -1.089583 -0.1701271 -0.1844422 -0.8142364 -0.5120793 0.363431 -0.9099128 -0.7714575 -0.2623811 -0.4850025 -0.02772614 -1.625261 0.03786141 -0.5395951 0.6837173 -0.07944137 0.5479521 0.3040481 0.9111176 0.3376518 -1.133728 -0.1667017 1.061257 0.550574 -0.5838448 -0.4054158 -0.9741388 0.7851319 0.5985196 -0.3552419 0.4377872 -0.710515 -0.5996699 0.19712 -0.710799 0.364503 -0.7721742 1.477173 -0.1595581 1.898395 -0.1142106 0.7416161 -1.557338 0.564374 -0.005765999 -0.1736081 0.1553937 -0.3219239 0.3386512 -0.1917287 0.2254723 0.995661 -0.9320028 -0.01737702 0.2498433 -0.4409884 -0.2932383 -0.3121671 0.9024139 0.1101047 -1.0131 -0.517791 -0.8714367 -0.00861906 0.03257969 0.2664757 0.3726697 0.9663998 0.7579796 -0.7028378 
  -1.438388 0.3899906 -0.9173841 -1.935571 1.623067 -0.757214 -0.4814485 -1.772414 0.07140989 0.09863375 -1.755384 -0.3100618 1.044759 0.1782837 0.2730265 0.2675114 1.714905 -0.009286731 0.2561182 0.51374 0.2912253 -0.7113433 -0.7457581 -0.2842479 0.7244356 -0.3861846 0.4856958 -0.6176142 -0.1997281 0.387385 0.8042549 -0.5436745 0.3568074 -0.6678094 -1.18851 -0.248429 -0.8505591 0.1615007 0.1829852 -0.3962938 0.1877755 0.1641514 -1.675424 -0.7649822 0.1942616 0.7676475 0.8637322 0.9580215 0.367371 0.8249539 -0.1799847 0.3616271 0.5633131 0.2266562 1.11795 0.1973174 0.7884283 -1.074095 -0.1484427 -0.1063446 0.9349561 1.02276 1.291862 -0.1393939 0.3937536 -0.435481 0.509635 0.03903867 0.001262388 0.02083763 0.4129501 -1.319938 -0.02470451 0.5295788 0.2100857 0.1910357 0.4588868 0.2638786 0.4929068 0.04064333 -0.08585162 0.8049284 0.3693929 0.1370673 0.8133724 -0.1303114 0.3422012 0.6588152 0.03058297 0.479254 -0.5525247 -0.5960275 -0.4619983 -0.5451502 -0.1842145 0.2919388 0.09062091 1.144268 0.3376466 0.5022226 -0.2364568 0.1575967 -0.2390433 1.07424 -0.1068373 -0.3184666 0.6841054 -0.2919778 0.1398301 0.413514 0.679341 0.06462009 -0.9285896 0.6795835 -0.1304816 0.3681141 0.9154641 0.04069532 -0.1794891 1.116681 0.1452669 0.1481756 0.1268522 -0.3433652 0.3455465 0.04478518 0.6638808 0.8006518 0.14955 -0.1022088 -0.086612 0.09570611 0.01853804 0.4490607 -0.6973764 1.556972 0.8278815 -0.4523434 0.02591593 -0.2870842 -0.1624241 0.3681574 0.9267369 -0.1848725 -0.5667878 0.438868 -0.1888522 0.2391605 0.07317152 -0.2498928 -0.77081 -1.030411 0.7872517 0.1802504 0.09449525 0.473963 -0.1139669 -0.01875635 -0.1218417 -0.4461054 1.010562 -0.1053203 0.1584097 -0.7583195 -0.5473276 -0.6132154 -0.2179574 0.5437547 1.172895 -0.7857651 0.4991523 -0.4270855 0.2264973 0.2971233 -0.3656167 -0.2913826 -0.2607178 0.04457733 0.9741135 0.07719096 -0.1065157 0.04713074 0.271756 0.1271154 0.1076977 0.3879003 0.2795053 0.1382994 0.1406491 -0.05297423 0.2648575 -0.2713434 -0.206171 0.6355648 -0.5192158 0.7645521 -0.2751673 0.07944856 0.3503515 -0.4353273 0.1361935 -0.05684483 -0.4710103 1.074132 0.4976113 -0.6283823 -0.6436844 0.335921 0.541036 0.1351083 0.4362771 -0.4747935 -1.331786 -0.1019502 -0.4645635 -0.1239853 -0.7555472 0.4730068 0.461514 -0.3136491 -0.01870249 -0.2158254 0.04530207 0.4546608 -0.2952161 -0.9504919 0.6109159 -0.2382214 0.09487476 0.0401323 0.3938256 0.2567045 0.6787228 0.3123607 -0.7266287 -0.1743674 0.0184231 0.6975836 -0.858059 -0.2551539 -0.3571382 0.1622383 0.559845 -0.2999263 -0.2512673 1.212295 -0.3180971 0.5341779 -0.1667045 0.8405658 0.1737658 1.296937 0.3375942 -0.2833469 -0.6104572 -0.3625548 
  -0.2410215 0.5374935 -0.8523988 0.958247 0.09005577 -0.001693147 -0.4018744 -0.004814894 -0.1291721 0.06835867 0.6446644 -0.4544968 -0.8078193 0.3270626 1.198298 0.3182847 0.4939532 0.2878685 0.5651483 0.1956898 -0.5057632 -0.02813102 0.0257096 -0.1969464 0.2894399 -1.961261 0.620919 -0.2817814 -0.316214 0.1258213 -0.159145 0.1519757 0.04210299 -1.335528 -0.9854277 -0.1173909 1.271379 -0.6432698 -0.6645652 -0.9742352 0.4612593 0.4405163 0.3505983 0.1358783 1.235251 0.8142458 -0.6627484 -0.4123255 0.03461467 -0.206133 0.4720689 -0.09651709 0.1514108 0.2802317 -0.4773895 0.06924098 -0.230987 1.234826 0.3097598 -0.5188769 0.3614897 0.4068203 -0.1615611 0.9031192 0.8869015 -0.9799728 -0.3891283 1.013772 0.6048876 0.1182741 0.5311413 -0.1202203 0.4404956 0.5920079 -0.6607499 -0.5127136 0.4834309 -0.3139478 0.2885339 0.5422807 -0.197557 0.1021303 0.02375515 0.3153582 0.2459351 0.6444198 -1.274454 0.377973 0.5185511 0.2346931 -0.1617915 -0.3625518 -0.1136704 -0.340872 1.437154 0.08874185 0.462825 -0.5813006 -0.7832421 -0.1076422 -0.4476545 -0.06673942 -0.2938155 -1.217291 -0.3355904 -1.531135 0.4426402 -0.4863796 0.5229136 -0.6288857 0.5101756 -0.7304248 -0.2508824 0.04428128 -0.414003 -0.09541664 0.1486283 0.4674045 -0.7268692 0.1837876 -0.5190156 -0.2661225 0.04412265 0.8231519 0.6618389 0.1127948 0.01746535 0.2635663 -0.5291307 1.209748 0.4310255 0.03150724 -0.09131489 -0.7209011 0.7623007 -0.5678654 0.413274 0.3009647 -0.3798965 -1.458426 1.153545 0.2099797 -0.4021488 0.3978454 0.9513435 -0.686561 0.5200579 0.4844368 0.09876034 -0.2781287 0.4016203 0.1202439 -0.125233 -0.7812409 -0.1203904 1.121645 -0.4559448 -0.7202256 0.6176403 0.1894663 0.02747073 1.020965 0.5220015 0.4861042 0.182192 -0.2772353 -0.2618879 -1.508819 -0.007569254 0.5556532 0.2412246 -0.7652452 -0.003023382 -0.30638 -0.1076084 -0.0430995 -0.2887793 0.01470346 0.335468 0.09178261 -0.7086918 1.13429 -0.6926407 -0.4210739 0.02781402 1.359117 -1.116559 -0.6284611 -0.7452311 0.2572384 -0.9118112 0.4254256 0.003446014 0.4809867 -0.3407945 0.1662852 -0.724968 -0.1631933 -0.9397363 -0.2142993 0.8921351 -0.509188 0.5412946 0.3957098 0.2390962 -0.2628765 -0.2761738 -0.007111449 -0.0817546 -0.4313485 -0.2809345 -0.3395415 -0.256647 0.517067 0.5513228 0.9483145 0.02115122 0.4285955 -0.1683338 -0.2284142 -0.669808 0.7367199 0.5154058 0.5351856 -0.5475383 -1.552972 0.129986 0.945254 -0.1207065 -0.07869864 0.3068247 -0.2105919 -0.7934421 -0.3728955 -0.4348535 -0.08129058 -0.5780124 0.2370637 0.697438 -0.3560292 0.03695263 0.08503418 -0.8110017 1.396112 -0.08336706 -0.1408245 0.376928 -0.6077579 0.08308953 1.425759 0.1633047 -0.6038929 0.680326 -0.4174988 -1.455757 -1.200018 
  -0.388737 1.333423 -0.09266727 -0.3045619 -0.05380775 -0.2757073 -0.1928957 -0.3950714 -0.01982215 0.4547533 -0.7641835 0.3447903 0.06942229 0.2498571 -0.05154066 0.5861766 -0.2689236 0.2162885 -0.5798426 0.7936165 -0.6303362 0.5288036 -0.5337486 0.4976922 -0.7573397 -0.2277492 0.2828102 0.05820097 -0.1405953 0.3876306 -0.1531605 0.4920601 -0.1772214 -0.3605223 -0.008005403 -0.1534738 -0.2998908 -0.1478547 0.2223234 -0.563127 -0.1839163 -0.338704 -0.161529 0.7433733 0.6835179 -0.05235704 0.2292562 0.5232527 -0.03957622 -0.5862979 0.3972369 -0.6135507 0.06727155 -0.3719948 -0.9433364 -0.4064558 1.132615 0.03576379 -0.4739277 0.6401485 0.161974 -0.9527891 0.06409583 0.2205083 -1.109827 -0.3367707 -0.04732522 -0.6348245 0.2108137 0.2564958 0.04273164 0.2598246 0.5760006 -0.7371355 0.1767235 0.04395657 -0.8789993 0.6719805 -0.09993312 0.6568949 0.5879236 0.5577682 -0.2302102 0.5947961 -0.02545722 0.1705128 0.281353 0.008083448 0.7864424 0.2405143 0.4274265 0.3567518 0.02208409 0.2445814 -1.019768 -0.06590889 -0.1313321 0.4458067 -0.5701792 0.3663269 -0.797072 0.1169222 -0.126705 -0.02762161 -1.616364 -0.005019726 -0.1100785 -0.6230636 0.6856935 0.1841303 0.2734519 -0.09736712 0.1319804 0.0530159 0.3534303 -0.7443967 0.4490587 -0.4133635 0.7307898 -0.7533178 0.1481738 -0.4224006 -1.03953 -1.36996 -0.1077154 0.4511852 0.165997 -0.1951781 0.09240835 0.6004744 -1.053136 -0.2240859 0.8016767 -0.5375896 0.5585449 -0.09003564 -0.2339759 0.3015868 -0.1347175 -0.2173419 -0.5402312 -0.9005182 -0.05117682 -0.08035854 -0.5389876 -0.5608724 0.06602444 0.6917641 0.30451 0.4390679 0.1812923 -1.10435 -0.7877885 0.4726724 -0.6787477 0.160988 -0.02849314 -0.1696284 -0.1099257 0.1371991 -0.3926944 0.3692108 -0.634011 0.3510384 -0.08489057 0.1698726 -0.2777687 1.498191 -0.05597422 0.4884901 0.3210487 0.8471718 0.3526716 -0.4555162 -0.1231632 -1.078836 -0.2803309 -0.4875581 0.4161789 0.4263566 -0.1048061 -0.1000246 0.3530968 0.01537182 -0.9019483 -0.4172696 0.7934824 0.5011336 0.3366376 0.5182315 -0.09791281 -0.6302646 -0.08785898 0.1416291 -0.4072177 -0.8168108 0.1719097 -0.03115049 0.05235558 0.3835231 -0.1244628 0.01624535 -0.5540667 0.5012143 0.2051545 -0.9607078 -0.430757 0.05562053 -0.5259341 -0.6042599 -0.2598996 0.4090602 -0.5172824 -0.7162176 -0.1601495 -0.3854197 0.08201902 0.02320916 0.5356089 0.02314134 0.1855386 0.1023855 0.00789177 -0.5622529 0.2608487 -0.07475256 0.7280432 -0.1606014 0.533581 0.5845199 -0.1968445 -0.07868341 -0.676977 -0.136323 -0.3949665 0.3850788 0.6672565 1.284572 -0.0624738 -0.4894702 -0.05780901 -0.09327166 0.5973752 -0.4201706 -0.09696712 0.07450239 -0.1617507 1.051435 0.4219042 -0.1535183 0.8399549 0.2922626 0.2125808 0.1824852 0.3652797 0.1707591 
  0.8123139 0.3490062 -0.2461564 -0.09973309 -0.5692999 1.067297 -1.124528 0.1853242 -1.514593 -0.03335965 -0.418014 -0.5371236 0.29349 -0.3839755 0.7116196 -0.5452906 -0.8408642 0.252373 -0.5083388 0.2811324 -0.614759 -0.1880455 -0.295906 0.7991333 -0.1363639 -0.7336401 -0.2263457 0.1793932 -0.2593668 -0.05828653 -0.5801547 0.166538 -0.1921948 0.4846733 -0.7020862 0.3225025 0.1185464 0.2647963 -1.344566 -0.09604727 0.5578728 -0.2992335 0.9082744 -0.4809616 -0.004103955 -0.6094246 -0.1922949 0.154978 -0.27043 0.3863743 0.5878872 -0.6978739 1.196593 0.4017999 0.6117867 0.550937 0.01663565 1.532735 -0.1229936 -0.2898483 -0.1882731 0.4689578 0.4975497 -0.3641662 0.5074851 -0.7480319 0.3910707 0.705909 -0.7424723 0.001375762 1.79753 -0.1561129 0.8800389 0.06343643 -0.1736995 -0.04389005 -0.1736547 -0.7584114 0.08253228 -0.06258792 0.1264084 0.5379724 0.1872708 0.4455495 0.7402943 0.5947393 -2.220453 0.1595308 2.046319 0.9375081 0.3010157 0.1128594 0.7811019 0.5219161 0.9070024 -1.148607 0.1734334 -0.5447954 -1.799186 -0.8373536 -0.8160558 0.7474436 -0.4550816 0.6095906 -0.09064184 -0.7479444 -0.4353269 0.2901998 1.647108 0.6921997 0.5325659 0.7635313 0.9311047 -0.4195195 0.3852653 -0.2880128 -1.401558 -0.04318015 0.1357775 1.270343 -0.03358093 -0.1818055 -0.4986193 -0.2683127 -1.116051 0.6937847 -0.4648198 0.07835463 0.5890691 1.142445 -1.218459 0.04334497 0.02476343 -0.9342768 0.383188 -0.8486571 0.3389324 0.09364229 0.5637591 -1.916067 -0.7385094 -0.1140656 -0.4892754 0.09089991 0.12537 0.1714735 0.6893274 0.2005703 0.2064938 0.2404475 0.9414818 -1.040042 -0.1394196 0.2273947 -0.371506 0.4189119 -0.03049232 0.04034029 -0.3385037 1.120608 -0.3075755 0.1052433 -0.08191089 0.9591479 -1.101413 -0.2288283 -0.2865198 -0.6944048 0.5367177 -0.5256228 0.6506776 -0.2022278 -0.1514401 -0.4902751 0.218194 -0.8301675 -1.044599 0.321537 -0.5968232 -0.0597955 -0.1652035 0.1300948 -0.4083874 0.4318612 -0.2168525 0.7779681 0.9343341 -0.574851 -0.683857 -0.7386473 -0.2809822 0.6602681 -0.6288237 -0.6169712 -0.04663381 -0.3825174 0.7417201 -0.3844077 -0.2654338 0.4019416 -0.6114406 -0.1719813 -0.004848366 -0.697855 0.6784663 0.4389735 1.83983 -0.4529463 1.186022 -0.5265022 0.5496948 -0.2759852 -2.273936 0.7584875 0.4578964 -0.2663395 1.294827 0.6313316 -0.529478 0.4432472 -0.292688 0.7436751 0.3456199 0.0724892 -0.5491051 -0.4562688 0.09788533 0.06325772 1.054221 0.7355902 0.3276279 -0.665576 -0.4229583 -0.4781188 -0.1191833 -0.2287759 0.07792898 -0.5681037 -0.8271998 -0.6023763 -0.6069145 -0.3968685 -1.136401 -0.1251176 1.022295 -0.1579112 0.2028074 -0.7609864 0.8680243 -0.1799729 0.07085575 -0.2694595 0.1937981 -1.319252 0.02762894 -0.7202808 
  0.3460671 0.3452803 -0.006797506 -0.1424323 -0.2024646 1.267776 0.2125948 0.6310993 -0.2984813 -0.1110919 0.1378912 1.436226 0.4762148 0.8078533 -0.2801859 0.4190783 0.9826158 0.1427101 0.1974393 -0.04104961 -0.8207137 0.156718 -0.2813192 0.1639217 -0.1822876 -1.016601 0.2007564 -0.2122148 0.4618135 0.8549638 -0.15819 -0.06443217 0.9866803 -0.4360534 -1.639371 -0.1151353 0.1088954 0.8882041 0.05094809 -0.513241 0.2603579 0.5847015 0.4179175 1.255547 -0.004035414 -0.2102774 -0.5208968 0.3298985 0.03091713 -0.2380027 -0.09927481 -0.3397664 0.4870114 -0.3223013 -0.01585241 -0.1444039 -0.49666 -0.009382743 -0.1859265 -0.6712713 0.7388108 0.08326149 0.4152737 0.04794546 0.2788478 -0.533392 0.1128099 1.088417 -0.2588858 1.2869 0.2833464 0.1780053 0.5396356 -0.2089532 -1.099521 -0.5672343 -0.07652509 -1.561743 0.7327031 -0.8685254 0.6088267 0.7878615 -0.03254123 0.2577035 0.549311 0.2761145 -0.1762393 0.1909306 0.5979886 0.2282618 0.2386754 -0.8618623 -0.126106 -0.8616728 -0.7265679 -0.8498954 -0.3713388 -1.179902 0.3594449 -0.09949542 0.6778162 -1.011101 0.5257386 -0.1617177 0.08585784 -0.3571602 0.4730626 -0.8299931 -0.3567803 -0.3818788 0.4362714 -0.9093351 0.2700479 0.386979 -0.002293959 0.295962 -0.5619262 -0.7979097 0.6028976 -0.05059577 -0.4303549 0.2528802 0.1657075 0.3705742 -0.4799174 0.06079338 -0.2633534 0.2197495 -2.284775 0.9203166 1.127951 0.2809438 -0.6709906 -1.386217 0.3996056 0.4007706 -0.5395764 0.07432078 -2.400784 -0.6122445 1.209586 0.2744719 0.1408384 0.1464107 0.9147753 -0.7908794 -0.128594 0.2287927 -0.2245622 0.8866575 -0.9168087 0.8305437 -0.3231475 -0.4063174 0.439254 0.5588012 0.3531621 -0.1614955 -0.2973421 -0.1291121 0.164842 -0.4401806 -0.295815 0.7495488 0.6246585 -0.2145658 -0.5010297 0.1771848 -0.7499291 0.01640695 1.829252 1.147675 -0.2962628 0.1754404 -0.2237564 0.1459335 -0.05356212 0.230909 -0.266455 0.08958826 0.1097117 0.4397282 0.3323353 0.02304067 -0.903825 -0.03176838 -0.1959636 0.4768721 -0.972819 -0.4519086 0.2116105 -0.1317007 0.6049933 -1.033371 -0.1729416 -0.2832606 0.1150372 -0.1934096 -0.1617398 0.2767941 0.8651627 0.09399304 -1.385773 -0.5295374 0.0402124 0.8503205 -0.7785855 -0.5246114 0.5862145 0.4788651 -0.2948075 -0.3183729 0.3682494 0.08601156 0.3393485 -0.2937473 -0.1580372 -0.2657637 -1.185584 -0.5586522 -0.1026815 -0.211004 0.5154565 0.5271778 -0.8339688 0.6571212 0.8807813 -0.1425033 0.3622024 -0.7960185 -0.3138404 1.18476 -0.4023128 0.02215759 1.543387 0.644071 -0.4409206 -0.6782417 0.8599102 -0.2604166 -0.7238061 -0.1683208 0.000658078 -0.3175366 0.05770257 -0.7699538 -0.3603131 0.9778386 -0.060521 -0.1097897 0.1861497 -0.07529043 -0.5186808 -0.06345261 -0.4247918 -0.2161305 
  0.06263257 -0.5874698 0.05226229 0.6292199 0.04940487 -0.33185 -0.03387538 -0.4945056 0.6533316 -0.8868484 -0.2855869 -0.4613496 1.942142 0.3185156 0.1319479 -0.01540947 0.0576712 0.4729237 -1.591994 0.3003833 -0.1281957 -0.07107455 0.3911943 0.47216 -0.4789173 0.5911169 -0.5519044 -0.1104562 -0.01901922 0.8535844 0.2365184 -0.9329436 -0.3788141 0.2525972 0.6504837 -0.4879201 -1.154211 0.3554276 0.1030235 0.4020626 -0.7345911 -0.5011591 0.5034426 0.6053913 -0.701919 0.165336 -0.2577708 -0.8597875 0.06412935 0.08852147 -0.1209942 -0.1318521 0.6754612 0.1540944 0.0992393 0.623764 -0.5831792 1.067907 -0.6693764 0.3250244 -0.3875508 -0.07663566 -1.077415 0.7720206 0.07211136 -1.077377 0.09744537 -0.8200864 -0.5409399 -0.1740879 0.01225633 0.1726778 0.2651011 1.433413 -0.2734075 -0.1736335 -1.833455 -0.3039632 -0.2703076 0.2588942 0.6983012 0.1114667 0.2559069 -0.410461 0.08748327 -0.04684006 0.08515304 0.3777288 0.4131409 0.3659399 0.1960586 -0.1037698 -0.05422875 0.6900073 -0.8097028 0.1085804 -1.418317 -0.3520862 -1.050468 0.06790069 0.4363121 0.7109784 0.3172905 0.2901725 0.2107437 0.3988057 -0.07466662 0.6878359 1.482005 0.3457773 0.2070127 -0.7937182 -0.1519367 -0.7729854 0.5295933 -0.2672119 0.5493804 -0.001223316 -0.7027937 -0.002288286 0.3932217 0.539268 0.2512933 -0.6677079 0.4954874 0.3378163 -0.3302211 0.4619304 0.1290068 0.7924221 0.03514649 0.3938968 -0.7600983 -0.3363874 -0.8044897 -0.4601039 -0.6023906 -0.4412553 -0.01715381 -0.5112339 -0.1582205 0.07194084 -0.3802088 0.1085396 -0.0229754 -0.9419923 -0.04745295 -0.823987 -0.2409847 0.9194872 0.5446556 -0.3747535 0.1080134 0.1189292 -0.6153464 0.01573141 0.2595636 -0.1024254 0.9987522 -0.2750333 -1.02197 -0.5699955 -0.9600964 1.23493 -0.7911423 0.2536864 0.4056189 0.2413635 0.2110997 -0.2573649 -0.1657589 -0.4908133 -0.5197644 -1.047021 0.1773467 0.1531112 0.5297864 0.2332404 -0.5354648 0.07640491 0.1705019 -0.5075086 0.8237712 -0.2647923 -0.7325833 0.1991707 -0.03457716 0.1390222 0.2185453 -0.6769747 -0.3122182 0.06925477 -0.3398755 -1.003801 -0.1524123 -1.089204 0.5247027 -0.3704503 0.006089239 -0.4690785 0.474399 0.04207145 0.3236951 0.313655 -0.2760261 0.1564672 0.6926715 -0.3728606 -0.4847723 0.1877686 -0.09817021 -0.1558594 -0.2254285 0.3568802 0.2067905 -0.6998767 0.8609613 0.838358 0.1339101 0.6841859 -0.3122009 -0.5947081 0.4602542 -0.7897913 0.7242522 0.09726851 -0.1393646 0.1324118 0.2540193 -0.9448527 0.09999629 -0.02283592 -0.963825 0.3702174 0.05922998 0.01910413 0.267246 -0.436678 -0.0214481 0.177155 0.2206134 0.3290711 0.6693352 -0.09972352 -0.1979553 0.4479312 0.1241242 0.5594362 -0.03267679 0.2352223 -0.6303726 -0.09274328 0.8618063 -0.5241113 -0.5827015 -0.8635715 
  0.8732685 -0.06770644 -0.1392348 -0.5881418 1.259667 0.2546797 -0.04413682 1.067506 -0.2420182 0.3027052 1.10813 0.4437779 0.3876374 -1.385901 0.6226775 0.1565467 0.7604894 -0.1015419 0.7072749 -0.1940992 0.2745269 0.3435043 0.6702609 0.8800649 0.6298741 0.3822691 -0.4726698 0.1956347 0.582971 0.6772287 -0.555999 0.7218575 0.3267363 0.3284859 -0.4429613 -0.2365479 -0.4128678 0.6923882 0.7711253 -0.8458884 -0.01655492 -0.5402278 -0.5777128 -1.055229 0.2763881 0.1706072 0.452092 0.3782419 0.3934242 0.06153497 -0.4118854 -0.3534315 0.5183886 0.1595933 -0.4131311 -1.762258 -0.9977974 0.3860053 1.131555 -0.04705955 0.1432508 -0.562667 0.6711681 0.1130776 -0.07909895 0.503988 0.1982863 0.1569048 0.602969 -0.4885175 -0.08092567 0.6017199 -1.286461 -0.2590096 0.7427928 0.3348443 -0.2159566 -0.6142187 0.8126957 -0.1453169 -2.108299 -0.2786527 -0.9044707 0.3409665 -0.175224 -0.1391114 0.80834 0.7444002 0.6444079 -0.6721762 -0.526708 -1.09724 0.6157054 -1.300157 0.6013491 -0.01615628 0.1628914 -0.7068602 0.4301369 -0.1059077 0.1597778 -0.7907348 -0.01393987 -0.005676402 0.1438434 -0.2135286 1.168989 0.328909 0.01922023 0.438903 -0.07556953 0.06665596 0.2285999 -0.1377858 0.02205265 0.03524599 -0.8993255 -0.8634707 0.7686798 0.1658405 0.2542749 -1.42029 0.7242098 -0.06915055 -0.03406837 0.535437 0.006834792 -0.5781961 -0.5611247 1.722303 -0.08245505 -0.1131847 -0.4979141 0.007632752 0.7668728 -0.03997677 -0.1673357 0.3498008 -0.6147375 -1.168468 0.9084432 0.3656107 0.4865159 0.8163347 0.9635152 0.9731048 -0.4141309 -0.1188965 0.217022 -0.4193054 -0.06435255 1.348888 -1.231923 -0.06301004 0.6851345 -0.01863321 0.7049297 -1.763845 0.947952 -0.7019848 -1.437912 -0.9284543 0.005779332 0.3118587 -0.9589269 -0.2054404 -0.4725143 0.4429296 -0.358376 -0.2034829 -0.4300204 0.626204 -0.6613673 0.7969795 -0.8608281 0.07805108 0.2405343 -0.0415557 0.7360731 -0.238849 0.07184654 0.0175013 -0.159774 -0.4967571 -0.5651066 -0.8208554 -0.270579 0.1135755 -0.7724735 0.4480198 0.8486511 -1.133797 -0.601407 0.261661 0.8058619 1.228876 -0.8483756 -0.2094783 -0.01938113 -0.2222237 0.9281454 -0.3430422 0.7402481 -0.1410142 0.2600328 0.4440987 -0.8592211 0.698458 0.3493561 0.5713786 -0.4421546 0.1875237 0.2630052 -0.3463295 -1.728375 0.7164696 0.4571335 0.1152565 -0.5103177 -0.3690188 -0.7760832 0.3718786 0.2603933 -0.8178028 0.4311351 0.677483 0.06689209 0.6303319 -1.387794 0.07158133 0.1477503 0.2690299 -1.171714 0.1451977 0.1254791 1.175999 -0.2877211 -0.257573 -0.7591466 -0.1422703 -0.2200953 -0.9229255 -0.004011301 -0.2538185 0.2598657 0.4157755 -1.318145 0.7980395 -0.5559986 0.87503 0.2411978 -1.197606 -0.9679797 0.6881431 -0.5898378 1.03619 
  -0.2584352 -0.2385327 -0.04858039 0.7671793 0.7084215 -0.4495886 0.3233942 -0.009473113 0.2880048 0.7934617 0.253433 -0.0750776 -0.1609281 -0.7784079 1.184259 -0.2685358 -0.0603451 -0.3894607 -1.437284 -0.9980375 -0.1048626 -0.5302585 -1.351906 0.698782 0.495243 -1.12501 -0.2282499 0.3307672 -0.3012838 0.8222026 1.280353 0.3388215 0.8154876 1.075743 0.1068117 -0.1396113 0.5138361 0.2481249 -0.4234174 -0.1330988 -0.8366857 -0.405405 -0.08101027 1.017784 -0.6962089 -0.6711891 -1.197167 0.9748716 0.4999023 0.7949408 0.183393 -0.3851411 -0.3303215 -0.3320902 0.4615859 0.9104608 -1.451424 0.7408273 -0.3133597 -0.4496598 -0.0742088 0.6569605 0.8397864 1.804642 -0.2607677 -0.9854581 0.6401393 0.4282357 0.557864 0.04711948 -0.2574568 0.7716919 -0.384115 -0.125814 0.06110362 1.067802 -0.5975144 0.4319666 0.3568589 0.255574 0.7315303 -0.04242748 -0.6400813 0.5383465 -2.093841 -0.6663492 0.5097771 -0.3117636 -0.4539991 0.7457437 -0.5146369 0.2998123 -0.2391006 -0.4751177 0.1074672 0.5760963 0.5314642 -1.188746 0.5524669 0.5911134 -0.3449763 0.4108065 0.1916094 0.3183983 -1.555653 1.249574 -0.6067911 0.3187102 -0.1744578 0.07076488 0.1184703 0.08409455 -0.2773903 -0.770348 0.1900639 0.2940221 0.09550538 -0.3709129 0.496885 0.228465 0.4089295 1.060293 0.1708675 -0.1832243 -1.291988 0.2700331 0.5082441 1.523948 0.2688499 -0.8689288 0.2341768 -0.04378537 -0.8322709 0.1368984 0.5586398 -0.5873014 -1.464606 -0.3487698 0.0617455 -0.07659243 -0.1941919 0.2488786 0.4966147 0.5998989 -0.6058606 -0.9254128 -0.657514 -0.1500371 -0.9274734 -0.2255574 -0.429481 -0.1530425 -0.5779834 0.4490582 0.04260762 -0.9007666 0.08185855 0.3606303 0.3238194 -0.06402336 0.1579673 0.02151331 0.4378646 0.4583972 0.277898 -0.6531703 0.2865084 0.5846644 0.06588008 -0.842329 0.01522835 0.2340076 -0.9494244 0.4953195 0.001208661 0.07938351 0.2769656 0.5561631 -1.247504 -0.7257146 0.5768635 -0.07017916 0.5119889 -0.4833815 0.2304392 0.2661873 0.1412766 -0.2882164 0.1589701 -0.7974062 -0.1045505 0.8781168 -1.423316 -0.266115 0.2495815 0.03639472 1.226572 -0.3707457 -0.02966181 -0.1410135 0.07137837 -0.6473665 -0.338701 -0.1297138 0.8345976 1.081402 0.2151379 0.4365826 -0.2795456 0.158424 0.4537117 0.1281799 -0.1183335 -1.364456 -0.03668239 0.4829769 0.4686452 -1.327566 0.02344673 0.7709277 0.1033989 -0.9814709 0.05195853 -0.07401708 -0.9245676 1.037116 0.3438547 1.063124 0.4543719 0.3709324 -0.07919285 -0.8742018 -0.2472921 -0.811421 -0.1618038 0.1248908 0.6508292 -0.2473815 -0.6014606 -0.04578235 -0.3701132 -0.8652024 2.03984 0.2323746 0.3297046 -1.011101 -0.499023 1.337238 0.9827551 0.189785 -0.01478591 -0.3408611 -0.4338063 0.5782233 0.4045503 -0.04915056 
  -0.8325972 -0.5770135 0.5633245 0.02657897 -0.5749495 0.5864272 0.1976124 1.235295 -0.1466742 -0.135265 0.3693505 0.1910825 -0.8624564 -0.5789106 -0.1967675 0.1501339 -0.2766469 0.4777009 0.1439205 -0.8310745 0.3782012 0.8586382 -0.1064451 0.2357771 0.2622271 0.6398941 -0.1841108 -0.3218562 0.4445622 0.1930931 0.5836957 0.15741 -0.5651902 0.3262598 -0.1767303 0.6049286 -0.3678767 0.4091373 -0.1386201 0.2415655 0.9400938 0.1651365 0.07171265 0.1965784 -0.04452979 1.018255 -0.1526136 -1.145021 0.3792432 0.5585319 -0.1500791 -0.4271024 -0.7632274 -0.3782876 -1.108 -0.7807186 0.3569705 -0.7652984 0.6150492 -0.5815997 -0.07277767 -1.503799 0.4539346 0.2139255 -0.03447839 0.377281 0.2359754 0.8665152 0.7354831 0.008682733 0.4663711 0.06591209 -0.8025031 0.01038727 0.189747 0.7921509 0.5553378 0.5339917 0.8752939 -0.3734631 -0.4184266 0.04735956 -0.7342724 0.05991546 0.09936748 -0.3605815 0.5446813 0.6149704 0.09463987 0.3382804 0.08376738 0.3440536 -0.06031502 0.3045388 0.6329787 0.1261 -0.4015241 0.5090026 0.3178346 0.1912482 -0.2554221 -1.347292 0.1874542 0.1165677 0.7908893 -0.6127757 0.548227 0.1808553 0.5117886 -0.9842197 0.05331448 0.0710405 -0.3765761 1.090763 0.7096085 -0.09696376 -0.414595 -0.6874619 0.7598374 0.7869921 -0.5205734 -0.6633257 0.2468916 -0.513315 -0.3329081 1.194446 0.4475461 -0.1366938 -0.2078711 -0.2320205 -0.5064216 0.7197653 -0.1514573 -0.3853093 0.7824 0.3506835 -0.4063668 0.181697 -0.9444823 0.176607 0.1455963 0.3658746 0.5284536 0.7855318 0.4272318 0.3452866 -0.7828948 0.2232693 0.1736123 0.7128744 0.08455472 -0.757156 -0.2339003 -0.2287371 0.5116409 -0.01452803 0.8826731 0.4454335 -0.4431887 -0.1534189 0.3763229 0.4047772 0.3028897 -0.9666995 1.114968 -0.2868274 -0.6335188 -0.9621245 0.04973976 -0.5330096 -0.1856396 -1.192873 0.8377693 0.09855395 -0.05225488 -0.07970301 0.5661368 0.790924 -0.2076063 -0.5212722 0.6376162 0.4929141 -0.5507333 0.3787861 0.8996307 -0.4080914 -0.2852605 -0.295245 0.1099044 0.03415426 1.438092 -0.8399156 0.9363725 0.6663166 0.3225232 -0.8636453 0.4423529 0.3841997 -0.008648131 0.326671 0.79682 0.08681846 -0.6785686 -0.07301932 -0.3090239 0.231049 -0.1377638 0.1239804 0.3293157 -1.208394 -0.02406406 -0.2156698 -0.3772324 0.0232691 -1.499513 0.2794252 -0.6423962 -0.8193816 -0.3070561 -0.8750994 0.6616287 0.487222 0.2025642 0.3722448 0.05274432 0.25537 -0.1960005 0.6136613 -2.406677 -0.05955017 -0.05439677 0.3911661 0.4086061 0.4646091 -0.3383476 -0.0996313 -0.3669035 -0.1293995 -0.4525155 0.258278 -0.1333399 -0.5458112 0.05226241 -0.4137897 -0.9334981 0.269589 0.6520657 0.05182793 -0.5539373 0.1494174 -0.2711596 -0.179123 0.1214583 0.2289933 0.4680733 -0.03266001 
  0.5819398 -0.7091852 0.9027879 0.1339459 0.3188196 -0.5378976 0.1835277 -0.9262668 0.5342242 -0.4411723 -0.3829393 0.2383934 0.5113066 -0.2965615 1.3314 -0.1561843 -0.6790031 0.487136 -0.06041465 0.1063167 -0.2381323 0.1195163 -0.1098111 -0.4833529 -0.1089221 -0.3140799 0.5899927 0.3281958 0.3569908 -0.1694485 -1.095778 0.5479236 0.3778342 -0.3843887 0.1502391 0.1528694 -0.4132731 -0.1772872 0.1500368 -0.2677364 -0.4164321 -0.1029309 -0.1870032 0.2768317 -0.3407535 0.1231604 -0.4561643 0.1932961 -0.005199544 -0.2744236 -0.8844621 -0.02493633 -0.4438352 0.1027531 -0.4535714 -0.3306331 0.1091959 0.3704972 0.0505009 -0.09801898 -0.5456939 0.178559 0.01028878 -0.0866795 -0.7971504 -1.194153 -0.01324667 -0.6316311 0.3433147 0.3254135 0.1405482 -0.6831569 0.4237919 -1.0302 -1.298385 -0.1471085 0.4877857 -0.3430288 0.5531046 0.1796985 0.2437284 0.2587718 1.005195 0.269116 0.7270826 -0.7693019 -1.976596 0.006007135 -0.4415945 0.6533822 -0.342459 -0.9622729 -0.9491733 1.113437 -0.00176399 0.3853309 1.367486 0.1503591 -0.5788145 -2.607296 -0.9807146 -1.289026 1.122887 0.2131619 -0.06145407 -1.073786 -0.9234254 0.6161591 -0.2413357 0.8116693 -0.2645528 -0.0910431 0.7144654 -0.1696004 -3.030352 0.4088622 0.4950568 0.9737017 0.3793958 -0.6575923 2.42511 -1.096563 0.08299945 0.4597313 0.2770271 -0.03141548 0.1081529 -2.698597 -1.263501 -0.02289308 -0.5488219 -1.375064 -0.08764111 0.05529201 0.9378499 0.5486645 -0.1653142 0.4526 0.8565283 -0.1538598 -0.2809962 -0.04231906 -0.07179791 -0.1817071 -0.8708513 0.2113994 -2.71792 0.2668397 0.4525351 0.1077002 0.9747398 -0.2775521 0.8190368 -0.5075192 -0.362525 0.551122 0.3291516 -1.109378 -1.13264 -0.6690522 0.7326822 0.9228923 0.7595025 -0.9557721 -2.047836 0.1214697 -0.8194291 0.2858804 0.8522403 -1.419261 1.096719 -0.1502766 0.2753934 -0.6154373 -0.4579743 0.5662971 -0.7893618 -0.4437075 -0.8084547 -0.1373051 0.2128049 1.05142 -0.147755 0.3014057 0.03953887 -0.3208433 -0.2265429 -0.186802 0.5234848 0.5438165 0.1748514 -3.376483 0.4785629 0.1772328 0.7351652 1.540406 1.031549 -0.5173138 -0.7393397 -0.9076874 0.156528 -2.189858 -0.2424058 0.3960911 0.6580327 -0.1286893 0.2904941 0.2390513 0.1105111 0.8745606 0.5393477 -0.7250854 0.2581252 0.3777716 -0.02175893 -0.1026225 -0.8293516 -0.1802734 0.2737799 -0.4397782 -0.967124 -0.2545578 -1.300614 -0.7312483 0.5010496 -0.2480583 0.2033907 1.486241 0.4580368 -0.1309297 -0.4638757 -0.03627003 -0.6193326 -1.86107 -0.2517585 0.5603989 0.03134153 0.272428 0.4074228 0.3356604 0.007421767 0.2219598 0.459328 0.02897517 -0.5777508 -0.2845616 -1.136402 -0.3173512 -1.114644 1.068346 0.1589848 0.7044305 -0.1121627 0.5361901 -0.78359 2.28954 
  0.198919 0.4835581 0.2903469 0.4789354 0.5615738 0.9077938 0.8425647 0.9721016 0.7935302 -0.08168362 1.285125 -0.3184092 0.82203 -0.4170876 -0.5587423 -0.612826 0.8061779 0.003831406 0.3762332 -0.2675964 0.5542158 -1.489583 -1.312072 -1.114656 1.360999 0.7788438 0.723372 0.2023614 0.358173 -0.7273726 -0.877077 -0.2947609 1.862974 0.7940355 -0.4371803 0.2670922 0.431319 0.0887934 -0.6192108 0.6190218 -0.4236947 0.3336166 0.4720418 0.528071 -0.232974 0.8198119 -0.5957757 1.160172 0.1135942 0.1951656 -0.9092284 0.5460038 0.1594826 -1.174953 -0.2468851 -0.4924647 -0.6170263 -0.1657335 0.2993607 0.6566415 -0.3423477 1.135337 0.3899265 -0.1738753 0.4883492 0.5820592 0.2187821 -0.4882358 0.3309856 -0.1289342 0.842115 0.532258 0.7449933 0.2804249 0.3426104 1.735812 -0.6557592 -0.2800798 0.770313 0.06548754 0.4190966 1.038109 -0.7415347 0.4243604 0.1039111 0.02321095 0.06839875 0.5250607 -0.07953969 0.7421728 -0.5102165 0.1258911 0.2132147 -0.3236059 -0.4044388 0.4584827 -0.8911088 -0.9570512 0.2225779 -0.6581244 0.825339 -0.5342081 -0.4892448 0.7288661 0.1220053 0.02498909 -0.6561835 -0.5968406 -0.1491762 0.1418507 0.05456527 -0.2702485 0.9368948 -0.6683471 0.1381045 0.267899 -0.4857254 0.1985728 -0.9460393 -0.08824587 1.196505 -0.06880521 0.1193417 -0.1503491 -0.9951838 -0.1007448 -0.05070491 -0.382372 0.2332774 0.7099524 -0.242658 0.8601568 -0.4383032 -0.3563465 0.3210341 -0.8003564 -0.4585277 -0.6284386 -0.6461604 -0.3698846 0.07842321 0.4709994 0.3593623 1.036747 0.5743232 1.356519 -0.2017498 -0.6327819 -0.81694 -0.08826582 0.8491665 0.4388665 0.6425428 -0.1979084 1.048742 -0.884244 0.04266438 0.09004138 -0.7310524 -0.4522539 1.454372 -0.4926108 0.4921125 -0.2211248 -0.4560613 -1.299433 -0.2813101 0.04817678 -0.102752 0.004258932 0.796693 -0.2820996 0.2730648 0.4481774 0.4214489 0.7328422 0.2100384 2.053265 -0.3253184 0.515623 0.9289187 1.443987 0.3893439 -0.161778 0.488506 0.6935104 -0.4892892 0.8609166 0.3736005 0.1749006 0.1380469 -0.1714414 -1.114713 0.3612068 0.7241595 0.05071743 1.481634 0.4747002 -0.3300814 0.176465 -0.2208045 0.3526711 0.4703905 0.0003595856 0.1464513 -0.2836944 0.382055 -0.2201065 0.04459063 0.1602673 0.06665665 0.3330911 1.368818 -0.4697485 -1.140119 0.4345343 -0.3293836 -0.1922332 0.1521901 -1.786068 -0.2522922 -0.06982215 0.2969261 0.5971196 -0.3827077 0.5407099 0.1965344 0.120005 0.5471456 0.8239192 0.2823429 -0.008966801 0.7464445 -0.7724068 0.03449984 0.06737924 1.045423 -0.2940404 -0.3400877 0.4503013 1.050681 0.1472031 -0.1201575 -0.6876813 1.033729 -0.4456911 -1.004476 1.139077 1.153991 -1.589213 -0.05018298 -0.2970295 -0.3956328 -0.6644156 0.6375458 -0.6393443 
  -1.771806 0.146064 0.2712713 -0.3785581 0.7766292 -0.8992676 -0.6446232 -0.6635938 0.200833 -0.3752009 -0.3547983 0.1833227 0.1024132 -0.349554 -0.3723442 0.2420383 0.3332711 -0.08691803 0.1194929 -0.3608668 0.2245666 -0.03547893 -0.1106159 -0.04023838 0.6661748 0.888907 0.2388026 0.2961138 -0.5518582 -0.01504606 0.5601315 0.8596727 -0.4134628 0.05810786 -1.002278 -0.4144394 0.1051982 0.6764034 1.045712 -0.03285728 0.2903233 -0.3842746 -0.8321779 0.1405469 0.4649208 -0.3391572 -0.9921409 0.23279 -0.1900615 0.6211667 -0.2739504 0.5316782 -0.05870678 -0.6403851 -0.6022175 0.3772195 -0.8057054 0.6561718 -0.7755091 0.5464211 0.2838795 -0.1265748 -0.821703 -0.3506068 0.8044161 0.5777817 0.1735032 -1.50765 -0.335632 0.03344696 0.2693383 0.6322249 0.07486923 0.09707735 -0.06248498 0.5238128 0.4912593 0.3707674 0.3478968 -0.122395 -0.01932003 -0.1636779 -0.03905708 0.4505064 0.7786724 0.3291413 -0.2186723 -0.8180991 -0.01688091 -0.6414416 0.5251465 -0.06054009 0.6155282 -0.0740172 -0.5658572 -0.6370902 -0.7822297 -0.2299821 0.0582054 -0.06106243 -0.3830561 -0.389727 -0.61969 -0.670578 0.3962958 0.6837822 0.5719391 -0.3382645 -0.3176019 0.4605783 -0.1484957 0.1467505 0.3621864 0.3973846 -0.8974466 -0.3588822 -0.3810638 0.1062132 -0.5656766 0.6450005 -0.2235171 -0.5887392 0.007862657 -0.1450254 0.02129527 0.1569699 -1.125741 0.0228727 0.8622872 -0.08399038 0.8974786 -1.119997 -0.1596145 -0.2444444 -0.6671816 -0.586985 0.6052693 -0.6058134 0.5676151 -0.2274103 -0.2591149 0.04282103 0.6940136 -0.09158872 0.1391723 0.1908573 0.5539086 -0.4274685 0.2289283 0.4303595 0.413513 -0.6012769 0.5126731 -0.07205773 -0.2035666 -0.04484616 -0.348432 0.1135588 -0.4854034 -0.2174947 0.6877257 0.2521646 -0.03485617 0.4054186 -0.5303155 0.1740325 0.07418162 0.3039699 -0.1375877 0.2353946 -0.05556829 -0.7968841 -0.04094714 0.2378699 0.009880963 0.9107057 -0.06679641 1.476873 0.2517865 -0.6335229 -0.3096103 0.4792643 0.07201213 -0.1546632 -0.3069516 0.5517152 -0.5900646 -0.229747 -0.3451926 0.07281081 -0.02536898 0.3608769 -0.2937637 0.637393 0.03382479 -0.1204895 0.2269104 -0.625823 -0.5979134 -0.09838714 -0.09467699 -0.1686183 -0.04800029 -0.3542889 -0.22184 -0.09826124 -0.5998144 -0.2955225 -0.1463537 0.6527705 0.01251593 -0.03449995 -0.1307018 -0.3379257 -1.326118 -0.1225599 0.5703081 0.1465506 -0.8609907 0.5288916 0.06941921 -0.2167162 0.3041205 0.3583156 -0.6420285 -0.6408678 -0.7195809 -0.2043917 1.313748 -0.06728151 0.799842 0.7516246 0.8143026 -0.6177279 -0.2754008 -0.03671994 -0.05980109 0.1634541 -0.6493394 0.3543552 -0.2158392 -0.8900262 -0.1197876 0.2536567 0.6934732 -0.1650047 -0.6373594 0.1358287 0.1291874 0.06388018 -0.3220217 0.6353461 -0.2288816 -0.4113532 0.6621571 -0.5947032 
  0.2326824 1.075336 0.4792517 -0.5456644 1.300826 0.7374614 0.7932627 -0.8144329 -0.3207981 0.01474511 0.4261992 -0.3796514 0.4370824 -0.8744666 0.6277252 1.040736 -0.7337046 -0.6316511 -0.42918 -1.14592 0.6075476 -0.3075927 1.13897 0.0671896 0.5689852 0.5582322 -0.6059973 -0.06402307 -0.1549325 0.3932804 0.0790256 0.3416493 0.5368785 -0.4670702 0.9627876 0.2710162 0.427235 -0.6246733 0.454758 -0.623942 -0.6880478 0.1196556 -1.129322 -1.625769 -0.8189148 1.516381 -0.6729344 -0.5484979 -0.5437631 0.2995738 -0.1988077 0.3191492 0.5959034 0.190007 0.3242375 -0.3495008 -0.2988818 -0.1374269 1.344216 -0.9383382 -1.346491 0.3017671 -0.3933351 -0.2701243 0.1225811 -1.182622 -0.06233564 0.2509817 0.6063833 -0.6367975 0.2297603 0.3847301 0.287754 0.3913147 0.827164 0.6431767 -0.097974 -0.2914426 0.09829743 -0.270296 -0.3335184 0.4448481 -0.06208022 0.1745805 0.08880604 0.9831722 -0.3977925 0.03364979 0.8317352 0.395967 -0.05459994 -0.2065646 -0.1794299 0.3841354 -0.04844673 -0.4664228 0.4298138 0.1318567 -1.539426 -0.01970764 0.5376894 0.4480981 0.7206838 0.689325 -0.08380722 0.395105 -1.069144 -0.6358399 0.5557915 1.22685 -0.339794 0.4173343 -0.2652663 0.4411041 0.7264301 1.009502 -0.4046552 -0.2146213 -0.02756517 0.9299585 0.2097054 -0.1900338 0.5008291 -0.1245552 -0.6575342 0.5267387 0.2031651 -0.2727347 0.08164059 1.161661 1.177092 0.0622176 -0.4284724 0.4065561 0.3706887 -0.4930248 0.04599889 0.06240915 -1.063689 -0.7718666 -1.739479 1.079373 -0.2279669 -1.186784 -0.1221522 -0.6611972 -0.2174738 0.3961087 -0.05744766 -0.4831812 0.03834184 0.8608974 -0.2727887 -0.1746457 0.5477863 -0.4839446 -0.278155 -0.3913758 -0.126169 0.2037317 -0.04707811 -0.6065637 -0.6925749 0.5371172 0.5616962 0.1702094 0.5243692 -0.02042716 0.6304554 0.02206321 0.2481433 0.5740233 1.240587 0.490268 0.06634565 0.1617633 0.3935373 -0.1288245 0.2126289 -0.030673 0.5938659 0.1391769 0.4024467 0.229042 0.3829361 -0.06965886 -0.7640378 -0.3776238 0.2293736 -0.009538304 -0.1544374 -0.1628496 -0.290513 0.02567789 -0.1700896 -0.7678004 0.7830237 0.3580045 0.7236217 0.6727369 0.006710225 -0.5050414 -0.02657177 -0.4679839 -0.466524 -1.170062 -0.1932143 -1.324584 0.9424607 -0.262737 0.2338762 -0.8844805 0.8238291 0.134022 -0.6700903 -0.3104444 -0.8408307 -0.3303631 0.06197228 0.5324356 -0.4428052 0.04079666 -0.1577665 0.7247189 -0.4151069 0.3680709 0.03097325 0.7191571 -0.9038355 0.4665957 0.235496 -0.6413555 0.3381291 -0.4526225 0.1292056 -0.5130116 0.4788722 0.1541269 0.05072378 0.4633741 0.2988165 -2.790881 -0.3951374 -0.290054 0.651282 0.3212003 0.3209355 0.3924358 0.5980009 0.8710722 0.8005533 -0.06868324 0.1873599 -0.7733138 0.3934197 0.2600336 
  0.1792086 -0.7559596 0.2059188 0.5087884 0.360999 0.7447754 0.2978055 0.7963769 0.5082492 0.1481215 -0.9916238 0.171172 0.5680291 0.8583022 -1.126786 0.5047885 -1.080322 0.02991144 0.7380508 0.2538406 0.716507 0.1411789 0.2452163 -0.4976251 0.1791172 -0.3148578 -0.2873918 0.4692076 0.03937795 0.09875118 -0.2886178 -0.05493505 0.3454984 0.138111 -0.2486424 -0.8308582 -0.2687167 0.5374853 0.5938492 0.5063482 -0.04294296 -0.07382122 0.3521882 -0.8252769 -0.2748671 -0.2821983 0.1897088 0.1751938 0.6865838 0.5646601 -0.2365224 -0.5422356 0.4781745 0.5646145 -2.096379 -0.7653607 -0.2102632 -0.7280852 0.6778857 0.1625334 0.3913424 -0.2799011 -0.510936 -0.7850751 1.07494 0.3509672 0.1394257 -1.132874 0.3672445 -1.516282 -0.4388146 0.02775939 0.5615177 0.4484984 0.1666354 -0.1252625 0.7190219 -0.7093363 0.1005158 0.685661 -0.3935643 0.4219107 -0.2958891 0.02046463 0.3075789 0.2816695 -0.4049205 0.3921502 -0.04216393 0.0002745312 -0.1878183 0.3192095 -0.3519739 -0.4616683 0.2046172 -0.05908229 -1.003338 -0.6777748 -0.1529114 -0.1833694 0.790029 -0.2219776 0.6041486 -0.1405491 0.2111089 0.4570124 -0.3196372 -0.4255044 -0.5841091 0.402545 1.063668 -0.01289968 0.9140699 0.8918207 -0.6466731 0.04884488 -0.4914995 -0.241746 -0.9403266 0.04890785 0.3760121 0.08259876 0.1656615 0.335906 -0.002663811 0.2262505 0.3804396 -0.2258346 -0.7553204 0.02631808 -0.4388103 -0.2816013 -0.04914305 -0.1316375 0.2231328 0.06987607 0.004549546 -0.6316738 -0.2257655 -0.2148101 0.8633235 -0.9242096 -0.2509492 -0.08673497 -0.864332 -0.08533654 0.4156458 -0.5066352 0.2318722 -0.2069575 0.5492813 -0.1838238 0.5388091 0.2438114 0.2333427 -0.7348493 0.8025937 0.3500401 0.1185484 -0.5354382 -0.8225579 0.1220178 -0.590642 0.7293007 0.01986964 0.07588506 0.02594651 0.0075614 -0.1241016 0.05401757 0.5425891 -0.4169286 0.3958086 -0.1584069 -0.4248111 0.07108324 -0.2103103 -0.2856795 0.4009147 -0.1785015 0.01594355 -0.006541774 -0.5808119 0.3009848 -0.1428096 -0.5672733 0.07496615 0.2877576 0.2072191 -0.1080713 0.5405596 0.009651394 -0.3786718 -0.4654202 0.3164465 -0.2591473 0.5380823 0.02177399 0.4378618 -0.05087905 0.2006228 -0.3117355 0.3643358 -0.1553224 -0.9732867 0.180723 -0.04885904 0.4087947 0.2476136 0.2163657 0.2585095 0.1528066 0.3895749 0.2419594 -0.4002865 0.9207381 -0.4773394 0.7662921 0.321376 0.07654553 -0.3635433 0.2427012 -0.2977939 0.3014701 0.7367565 0.3501024 -0.4761845 -0.1175377 0.6903169 0.3292654 -0.00796736 -0.776598 -0.6603216 -0.3501886 0.3677731 -0.523792 -0.3708766 -0.7756063 -0.709011 0.5526917 -0.1760735 0.3094418 -0.1788506 -0.03234698 0.2512011 0.4174834 0.4096363 -0.1923761 0.8388323 -0.6356035 0.6752895 0.0115202 -0.2277241 -0.3657077 -0.0579021 0.4013614 
  -0.6772157 0.05506538 -0.3108604 0.07131799 -0.8593657 -0.4532135 -0.2311289 0.4310752 0.1152537 -0.7471564 -0.1850851 -0.4570739 -0.3581571 0.02268445 0.1895904 0.1793676 0.1666114 -0.06315937 -0.1290505 -0.4225743 0.6311343 -0.1025813 1.111527 -1.762578 0.7349828 0.4889148 -1.071233 -1.163508 -0.2088777 -0.1695306 0.2883223 -0.1379908 0.3642872 -0.364143 0.3502716 0.2958517 0.2580311 -0.7465516 -0.01341631 -0.1131657 -0.8802801 0.3411441 -1.396761 1.381791 0.2870392 -0.006220832 -1.43516 0.2541067 0.9285268 1.001862 0.7261929 0.4016297 0.06128535 0.3967896 -0.4417239 0.6094692 0.6234776 -0.07124355 0.8320969 -1.181192 1.288483 1.355993 0.2748997 0.1903144 0.685127 -0.4040332 -0.7342144 0.5370314 -0.1723722 -1.313702 -0.3061179 -0.2879224 0.4437862 -0.4456425 -1.469583 -0.3013172 -0.6948224 -0.1103961 -1.541857 0.356845 -0.5311484 -0.7663868 0.3644912 -0.02526931 0.5897289 -0.5927842 -0.1545147 -0.6283835 -0.3580743 -0.07550572 0.2911141 0.2112375 -0.4417946 -0.2496362 0.4507332 -0.5194855 0.4253702 0.6871063 0.475221 0.6923165 -0.2617235 0.6292503 -0.07980504 0.04454969 -0.05632453 -0.01951745 0.07369345 0.1951479 0.5634369 0.2784566 0.471161 1.406524 0.2196318 -0.4274703 0.2709425 0.47133 -0.2010138 -0.4350019 0.4622771 -0.1122521 0.004897262 -0.2231059 -0.1051422 1.113623 -0.62427 -0.2967814 0.09975696 -0.2280593 -0.003107922 0.7200557 0.4009757 0.007546501 0.21649 0.4345966 0.789605 0.5200892 -1.098229 -0.2001684 0.1022633 -0.6419451 1.108309 -0.106244 -0.5522904 0.2760886 0.4152533 -0.04406619 -0.2332473 0.8939597 0.2505452 0.3401409 -0.3601148 -0.1724774 0.2449087 -0.6147826 0.08362789 0.9052451 -0.1800055 -0.5395802 0.03884643 0.7704069 0.01923379 -1.573538 -0.4788247 -0.1839204 0.7840405 0.1178161 -0.9346507 -0.51016 0.4139593 0.324955 1.405095 0.2362648 0.3835137 0.9220211 -0.5643097 0.1700829 -1.547447 -0.9339703 -0.368552 0.09354419 -0.6108977 0.2784876 -1.0531 -0.4038108 -0.05509375 1.159808 0.4246797 0.04691514 0.3373575 0.2988043 0.002146925 -0.3129206 0.2887073 0.1117209 -0.9734004 -0.3713497 -0.3440944 -0.5087705 0.2386664 -0.07175793 -0.694796 -0.0331029 0.3509604 1.133894 -0.5430079 0.2219832 0.8260817 -0.2548962 -0.686011 0.1968066 0.2301273 0.1043703 0.7351313 0.1110222 0.255518 0.3554964 -0.4018759 0.01475739 0.1374361 -0.4707759 0.1745918 -0.3144951 0.2339905 -0.05975446 -0.01167475 -1.175653 0.3736164 0.4563826 -0.365868 -0.04641826 -0.524303 0.4170704 0.2272232 -0.09014669 0.2651775 0.8537863 -0.631157 0.3475259 1.173351 0.05947784 -0.3190474 0.7020912 -0.0211537 -0.123111 -0.2117836 0.08623335 -0.4677148 -1.182938 -0.2745737 0.771253 0.3958781 0.140991 -0.2781591 -1.523063 -1.831966 0.6524902 
  1.80153 -0.5333654 0.5986108 -0.4183087 1.300852 -0.9124935 -0.9303371 1.005306 -0.4660037 -0.7402287 0.08012918 -0.894864 0.3920391 -0.09264003 1.124277 -0.307303 0.4431887 0.1706545 -1.749963 0.265256 0.3276191 -0.01355635 1.03584 -0.1004663 -0.6731112 -0.3530379 -0.1423842 0.3858671 1.420854 -0.2001995 1.987205 -0.1752927 -0.505478 -0.696834 -0.7568107 0.6710221 1.217534 0.1120167 -0.1960988 -0.93639 -0.1291657 -1.061306 0.4776641 -0.06107622 0.08987391 0.9227984 0.09935479 0.3281366 1.11877 -0.8807244 0.8204942 -0.01077803 -0.7560651 -1.114329 0.01161012 0.3141565 0.5218892 1.482717 0.3920611 -0.4001471 -0.3673471 0.006245989 0.3388373 0.8103046 0.3418004 0.6151556 -0.2201651 -0.2997506 0.09597752 -0.1002454 1.277637 0.1149744 1.221861 -0.1272893 -0.300125 -0.3682312 1.487394 -0.04084938 0.03029471 -0.02213129 -0.1146962 -1.071519 0.8698971 -0.07479151 -1.289151 0.6154072 1.850881 -0.6252876 1.269172 -0.4616887 0.7279246 0.1129985 0.7880245 0.4331856 0.8140546 -1.182829 0.3552832 0.7838361 0.4686974 0.5651606 0.07352561 0.1723612 -0.571885 0.2875932 -0.7978152 0.6639736 0.4757669 0.07644607 0.3148962 0.2450867 0.9778391 0.2807041 -0.05072107 -0.2715017 -0.7292538 -0.6053276 -0.7022707 0.52381 0.1180669 0.1053478 -0.769096 -0.0737961 0.3294071 0.07561154 -0.203234 -0.1626257 0.8213151 -0.2757555 -0.2923574 0.5111251 0.7609706 0.85184 0.279567 0.31907 0.01187381 0.5200469 -0.1535425 -2.757788 -0.8749744 -0.2012432 -0.1923138 -0.354034 0.7291625 -0.3547767 -0.09463522 0.01132367 -0.5798415 -0.8607765 -1.658721 -0.4333496 -0.6812074 0.08122836 -0.3705147 -0.1921345 -0.3576733 -0.3446514 0.3655943 1.179276 -0.222788 1.782408 0.3240995 -0.1716008 0.4442345 -0.1298008 0.1929951 0.9089348 -0.713982 -0.5495369 -0.02791273 0.1689889 -0.567586 -0.06885581 -0.576957 0.06796286 -0.5805364 0.5379667 0.7148409 0.5024108 0.2344162 0.0460695 -0.04400522 -0.604588 0.2494451 -0.3551989 -0.5836545 0.4801137 0.7084168 -0.2453033 -0.005880982 0.5620368 0.4736502 -0.6105316 -0.5084806 0.1886507 -0.2577468 -0.3375435 -0.2290944 0.1360823 1.2264 -0.385102 -0.3360729 0.3094169 0.0816418 0.1804143 -1.271275 0.2738639 0.23495 -0.3667714 -0.2557174 -0.411575 -1.773436 0.5091015 0.9406744 -0.186977 -1.214248 -0.4350947 -0.321961 -1.123694 -0.1779115 0.2732416 -0.5193693 0.9489024 -0.06103673 0.4968188 0.4591404 0.3994845 -0.2971706 -0.4761019 1.092128 -0.3298518 -0.191149 0.8546866 -1.189353 0.2889958 -0.5992306 0.177147 -1.222895 -0.1127153 -0.3262295 0.8066394 0.1962544 0.4620412 -0.8398816 -0.6287127 -0.00601054 -0.1762827 -0.461837 0.2628309 0.4834664 0.5735192 -0.4639286 -0.3190365 -0.946048 0.03560241 0.6455674 -0.4008259 
  0.8710718 0.5091437 0.5007566 -0.2049265 0.6953529 -0.2871882 0.4570562 -0.08613499 0.4544857 -0.5675169 1.128697 -0.4750258 -0.2047875 -0.6564971 -0.9728409 0.6956804 -0.1851173 1.417681 0.8174568 0.4208564 0.8321459 0.183764 -0.501194 -0.1183393 1.235585 -0.6011734 0.5156232 -0.3745597 0.02341305 0.2038478 -0.5964578 -0.3942754 0.4801045 0.6276496 -0.6556008 -0.3595514 -0.6355505 -0.2114035 0.4691579 0.7453393 -0.1297914 -0.0003331763 0.2513752 0.6088843 -0.0520083 0.1639432 0.4234253 0.2809494 -0.123173 -0.04738384 -0.7028052 0.279719 1.161387 0.2672077 -0.5179316 0.6780144 -0.07457002 0.9157006 -0.7291576 -0.2711681 0.7183918 -0.4322426 -1.140364 0.2027728 0.835911 0.3380846 -0.1125278 0.5424065 0.03241594 0.4826633 -1.611141 0.7455109 -0.320778 -0.7752657 -0.2621213 -0.1592843 1.12267 0.3062958 0.286492 0.06606691 -0.425902 0.06116791 -0.1420853 0.8960419 -0.09775797 0.07109226 0.2870372 0.6512689 1.544705 -0.04558629 -0.8124669 -0.1264877 -0.115808 -0.9061937 -1.001661 0.4079894 -0.1333792 0.3917788 0.09414055 0.4059041 0.907987 -1.109287 -0.4671152 0.6304821 0.2549664 0.7436952 -0.06369849 0.001501075 0.9788451 0.2556872 -0.1649451 -0.7852452 -0.3702573 -0.4435701 0.181008 1.288453 -0.2064079 -0.07239934 0.01277692 0.6462765 -0.4277228 0.6123183 1.264424 -0.3052876 -0.8971704 0.2045185 0.8402319 0.4153244 0.187158 0.2897533 -0.09059691 1.37636 0.5941654 0.3590146 -0.7288418 0.4643386 0.4911832 0.1003028 0.09210588 0.3004564 -0.006848405 0.2141264 -0.1120582 0.9050265 0.2619979 0.4932735 -0.8505343 0.5736148 0.05879713 -0.8837801 -0.2248291 0.6746569 -0.2253713 1.064947 0.4018601 -0.2750408 -0.592815 0.2587079 0.8187799 0.4640706 0.6640308 -1.396404 -0.1795384 0.7131144 -0.09097297 -0.1767885 -0.8048652 -0.005748989 -0.5728667 -0.08847908 0.001802761 -0.7483581 0.3897814 -0.9781136 -0.5102472 1.015976 0.6387487 -0.24682 0.4335461 0.4919937 -0.2758578 -0.3436625 0.2548033 -0.5039299 -0.4628659 0.5567191 -0.3715135 -0.7315197 -0.3381117 0.3429636 0.3170482 1.100291 -0.1280786 -0.5292817 0.3831342 -0.5530701 -0.5624554 -0.7278816 0.7143376 -0.6199629 0.2814831 0.8138909 -0.7607882 0.3632311 -0.6874853 1.660731 0.2696134 -0.05465456 0.2478959 0.1678605 0.8912125 -0.512301 0.3126806 -0.05820381 -1.0364 0.2922478 -0.0483128 0.04064038 -0.2047852 -0.04329423 -0.1539517 0.1330936 0.4559806 0.1110248 0.01937911 0.887741 0.2879977 -0.01775656 -0.293548 -0.2769092 0.1130897 0.1002188 0.08643273 0.5485583 0.2832314 0.03054349 -0.4558284 0.4096822 0.2372231 -0.07502623 0.406649 0.2944372 -0.9229963 -0.1557631 0.3601416 0.886934 -0.1506687 -0.02833058 0.1924429 0.2988619 -0.2691858 -1.004897 0.1349311 -0.1028033 0.06396654 -0.8465795 
  -0.3058126 -0.1850193 -0.5147734 -0.4674289 -0.03667198 0.2991385 0.1561729 0.2584591 -0.2017435 -0.1281543 0.7045348 -0.5311272 0.02001614 -0.04739776 0.6494362 0.295049 0.1949672 0.08558101 -0.3101245 0.5520577 0.3369547 0.2822903 -0.5184522 -0.0602883 -0.2937283 -0.1671493 0.3828892 0.7675908 -0.1760084 -0.3041343 -0.03564363 0.3814645 -0.6994605 0.1520513 -1.066897 0.1531415 0.3061564 -0.6458629 0.4444137 -0.4996369 0.5890188 0.1308254 1.068006 -0.2147535 0.8491399 -0.2529216 -0.2900751 0.3280773 -0.03707731 -0.8090392 -0.1085606 0.2226263 -1.329456 -0.5258613 -0.3153476 -0.1529101 -0.5662923 -0.1513472 -0.05113998 -0.2475818 0.4150877 -0.04963642 0.1933112 -0.4219947 0.3492648 -0.4633826 -0.4061359 0.7867699 -0.6792003 -0.1467258 0.4859779 0.5376661 -0.1321838 -0.4227305 0.2777336 1.000698 -0.3855793 -1.912003 -0.8280637 -0.226583 0.2997793 0.5622653 0.1056561 -0.1510418 -0.2403267 -0.1617114 0.2848266 -0.1965971 -0.4562869 0.007313191 -0.449389 0.148996 -0.9254805 -0.1140807 -0.1190516 -0.6878196 -0.2252467 0.3974199 -0.41491 -0.004293489 0.1599058 0.1436572 -0.6347767 -0.5958138 -0.3274486 0.1749272 -0.2091109 -1.122755 -0.8516117 0.2851332 -0.5475368 0.7610124 0.3547137 0.7732799 0.2609521 -0.4452749 0.4934353 -0.3088408 1.129771 0.3034259 0.05111346 -0.07506065 -0.587002 0.2792813 0.3839783 0.9065491 0.5415897 0.4043069 0.9471862 0.828307 -0.9459956 0.08888885 -0.4557258 0.2015801 -0.2327577 0.5496491 -1.089747 0.04065859 -0.01198775 -1.14123 0.8729063 0.1426102 0.4362895 0.03566021 -0.2985039 0.3656303 -0.1808549 0.3990068 -0.02421389 0.9463068 -0.5215867 0.6794062 0.1465708 0.4473769 0.8085663 -0.3258757 -0.5262303 -0.3999142 -0.4725114 -0.2584999 0.3721161 -0.1216839 -0.05361448 0.1471347 0.4725875 1.700803 -0.2365591 -0.4194683 -0.3209742 0.5756131 -1.223448 -0.2811974 -0.4035281 -0.04118076 -0.9173131 0.5493867 1.146761 0.9092307 0.05698287 -0.07119257 -0.650766 -0.2585148 -0.328963 -1.557549 -0.9839618 0.04122265 0.7261648 -0.628333 0.02094977 -0.1852275 0.4925071 -0.1340963 0.5437022 0.4341974 1.129707 0.2266948 0.07860943 0.2102676 -1.402748 0.3720941 0.07205267 -0.08383193 -1.864947 0.0777922 0.1087252 0.1127737 0.1472435 0.3494754 -0.04077267 0.590458 0.0998143 -0.2566842 -0.02032559 -0.0471999 0.5479633 0.6942493 0.04850078 0.4895225 0.009107466 0.6788025 0.03381165 -0.461295 -0.3156218 -0.1822125 1.492379 0.06606785 -0.9438466 0.2268583 0.7923653 1.325607 -1.305969 -0.7413495 -0.4748957 -0.4388368 -0.1374536 -1.882784 0.3126457 0.951499 -0.0344973 -0.5590976 -0.2740621 -0.1953488 -0.3989021 -0.1820583 0.09477254 0.3007317 -0.02234028 0.9540456 0.7931908 -0.06477007 -0.296386 0.1278327 0.2131523 -1.32543 -0.5416846 -0.5585896 
  0.1121659 -1.299597 0.2238381 0.9191826 -0.4130388 0.00553017 -0.6975451 0.6148137 0.1328435 -0.3322524 0.3617147 0.2606384 -0.7292222 0.5179316 -0.05248009 0.5479885 -0.9800789 0.2776103 0.1366031 1.05713 0.3506635 0.1644151 0.1585733 -0.402559 -0.3633395 -0.1357836 0.3966773 -0.7646359 -0.9161505 -0.4137894 -0.07255091 -0.07544466 -0.06724958 0.4578272 -1.415431 0.6117918 -0.001399298 -1.389108 -0.2790055 -0.01425756 -0.2516374 -0.1144941 -0.10069 1.09677 -0.7451919 0.01903611 -0.09227191 0.5361241 -0.5214285 0.1754687 0.1270491 0.5223391 0.2981497 0.999246 -1.021231 -0.402381 -0.7411913 -0.1641127 0.528084 -0.3887794 0.8986323 0.1774386 0.2347681 -0.4510638 0.3092924 0.4671798 -0.6616038 -0.0369839 -1.240018 0.2373677 -0.4678242 -0.9237856 0.03047802 -0.003928931 -0.3239811 0.3297779 -0.3409938 -0.2756056 0.03765114 -0.6605531 0.9265571 0.05813838 0.1853326 0.04463938 0.6695709 0.2089783 -0.6132949 -0.5132125 -0.5391547 -0.176666 -1.257391 -0.7296292 1.025063 -0.01027216 0.004530325 -0.5051633 0.1615015 -0.6479605 -0.06484435 0.7078643 -0.07125235 0.0365507 -0.3517075 0.296454 -0.6690925 -0.2899151 0.4946542 0.1282637 0.09024508 0.9721509 0.3638175 0.7939077 -0.04328918 -0.675627 0.08106112 -0.4714891 -0.2290979 -0.8312199 0.09718341 -0.08581989 0.3188089 0.2451633 1.223349 -0.5362752 -0.2430526 0.378691 -0.0780287 -0.2995118 0.4223094 -0.2918848 -1.146992 0.3720662 0.4465957 -0.3181996 0.314745 -0.2011582 -1.112944 -0.06864996 0.08262124 -0.1342282 0.3912577 -1.880152 -0.2637197 1.670962 -0.4773767 -0.1921804 -0.1483442 0.3336647 0.5648679 0.2537217 -0.2974074 -0.5206792 0.1934498 -0.1364361 0.4620956 -0.6068649 0.4571383 -0.7549065 -0.1724461 -0.5439141 -0.7671626 0.08559937 -1.406525 -0.4647957 -0.687179 0.2235133 -0.01440697 -0.0317322 -0.6744046 0.1106201 0.2647684 -0.1373755 0.7891575 0.4223361 0.449744 -0.2622838 -0.3826318 -0.4330281 0.0181077 -0.6124374 0.8581685 0.4473299 -0.2034481 -0.0223723 -0.3638867 -0.3225568 0.6778062 -0.7049795 0.03364288 -0.4220993 -0.5916482 0.9839571 0.1133081 0.1118347 0.1726055 -1.217823 -1.292913 0.03854815 -0.5757415 0.04245289 0.9366381 0.3437521 0.3440415 -0.3656774 0.4908305 0.4690617 0.9038743 -1.535293 0.4400942 -0.1464772 -0.2250474 1.528176 0.5492013 0.7941909 0.6888977 0.4467466 0.9995712 -0.09529724 -0.6524571 -0.4795659 -0.09280702 0.5418642 -0.1799938 1.419162 0.448673 -0.2494936 -0.3978489 -0.3076215 -0.07883255 -0.2345871 -0.638887 0.09120509 0.3705072 -0.1086001 -0.1330281 0.3297198 -0.1352016 -0.3358328 -0.2002776 -0.1473966 -0.1366925 0.3419631 -0.2548896 -0.006624728 -0.7028554 0.5401068 0.2739729 -0.343983 0.04027453 0.70612 -0.2898134 -0.1805259 -0.7796685 -0.5089537 0.170097 0.4943771 
  0.8175389 0.6158757 -0.6557865 0.801374 -1.139019 -0.1102241 0.9641936 -0.4269056 -0.3459143 0.3722654 -0.4310134 0.505758 0.0474974 -0.06334282 0.4346843 0.2407615 0.2487817 0.2416534 0.2613139 -0.5467393 -0.6520607 0.2630085 -0.5303128 -0.1915157 -0.3869631 -2.160852 0.1989952 -0.09145488 -0.6428507 -0.5862161 0.749817 -0.8155281 0.8411528 -0.1164184 0.6088316 -0.760112 -0.009709189 -0.8569634 0.0369551 0.3637454 -0.1372868 0.8618219 -0.5621864 0.4142641 0.6884459 -0.7403704 0.218033 -0.01908618 -0.4460006 1.049279 -0.5333782 0.06447534 0.9760684 0.4877247 0.02652281 0.2744757 -1.950904 1.898903 -0.2670856 0.02102285 -0.04376169 0.741995 0.6872416 -0.5210217 0.5239206 -0.6512155 1.308228 -1.308043 -1.269832 -0.28444 0.6616802 0.01334982 0.5797326 0.3246144 0.7424191 0.5478004 -0.7438428 0.2760667 -0.1357565 -0.2243475 0.4670094 -0.1882443 0.6888317 0.1926281 0.7826079 0.3081596 -0.4758047 -0.0458955 0.1386044 -0.433618 -0.2127999 -0.09599903 -0.1316211 0.04062282 -0.105984 -0.5917643 0.285183 0.4489183 0.03311443 0.3352406 -0.08431731 0.1227756 -0.7926649 -0.04424557 0.3272675 0.02336631 0.6360517 -0.1037308 0.5447301 -0.02803554 0.1738224 -0.2175286 0.2937442 -0.421001 -0.6744748 0.85069 -0.2124219 0.7187809 0.5010689 0.5376658 0.1027046 1.041757 -0.6443871 -0.1413132 0.06733622 0.293934 -0.5159637 0.3118989 -0.1217644 -0.6127267 0.3131732 -0.2994835 -0.00477803 -0.1923517 -1.102181 -0.2367875 0.2278776 -0.2349487 -0.4002133 0.8025407 -0.1955516 -0.3061945 -0.8473111 -0.2627569 -0.8149536 -0.09794914 1.015644 -0.02489305 0.2356175 -0.5279237 -0.1580525 0.2133373 0.02372101 0.1746547 -0.2110123 -0.5129465 -0.7797432 0.616814 -0.4114539 -0.2351121 -0.5789589 -0.6468691 -0.3101821 0.05745742 -0.1695972 0.8317128 0.634988 -0.3842669 0.3073266 0.4327856 -0.0221047 -0.3722666 0.5313128 -0.6211289 0.2597917 -0.8047854 -0.522754 -0.3575206 0.3352951 -0.3607492 -0.1866741 -0.2188576 0.3202615 0.6587554 -0.3010943 -0.8371372 -0.2729902 0.7370074 -0.600824 -0.3735083 -0.2588506 0.3728641 0.4138626 -0.5025015 -0.8513089 -0.5242514 -0.1825219 -0.3826027 0.4708526 -0.2392814 -0.5668926 0.2284925 -0.04485752 0.4588778 -0.1406129 -0.3523171 0.2839839 -0.5488607 -0.2719808 -0.2988167 0.1042621 0.03449465 0.5507243 0.1359785 0.3981718 -0.6737649 0.7033055 -0.6747339 -0.3001676 0.3675116 -0.4245148 -0.1148802 -0.8595388 -0.06279501 0.5257304 0.3498592 -0.4950797 0.003239796 0.8292666 1.364029 0.3835382 -0.3864427 -0.22574 -1.770797 0.2537895 0.3490401 -0.2733918 0.3520628 0.1305504 -0.2737649 0.2324238 -0.1511131 -0.2960495 -0.02457768 -0.2399462 -0.1357621 0.0214893 0.002927494 0.7884398 1.244763 0.3568044 0.3505968 -0.3756914 -0.5579506 -1.001182 0.7956695 
  -0.2883342 0.5306251 0.593141 0.2569204 -1.320995 0.3882818 -0.3554743 0.605243 0.1209873 0.7056712 0.5486093 -0.3784931 0.7351949 -0.01718615 -0.3990416 0.6100998 0.1876012 -0.5094078 0.2167627 -0.05045126 0.1040093 -0.2890154 -0.5679693 0.9137757 0.01039665 0.3622987 0.2450909 -0.050373 -1.141212 0.1205016 0.04387807 0.1344128 0.3685303 0.3601176 -1.024013 0.4097075 -0.2229253 -0.9361782 0.2836347 -0.1064197 -0.1665363 -1.077501 -1.055128 0.6179437 -0.3531301 0.3066641 0.2975844 0.4117057 -0.5262445 -0.6805809 0.3550904 1.091007 0.207819 0.2495106 -0.3422475 0.08543808 -0.6532922 0.04866636 -0.2895259 0.6870512 -0.7638779 -0.3267278 0.9748092 -0.5516648 -1.218975 0.1570057 -0.1699453 -0.2205556 -0.5779423 -0.5236852 0.6981483 -0.1254105 -0.2571184 0.1284341 -0.3981143 0.8556181 0.5804077 0.6249555 0.1618982 0.7044628 -0.1376201 0.1992091 0.03952958 1.179862 -0.111157 -0.2946491 0.09227964 0.02573666 -0.2497548 0.3692609 -0.2746611 0.7872349 0.7948902 -0.6172791 -0.5006729 -0.6015071 0.1350371 0.1041896 0.7043012 -0.1943269 0.2451742 -0.09095643 -0.7993016 -0.2409865 -0.2826614 1.423714 -0.8447686 -0.8507692 0.6758244 0.1164696 -0.0149021 0.9461336 -1.015713 -0.9439976 -0.1172271 0.4268963 -0.7789663 -0.1351541 -1.032027 0.1583075 1.004633 0.3192744 0.4304351 0.09246133 0.5118532 -0.6246074 -0.8467807 -0.386001 -0.08901672 -0.8248631 -0.6838572 0.2362979 0.3553067 0.1878661 0.7955266 -0.1787392 -0.03960449 -0.05559756 0.4944524 -0.1785181 0.1266846 0.9092427 0.8258402 1.470178 -0.5700437 0.1220953 -0.4341085 0.11435 0.7740297 -1.296321 -0.744454 -0.3442655 -0.5539141 0.6239858 0.7436892 -1.005174 0.2987206 0.4875203 -0.02544511 -1.689485 0.8339931 0.4583319 0.755784 -0.5294849 -0.7957782 -1.146503 0.1768042 0.7165259 -0.3904409 0.5228236 0.8099304 -1.16721 0.1731009 0.7031522 0.2315747 0.7357643 0.428735 -0.05347928 0.792197 0.4891 1.063479 1.127524 0.3030346 -0.03219162 -0.1719758 -0.7027138 0.02096343 -0.735063 0.2756426 0.08027612 -0.7311843 0.3002205 -0.4678074 0.3709119 -0.5894427 0.7483471 -0.232576 0.4367593 0.3065501 -0.01603457 -0.3054058 0.03483701 0.3173839 0.2363244 0.06585376 1.039473 0.7486673 -0.9464825 -0.4480106 -1.135077 0.4412266 -0.3997622 0.7525565 0.7615163 0.687857 -0.2591777 0.1797762 0.3825264 0.2585375 -0.4804805 0.4424206 0.5991682 0.5502784 1.178467 0.4428038 -1.327387 -0.6151734 -1.18012 0.02396165 -0.5375396 -0.1324067 0.441571 0.8697491 -1.603591 -0.3427993 -0.3626706 -0.2039031 -0.608092 0.1688983 0.4519138 0.9264875 -0.01828494 -0.09589922 -1.276647 0.1721776 0.843271 0.2130538 -0.08121379 0.745521 0.4363681 -0.09214865 0.03060218 -0.820232 -0.8574711 -0.712851 0.5042115 
  -0.03138084 1.287201 -0.5775478 -0.6835158 0.3880758 -0.2091921 -0.8785313 -1.217554 0.1844181 -0.3701626 -1.146327 0.101193 -1.712278 1.013156 -0.6061582 0.3518755 0.3517954 0.4132493 -0.2208935 0.09698601 1.285333 -0.559594 -0.2546527 0.3296378 0.4697558 0.5977517 -1.104367 -0.7888068 -1.195537 0.9054972 0.5569207 1.007233 -0.5679178 -0.04879217 0.8929029 0.4683085 -0.8249778 -0.6241276 1.312067 -0.4814608 -0.5950736 0.9632912 0.2500464 0.2381897 0.5520403 0.415684 0.2179329 -0.4937443 0.4534028 -1.025912 -3.397063 0.5311617 -0.9672101 0.2014248 -0.6244087 -0.2615157 0.3214347 0.4330673 0.5634856 0.4760131 1.206238 -0.6719893 -0.6801559 0.5822449 -0.2028342 0.3593815 -1.666726 0.1044389 0.7601972 0.6688476 -2.631306 0.4806953 -1.504201 -0.2011362 -0.8967341 0.1728507 -0.3709869 -0.5325798 0.09919582 -0.3120884 1.014993 0.03096483 1.373874 0.3723631 -1.145582 0.0111131 -0.9903244 -0.4577634 -1.226847 -0.7363042 -1.36987 -0.9071711 -1.741517 -0.1899103 -0.2260383 1.372529 1.088381 -0.2430058 0.4973699 0.6630988 0.7092906 -1.588434 1.117452 -0.9674066 1.259478 0.5547568 -0.4178174 0.2320959 0.3161408 -0.076603 -0.8645382 -0.1284551 -0.7001402 0.4060142 0.7142438 0.3476206 1.076925 -0.2223918 -1.777838 0.3252199 0.6333361 -0.5379467 1.88812 0.09060307 0.2112707 0.2024857 0.38402 -0.9687262 -1.149979 -0.07218088 0.5102839 -0.5465625 0.1644045 -0.3063135 -0.2745817 -0.1187719 0.032479 -0.7832633 0.7505707 1.545295 0.1737337 0.4382935 -0.3761147 -1.160617 -1.377593 -0.3525544 -2.011523 0.04354389 0.06106459 0.3346993 -1.227069 0.6524444 0.5180656 0.08123036 -0.2011599 -0.121409 0.5373523 -0.3819942 0.364232 -1.374525 0.5335698 0.5917297 -0.1770873 0.9588159 -0.3376591 -0.3418879 0.1879991 0.2993746 -0.1652103 -0.2925955 0.6831337 0.6310202 0.2731 -0.4580592 -0.705627 0.547182 0.335348 -0.5665364 0.7121428 0.0290623 0.3509498 0.5243655 -0.5066171 0.4153197 -0.2236822 0.1181007 0.2934873 -0.2037462 0.4003412 0.533731 0.1516257 -1.970627 1.466434 0.7835563 0.729059 -0.1969154 -1.200914 0.4039688 0.7336583 -0.3176319 0.4923032 -0.2754488 -0.0712559 -0.7308167 0.002787475 -1.417447 -0.4394684 -1.279867 -1.114684 -0.07849731 -2.07538 0.9301673 1.263681 -1.093677 -0.288839 0.1949971 -2.314669 0.2462902 -0.5109437 0.1870431 0.5132942 -0.2626896 -0.4815066 -0.4308948 0.3118346 -0.8104361 -0.9040515 -1.063059 -0.3418607 -0.8488899 0.5843077 0.2391037 0.4779577 0.7247096 0.4958207 0.3649681 -0.9608954 1.450888 -0.09318005 1.438718 1.840421 -0.1870174 1.522343 -0.4979486 -1.05654 0.2696305 -0.3756597 -0.223919 -0.1918896 -0.9577273 -0.3486952 -0.3497171 -1.168792 1.337682 -0.1455532 0.9656867 
  0.08064573 0.6437591 0.3696817 -0.337899 0.3689679 0.6550237 0.6296309 -0.5774366 0.3106149 -0.009125455 0.03250511 -0.03205702 -0.3903568 0.06292749 -0.300297 0.59883 0.3341503 0.5345392 -0.3102547 0.7770249 0.4019105 -0.265765 -0.5916098 0.1910078 -0.1178485 -0.9142742 0.1538883 -0.0680299 0.8663791 -0.3439314 0.7503407 0.9920586 0.05873696 -0.4735292 -0.6547884 0.3958246 -1.02684 -0.2872954 0.07762215 -1.42267 -0.4282821 0.6295294 1.012649 0.2955516 -0.2967363 -0.501711 1.260324 0.326833 -0.3164164 -0.1242062 -0.3543147 -0.7326114 -1.469773 -0.1243574 0.4184599 0.5068223 -0.1326214 -0.4161373 0.4136066 0.1762321 0.2646013 0.2809977 -0.197524 -1.257366 -0.4218781 0.1519571 0.4557761 -0.1294494 0.1864856 1.300549 0.5419864 0.5764548 0.4085045 -0.0646967 0.7383284 -0.7811142 0.4074917 0.05936773 0.1540798 -0.2106004 1.45891 0.04463837 0.1965324 0.278802 -0.6823149 -0.05141084 0.1374684 0.7738937 0.5859023 -0.1112223 -0.8459428 0.0009159975 -0.3843527 0.6314635 -0.3868708 0.3418581 -0.2482895 -0.4200923 -0.9515674 -0.1483473 -0.1547173 -0.8400274 0.9433949 0.4540272 0.6652984 -0.09676018 -0.1844841 -1.708054 0.8486972 0.1558516 -1.103169 -0.8314912 -0.2689725 -0.4206342 -0.3335366 0.06695337 1.099045 0.7166182 -0.5597032 -0.07318194 0.1800031 -0.6209868 0.7529754 -1.540868 -0.1364838 -1.229484 -0.2452957 -0.2024343 0.06976885 -0.6976513 1.287826 -1.209269 0.4747015 -0.7309791 -0.7657239 -0.3269479 0.2025973 0.007894962 -0.05224961 -0.01087096 -0.4369417 0.3090359 -0.1857084 0.5412781 -0.2363532 -0.8029982 -0.3307554 -0.4133716 -0.7958257 -0.3314894 0.4908534 -0.2717905 0.1248948 0.4689187 -0.2382692 -0.3854971 0.1455932 -0.2697239 0.6954882 -0.06807353 -0.3804007 -0.1873978 -0.06884819 0.4141378 0.3710422 -1.205193 0.3386843 -0.2255221 -0.8283222 0.3524701 0.08458048 0.1944093 -0.4494259 0.009307878 -0.1408766 0.5430231 -0.4022308 0.6306193 -0.2772399 -0.3949895 0.7152126 -0.8569488 0.08605655 -0.4072439 1.561936 0.9197541 0.563325 0.05142597 0.1606793 -0.2188644 0.5443007 0.228659 0.5136542 0.09565561 0.2021285 0.4618292 0.117002 0.3555431 0.5769222 1.119271 -0.7004316 -0.01825925 0.6208076 0.4327624 0.008804305 -0.2211899 0.6587709 0.008760391 0.4456571 0.4756791 -0.1363095 -0.3965627 0.4562454 0.00311889 0.07277988 -0.09282174 -0.1464014 -0.003041705 0.5498885 0.1542975 -1.443489 -0.07601891 -0.526756 -0.712654 -0.6486409 0.4068715 -0.3084399 0.2326091 0.1712488 0.2467828 0.08278504 -0.4760664 -0.5988399 0.4593209 0.07774486 0.000215351 0.417756 0.2500832 -1.154001 -0.439732 0.6442714 -0.6799734 -0.3511488 -0.2301528 0.6816869 -0.6785092 0.3021181 -0.08071181 0.1199612 0.2688979 0.06841837 0.367325 0.1523331 0.2700913 0.2035172 0.4047244 
  -0.1103509 0.4918692 -0.1808996 -0.02690043 -0.789618 0.4076307 -0.6014408 -1.165274 0.6053849 0.2199423 -0.4094899 -0.3012057 0.8986741 0.1590075 0.0736285 0.2895142 0.2405784 -0.779518 -0.482885 0.5931948 -0.5838012 0.9620262 0.4225238 -1.897429 0.2451171 -0.3072823 -1.647786 0.3468316 0.4365087 -0.359611 0.4969749 0.36598 -0.4063737 -0.08263235 -0.115972 -0.1882328 0.4886435 -0.5927039 -0.02347776 -1.476344 -0.04621128 0.3632358 -0.7005875 -0.4993136 -0.1577249 0.4789441 -0.2941652 -0.05980824 -1.143338 1.557558 -0.09869595 0.5056623 -0.00575767 0.3298546 -0.4410131 0.1088698 0.2625586 -0.01932795 0.9027011 -1.204745 0.4540557 -0.4488059 0.2924504 -0.1578218 0.7126581 0.7500542 -0.7573718 0.7244986 0.2796415 -0.1881909 -0.07576799 0.1063755 -0.07611651 0.4512364 -0.5417125 -0.05771714 0.1600601 -0.281078 0.5990109 -0.5843402 0.6401358 0.2144431 -0.8684702 1.446044 0.9095466 0.3447751 -0.08525646 -0.8113146 0.2221473 -0.2264063 -0.6171045 -0.2851049 -0.1753181 -0.5670398 -0.08696613 0.5833509 0.4344176 -0.4495347 -0.8710007 0.5416182 -0.2694921 0.1063738 0.06710331 -0.5604854 0.4053522 0.1929253 0.07013863 0.6290022 -0.2582486 -0.2293683 -0.2619017 0.5461655 0.4108889 -0.0611499 -0.04649603 -0.2211101 0.7131817 0.5107824 -0.4069252 -0.7313207 0.2171255 -0.01674579 -0.5648905 -0.009351975 0.3841508 0.360882 0.5068088 0.4809463 -1.173975 0.4730697 -0.03394906 -0.3774967 -1.251049 0.0002026663 -1.706261 0.6704103 -0.9115266 -0.4907106 0.1213155 -0.07606328 -0.09451394 -0.1735533 -0.2487686 -0.4023652 -0.16637 0.4530979 -0.2277013 1.386891 0.2617996 -1.088652 -0.006825693 0.9411806 -0.09682502 -0.6523761 0.7734776 -0.6209378 0.257189 -0.2899012 0.008137625 0.6157942 -0.6403487 -0.4095612 -0.04107193 -0.04405897 0.2747656 -0.7127439 -1.002636 -1.424619 -0.2783646 -1.023659 0.8003936 0.007214652 1.034563 -0.9975021 0.06981449 0.7124293 0.7424648 -0.4872867 0.5186844 0.3016235 -0.2436385 -0.5759658 -0.3011315 0.249907 0.5795099 -0.8744061 -1.065849 0.1626154 -0.7123264 -0.1196007 -0.28683 0.05446719 0.139926 0.2544633 0.614488 -0.4396447 -0.4612461 0.3252349 -0.4747305 0.2990787 0.2025518 0.300544 0.9627155 0.1926685 0.3098935 0.3991082 -0.6393825 -0.8036649 -0.3308738 0.08571259 -0.4634865 0.6883634 -0.5434132 -0.9251474 0.6199048 0.486498 -0.5003827 0.3289833 0.7782539 -0.2310814 -0.5788697 -0.4643228 0.09662475 -0.3582101 0.6004473 0.1684421 0.8608295 0.2900768 0.4914071 -0.7898371 0.6817377 0.3142414 -0.9061195 0.009782068 -0.5742546 0.2465187 1.234862 -1.318973 -0.09815063 0.1848451 0.1922836 -0.4667947 -0.0709746 1.483705 -0.2444745 0.4804346 -0.2429481 -0.207704 -0.2754514 0.02963784 0.6038541 -0.6004087 -1.531332 0.7584198 -0.6388096 0.997942 
  0.8567185 -0.1547777 0.2877243 0.255036 -0.04525977 0.3254216 1.160024 0.6513 -0.5071985 -0.4719904 2.199407 0.1921187 0.02574471 0.3723157 0.7780503 1.469768 -0.3959225 -1.058963 -0.1243202 0.5007601 0.1179565 -0.9564449 -0.2230806 -0.4526362 0.05098437 0.834462 -1.282276 0.2782855 0.7974191 0.007408601 0.4388468 0.6647765 0.6566944 -0.2661989 0.44053 0.4758105 0.156385 0.5217368 -0.3386872 -0.5627863 -0.4176873 -0.2298967 1.026618 -0.1471027 0.4192423 -0.7248285 0.7976721 -0.4331717 0.3659618 -1.525227 -0.2963757 -0.09544108 0.2561064 0.3919453 -0.1633219 -0.1621723 -0.7223797 0.08318731 0.4395026 1.105382 -0.03851363 -0.1303964 -0.1236393 -0.7840907 -0.6895624 0.2327325 0.2762525 -0.4100366 -0.6567025 -0.7737477 0.2235307 -0.2339282 -0.1152768 -0.2137087 -0.9204801 0.2568799 0.4110393 -0.06326654 -0.3526719 -0.8759063 -0.9216774 -0.9981085 0.1836466 0.2036282 0.6628999 -0.2178965 -0.2436894 0.6215201 -0.773891 -0.9001161 -0.3347876 0.2987811 0.4320895 -0.1270207 0.4080511 -0.5378486 -1.224087 0.9440438 0.3572091 0.1078698 1.058433 -0.7928358 -0.4097955 0.6985266 -0.008751226 -0.05837646 0.9087715 -0.5687802 0.6203198 -0.1203851 0.3447236 -0.7584758 -0.4474335 0.7930537 -0.05436681 -0.0450597 -0.1441681 1.247885 -0.1213071 0.7446703 0.1675564 -0.3881626 0.1289148 0.6878842 -0.0830564 -0.08835793 -0.8261581 -0.4056545 -1.173445 0.7666339 0.6695884 -0.09902392 -0.3815066 -0.8556665 -0.2725338 -0.5126116 -0.4674776 0.1608456 0.4588676 0.3331788 0.1795746 0.2524123 0.1040471 1.192394 -0.3259081 -0.9286423 -0.1386985 -0.1259727 -0.7141507 -0.4822803 0.1778938 -0.3937598 0.8621055 -0.14943 0.2982149 0.2221222 0.5651476 0.5646809 -0.415868 0.1687832 1.058515 1.121204 -0.4331714 -0.58692 -0.4859776 -0.09013509 -0.4133128 0.4841884 -0.569309 0.5698801 -0.2397576 1.88768 0.01949735 0.7498373 0.4989509 0.4371542 0.5520539 0.6364337 0.3510751 -0.1164268 0.08066545 -1.412281 0.424608 -3.806713 -0.4994703 0.5274101 -0.2963105 0.2290412 -1.054269 1.029585 0.7302734 0.4890194 0.03758715 0.6066375 -1.71882 0.5518173 0.7122264 0.9848952 0.5079503 -1.611317 1.498625 0.104403 1.066782 0.154253 -0.6438796 0.2730832 -0.5934098 -0.3030933 -0.1128575 1.077113 0.3826009 0.4418897 -0.7235542 -0.4751954 0.1494907 -0.4930859 -0.2741387 0.2241842 0.3650571 -0.8690924 -0.266754 0.5530384 -0.7988684 -0.692295 0.2141612 -0.8477971 -0.3246628 -0.280724 -0.324651 -1.000539 0.6852241 -0.4877434 0.1523701 -0.2737168 0.5640381 -0.5375512 -0.6228249 -0.1533081 -0.4968858 0.3362893 1.056412 -0.06360881 -0.3416913 0.03279413 0.1266553 0.655112 0.6111826 1.827914 -0.2012168 -0.02631748 -0.33115 -0.7923002 0.09145823 -0.600008 0.3358925 0.7764713 
  0.2104861 -0.2507561 1.089678 -0.4179153 0.8110137 -0.1244569 -0.2435899 0.6399618 0.06661446 0.09939859 -0.2485076 -0.1486135 0.3418018 0.1884673 0.604628 -0.0201241 0.5338019 -0.3673453 -0.4805664 -0.6674446 -0.03523959 0.5387917 0.5334713 0.490967 -0.5457582 0.5049446 0.1980371 -0.1397698 0.5831757 -0.4575642 1.123892 -0.9656784 0.05173252 -0.4671877 0.3867372 -0.84875 0.2122324 0.2547638 -0.6124208 -0.1644942 -0.1585443 0.8259047 -0.7330996 0.4300194 -0.2596696 0.3577465 -0.7243242 -0.5926836 1.034381 0.3075578 -0.318282 0.6285673 -0.4772395 -0.6570906 -0.974869 -1.334142 0.7017688 -1.148893 -0.5763346 0.166484 -0.9917114 -1.026041 0.8754609 0.579293 -0.3130105 1.151611 -0.4486307 -1.115785 -0.3959381 -0.9139097 0.02714098 -0.6342185 -0.7266401 -0.5935488 0.5493968 0.3969849 0.6531706 -0.04826193 -0.4924593 0.3065139 -0.2041208 -0.7171784 -0.9749608 -0.4203779 -0.9088874 -0.6020847 0.756578 -0.5656975 -0.7325107 -1.35551 0.9971758 0.5314026 -0.7172571 0.302329 0.2274959 0.6080115 -0.9207407 0.5285238 -0.282947 0.8739681 0.1229302 -0.2862808 -0.1039432 -0.2097556 -1.07367 -0.2161694 -0.1503692 0.1364322 -0.6082206 0.3533739 0.5405744 0.5348635 -0.3449922 -0.4921648 1.565296 -0.8453638 0.558785 1.193604 0.04512317 0.5120122 0.5140489 -0.3148088 0.4266205 -0.7125559 -1.094302 -1.444527 0.1541585 -0.6254823 -0.5570303 -0.4015172 0.5449008 0.6529267 0.1572554 -0.0962034 0.5056422 -0.2895736 0.7589583 -0.3818271 -0.3400108 1.238283 0.5707815 0.5608974 0.5051838 -0.3535128 -1.07981 0.4055308 0.09224064 0.5779539 0.3694592 0.3759989 0.15261 0.1999952 0.6181468 -1.123927 0.2873754 -0.4462991 0.1344344 -0.1037006 -0.06725234 0.02024456 -0.1543055 -0.01166317 0.1983812 0.1559173 0.4620494 0.04300835 -0.8073592 -0.06563989 -0.1193568 -1.254648 0.5713434 0.140299 0.488056 0.6627892 -0.8144465 0.7949961 0.04825496 0.5673045 -0.6475361 0.04400914 -0.1446655 -0.1328431 -0.06689527 -0.1821808 -0.5367944 -0.9275634 -0.4805562 -0.4427279 0.5428559 -0.1469957 0.9486264 -1.292981 -0.294207 0.5690566 -0.8584279 0.2803752 0.4834 0.0464999 -0.6006922 0.08659815 0.702194 -0.04688172 -0.1429231 0.36404 -0.03855651 0.3067281 -0.2671972 -0.3716196 0.5646434 0.006441402 -0.8181875 0.230188 -0.0901219 -0.5398142 -0.7483649 0.285977 0.2269003 -0.8779087 0.4836159 0.8593632 -0.5207101 -0.6881292 -0.4220451 0.2151928 0.0250157 0.2433114 -0.2949696 0.06265368 -0.4130811 0.1082291 0.01681902 0.720862 -0.3510035 0.2676731 0.07764687 -0.1813927 -0.3580269 0.2629711 0.0321773 0.007173449 -0.3103624 0.47954 0.2422868 0.155928 -0.2294103 -0.5415198 0.1424519 0.3910948 -0.5670913 -0.3395686 -0.1468014 0.5856288 -0.6757106 0.2669439 -0.7004452 -0.02203308 
  0.7190889 -0.1524691 1.89616 3.215588 -0.1629282 -0.740591 -0.5671337 -0.3294191 0.3377186 -0.3511539 1.642367 -0.9767705 -1.441591 0.2551277 -1.074119 0.7533931 -0.5162573 -0.9661059 0.8980553 -0.6719357 1.042022 -0.856286 -4.614266 0.234881 -0.06072569 0.01675816 -0.6538515 1.180636 -1.968578 -1.062072 -1.577784 1.229654 1.114922 -0.6472259 -0.4873824 -1.191676 2.210994 0.1440208 -2.004383 0.7450167 -0.9285882 -0.4200527 -0.5810285 0.3289399 -1.526154 1.225071 -0.2560594 1.031343 0.5977764 -1.564694 -0.5028453 -0.5420741 -0.4237989 -0.2677111 -3.094424 -0.5355645 -1.079234 0.3681886 0.07557901 0.2296025 -2.252134 0.5948789 1.717671 1.545995 0.7958549 -0.9925809 0.1496761 0.8687087 0.06434033 -1.415133 -0.03925996 -0.2898764 -1.473643 0.9411574 0.4661455 0.4392258 -2.622942 2.002367 -0.1881624 -0.4710752 0.6626594 3.25914 -0.2770849 -0.5917189 -1.058931 -1.515667 0.2074912 -0.08519548 0.7293082 0.0886415 0.4542909 0.1696816 0.8022377 0.1682497 0.5294057 -1.153602 -0.3002101 -0.6430942 -1.654058 0.4272286 0.3399603 0.3915611 1.052585 0.893131 -0.2890938 1.13771 -0.2197507 -0.2979582 -1.719672 -2.246756 -0.5739784 1.995832 -1.674993 0.2422066 -0.2455808 -0.007788804 0.5642015 0.3433372 -0.8291306 -1.266158 0.0556263 -0.6516519 0.5635206 -0.5174239 0.7811987 -1.095175 0.6582934 -1.541963 0.09942515 1.447193 -1.725277 0.3767667 -1.749518 -0.8047419 1.799878 -0.3210585 -0.6309244 -0.658706 -0.09347191 0.1200002 1.035092 -0.0186665 0.9300304 0.02966304 -0.2996124 -0.2839752 0.2504706 -0.01745284 2.337584 1.853407 -1.045233 -0.5406728 -0.3688319 0.1483164 0.2501625 -0.1286478 0.3056876 1.522402 -0.2138121 1.281765 2.263472 0.415079 0.4438508 -1.550688 -0.56512 0.2963479 0.3857323 1.214497 -0.7649984 1.665688 -0.3893453 -1.782197 1.215019 1.130085 1.083107 0.08114024 -0.4332342 -1.423241 -0.1660103 -0.7893879 3.014727 0.5287429 1.03395 0.2695095 0.894255 0.6634167 0.6243087 -0.6652113 0.5432413 1.195243 -1.183115 0.5985982 0.7929298 -1.639304 -0.07848862 2.050376 0.7860525 -0.3183855 -1.487311 0.1905992 -3.484456 0.6538159 0.2326177 -1.274974 2.206411 -1.072184 0.9746886 -0.01071426 1.783972 0.389646 -0.6474641 0.09425244 1.561408 -0.6259972 -0.4604517 -0.9020204 0.9373202 -0.1109167 -0.1395996 -1.370417 0.215229 0.9735584 -0.07109489 0.5269767 -2.004277 -2.689522 -0.2510405 1.284022 0.8211709 -0.02638652 1.408051 -0.8646451 0.778142 -0.9517619 1.370314 -0.1319647 0.1086792 -2.571255 1.201234 -0.586937 0.3330196 0.1348663 -0.5332618 0.03433622 -0.08125284 1.110281 1.371063 1.738565 1.864626 0.1322578 -2.62891 -3.095279 1.191478 -2.280988 -0.006291852 -0.1252226 
  -0.3217146 1.245335 1.035638 0.7874389 -0.1747613 0.3495868 -0.299409 0.3793588 -0.05032044 0.5030167 0.6080312 -0.5731791 -0.771426 0.249324 -1.237022 0.7103385 -0.72846 1.179801 -0.1314258 0.5329009 0.8363611 0.5497316 -0.7926941 -1.036233 0.009263896 0.941233 -0.41684 0.7788222 0.02236025 -1.041159 -1.052776 0.9944854 0.8836975 0.1430242 0.5502167 0.2146505 0.3491738 0.6226474 -0.2675815 0.2866109 -0.2975972 0.3539196 -0.1182637 -0.7342176 -0.05575836 -0.4231428 0.1213902 -0.4180262 -0.641408 -0.66508 -0.640749 0.572375 0.1373033 -1.164556 -2.038766 -0.06182389 -0.1101347 -0.3968135 0.2974483 0.07976393 -1.153942 0.7976592 -0.8584102 0.7271626 0.09416019 0.08428302 0.288151 0.5104126 -0.1039133 -0.3006784 0.2035485 -0.3307246 0.08532266 0.2032095 -0.0627704 0.702845 0.04009325 0.08239384 0.5342189 -0.7274318 -0.8968704 -0.8803724 0.09457116 -0.7744867 -0.6580096 0.6687028 0.6489129 0.8798266 0.2861751 0.8741214 -0.08060431 -0.7552865 -0.2709833 0.8234057 0.06295304 -0.3820287 -0.1008547 -0.2444321 -0.5212046 -0.1383124 0.3742347 0.7782978 -0.2737026 0.1399793 -0.3982031 -0.1007324 0.3881621 0.2397913 0.2195473 0.05510994 -0.4706069 0.07490239 0.3141308 0.5825936 -0.2134978 0.09827636 -0.4026546 -0.5955711 0.1276093 -0.01612151 0.003828985 0.3230133 -0.5342959 0.1266759 0.6945872 -0.8621892 0.4668161 -1.046604 0.09843308 -0.7193339 -0.7237229 0.0100252 0.4287525 -1.177041 -0.804653 -0.09299583 0.1225576 -0.5216757 -1.054939 0.03998981 -0.653343 -0.8712829 0.5397812 0.3178874 -0.6645604 0.2998686 0.4190539 -0.503184 0.2521223 0.01779559 0.24934 -0.4494474 -0.4259957 -1.153574 0.7166801 -0.2871435 -0.01152286 0.3702852 -0.4081724 0.3489037 0.9539489 1.161658 0.6318562 -0.2518916 0.4242427 0.4227483 0.42527 0.2918963 0.157155 0.5303062 -0.1403183 0.09676974 -1.096384 -0.01148552 0.1997098 -0.3149616 0.7077273 0.4098138 0.04041142 -0.1122697 -0.01455786 0.09446394 -0.1580275 -0.3671434 0.3775255 -0.1687492 0.6443831 -0.3215965 -0.0257199 -0.3053759 -0.06036425 0.3942172 -0.5566223 -0.2338888 1.130137 0.391895 0.3428784 -0.5651058 -0.4151529 0.9450138 0.2352089 -0.3099282 0.07195394 0.01417837 0.1123051 -0.4282488 -0.078304 0.01499102 -0.2319737 -0.07151066 -0.5122313 0.1038278 0.4670363 -0.003032883 0.4335681 -0.3551418 -0.3200843 -0.2265493 0.7286913 -0.6693221 0.07455721 0.4175592 0.4584904 0.4576506 -1.325226 0.2715629 -0.1943854 -0.2390416 -0.6161293 0.248017 0.5729406 -0.5587819 -0.4890347 -0.4233465 0.1967539 -0.8151847 0.7239503 -0.8975425 -0.4605892 0.1805893 0.2935841 -0.09325713 -0.4443063 0.06198023 0.2051372 0.2799157 0.3156497 0.1818813 0.01431001 -0.5402815 -0.3129252 0.4229623 0.5308998 0.01476335 0.6324102 -0.7934065 
  -0.09063611 -0.1512693 -0.9499828 0.9455267 -0.8166807 -0.7520097 0.07504443 -0.4307025 0.1405447 0.139707 -0.1324539 0.06797677 -1.815633 0.7820076 -0.13792 -0.5452246 0.0487861 0.07038004 -0.7171224 -0.4888759 0.8863358 -0.02118794 0.5548629 -0.6194531 -0.113955 0.4340754 -0.1553032 0.4252805 -0.3003961 0.07041104 0.3277633 -0.2368191 -0.02961483 0.7391289 0.9445733 0.2980691 -0.1956313 -0.7619937 1.111439 0.966928 -0.2322363 -0.001622798 0.2424037 1.145637 -0.7352731 -0.6012329 0.259333 0.468958 -0.6658497 -0.2399822 -0.9890866 0.6054288 -0.8834696 0.3109011 -0.1671875 0.2751747 0.339718 -0.540529 -1.646449 -0.02142609 1.475886 -2.2468 -0.1369134 0.3553252 -0.4176475 0.8580277 -0.7350467 0.6146874 0.195428 -0.3371209 -0.06804485 -0.179353 0.2280622 0.1145421 -0.3131102 -0.6216952 0.3376103 -0.5831276 -0.5810716 0.6300736 1.158288 -0.3062155 -0.2040365 -1.422349 -0.1439066 -0.7169645 -0.4878098 -0.3507447 0.6193266 0.09458354 -0.4971841 0.4768437 0.8041387 -0.1858198 -0.3423175 0.8893296 1.090469 -0.108579 0.8728209 0.5932661 0.1270942 -0.3537924 0.5158424 -0.8620436 0.7549852 -0.315124 1.036341 -0.6658854 -0.7179216 0.09550472 -0.09763562 0.8122504 -0.542018 0.1428723 -0.9603487 0.4031753 -0.02917907 -0.5420946 -0.3617679 -0.9945295 0.1731123 -0.9349728 0.9150354 -0.1932443 0.7514887 -0.2678885 0.2015129 -1.501425 0.03553908 -0.5870252 0.8191674 -0.3362847 0.3074777 -0.1655854 -1.561865 0.1859936 -0.3829834 -0.09698191 0.5189521 0.7270907 0.1956367 -1.720465 -0.0638294 -0.09324603 -0.151458 0.1013951 -0.02041721 1.197114 -0.8407502 -0.02033848 0.1155685 0.7196986 0.4850915 -0.12215 0.8197428 -0.2708701 -0.5485334 0.5535749 -0.2885907 -1.564775 -0.1571061 0.4512509 -0.913124 0.5802538 -0.2865667 -0.1046322 0.1761962 -0.4751217 -1.367034 -0.3158109 0.08254305 0.07755069 1.036047 -0.9876721 -0.007993342 -0.3172166 0.454989 -0.3120522 0.2083447 0.4350259 0.5030159 -0.4890653 -0.746676 -0.05503691 0.02713735 -0.000397743 0.1847505 0.4179005 1.11029 0.9605305 -0.06199332 -0.4449224 0.5309109 0.5578397 1.106511 -0.8924063 -1.431755 0.3430736 -0.005283178 -0.7275627 -0.5959432 -0.4745549 0.6638734 0.141373 0.2058517 -0.7973947 0.005122979 -1.67759 0.06888724 -0.3635278 0.267868 0.8641396 -0.4497676 -2.091386 0.3471671 0.6041285 -0.6369614 0.5946363 1.080215 -0.6334659 -0.2105146 0.7362121 -0.07717688 -0.7231124 -0.5578659 -1.087945 0.2953103 -1.088608 1.072647 -0.07318466 1.099785 0.9020039 -0.0319622 -0.2095913 -0.03882672 -0.3567242 0.1245691 -0.2568421 -0.7602305 -0.2771941 -0.7592333 -0.1114689 0.7848119 0.9539912 -1.230236 -0.08623057 0.1079973 -0.2596016 -0.3826157 0.2194543 0.2121464 -0.2144316 -1.109639 0.2608069 0.8125995 -0.4066653 
  1.160047 -0.6962496 0.2994595 0.1979338 0.02638591 0.8198792 -0.4122529 0.4816285 0.2666363 0.4670466 -1.319821 0.3231081 -0.06356791 -0.5021822 -0.1986579 0.1096065 0.3298639 -0.4508337 -0.7352706 -0.5530825 0.2947436 -0.01827218 0.008232649 -1.31679 0.2617639 -0.5539598 -0.02067735 -0.2994142 -0.08855114 -0.1122007 -0.03219029 -0.1510109 0.8560876 -0.2113737 0.6222161 0.04122175 0.03209125 0.02821591 -0.6154544 0.3831429 -0.5347912 0.1854453 -0.8238761 0.4153727 0.5630358 -1.217582 -0.1962448 0.1572364 1.003392 0.2368584 -0.08082713 -0.02823353 -0.1048068 0.3352441 0.1839111 -0.02424135 0.5704722 -0.5555419 0.3088951 0.4005246 0.3860724 0.3986867 0.4836389 0.382015 -0.5059927 -0.2744029 -0.2708351 -0.4254076 -0.01227496 -0.4949214 0.1664876 -1.063926 -0.548487 -0.1975651 0.1904638 -0.8752512 0.4922972 0.6298743 0.268252 0.4335326 -0.5008368 0.6034027 -0.3697999 0.2763754 0.4751197 -0.9064764 -0.354266 0.1023294 0.418853 0.3370831 -0.1756618 0.4773493 0.5690463 -0.03561799 0.4193554 0.8343738 0.1158764 1.04007 0.6541865 0.1851775 -0.02747847 -0.4484085 -0.3169072 -0.358075 -0.5987092 -0.2184415 1.39946 0.6812769 0.3907517 -1.211854 1.053648 -0.259343 0.1084011 -0.1604039 -0.6604393 -0.1639433 0.2400972 0.4488263 0.09316805 -0.3933418 -0.2932505 -0.2979048 0.2226421 0.8737115 0.1866955 -0.5449466 -1.143353 -0.7393155 -2.08761 -0.4785085 0.4725627 -0.1143695 0.3943325 -0.8031573 0.175449 -0.1217151 1.571839 0.09214674 0.2786204 1.324859 -0.06094139 0.9558367 -0.6564648 0.3384863 0.2402422 -0.9037494 -0.3057211 0.4401755 0.6365932 -0.7087864 0.08970784 -0.7258916 -0.5272321 -1.202236 -1.46261 -0.8880387 0.1831649 0.3040316 0.2254811 -0.08313227 -0.780298 -1.036489 -0.5819014 0.004793681 0.1656071 -1.351741 0.1019405 0.3020104 -0.3476429 -0.3295976 0.7327975 0.7609507 0.3187576 0.8451802 0.9912679 -0.3504875 -1.370695 -0.740467 0.4707844 -0.07775795 -0.2382671 0.1961914 0.3553173 0.7668329 0.1527347 -0.4165893 -0.7886418 0.6103531 -0.5431442 -0.2708609 0.2998196 -0.7226053 0.855967 0.0625591 -1.174599 0.4699145 -0.9486207 0.175794 0.9639191 -0.1420475 -1.029987 -0.4906325 1.530654 0.4488694 0.8372079 -0.01758914 -0.3037312 -0.7869546 0.9598044 0.7262072 -0.2203133 0.4778033 0.6730624 0.421281 0.372569 0.2179039 0.7719721 -0.3467057 0.243028 -0.3696297 -0.2586943 0.08965195 0.5546157 -0.05155692 -2.080934 0.6807633 0.2063091 -0.2857969 -0.06297398 -1.080245 0.9499998 0.1258261 -0.1239852 0.7275293 0.3135291 1.373969 0.02986831 0.02104822 -0.819261 0.4866032 0.1123869 0.3438357 -0.2402359 -0.1961345 0.1353458 -1.455595 0.3773279 -1.36834 -0.4603819 -0.4180421 -0.1407698 -0.958499 0.2439492 0.5592414 0.8114773 0.06152002 
  0.06291251 0.2527047 0.3612936 -0.3219194 0.07598925 -0.4936697 0.09299538 -1.494288 -0.3872924 -0.5229881 -0.7468407 0.1067054 -0.4065337 -0.3318878 -0.381609 -0.2707282 -0.7526658 0.7505833 0.6734553 -0.2609456 0.3165632 -1.204342 -0.2340419 -0.5953646 0.4896903 -0.6150255 -0.2513679 0.3806827 0.209694 -0.5822099 0.8268039 0.5702996 0.7704177 -0.5499887 -0.3998394 0.7048178 -0.1795359 -1.215928 -0.09001783 -0.6267231 -1.619859 0.6172132 0.4288198 -0.2697108 0.08887864 0.03628645 -0.001090583 -0.05330291 -0.948411 0.1444927 0.4937779 0.1579441 0.02770065 0.900992 -0.6323944 1.380215 0.09160856 0.3067455 0.4046216 0.2667803 -0.4515443 -0.6390061 0.8481547 -0.5363805 0.7195747 -0.2479236 0.1476119 0.0137861 0.6744263 0.1318646 0.5626608 0.01202487 1.093247 0.2997352 -1.007083 -0.1902941 0.7133216 0.3845068 0.5921145 -0.8181098 1.087189 0.1268114 -0.3948935 0.3196501 0.6304833 0.3662333 -0.9846025 -0.1257091 0.768811 0.380557 -0.8545871 -0.3161367 -0.5486547 0.3906645 0.04991427 0.4725369 0.3192948 0.2368549 -0.4486174 0.05901792 -0.4626711 -0.04117248 0.5664129 0.2207555 0.5624497 0.2040266 -0.4056691 -0.4412029 0.5736353 0.4890496 -0.7108721 -0.2488795 0.3219483 0.02774555 -0.3740676 0.3755199 -0.2969874 0.09510984 0.3492379 0.2560972 0.1624427 -0.2095909 0.4394051 0.1765149 0.8505548 0.7062619 -1.01213 0.457338 -0.4228108 0.4862503 -1.084223 -1.080041 0.5627874 -0.4992694 -0.7899061 0.6228179 0.5172148 -0.5452436 0.8473072 -0.5638315 -0.9811739 0.1081572 0.2277572 -0.7102061 -0.1864284 0.2662594 -0.02285804 -0.1023323 -0.150951 0.3075536 0.6826683 -0.1522334 0.3994828 1.193388 -0.05413642 0.6872607 -0.4253203 -1.011073 -0.1508798 0.2079206 -0.6115463 -0.09921727 -0.1545629 0.8979016 -0.6088923 0.2776842 -0.6423087 -1.010204 0.1602211 0.1131842 0.4459941 -0.06277671 1.009926 -0.4741711 -0.8307316 0.4796714 0.3626551 -0.2866022 1.253617 0.1700841 -0.2747366 -1.704558 0.8225424 1.192251 -0.1681087 0.2392166 0.2509678 -0.02629612 0.5523702 0.1043385 -0.629709 1.378453 0.8833156 0.409756 -0.2452569 0.2857213 -0.04754807 0.1119393 0.2612371 -0.6773114 -0.2116147 -0.4336448 -0.01221941 0.3677888 -0.1707152 -0.4917811 0.5391143 0.04115519 0.9365096 -0.147021 -0.3752014 -0.4641322 -0.2028772 0.8286844 0.4483192 0.9162077 0.214451 0.2559725 -0.2026568 0.2525572 -0.2024373 0.1112541 -0.1730438 -0.7238684 -0.3620441 -0.5750758 -0.3300985 0.2075898 -0.09671149 -0.274603 -0.540459 -0.5783547 -0.4008219 0.6002007 -0.4713816 0.07797743 -0.7441471 0.2293658 -0.03110192 0.1860081 0.1105869 0.102083 -1.215953 0.4346907 0.5192512 0.7936462 -0.206384 0.248489 0.3076053 1.080591 0.2831144 0.01616163 0.07493404 0.2686646 -1.028945 0.4416806 
  0.5868072 0.6603816 -0.7071656 -0.353679 -0.07209761 -0.4455105 -0.3668257 -0.616928 -0.01855956 0.5082214 -0.253511 -0.1758219 0.7223764 -0.6241536 0.4147764 0.3991588 0.1971673 -0.9393292 -0.8114776 0.4253718 -1.458848 -0.5944176 -0.1606966 0.2765183 0.2040694 0.5375503 0.8009387 -2.43396 -0.5902019 0.2570311 -0.1209965 -0.292578 0.5041207 0.3277436 0.2810265 -0.1205233 -0.6627394 -0.76415 0.3739336 0.5471928 -0.2652007 -0.1742321 0.02239093 0.04310804 0.1997402 1.092101 0.3147789 0.8013467 0.4614506 0.6710862 0.1820214 -0.1934898 0.2710984 0.2203958 0.331014 -0.09659754 0.4303478 1.16648 -0.4211642 0.3110129 0.1235039 -0.737457 -0.4511308 0.6542608 -0.4409028 -0.6050712 0.7127365 -0.7577248 0.03578826 0.1272298 -0.2432988 -0.779727 0.7016414 0.332314 0.5947943 -0.9004592 -0.4065825 0.970228 0.09462696 0.1251459 -0.2303243 -0.3560063 -0.3304242 0.1892129 -0.4124221 0.2294131 -0.7994318 0.1748936 0.296463 -0.2600871 -0.3924808 0.6606797 0.6288194 -0.1001517 -0.1436691 0.2009701 0.4149923 0.1739802 0.6179683 0.01392577 -0.6120968 0.004563322 -0.1790878 0.1985559 -0.05701562 0.4390717 -0.5956586 0.4825193 0.8352377 -0.3768877 -0.2459408 -0.01363099 0.07871741 -1.279821 0.1966796 0.3624643 0.2393969 0.5317806 -0.5492091 0.5086883 0.3695245 -0.06979372 0.01536263 -0.5539809 -0.6342807 0.1467218 0.1618703 0.5007975 -0.2017919 0.05322181 0.06674491 0.3404601 -0.08594406 0.3504511 0.229332 0.1239092 0.3616063 -0.09607418 0.9864087 1.029025 0.3065422 -0.3147776 -0.2245523 0.4127999 0.6981521 1.258672 0.2068401 -0.4243849 -0.2440123 -0.2583918 -0.1880863 -0.2406642 0.2358319 -0.0397565 -0.2588893 -0.2082754 -0.45164 0.06431543 0.2683663 -0.7123246 -0.099756 0.02274389 -0.2188529 -0.8685365 0.2908335 -0.3954631 0.1755037 0.4645186 -0.3426494 -1.354112 1.51008 0.4820904 -0.2429008 -0.2937825 -0.3199303 -0.1376624 -1.853217 -0.4250865 0.8342876 -0.1399791 0.4048838 0.02919825 0.4151491 0.3442317 -0.7962825 -0.5589208 -0.6329658 0.7408981 0.5445151 0.4490218 -0.2231367 0.495741 -1.827056 0.003039328 -0.07443271 -0.4466653 0.7773953 0.2372577 -0.3710247 -0.02011356 -0.6887996 -0.4977508 0.5125015 -0.5978205 -0.0636325 -1.16794 -0.5467502 -0.7713022 0.07944542 -0.2849784 0.2856733 0.8088373 0.03025458 0.5413895 -1.248636 -1.057121 0.3199466 -1.755041 0.4099903 -0.01182199 0.5978777 0.2970468 0.003864481 -0.1113264 -1.514344 0.1216228 0.4569062 0.020975 0.3477502 -0.2982064 -0.07477836 1.351526 0.6424448 0.2866327 -0.4446124 1.55347 -0.2957067 -0.07508048 0.0608159 0.2983058 -0.6048583 -0.8941258 0.1488495 0.1481508 0.5875508 0.08100089 -0.1730816 0.09652027 0.1731062 -0.2642407 0.1923779 -0.2019894 -0.6149697 0.1271765 -0.3984794 -0.2667367 
  0.3617863 -0.3772539 0.3376291 0.8487405 -1.154419 0.4112821 0.9111238 -1.272376 0.664099 0.6898915 0.7342782 1.317216 0.2885641 -0.6229195 0.1806267 0.2457799 -0.601199 -1.440804 2.061803 0.5987152 -0.3827268 1.059267 -0.2283174 0.06629737 1.529686 0.938844 0.3584933 -0.1373032 -1.773526 -0.303265 -1.619888 -0.2866898 0.37886 1.007108 0.1954787 0.829872 0.5689693 0.8588905 -0.4198939 0.4211317 -0.139677 1.088726 -0.6463824 -0.3656451 0.3523242 0.3921616 -1.059676 0.7713858 -1.462199 -0.9095464 0.1179964 -0.6627829 -0.02257107 -0.5207803 -0.03930378 -0.6712976 -1.041293 -0.3631592 -0.9252436 0.6417038 0.1052254 0.1053266 -0.2831112 -0.1278087 -0.3222646 -0.08543327 0.1015017 -0.4166371 0.3286823 -0.8157002 -0.3255136 0.2051049 -0.7779632 0.6738623 0.9489421 0.9707904 0.2948642 0.2050454 -0.4854483 0.179022 -0.6118355 0.2729918 -0.8798907 -0.03386232 0.4938777 -0.8559672 0.3682237 0.253978 -1.036075 -0.3489847 0.3351705 -0.3938734 0.5683549 0.06483977 -0.271604 0.5216073 -1.993551 0.6413066 1.226415 0.8019828 1.392356 0.2983688 0.04921814 -1.132834 -0.5076762 0.6439012 -0.1850644 0.6510829 0.581403 0.2194738 0.6029715 0.9554641 -1.763505 0.4583611 -0.4724948 -0.6857669 -0.1784456 0.4400491 -1.216744 0.5179371 0.3199325 0.4327842 -0.2125186 0.2373964 -1.009387 0.4351241 -0.5698186 1.399562 -0.4201465 1.266836 -1.314804 0.4646191 0.5090402 -0.1332981 0.1021533 0.3147735 0.6016446 -1.194372 -1.6893 -0.4339906 0.2320797 -1.576079 -1.659596 1.351009 -0.4822606 0.05614759 0.498278 -0.03262077 -1.079989 -0.4496787 -1.936411 0.02034223 0.3709523 -0.03997815 -1.275618 -0.2124261 0.9391466 0.6168264 0.6758916 -2.527894 1.006341 0.3469936 -0.2689407 1.46407 0.3004371 0.5133453 -0.9903035 1.873082 -1.381401 -0.2702209 0.3162633 0.6088896 -0.2489133 0.465588 -0.2503707 -0.7599434 0.1980204 -0.478214 -1.379164 -0.05619886 0.04636735 -0.02690338 1.377155 0.4835426 -0.5331014 -0.2126387 -0.6641312 -0.3670924 0.1644817 -1.036979 0.07679971 0.4676113 0.3089631 -0.7366148 1.380105 0.8904818 -0.9556021 -0.2375937 0.5647661 -0.2815311 0.1074414 -1.534513 0.8390104 0.5217205 -0.9905406 0.8617226 0.2476973 -0.2038258 0.9859793 -0.1652673 -1.141716 0.3635655 -0.6272317 -0.2073166 -1.275852 1.449168 -0.7281602 0.6709474 -0.6396595 0.08118327 -0.8528076 0.7681242 -0.3471997 1.601145 0.8610508 -0.1080536 -1.400426 -0.8192902 0.2448748 -0.2049471 -0.8244947 -0.1787997 0.2561155 -0.1758023 -0.8680483 0.1371748 -0.2457487 0.1500959 -0.1969099 1.076821 0.3456581 0.1212607 2.576476 0.172306 0.03189604 -0.6577969 0.2962404 1.088707 0.7668771 0.5200349 0.4155039 -0.526049 1.055838 1.283718 0.2582473 -0.1334902 
  -1.727044 0.3254967 -0.6787565 0.6221683 0.5668437 0.9426467 -0.04825897 1.567312 -0.4540001 0.5138475 -0.8181731 -0.4158476 0.8319758 0.3682459 -0.4613279 -0.2691597 -0.6139978 -0.7181296 0.5178179 -0.5206643 -0.03789898 -0.330858 -0.6195603 0.5801088 -0.05832931 0.6616231 -0.1817296 -0.344709 0.3938863 -0.956247 0.4309691 0.1664843 -0.2113543 0.3722458 0.1343442 -0.6187289 -0.6568295 -0.5742012 -0.3641953 -0.650561 -0.6727479 -1.094413 0.271484 0.1054602 0.5628654 0.1968414 -1.07071 -0.05830529 -0.7353391 0.371681 0.3700358 0.4764018 -1.537487 -0.9307315 -0.1496067 -0.3239206 0.1299428 -0.6762869 0.7179718 0.8195598 -0.6179597 -0.03173862 -0.7672336 -0.5574622 0.6195351 -0.2549492 0.3572429 -1.819576 0.7921372 -0.8363197 -0.5966175 -0.8527131 0.2805007 0.7329302 0.7188208 0.4505922 -0.4843732 0.01684254 0.6605192 -0.3438759 0.003844011 0.4986314 -0.3041331 -0.1767447 0.9532922 0.6785976 -0.1303505 -0.2103194 -1.340235 -0.05003961 0.3540563 -0.6414734 0.4161075 0.2725711 0.3597502 -0.5457468 -0.431874 -0.7714404 0.3833849 -0.2626005 -0.09365918 0.2653815 -0.08724428 0.3283881 -0.2682501 -0.4695413 -0.3384736 0.5314053 0.1953639 0.3543434 -0.2796846 0.7079302 0.253062 -0.6212684 0.2775953 -0.2425003 0.06365332 0.1024498 -1.06107 -0.4489541 0.7652612 0.6470069 -0.3475411 -0.07679293 -0.6353692 0.7416138 0.07607582 0.3285531 0.1355198 0.314407 -0.2924557 0.08323245 0.4313302 0.1362716 -0.2042084 0.325226 0.037783 0.00212247 -1.300535 -0.3253179 0.4688616 -0.01763235 -0.3719147 0.2180428 0.4702792 0.2383635 1.582367 -0.09588408 -1.462601 -0.7030559 0.05925188 0.2485816 0.6659799 -0.08229429 -0.2339427 -0.4597246 -0.2940529 -0.9940053 -0.9474223 -0.1608246 0.7649795 -0.464965 0.04654974 0.3061401 -0.185269 -0.9155079 0.05011041 -0.1846678 0.2596756 0.5879063 0.4428285 -0.1834401 -0.4762772 0.3932735 0.660307 -1.021289 0.03974472 1.950195 -0.9818665 0.2033528 0.009407954 0.4821356 -0.1744948 -0.04270248 -0.009974346 -0.872564 -0.1417335 0.8148252 0.1124425 0.1882106 0.3490769 0.3267164 -1.310819 0.3483827 -1.060898 -0.08089248 1.192047 0.2154574 0.02517842 0.6985223 -0.1722986 0.3466527 0.574905 0.5138318 -0.7051243 -0.2762294 0.3472697 -0.8769301 -0.3763061 -0.9542224 -0.2103253 -0.8627024 1.053628 -1.016939 -0.1268391 -0.3140045 0.06167471 0.1429504 -0.3328858 0.2866456 0.298862 -0.2681564 0.02832342 -0.1289118 -0.1730257 -0.6618723 0.07400166 -0.04374534 -0.8985214 -0.5602457 -0.2431499 -0.2555096 0.1444458 -0.6571534 -0.07877009 -0.3398258 -0.09223696 -0.7807544 -0.5464456 -0.2880929 0.5568472 0.07500379 0.3690233 -0.01597229 0.5122457 -0.4108487 -0.7676274 -0.2136267 0.590455 -0.8164867 -0.3695121 0.9102434 -0.3738923 0.8256821 -0.8111398 -0.8140337 
  -0.089609 0.8096139 0.1236359 -0.02930509 -0.7114641 0.5360536 0.02947501 0.8982429 -0.3541918 -0.3676908 0.8617455 -0.4376498 -0.09411512 1.103632 -0.2798091 0.5879837 0.07920453 0.254601 0.01979622 0.2653657 -0.8573959 0.5176942 -0.3167808 -0.1352712 -0.1307139 -1.415414 0.9044231 -0.9407779 -0.3736973 -0.3015205 -0.3299618 0.4366445 0.1969436 1.060206 1.018142 -0.03437512 -0.5210399 0.4305366 0.3694913 -0.4976552 -1.116815 -0.03561087 0.245699 0.4862801 -0.03113952 0.7534423 0.1231119 -0.4816408 0.04886952 -1.369106 0.06079206 -0.6690367 0.402855 0.2508211 -0.1043257 -0.09829114 0.3627873 -0.1024176 -0.04899907 0.1207475 -0.1782784 0.2222259 0.1104359 -0.08658549 0.5918027 -0.1557183 0.2716697 0.1072785 0.0324576 0.4103824 0.2595261 0.3720138 -0.4813108 -0.7029845 -0.08511181 -0.24938 0.2020804 -0.9219586 0.2640322 0.3971961 -0.9518241 0.06074113 -0.5339851 0.8327104 0.9156656 0.2886674 0.2302478 0.5855733 0.1649604 -0.3957672 -0.5082175 0.187961 0.6864939 -0.08404982 0.06896985 0.6495589 -0.3958505 -0.377009 -0.1077487 -0.1717006 -0.1910365 -1.209753 0.7234614 0.4310823 -0.4163172 -0.4045132 -0.1883903 -0.6451607 -0.08874071 -1.961027 0.2374551 -0.04751303 -0.4991187 -1.589486 -0.3641486 0.1368877 0.08242297 -0.6332917 0.3176601 -0.3310807 0.06678085 0.4339879 0.9619506 -0.2823974 0.5096343 -0.007187008 0.5632045 0.4462125 0.3113465 0.2188657 0.3675116 0.05521938 -0.4637388 -1.375459 0.1009104 0.04292743 0.1616295 0.1290852 -0.08218157 -0.3343298 0.1726389 -0.5894461 0.1821546 0.7860736 0.187531 0.4637554 -0.008717266 0.1605537 0.303459 -1.232064 -1.106137 -0.3719063 -0.2251364 0.2832683 0.2802205 -1.705363 -0.4791483 0.7620384 -0.05544467 -0.1210044 -0.2640798 0.5311276 0.6795702 -0.1490344 0.5645677 -1.413845 -0.0471305 0.1262718 -0.2377621 -0.196615 0.5141758 -0.5615886 0.3354327 0.3042363 -0.1160202 0.1729832 -0.1822163 0.4822792 -0.3007393 -0.07999095 0.1360491 0.7498863 0.2452831 0.5654306 0.4402815 0.1661393 0.04171023 1.147872 -0.1204243 0.2267564 -0.7335583 0.3350742 -0.1763423 -0.1119044 -0.1602442 0.5434334 0.01408331 -0.02496662 0.8757482 -0.2123955 0.6027031 0.01639825 -0.01007262 0.286536 0.6623449 1.112467 -0.0799047 -0.4672205 -0.05771659 0.1989608 0.03946897 0.618527 0.1553295 -0.1257479 -0.1354689 -0.04113135 0.05662247 -0.7809238 0.05759312 -0.2602991 -0.4883524 0.6312283 -0.0249547 -0.6117949 -0.04738566 -0.6427085 -0.5769387 0.2352825 0.5527733 -0.03195716 0.3383041 0.1779987 -1.613602 0.1720429 -0.8124169 0.4218486 0.3727767 -1.267828 -0.8487667 0.05517783 0.723274 0.0367264 -0.5364323 0.0704231 -0.4425205 -0.1360117 -0.1954282 0.6923195 -0.2557446 0.2660099 -0.3740551 0.3249645 -0.8617829 0.3766802 0.4432969 0.2359156 
  0.2978784 0.02535645 0.5088508 0.4830667 0.2469528 0.5902539 -0.07325815 -0.3472175 0.1969091 0.4652941 -0.4258533 -0.1479643 0.754893 0.9042934 0.06249815 0.8917733 -0.6123324 -0.2239578 0.2277787 -0.1808878 0.5788839 -1.18523 0.6020756 0.1275419 -0.8417813 -0.6668971 -1.697453 0.8626239 -0.7951884 -0.07431938 0.3354264 -0.6451514 -0.592896 0.02741387 -0.1551085 -0.3145659 1.01351 0.7555298 0.2630309 -0.1802817 0.3385633 -0.2666512 -0.2078866 0.08817892 -0.01763282 0.07650594 -0.4517059 -0.4595858 -0.4111647 0.3309165 -0.3010153 0.7443257 -1.130474 -0.4978973 -0.6346918 -0.3071007 -0.3100134 -0.2377105 -0.3205675 0.3979344 0.7723713 0.1366611 0.1004938 -1.445836 0.1533357 0.4221258 -0.3305625 0.1584957 0.6250265 -1.222153 -0.0272459 0.0550683 -0.6560408 0.1307374 0.3586718 -0.5566092 0.9327278 0.03734174 -0.341759 -0.1884377 0.4382332 0.5981522 -0.1595145 -0.3740531 0.4503179 0.156905 -0.1553992 -0.3020293 0.1394307 0.6155512 0.193069 -0.2628831 0.3092962 -0.2082472 -0.6618125 0.1641297 0.9786416 0.5115519 0.2578565 0.460391 -1.09663 -0.3748954 1.375612 -0.4318945 0.7960247 -0.04461706 0.491387 0.2479998 -0.8562695 0.727572 0.6211048 0.2589082 -0.7451155 -0.3033388 -0.2769219 0.4222476 -0.5783947 -0.1289582 0.1909408 -0.3820374 0.1991521 0.02824161 -0.02889695 0.0104173 0.1710766 -0.8191574 -0.3096151 0.3955864 0.07129486 -0.4912339 0.8876707 0.1304909 -0.5192904 0.5198783 0.698929 -0.001755437 -0.3775497 0.4826964 0.4880859 0.7176437 -0.344121 0.8439575 0.01524926 -0.519936 -0.1680032 -0.45968 0.168893 0.2547287 -0.02471859 -0.2938592 -0.6453652 0.05997743 0.9054819 0.08351968 0.5377619 -0.5657576 0.8891293 -0.1238215 -0.3629855 0.2192352 -0.1275027 -0.1270101 -0.3950871 -0.1504242 0.4270681 0.3841426 0.3097056 0.06505402 -0.01244491 -0.2207092 -0.4752722 -0.6196226 0.176717 -1.282626 0.4669512 -0.06049665 0.428677 -0.3559422 0.0001440878 0.3390792 0.3890447 -0.2469768 -0.1377284 0.4689497 0.306376 0.7641343 0.4411159 0.8511958 -0.4470986 0.0224355 -0.01335645 0.5051444 -0.1827786 0.08609983 -0.6023452 0.009188406 -1.055761 -0.7088258 1.02149 0.4051383 -0.151479 0.2396137 -0.2754346 -0.381319 -0.8770373 -0.8774055 0.0772805 -0.02230336 0.09124473 -0.2769044 0.01970918 -2.018472 0.01435496 -0.4362603 -0.2869004 0.2905687 0.0886009 0.03607705 -0.07297889 -0.01643814 -0.1007384 -0.6451164 -0.3796128 -0.5168298 0.07160635 -0.2801969 0.4837744 -1.218256 -0.3563921 -0.1541975 -0.2734411 -0.5694416 0.2521707 -0.2960572 0.8303211 -0.7060416 0.7917566 0.7258059 -0.535396 0.8449928 0.1918272 -0.3840477 -0.3912794 0.1538116 -0.6165871 -0.05393912 0.7648218 -0.3869526 0.6282336 -0.02187633 -0.2481234 -1.032695 -0.845267 0.3457543 0.6179526 0.5048981 
  -0.8514135 0.1310706 -0.1148012 -0.1980076 -0.4380612 0.1634449 -1.126742 -0.6000752 0.2539653 -0.5612348 0.1310729 0.1685522 0.6628171 0.2506388 0.3060544 -0.6912538 0.5127839 -0.4427371 0.07779129 1.218838 0.3434936 -0.4277381 -0.7572628 -1.206418 -0.07355962 0.008200155 0.06435215 0.6255892 0.5043934 -0.491933 0.5624148 0.7983049 0.4006648 -0.8968579 0.4973271 -0.2883126 -0.2000881 -0.1530237 -0.1701776 -0.7900851 0.3492766 0.4139681 0.08184545 0.2598211 -0.2918134 0.09022865 0.3944565 0.2380782 0.5722165 0.9918544 -0.08673526 0.4507919 0.4543394 -0.103142 -0.5437508 0.2774272 0.2807869 -0.3909921 0.4327733 -1.962542 0.2219521 -0.4910251 0.5398913 -0.8570867 -0.8062668 0.07314053 -0.4050463 0.3108057 -0.08156024 -0.4320727 -0.02302276 -0.09027053 0.02070848 -0.4834524 0.1698703 -0.2831121 -0.2584636 0.8578426 -0.9511486 0.1170851 0.3845253 0.8858279 0.1294041 2.773406 0.05513714 0.004516422 -0.0988689 -0.6677389 0.2085471 0.5459062 -0.3248195 -0.061134 -0.5244538 0.1905786 -0.07580143 -0.02673828 0.3059279 0.2821254 0.4502755 -0.02799164 0.03193337 -0.1328126 0.1465638 -0.4071609 0.2450538 -0.1553684 0.07539731 0.8017924 -0.3547915 0.2661014 0.5473366 0.2168564 -0.1354478 -0.1042842 0.02868219 -0.482469 1.098358 -0.03135771 -0.4933953 0.1264794 0.4999054 -0.2037698 0.5650268 -0.306964 0.05902386 -0.3905561 -0.109813 -1.031551 -0.399347 0.5479223 -1.293175 0.5163283 0.1712222 -0.1941886 0.3893243 0.1457899 0.2998622 0.1089329 0.4789392 -1.166307 -0.6587507 0.1299271 0.3823524 0.6651549 -0.3822254 0.3833977 -0.06139899 -0.01033104 -0.2438745 0.6205031 0.07195892 -0.1240807 -0.434699 0.5174693 0.09659824 -0.001421691 -0.3191359 0.0960463 -0.2667768 1.073502 0.5401721 0.1872394 0.1276994 0.4452429 -1.190702 -0.7515205 -0.3420139 -0.2330457 -0.08352764 0.3542659 0.6894771 0.05393012 0.1264561 -0.8840083 -0.5735039 0.1295132 0.348855 0.06684852 0.1533791 0.1460107 0.02385624 1.015637 -0.8734835 -0.5306572 0.00784745 0.1347454 -1.267894 -0.2269241 0.6646931 0.6203839 -0.9078875 0.07502603 -0.2215142 1.418737 -0.1747152 -0.1574042 -0.5453382 0.4293084 -0.1040511 -0.2479546 -0.4768552 0.6837407 -0.2100546 0.5536804 0.3088058 0.7255158 -0.02431796 -0.7666018 -0.359877 -2.308532 -0.2178145 0.3672418 -0.1882656 -0.869001 0.03491114 0.54074 -0.3000277 0.6292778 0.2695349 0.7474296 0.5842443 -0.7087085 -0.07913058 -0.5850552 0.5086799 -1.455156 1.065149 0.07508675 0.3989675 -0.1870914 0.7667636 0.509279 -0.3886811 -0.07523821 -0.1089095 -0.003929241 0.7903355 -0.4251876 -0.5046455 -0.9618042 -0.5218453 -0.1956525 0.8210022 0.1916863 -0.4064375 -0.5215981 0.7372334 0.3260178 0.658836 -0.2706834 0.8536477 -0.2751516 -0.008815433 0.8012128 -0.7186278 -0.3902174 
  1.142016 -0.1488965 -0.2257188 0.6514355 -0.5879806 0.1638496 0.1561698 0.05422701 0.3541002 -0.1982638 -0.4647006 -0.5099183 0.8283886 -0.2065565 -0.3797042 -0.3520219 0.6451337 -0.08474062 0.4762247 0.2237847 -0.384287 -0.1013971 0.1643732 -0.005426345 -0.9309253 1.028008 -0.1892243 0.3941575 -1.024413 0.2448907 -0.02780227 -0.4293528 0.4738965 0.5041971 0.1709462 0.1027126 0.7100232 -0.3267205 0.5049366 0.2021378 0.3607033 0.308385 -0.4521115 1.00471 0.2683392 -0.8038325 0.1079897 -1.247031 -0.1616274 -0.5404319 -0.2122661 0.1390272 0.1514575 0.2737699 0.4152509 0.6686012 0.09111861 -0.07037801 0.2516605 -0.4474824 -1.204407 -0.2847215 0.1004828 0.05919613 -0.2136339 -0.2382637 -0.2522185 -0.09954679 -0.2108304 0.01769889 -1.070168 0.1844499 -0.06213187 0.01632978 0.09907483 0.7754457 -1.087711 -1.107002 -1.333326 0.163702 -0.6265506 -0.368517 0.05506274 -0.6284393 -0.2689259 -0.8007779 0.3496462 -0.4521597 0.6710014 -1.090557 -0.3591931 0.5447815 0.2842893 0.2571689 -0.2942828 -0.7666345 0.3292595 0.3197317 0.3383615 0.144231 0.4638733 -0.1935957 -0.240982 -1.166498 -0.284267 -1.278958 0.01223641 0.1905945 0.3859843 -0.2206949 -0.6523769 -0.209177 0.2873676 -0.5575227 -0.5914262 -0.4656821 0.09767453 0.475226 0.1638776 0.1055049 -0.1495045 0.3428458 1.303094 -0.2098655 0.4806838 0.3859877 0.3328086 -0.02633812 -0.02900213 -1.870414 0.3247077 1.455395 0.2696623 0.3487702 0.9526777 0.04951605 -1.084285 -0.5430062 -0.5519221 0.215403 -0.2836525 -0.3943377 0.1777989 0.5826758 -0.7605913 0.05839353 -0.1817189 0.5634493 -0.1501364 0.7694198 0.04511937 -0.3213384 -0.08740308 0.3171753 0.08770652 -0.2779377 -1.005744 -0.1194639 0.06282753 0.8570637 0.08660597 0.3117064 0.3346065 -0.4263535 -0.02085849 0.1559229 -0.4978059 0.1370835 0.04219021 -0.8894303 0.2490322 0.2634214 0.9453 0.9942881 -0.001903332 -0.5238414 -0.1563005 -0.2105863 0.6850433 -0.4570332 0.2643901 -0.06515418 -0.5805156 -0.3224272 0.5598091 0.2183135 0.6085667 -0.07317448 0.1639342 -0.3050675 -0.2361348 0.503461 -1.314292 0.3212902 0.2326993 1.748431 -0.7272093 0.5236525 -0.1394709 0.09410328 -0.2435877 0.2048082 1.039558 -0.9844571 -1.624399 0.02109401 -0.206833 -0.5174388 0.1933901 0.3360036 -0.9211295 -0.6254619 -0.348712 -0.2118793 0.5616087 -1.45752 0.1149623 -0.9571037 0.1855281 0.07940934 0.7815734 0.8529223 -0.2023538 -0.7445913 -0.5363401 0.4546505 -0.4752905 -1.15895 -0.177696 -0.7229949 -0.0360373 -0.1473864 -1.150373 -0.2500527 1.044632 0.3724544 -0.5397127 -0.04468178 0.5549332 0.2457123 0.9268199 -1.349179 -0.3640156 0.3047921 1.289159 0.04622152 0.9152982 0.3536999 0.4703247 -0.4652319 -0.8555236 0.5039434 0.2559868 -1.112365 0.527369 -0.8335686 
  0.0228749 0.1302048 -0.1290655 0.3189722 -0.4994764 0.1276293 0.9760892 0.1441185 0.1359522 0.002568445 0.07983987 -0.2029247 0.09890938 0.5899647 0.9568325 0.4532831 -0.9365365 0.7395731 -0.5094257 0.317674 -0.8254107 -0.9008493 0.6734626 -0.1426615 0.1606613 -0.1644818 -0.4377677 0.1429603 -0.2880442 0.4296206 0.01371729 -0.3156664 0.3484663 0.1483783 0.7284788 -0.2144402 -0.04493645 0.1115562 0.0753149 0.8641265 0.02130164 -0.2948447 -0.5133388 -0.2535511 0.03410352 1.086957 0.2190576 -0.2368803 -0.6876363 -0.2328225 -0.1510249 0.23728 -0.2941124 0.3157988 0.2121042 -0.06067032 0.2526384 0.1387083 0.5250329 -0.005225523 -0.5527666 -0.09912086 -0.09417029 0.8054507 -0.1821283 -0.6011726 0.3617086 -0.3358966 -0.1833566 -0.3033254 0.5929379 0.2525934 0.04735767 0.7273381 0.09638956 -0.2864506 0.763467 0.2137594 -0.7274032 0.3442574 0.2067242 0.5166471 -0.0782772 -0.06508335 0.7446502 -0.1665054 -0.1281831 0.329682 0.1972513 0.3179855 0.3249272 -0.9500372 0.2897019 -0.6858879 0.3037948 -0.2577252 -0.3238479 0.3900796 -0.9522538 0.03840002 0.621551 -0.2810677 -0.2243979 0.01214727 -1.043136 0.358042 -0.484795 -0.7227553 0.688675 -0.8259553 0.4686345 0.3235429 -0.5688346 0.1253449 0.3787409 -0.7148584 0.4127391 0.1357848 0.1734221 0.2687099 0.1167951 0.1653266 0.4027823 0.3897838 -0.2745271 -0.2085366 0.2881674 -0.7946926 0.5559163 0.01228767 0.8847519 0.3930031 -0.4147646 0.1094716 0.6909658 0.4201688 -0.01629974 -0.6340498 -0.1318565 -1.335825 -0.6258993 -0.04457403 -0.185835 0.6332075 -1.009951 0.3361671 -0.5432506 0.7196187 0.420124 0.1302739 0.05588787 -0.4842514 -0.2269994 -0.2242802 -0.1879371 0.189756 -0.4859552 0.07020856 -0.008625682 0.4503509 -0.06884921 -0.4391265 -0.190366 0.3681076 0.2619971 -0.3491913 0.5437639 0.143957 -0.3128106 0.4966159 -0.3667127 -0.3565556 1.077795 1.11741 -0.5244776 -0.805224 -0.1940113 -0.888921 -0.2269246 0.1868577 0.2095698 -0.156843 0.2689506 -0.2198184 -1.052879 -0.2050604 -0.2954124 0.06247348 0.9392604 0.04357731 -0.3540943 -0.4096039 0.6255382 1.037529 0.01869893 0.6946843 -0.2873254 1.047503 -0.09637376 -0.979925 -1.167419 -0.271591 -0.4890192 0.9692668 -0.3045949 -0.8990594 -0.01697909 -1.815897 -0.2038179 1.102206 0.5143167 0.353294 0.8176301 -0.6249541 0.1202642 0.4366207 -0.4494548 0.3954641 -0.5045211 1.073417 -0.2718641 -0.04804084 -0.2277622 -0.3556771 -1.449246 0.6810045 -1.216737 0.3415265 0.365037 0.1433341 -0.4361897 -0.1701043 0.2900731 -0.3795409 0.4101914 0.1772841 0.447236 0.5604453 0.6117108 -0.4385807 -0.8140311 1.755879 -0.1860182 -0.2525383 0.5029103 0.02492441 0.1938395 -0.5033099 -0.1244125 0.5239229 0.0442711 0.644217 0.1910392 -0.8320084 0.2613133 -0.3068132 
  1.00578 0.06861784 0.1262402 1.573467 0.8403981 0.7706463 -0.3226414 -0.6299713 -0.2406811 0.2421994 -0.5369455 -0.4688246 0.3628684 -0.9193429 0.5579992 1.497378 0.2488885 -0.4297527 0.3830065 -0.6891541 -0.352035 -0.4947846 -0.4889857 -1.158869 0.7412906 -0.1325785 -0.2124456 -0.1400818 0.5575067 0.4482673 -0.3160825 0.8940452 1.173707 0.05712607 0.1004964 -0.02315448 -0.8004778 -0.3631688 -0.04889833 -0.8741337 0.3015592 1.333446 1.068783 -0.3658451 0.6783253 0.2528967 -0.9166391 0.04528259 -0.2572812 -0.1242189 -0.6881579 -0.4280545 0.810191 0.5260741 -0.7302408 -0.215388 0.2735928 0.9630016 -0.8513317 -0.3980693 0.2782691 -0.490653 -0.2054724 1.489419 0.3279216 -0.5472035 -0.6762554 -0.7361322 -0.04130209 -0.047416 -0.06779235 -0.3356128 -0.9192894 0.6202534 -0.5687181 -0.1640729 0.3102221 0.07106141 -0.01457227 1.090643 -0.03275966 0.3924937 0.8859624 -0.2713473 0.9449474 -0.5256101 -1.342688 1.029635 -0.1242475 0.4490861 -0.768344 0.009130751 -0.9837896 0.7882721 0.81375 1.296709 0.3289011 0.165544 -1.131871 -0.03638653 -0.547334 -1.163719 0.8451806 -0.6944297 -0.06670683 1.196588 -0.6974958 -0.404247 -0.6522678 0.7136522 0.4112633 -0.08960941 -0.2001256 -0.3054924 0.7243214 0.4802892 -0.5482204 0.3034265 -0.6729945 0.5416436 0.2355774 -0.4113071 -1.182248 1.067011 -0.458162 0.2709143 -0.192266 -0.4247458 -0.5973472 1.551512 0.8094254 -0.157753 -0.07236198 0.2292316 -0.01126563 0.2532189 0.1440383 0.1023353 0.7127531 -0.2892835 -0.6895245 -0.2210781 -0.2681532 -0.4529206 -0.1935128 0.9003164 -0.3964275 0.09529088 0.4693953 -0.1045465 0.1309486 -0.6088186 1.369849 -0.2600159 -1.238943 0.03747641 -0.05594648 -0.0207769 -0.349621 -0.3773518 -0.191399 0.1498956 -0.110846 -0.3486599 -1.493523 -0.3916799 -0.8923798 -1.469789 0.9727278 0.6977247 0.3240167 -0.08545119 0.5921698 -1.719437 -0.08298878 0.5496518 0.7270915 -0.01891342 0.5312699 -0.6862065 -0.0232728 0.2725625 -1.112964 0.02701505 0.8983487 -0.2822524 -0.007998948 0.7436838 -0.2234166 0.3088949 1.087957 -1.454955 0.7938322 -1.056522 0.33343 -0.7417086 0.559527 -0.4606959 -0.806043 0.04167712 0.1698731 -0.6285748 -0.1818687 0.8170429 0.5308914 -0.6982194 -0.6895428 0.7811178 0.1938472 0.4569243 1.149977 -0.9727923 1.963281 0.7966145 -0.3777281 -0.108735 -1.897685 1.347232 -0.4579901 -1.161209 -0.4150139 -0.08058415 -0.9250508 -1.88586 0.2702644 1.015853 -0.4742239 2.191882 0.5995424 -0.9366943 -1.001169 -0.1429205 -1.24224 -0.4007632 -1.477292 -0.07219739 0.144518 1.311565 0.3300582 -0.4102678 -0.2167017 -0.398791 1.727764 1.664427 0.1883013 0.2907568 -0.3461741 0.7328473 -1.08519 0.5357364 0.4234545 -0.3021168 -0.5513431 -0.3782291 0.01983343 0.5276223 
  -1.30124 0.9082533 0.4161552 0.2733214 0.5663639 0.3299109 0.04460963 0.2744098 -0.0211554 0.01830368 -0.05162818 0.4903326 0.1054725 -0.5615566 -0.6383391 0.6482733 0.8018953 0.01009065 0.3230191 0.4064586 0.09065084 0.4154092 0.3486792 0.4571801 -0.3694499 0.5999379 0.2509799 0.4573621 0.2041125 -0.125419 -0.5763012 -1.516398 0.2213045 -0.408879 -0.5634488 -0.5698246 0.7234771 -0.6634178 0.41489 -0.02253277 0.4829199 -1.061317 -0.01647288 0.4156587 0.6755623 0.6579666 0.6868189 -0.08487093 0.3382185 -0.3322284 0.2196785 0.1275025 -0.6325454 -0.589178 0.8092126 0.2483357 0.7347926 -0.6456488 0.6573216 0.05304871 0.417222 -0.103799 -0.1179912 -0.7903132 -0.338807 0.4362666 0.5293013 0.04895244 -0.4323798 0.5597409 0.7864229 -0.4422753 -0.1453034 1.209508 0.9701074 -0.2270639 -0.2744523 -0.576896 -0.08277684 0.1065725 -0.9021758 -0.4062191 0.3385617 -0.4078468 -1.294041 0.4847375 -0.009819394 -0.7731627 0.2826812 0.3769385 0.4507874 -0.1190913 -0.4086964 0.4146753 -0.2712752 0.333419 -0.7826713 0.5504726 0.1016589 0.5616238 0.6015858 0.5602593 -0.6746216 -0.0663211 -0.08962184 0.317868 0.01780218 -0.1711686 -0.2634542 0.08257628 -0.03980347 0.05866391 -0.2107086 -1.664239 0.08136357 0.2875803 0.4690458 -0.2209632 -1.721305 0.9258324 0.6162947 -0.3231638 0.1468626 0.3410343 -0.3743395 -0.06084483 -0.4490675 0.2658933 0.8193906 0.1307271 -0.2828304 -0.7449555 0.4872027 0.2411484 -0.3312811 -0.1545783 -0.4994876 -0.09881692 0.0488797 -0.01411361 -0.1830088 0.1848964 -0.9951205 0.02596158 -0.7868964 0.7494297 -0.1574171 -0.2623459 -1.131736 -0.1475718 -0.1581931 1.185888 -1.580475 -0.6540582 -0.02966635 1.310509 -0.8453193 0.3875325 0.3300951 0.6185701 0.5449006 -0.0135974 0.3146564 -0.08012755 0.4049287 0.653482 0.766544 0.4039321 0.3642945 0.3763204 -0.931215 0.08474547 -0.1308389 -0.2320703 -0.03775608 0.691224 -0.133353 0.8406721 0.07917256 0.1602424 -0.4102854 -0.1471776 -0.02941581 -0.7608281 -1.61502 0.8773363 0.6761212 0.6741968 0.3738366 0.7998676 0.2473454 -0.596689 -1.412201 -0.3835302 -0.7499607 -0.5436491 0.2025834 -0.8135201 -0.2129303 1.295634 0.4272178 0.1784458 0.1934993 0.142708 -0.233671 -0.3648964 0.500116 0.7887646 -0.07648005 0.6198395 -0.09441474 0.1346427 -0.789741 -0.2728646 0.1004342 -0.3593018 -0.0001155188 -0.01467702 -0.5933431 -0.5834955 0.5624099 -0.9777342 0.8745211 0.3307216 -0.2830135 0.3185378 -0.8353132 0.06941923 -1.230727 -0.6608202 -0.2106461 0.4909891 0.4784952 -0.02380158 0.4594143 -0.1939795 -0.6052474 0.7888954 -1.178897 0.01141361 -0.268565 0.6548044 -1.023637 0.1649092 0.7492536 -0.9180685 0.3380916 0.7858635 -1.235749 -1.22644 -0.3576916 0.9200882 0.2611424 0.3251379 0.0175795 -0.3324959 
  -0.1948567 -0.1866365 -0.1763977 -0.08521502 0.4936168 0.2683422 0.7557446 0.3719724 0.1671183 -1.102568 -0.1513433 -0.2421396 -0.1253712 0.7961556 0.3026203 0.4112214 -0.7380601 -0.4407211 0.04683874 0.3351711 -0.003335778 0.2080812 0.3946346 -0.1381137 -0.1876415 0.4087443 -0.03415575 0.03968428 0.575899 -0.1114524 0.3764748 0.01616384 0.1670848 -0.1213228 0.5610114 -0.627742 -0.01360018 0.3035789 -0.3255045 -0.4061077 -0.06714875 0.399369 0.1153262 -0.6919461 -0.08001932 0.2369634 -0.2805527 0.0585187 -0.448311 0.6132034 0.3514853 -0.02996583 -0.2982927 0.1329614 0.2192344 -0.7893416 0.387873 1.10742 -0.14354 -0.004581061 0.6469685 0.6873115 -0.1454782 -0.1718368 -0.5048522 -0.5604961 0.7829431 1.295493 -0.8138434 0.3498673 0.08662996 0.4699955 1.13081 0.3368739 -0.4569166 -0.2243286 -0.04035333 -0.1466896 0.3307827 -0.171736 -0.3096896 0.2396706 -0.02109417 -0.196935 0.9618642 0.1777415 -0.754023 0.06110489 0.4302711 0.1899912 0.2099956 -0.7050994 -1.144315 -0.8619485 -0.4815862 -0.6850494 -0.2613595 0.1792776 -0.4111114 0.4829393 -0.09470262 0.1437069 -0.06551509 -0.1198142 0.2561502 -0.03277686 1.534882 0.3004777 0.09287352 0.7808098 -0.2900406 -0.3889486 0.06744369 0.5770491 0.4906573 0.3672079 -0.08156415 -1.137239 -0.1659992 -0.3940884 0.6023385 0.1276987 -0.366975 -0.1230348 -0.4793415 -0.3108062 -0.2771908 -0.2554039 -1.311461 0.2339097 -0.08443788 0.02316853 -0.7817099 -0.8615684 -0.4767422 0.4715466 -1.168028 -0.2948081 -0.06288265 -0.04024004 -0.06350152 -0.30904 -0.4437041 -0.3351144 -0.3616295 0.007394851 0.09376102 0.1348633 -1.263637 0.2241106 0.1416034 0.1527365 -0.5585991 0.08674099 0.03064621 -0.01906962 -0.2487563 0.4912453 -0.7859733 0.8625466 -0.4804533 -1.190375 -0.9188979 -0.0605854 0.7898349 -0.1642196 0.3950794 -0.8738813 -2.139142 0.4918908 0.2923389 0.9607803 0.1811598 0.04107818 0.8686109 0.5113443 0.948513 0.387964 -0.7218058 -0.1621062 0.261896 0.5774755 0.1463994 -0.8528106 -0.8243199 -0.1872653 0.1881736 -0.0647769 -0.8241038 0.09392173 0.05646642 0.4031234 1.424347 -1.429687 -0.7072307 0.3051769 1.601337 -0.1203469 0.5786257 -0.2393627 0.5561585 0.468101 -1.204239 -0.4372372 0.3066344 -0.003338962 1.167835 -0.06331678 0.166371 0.567283 -0.8406718 -0.07459803 0.1397741 -0.3196274 0.1853244 0.4184628 0.5713126 -0.7116603 -0.3459425 -0.0695254 0.02020113 -0.4152426 0.5486186 -0.5043248 0.8794573 -0.1445118 0.02071315 -0.3209476 0.0121188 0.4665532 0.6341548 -0.1219336 -0.4180748 -0.7509754 0.7363517 0.0375663 0.6236087 -0.9721987 -0.08721706 -0.856311 0.8424445 0.0666694 -0.05886553 0.1811954 0.07405935 -0.8978716 -0.1374953 0.1380926 -0.2650455 -0.05020438 0.2448839 -0.4335659 0.6946911 0.2038462 0.5051597 -0.6323181 
  -0.6595968 -0.1492037 0.390089 -0.3058431 1.343997 -0.274124 -1.157973 -0.4141347 0.4023501 -0.5507828 0.08279988 -0.1605272 -0.07158746 -0.2517483 -0.2740952 -0.3619634 0.4314034 -0.1254874 0.5098606 0.1551195 0.1729345 -0.06853934 0.5157669 -0.4847838 0.114306 0.1059316 0.6268567 -0.8700064 0.2092726 0.6142796 -1.376664 1.118739 -0.08431685 -0.4806049 -0.5528466 0.09739871 -0.1905717 -0.04009606 -0.2329458 -0.0827657 0.3725587 0.3312053 0.1208573 -0.6291955 -0.09604216 0.4354089 0.1314859 0.1383848 -0.4690866 -0.2289767 -0.09250294 -0.05151223 0.1541679 -0.1869035 -0.2578398 -0.1750733 0.3586216 -0.5384771 -0.9349721 -0.06474625 0.4270587 -0.6383055 0.2245924 0.2688231 -0.6605929 0.5759722 -1.966862 0.307393 -0.0922275 0.3286512 0.2825435 0.7935613 -0.4550115 -0.2168012 -1.392914 -0.08636182 0.7661908 0.6341814 0.4030836 -0.4053195 0.1870923 -0.1335294 0.07584316 -0.03459011 0.06861081 0.007933982 0.4891937 0.4201238 0.6265185 0.7189596 0.1954796 -0.3701998 -0.3964483 0.3468673 0.09619464 -0.2809734 0.4826883 0.1100994 -0.5675229 -0.6342739 -0.07302011 -1.541016 0.0956335 0.06242806 0.1556652 -0.2301112 0.1758121 -0.02181396 0.8854661 -0.5044692 -0.2278166 -0.3561335 -0.4772856 0.3968133 -0.1803117 0.1426112 -0.02810811 -0.1997659 0.07876999 0.3939734 0.7259595 -1.097436 -0.6517327 0.5728999 0.3358464 -0.09284419 -0.3105025 -1.058131 0.08656888 0.518548 0.451207 0.08608855 0.1135359 0.2629892 -0.1966849 0.05153394 0.1685094 0.02373183 0.4318479 0.1638298 -0.1887864 0.3071344 -0.1299458 0.1958277 -0.1738976 -0.02431997 0.7839795 0.2394339 0.9703448 0.5468009 0.3715894 0.7056556 0.1224398 -0.9988725 0.2569289 -0.04400811 -0.1053575 -0.2953239 -0.2219236 -0.7664006 -0.195581 0.3983037 0.2226843 0.9480671 -0.626453 0.2286655 -0.3359739 -0.7924042 0.4823141 0.4260865 -0.4729655 0.1951096 0.7631239 -0.2569899 0.004876001 0.4050641 -0.4530586 -0.2260634 -0.4582149 0.08129436 -0.2943515 0.7334306 -0.4875951 0.1095953 0.6654658 0.6470662 -0.7603876 -0.9802114 0.05197402 -0.7371587 -1.129636 -0.224254 0.4959176 0.7578163 0.4649126 0.8973078 -0.2597325 -0.1565207 -0.7707124 0.1499486 -0.06594953 -0.5347201 -0.01337999 -0.1096148 0.5055887 0.7113907 -0.5549766 0.3441933 0.6913728 -0.08877047 -0.0269863 0.9807724 -0.488064 -0.3959466 -1.077342 -0.2409319 -0.8722341 0.3714856 0.02158746 -0.04467437 -0.797612 0.1775289 -0.2597184 -0.2441356 0.2626679 -0.1694227 -0.1523637 0.2533719 0.0538805 -0.05095562 -0.2734536 0.3777295 -0.2948793 -0.07860632 -0.7143523 -0.07193687 -0.1417778 -0.1886114 0.4313054 0.2374369 -1.182671 -0.265947 0.2069736 -0.394097 -0.2579805 0.09231564 0.03874893 0.2473127 -0.7723674 0.06643251 0.3669697 0.4080176 -1.007449 0.05336821 0.1173784 0.2661488 
  -0.3425529 0.07105885 -0.3990344 -0.1188423 -0.2996822 -0.1528991 0.5170361 -0.5461444 0.7867694 0.5587348 0.6499705 -0.2613543 0.01507806 -0.4469404 -0.3653433 0.305094 0.05921676 0.5262291 0.3725913 -0.33102 0.8773797 -0.4683085 -0.6471143 0.4215399 -1.716947 -1.226069 0.4578503 0.1429671 0.761242 -0.3316913 0.4793511 -0.3313814 0.5574449 -0.4235224 0.6346323 -2.381339 0.5333033 -0.803836 -0.3595338 -1.247977 0.2370907 -0.1458951 0.9668413 0.1577121 -0.5725708 0.1923569 -0.2045627 -1.05889 0.5217651 0.9948251 -0.2005212 0.0702666 0.03273869 0.1377995 -0.7650476 0.04273528 0.0744051 -0.2552459 0.3285716 -0.1428178 0.705047 0.0762076 0.7190304 -0.3628426 0.3997238 0.1190554 -0.04388626 -0.41506 -0.672536 -0.9770676 -0.7595422 0.4483965 0.01522963 0.2675229 0.6013716 -0.5002604 0.6427583 0.1617614 0.1266128 -0.09903058 0.1817685 0.3674897 -0.9715603 0.4749899 0.3277017 -0.2327835 1.00361 0.3326825 0.7565638 0.3254067 0.3666179 0.1844675 -0.0327955 0.8029987 -0.08274172 -0.5122764 -1.18324 0.08749803 -1.176169 0.08025001 0.3443154 -0.708779 -0.1532511 0.2853515 0.3290924 -0.2357016 -0.2395959 0.6903377 0.8003138 0.03991722 0.2034144 -0.02101149 -0.2407989 -0.4458163 0.7576248 0.2235783 0.2522425 0.06796645 0.1014666 0.3927635 0.5885667 0.6479816 0.4393012 -1.071656 0.1030419 0.527432 -1.552579 -1.228786 -0.04520231 0.5266982 0.01841481 0.1772458 0.8601799 0.2178328 -0.5201272 0.0359952 -0.6187847 -0.372117 -1.047696 -0.3098904 0.08825342 0.4130433 -0.3789797 0.628563 0.1431327 0.5229244 -0.2739137 -0.505586 0.5333821 0.1903629 -0.01057936 -0.3000422 0.5071625 0.356996 0.1654169 0.1978498 0.07438401 0.1905029 -0.5278911 -0.7833119 -1.119818 0.2411522 -0.7696385 0.4517443 -0.9661407 0.08587393 0.5607669 0.4961498 -0.353945 0.4562838 -0.3449217 -0.04666916 0.3239851 -0.4487348 0.2766073 0.382753 0.1158107 -0.2208157 0.5471527 -0.3329326 0.0861527 -0.1377061 -1.343011 0.4925626 -0.3358336 0.02713706 -0.3505308 -0.1039525 -1.678903 -1.090504 -0.9808559 0.01774467 0.472896 -0.5073352 0.785662 -0.3065161 -0.322587 -0.05853279 -0.1308911 0.05842933 -0.1597871 0.4728957 -0.3595622 0.2592793 -0.2285986 0.2217093 -0.6133076 -0.3691184 -0.08077642 0.6205447 -0.08506607 -0.1529209 0.3331096 0.393529 -0.7208543 -0.1325381 0.2705698 -0.2952985 0.09436478 0.4796351 0.5031114 0.08631097 -0.2472464 -0.5377191 -0.2654293 -0.2356472 0.353938 -0.1682387 -0.01705522 0.2001069 0.06146436 -0.2395134 0.07704187 0.1499976 -0.035096 -0.7060466 0.6043525 -0.1532294 0.3699317 0.04020494 -0.128176 -0.1498727 0.6410273 0.6265709 -0.5322546 0.3302047 0.9512473 -0.2181032 0.01689081 0.402268 0.2267064 -0.4321483 0.03163041 0.1257591 -0.1670738 -0.7803985 
  0.3948405 0.2474744 0.1884519 0.5507258 1.184675 0.1006809 1.339569 -0.7018527 0.6909927 0.1931727 0.7247159 -0.4083081 0.6825178 0.09594647 -1.135282 0.2147139 -0.3719904 0.1338132 -0.3660778 -0.3233843 0.4168798 -0.2310146 0.5679358 -1.075944 -0.3078566 0.3425725 -0.286195 -1.437589 -0.999975 0.521129 -0.2827825 -0.4997696 0.3290116 0.08928864 0.6929789 -0.7265319 -0.3493872 0.3621848 0.7567286 0.9487734 0.4093727 -1.207561 -1.620734 0.5054811 -0.7130975 -1.367429 -0.3445753 1.146499 0.2671012 0.1968091 0.148683 0.6760902 0.08840994 -0.3510406 0.7656304 -1.741993 -0.06677735 0.1038201 0.1781011 -0.3557278 0.6045634 0.4130034 0.6505654 0.84635 0.08055164 0.3315562 -0.04123327 -0.7205197 -1.116902 -0.6273637 -0.5433609 0.596535 -0.2533559 0.003095318 0.5595912 -0.1268839 -0.9734847 0.03179606 -0.1689167 -0.02634521 0.4482935 0.3692514 0.5958933 -0.01265397 -0.3321361 -0.5754584 0.1273835 0.1814737 -0.9177524 -0.3787707 0.577476 0.7431314 0.3075152 -1.654432 0.5473543 1.92054 -0.3904306 0.6641129 1.315506 2.628451 0.6214037 -0.1384334 0.1618027 -0.2070299 -0.5346142 0.106308 0.2151341 0.2857573 -2.434361 -0.6480281 0.4108541 -0.2253458 -0.3125592 0.9990842 -2.18755 0.892614 0.7329831 -0.08935291 -0.6419412 -0.4075164 -0.38819 0.07409222 -1.273498 -0.7791215 0.05557007 -0.1461395 -0.526919 0.1436925 0.2241816 -1.339226 -0.700269 -0.4343875 -1.196123 0.7475466 -1.369326 -0.08889876 -0.8466902 -1.476767 0.4554772 0.6893823 0.2604855 -0.234331 0.3551796 0.1359548 0.4290271 -0.1520513 -0.1325907 -1.118337 -1.50067 -0.072837 -0.7370427 -0.5189167 0.3608371 -1.070897 -1.305438 0.2951563 0.3814361 0.844484 -0.3511932 0.2251478 -1.000191 -0.6218661 -0.07844663 -0.2700967 0.1681789 -0.2569279 0.4631316 0.1884761 -0.2875361 -0.002675358 0.8646681 0.7765511 0.02524307 1.130897 -0.3866222 1.194287 0.230249 -0.5118698 -1.330459 0.2353587 1.294235 -0.1058084 0.9069421 1.36512 -0.5269288 -0.6575143 -0.5686826 -0.5243248 0.4836785 -0.419128 0.06957607 -0.7760367 -0.3074927 -0.5558759 -0.5984873 -0.003887019 -0.05241984 -0.9176143 -0.6464354 -0.4392827 -0.2548755 1.047568 0.07644684 -0.4482581 -0.08773112 1.027401 -0.7445355 -0.8585915 -0.6473748 0.6143494 -0.6943399 -0.623272 0.1213898 -1.136392 -0.2883404 0.8231592 -0.9813728 0.576332 0.4658717 -0.3888386 0.4985911 -0.3935755 -1.719608 -0.7328885 -0.2998504 0.5667539 -0.5635229 1.044502 0.3970561 -0.2419403 -0.0482958 -0.0841691 -0.6822106 0.1913922 1.120754 0.1310297 0.5855359 1.387599 -0.8872516 0.5815246 1.268241 0.6501346 1.461943 0.4824922 -1.245813 -0.6154014 0.4065361 0.8821877 -0.04664741 0.2243855 -0.3199166 0.2851119 -0.2513403 -0.06939631 1.206708 1.123495 
  -0.5045575 -1.007206 0.4050831 -0.5147547 -1.367105 -1.450868 -0.1761292 1.177034 0.0102917 1.03456 0.6259829 0.5363478 0.4129486 1.111773 0.3324016 1.217753 -1.726862 -1.321563 1.76849 -0.1413924 -1.489889 0.4651848 0.331693 1.179823 -0.1870783 0.7122244 0.690885 0.210696 -1.298491 -0.1332554 1.144937 -0.7424673 -0.4857702 -1.096356 -0.4973973 -0.0321583 0.4363913 -0.7024533 -0.1133945 0.57165 -0.3020773 -0.9894046 -0.5646976 0.8632791 -0.9828483 0.5167536 -0.0358374 0.1073196 -0.1414824 -0.4411707 1.587372 0.01515805 -0.2707096 -0.6731826 -1.495868 -0.2861006 0.3712796 -0.1284543 0.4288551 -0.2496466 -0.3544315 0.1430925 0.674531 -0.5664909 -2.271204 0.2438277 -0.7135574 -0.1126224 0.7724511 0.09716126 -0.1618897 -0.9055732 -0.5635771 -1.431164 -1.272555 0.2666108 0.8404021 -1.204325 -1.053123 -0.5307083 -0.3069498 -0.4126175 -0.6424211 0.3304253 0.3273216 -1.058218 -2.051963 -0.5159522 -0.3102779 -0.2890082 -0.20012 -0.361889 -0.7138808 -0.4907901 -0.4788165 -0.1386092 0.4813016 0.5866562 0.355654 0.1506519 -0.7145007 0.01563592 0.6371843 -1.097352 -0.4139057 -0.2577102 -0.7727239 0.7811666 -0.1123917 0.4453622 -0.3244956 0.7059516 -0.2457697 0.05858992 -1.119042 -0.6731854 -0.4650864 -0.8489846 0.1853063 -0.3057913 0.4661207 -0.8123029 0.08239051 0.2741919 -0.8549245 -0.508711 -0.3454899 -1.502739 -1.17434 -0.2065751 -1.917855 -0.8205501 0.3987265 -0.828433 -0.3782362 -0.1719684 -0.664323 0.1481222 0.9497471 0.1195526 0.3617932 0.1397109 0.06388587 1.09055 0.2101694 0.0611992 -2.292912 0.3769565 1.196268 -0.4499275 -1.071278 -0.2249752 0.1060313 -1.041408 0.2475894 0.2093925 0.7761734 -1.748367 -0.5868523 -0.3646813 -0.01278818 -0.09631326 -0.05698876 -0.2332141 -0.123635 -0.1871026 0.6044642 0.30181 -0.1768291 -0.3045806 0.9982438 -1.352548 -0.7567392 0.003656194 -0.4401563 0.1365701 -1.156096 -0.4941055 0.6420612 0.3071404 0.5840648 0.1668676 -0.4812478 -0.09266695 1.262694 -0.4860051 0.6976399 0.2889455 -1.165264 0.3356456 -0.3987191 -0.1784565 1.048479 0.7491929 0.2497641 0.7831369 -1.068551 -0.7242621 -0.7791015 0.5590838 0.3077789 -0.1177341 -0.1838515 0.2223796 0.03769246 -0.6616247 -0.2184078 -0.4798733 0.07316543 -0.8050218 0.3458631 -0.2537408 -0.3335552 0.5928354 0.5321326 1.4983 -0.3290101 1.338732 -0.9107441 0.305149 0.1487246 -0.2830061 -0.1403711 0.6877339 0.4242093 -0.9229446 0.3343336 0.07896792 0.7488881 -1.696582 -0.2454264 0.2971061 0.8880255 0.666492 0.04166279 -0.361407 -0.04579322 -0.2579195 0.1605244 -0.6232792 -0.01648824 0.9191225 -0.2777395 -0.3605652 -1.099851 0.1617116 -1.054779 -0.01249083 0.9877396 0.0190833 -0.008156656 1.225604 -0.2932917 -0.05535538 -0.4023934 2.575923 
  -0.4349579 -0.3805145 1.527565 -0.00729837 0.3686229 -0.09831877 -0.7938567 0.694042 0.4126247 -0.3353812 -0.8316234 1.476786 1.686932 0.5911062 -0.7852554 0.01178827 -0.866226 0.9483385 -0.7019953 -0.3844503 0.6869566 0.09840295 -0.2021459 -0.5849317 0.496636 0.6806067 -0.2327769 0.6048881 -0.2182449 -0.1443297 0.7783976 0.151732 -1.599708 -0.5794649 -1.126469 -0.2006548 -0.3160886 0.2643802 -0.05450189 -0.2883565 0.2719315 0.2575632 -0.01586873 -1.448029 0.6043681 -0.7175133 0.7891517 0.2506622 0.4013289 1.517744 0.3634742 0.2321867 -0.3357349 0.003185656 -0.1719566 -0.1877218 0.04025726 0.1377127 -0.2676047 0.406152 0.5436239 0.230824 0.09798706 -0.2994425 -0.822654 -0.2441446 -0.3637565 0.2946495 -0.5030373 0.06052653 -0.3629664 1.176085 0.4337806 -0.129643 -0.6307322 0.2314953 -0.4630732 -0.1392057 0.8281053 -0.005696472 0.5992922 0.7679076 0.5210537 -0.8586757 0.6710994 -0.7956737 0.416339 0.4058266 0.2458989 0.49495 -0.4491317 0.04912912 -0.7875379 -0.4297045 -0.3819398 -0.03717691 1.161702 0.04558695 -0.234743 -0.5042873 0.2346334 -0.3040217 -0.467548 -1.624839 -0.05507003 -1.483686 0.6267822 -0.8706785 0.3566308 1.246307 0.3159216 0.0685662 0.2304461 1.056148 1.146792 -1.096833 -0.4297355 -0.6256244 0.1363801 -0.1317418 0.718018 -1.414373 0.2871767 -0.173659 -0.2412047 -0.4466508 0.915428 -0.1652644 0.2539298 0.7898185 -0.3364935 0.09880565 -0.144627 0.2003835 0.5053223 0.474393 -1.330508 0.1541678 0.1579965 0.04150437 -0.6050985 0.717757 0.5424071 -0.4258332 -0.08076984 0.4446362 -0.9029731 0.8166409 -0.2133115 0.07239679 0.001131086 -0.2409957 -0.5315921 -0.05308661 0.5941287 -0.8607246 -0.005008292 -0.4541693 -0.05771406 0.6003378 -0.05484435 -0.7662186 0.07038594 -0.3471137 0.08280829 0.2475332 0.4643212 0.09090871 0.3797271 0.7170287 -0.7937733 0.04352982 -0.5408558 -0.2309303 1.500637 0.3038751 -0.1264203 0.4768831 -0.3095384 -0.3106341 -0.2316953 0.3063335 0.246978 -0.3936665 -1.343613 0.1777507 0.404522 0.6770812 -0.4820933 -0.02395615 0.6273888 -0.8477566 0.09904838 0.566219 0.4622836 0.5778811 0.4317511 0.2590343 -0.321866 0.6968034 0.4266173 0.1619601 0.08398512 0.552259 -0.003793247 0.3311844 0.2127919 -0.3631306 -0.1788572 0.1741572 -0.02158115 -0.2356492 0.08635136 -0.8869515 -0.5318432 0.349187 0.1534435 0.2469988 0.2669084 -0.06617454 0.518337 -0.1729179 -0.1901133 -0.006034982 0.5103499 0.7018758 -0.1271702 0.5439245 -1.524672 0.8468424 0.0466422 -0.3073756 -0.7596166 0.1885783 0.8499514 0.6285859 0.6276515 -0.2632267 -0.6667659 0.5209383 -0.6008492 -1.532467 -0.321372 0.04589709 -0.04775024 0.5420302 -0.1381691 -0.122808 -0.4600223 0.3148197 0.04584909 -1.567131 -0.720816 -0.1126305 -0.6753591 -0.9463074 
  0.1229006 0.2810169 0.5036623 -0.9636057 0.1576442 0.6929887 0.3055612 0.7494469 0.476174 0.1115672 -0.5072001 -0.8346342 1.046366 -0.3260112 -0.582478 -0.09648398 0.5795919 1.382436 -0.2719054 -0.1315182 -0.5160769 -0.8269506 0.1203311 0.4120685 0.1596944 0.7425929 -0.8431783 0.3083358 0.2000082 -0.1242106 -0.03815876 -0.3644572 0.2262353 0.3567407 -0.220504 0.04645607 -0.2788908 -0.2803022 0.1890911 0.2745833 0.1566804 0.3224429 -0.4349777 0.8171112 0.870955 0.2319319 -0.2084615 -1.291172 0.0594733 0.1539858 0.253447 0.1220625 -1.718832 -1.042105 0.2758337 -0.6630676 -0.4346229 -0.1097093 -1.172663 -0.3176219 0.5473314 0.6985405 0.9595438 0.4181314 -0.116724 -0.6362411 0.8440289 -0.3965852 0.6398824 0.2986224 -0.2989804 -0.3341711 -0.5766662 0.4443249 0.8818784 0.5284443 0.2087943 -0.8104082 -0.4414524 -0.6645199 -0.07453652 -0.716656 -0.04039426 -0.4815593 -0.5464005 -1.13722 -1.078033 0.3822826 0.1537375 0.4692179 0.3824467 0.1498514 -0.6352314 -0.06168335 -1.386022 -0.1269951 -0.4252447 0.2805507 -0.4276679 -0.4165831 -0.4386754 0.03510605 -0.2946297 -0.2318242 -0.8509755 0.3565314 -0.436707 -0.3854088 -0.009043586 0.6098044 0.242367 0.4107996 -0.3209355 -1.034385 0.1463892 -0.7537993 -0.4244338 0.2406251 -1.592939 -0.3593268 0.6082609 0.04122867 0.4745204 0.2247773 -0.7665979 -0.9478871 -1.284338 0.4374387 0.07636439 0.229175 0.5039485 -0.4111657 -0.5568117 0.8144647 0.6395836 0.7836245 0.4687949 -0.6605622 0.524039 -0.3344221 1.223349 0.7033053 0.3062196 -0.9799392 -0.3074004 -0.2702423 0.4258305 0.3468649 -0.3134113 1.149908 0.09396234 -0.07319099 -0.09409619 0.07409465 -0.3446343 -1.350112 -1.442082 -0.04851471 -0.1147224 -0.03826659 -1.0527 -1.447325 -0.4403882 0.05059063 0.7689773 -0.4363095 0.8590429 -0.3676201 -1.190183 0.5983842 -1.022854 -0.0840757 -0.1571597 0.4549177 0.5090126 0.01839274 0.1874898 0.973052 -0.2213314 -0.2792593 0.09627308 0.6104472 -0.1379462 0.888396 -1.085281 -0.2097435 0.8646258 -0.1807448 0.05062583 -0.1525772 0.4739421 -0.5345462 -0.5097244 -0.8477358 -1.645288 1.103415 0.385655 -0.6326847 1.064025 -0.06270851 0.4918124 0.3479123 -0.4830429 -0.2094176 -0.2586181 0.4028017 0.04051011 0.2852742 0.005768838 0.7591655 -0.6319835 -0.584911 0.6658965 -0.6901623 -0.4235656 -1.302413 0.888932 0.3061841 0.04505479 0.3950288 0.3848716 0.004978951 0.07920696 -0.252473 -0.1814641 0.4744744 0.196374 -0.8176833 -0.4900761 -0.2100627 -1.247724 -0.6677935 -0.3780252 -0.4494534 0.711364 0.6786384 0.1245232 0.4338673 0.4962603 0.6394777 0.2648901 -0.06099798 -0.3298178 0.1330955 0.6283077 -0.1897124 -0.1188359 0.2349836 0.7829145 -0.8941367 -0.9133385 0.4099234 -0.6258929 -0.26184 0.09055267 -0.2320739 
  0.2724613 0.1853626 1.093371 0.6486298 0.5564756 0.000846951 -0.3659618 -0.4373717 1.275517 0.7464921 -0.4162028 -0.62629 0.0118275 -0.2772944 -0.5954922 -0.5097896 -0.7812316 0.3059637 0.2600068 -0.06904099 0.5726855 0.4127405 -0.5367428 0.2883197 0.3219297 -1.050257 0.3869195 0.5448211 -0.7699422 -0.2004431 0.6175119 -0.3317577 0.2826968 1.165528 -0.6688232 -1.281833 0.2704973 -0.1529002 0.591859 0.5001734 0.09109996 0.1104708 1.297791 -0.4192855 0.04362842 -0.4438604 -0.6962894 -0.1190562 0.43257 -0.6081409 0.1534584 -1.414973 0.5306939 -0.5398871 0.7016014 0.3984061 -0.09005543 -0.5091179 -0.1853313 0.6716031 0.2095147 -0.2612702 -1.123355 0.3657605 0.8029227 0.05302563 0.008892904 0.2220277 -0.2998518 -0.5489613 -1.035185 0.5191803 -0.5320794 -0.0919577 0.1982899 -0.6600054 -1.001576 -0.1293416 0.6056583 -0.1847284 -0.36682 -0.2322231 -0.01797342 0.3130482 -0.249916 0.3589774 0.8444158 0.7385972 -0.1824256 0.07704894 -0.06754842 -0.4961442 -0.2155821 0.6419274 0.466049 0.721506 -0.5187035 0.9292317 0.5551733 0.04324292 -0.1142716 0.2974252 0.04372776 -0.2456362 0.5162085 0.369114 0.2922553 -0.1711339 -0.1040724 0.4664674 0.7523796 -0.2643496 -0.5845101 -0.3431063 -0.3499452 0.5621569 -0.3430118 -0.2758335 -0.7916857 0.4468651 0.3481719 0.625057 -0.5879817 -0.4078181 -0.01728739 0.1341961 0.1096731 0.8051216 0.07796711 0.6370617 -0.2232737 0.3269845 0.4680775 0.05594314 -0.1160204 -0.5892252 0.6176177 -0.7198633 -0.4665031 0.7843156 -0.9206676 -0.6607421 -0.498326 -1.245382 -0.5653629 0.7167776 -0.1979148 0.9423527 -0.06093676 -0.2111156 0.3301051 0.527909 -0.03663656 0.1748087 -0.2382786 1.058144 0.4285431 0.4051313 0.1187982 0.4906265 -0.191333 -0.1663037 0.1160163 -0.1059337 1.02036 -0.1243008 -0.4741653 0.3036997 -0.6774767 -0.6401418 -0.9973003 0.7563849 -0.2719896 -0.4497125 0.3817989 -0.387364 -0.2807993 -0.4644542 -0.01454284 -0.4654192 -0.5222344 -0.02630714 0.162279 0.510273 0.05316185 -0.1597643 0.02254564 -0.8758162 0.4655593 -0.465386 -0.2995745 -0.4923907 0.5066721 -0.6554846 0.2251608 -0.3837603 0.6213391 -1.652395 -0.1621996 0.2075607 0.2959908 -0.08876829 -0.8737233 -0.3600985 0.561946 -1.051987 -0.2076469 0.5439051 -0.2389902 0.3792335 -0.6814429 0.4901805 -0.6037204 -0.8793547 -0.1434283 0.2189907 0.7392511 -0.04631046 -0.232969 0.2692944 0.2897929 -1.007341 -1.150596 -0.1595403 0.645045 0.2143217 -0.5230438 -0.1578959 -0.2725795 -0.03822141 0.3088252 -0.8069227 0.4085881 0.6402814 0.7153557 -0.2697504 -0.2522165 1.065866 0.2606996 -0.4120495 -0.2095889 -0.5877044 0.6043585 0.3860488 -0.8877501 -0.4918519 -0.2705552 0.9575028 -0.1918713 -0.1129381 0.3934344 0.2405111 0.457024 0.8574311 0.7111986 -0.3455079 
  0.2087933 -0.6976517 -0.008614025 0.8173941 -0.6700246 -0.008737285 0.1182183 -0.03479872 -0.08282067 -0.3360216 0.1778808 -1.462875 -0.2049909 0.5270461 0.318403 -0.3234571 0.2299587 0.45782 0.386485 0.1433434 -0.420675 -1.140614 0.4411676 -1.477442 0.5620582 -2.141264 0.340285 -0.1147146 0.168198 -0.3399247 0.03913331 -0.08878458 1.44012 0.4616443 -1.299183 -1.525746 0.6771173 0.5902855 0.3555476 -0.3213952 -0.5612612 -0.8052891 1.672724 0.1774309 0.7966406 0.5976166 -0.3148624 0.2594763 -0.5909977 -1.651277 0.1833576 0.03382818 1.128707 -1.138271 -0.7340404 0.7516999 0.1436376 -0.7203001 0.3861413 1.382304 0.3091424 0.1425577 1.1081 0.8365666 0.3412401 -0.1883157 0.06048964 -1.697384 -0.1852206 -0.3360222 0.5516799 -0.003608833 0.6266573 0.6521245 0.2309885 -0.5826067 0.5822939 -0.3595762 -0.5967406 -0.4329056 0.7130361 0.5125649 -0.2344096 0.2476664 0.1125208 -0.3444904 0.1272836 0.09157117 0.4630653 0.8710447 -0.04057126 -0.1073918 -0.009057247 -0.3176281 -0.5285205 -0.8623545 -1.875634 0.2912518 0.1495471 0.5737994 -1.33346 0.01265104 -0.04995292 -0.3243361 0.0882798 0.1118791 -0.6410328 0.6591923 -0.5171993 0.2825323 0.01172905 0.6163943 0.5022282 -1.229869 -1.226632 -0.2294105 0.4178331 0.2468825 0.2207382 0.3792771 -1.156592 -0.5094295 0.03990803 -1.113863 0.403098 0.3605368 -0.7348518 0.1124061 -0.2243279 0.5639324 -0.03157364 0.08736154 0.02589592 0.9505242 -0.7858033 -0.3572281 0.7037629 -0.2685333 -0.4007968 0.5121066 1.041705 0.01563602 -0.6067553 0.3856814 -0.4915541 -0.06592377 0.5346813 -0.3607678 -0.1147827 0.5239542 0.4722419 0.7250376 0.3335056 0.9239454 -0.5720111 1.222539 -0.1314035 0.4173458 0.01198983 0.1047782 0.09493372 0.2163325 -0.2993593 -0.09497405 0.08121807 -1.278491 -1.074815 0.6275618 0.1878954 0.1350622 0.8074589 0.1905537 -0.5140346 -0.3105735 -1.340118 0.2428083 -0.16966 -0.4832207 0.4822774 0.2545943 -0.866397 0.4107493 -1.135194 0.30804 0.5829983 0.3334674 -0.04637028 0.7119351 0.4184857 0.243491 0.2495993 -0.003965198 -0.753198 -0.3866966 0.9365457 -0.2689301 0.7538179 -0.05585818 -0.3291364 0.09661161 -0.06234196 -0.3425348 -1.024353 0.7502505 0.6420707 0.3530504 0.9749289 -0.4022121 0.2894929 1.489096 0.3340471 -0.5091927 0.6618146 0.2019259 -0.06538396 -0.04837261 -0.4148946 0.9090093 0.1740602 0.1267198 -0.8683838 0.2330283 0.04032306 -0.5375432 -0.8220237 -1.678765 -1.451976 0.09784889 -0.1909632 -0.3259823 -1.017951 -0.4503393 -1.193111 0.4419332 -0.2615062 0.7225052 -0.2801004 0.4347812 1.010944 -0.4813394 -0.4197924 3.064804 -0.1124188 -0.4788789 0.04017973 0.2000636 0.5847481 -0.6902165 0.6652635 -1.196128 -0.2397955 0.680035 0.3891221 0.6121078 -0.5077465 0.2197486 
  -0.01889475 -0.1895551 0.4073785 -0.1189926 -0.50386 0.4778444 -0.006637789 -0.2204283 -0.9230261 0.08872535 0.07189952 -0.4728975 -0.5957723 0.2194878 1.450716 -0.3405626 -0.5624796 0.1795767 -0.1042863 0.08952351 -0.2325913 0.5768135 -0.4788518 -0.09103467 -0.7108341 0.5905007 0.9134014 -0.389102 -0.04678534 -0.172375 -0.2908503 0.4094282 -0.8434864 0.3920814 0.177692 -0.02294905 0.4151424 1.154235 -0.309655 0.4745192 0.4173489 0.0390585 0.5971271 -0.8381457 -0.03792926 0.5637325 0.122903 -0.02912059 0.2813536 0.4523786 -0.494527 0.1539892 1.093208 -0.3553882 0.379282 0.122374 0.3917779 0.3641229 0.1071134 -0.791863 -0.7219574 0.07279549 -1.633501 0.6500001 0.0004723295 0.3983596 -0.7988238 -0.1763506 -0.795069 0.0276806 -0.1732071 -0.5665085 -0.2856747 -1.20875 -1.606733 -0.1715143 -0.4223409 -0.8700917 -0.09323882 0.5419437 -0.7836686 -0.5619705 0.1928331 -0.01617888 0.7877087 -0.006121919 -0.4602443 0.826494 0.7129118 -0.3066496 -0.1823373 0.3351557 1.020331 0.2576976 1.048387 0.6342425 -0.3915746 -0.1773105 -0.1155258 -0.06477234 0.196968 -0.2459882 -0.3904242 -0.05961128 -0.5597255 -0.06137498 0.881066 0.9265333 0.7776384 0.5474848 0.8856531 0.3669481 -0.1122565 -0.325596 0.4815834 -0.6685112 -0.747384 -0.3678418 0.5438258 -0.6592739 -0.5075574 0.2886335 -1.300624 -1.048745 -0.2411644 -0.0706271 0.4107824 0.5129038 -0.3718851 -0.06838512 -0.9980403 -0.4719568 0.2454956 -0.09913979 -0.009828784 0.6653668 0.1515527 0.07206526 0.8252633 -0.5813236 0.1383877 -0.0409879 -0.0393183 0.5301177 0.6080763 0.1131284 -0.2427961 0.2759832 0.4936682 -0.1467868 0.1553088 -0.4913842 0.4829219 -0.6628996 -0.5691146 0.0161085 -0.1594459 0.3344783 -0.3261481 -0.4549792 -0.3700054 0.1812916 -0.7204223 -0.252018 0.2360471 0.2389532 -0.5290022 -0.8471761 0.9191174 -0.4700673 -0.1849668 -0.1946059 -0.1250928 -1.441249 -0.4329154 -0.6542692 -0.5417342 0.4158846 -0.3029837 0.5324483 -0.3673293 0.1502731 -1.76731 -0.4878 -0.2513741 0.3195693 0.5272555 -0.04972185 -1.064642 -0.3735108 0.3121463 0.244185 0.264555 0.3616104 0.1824918 -0.3984318 -0.2730369 0.4135125 -0.3984409 0.7924954 -0.1225551 -0.7685852 0.1383311 -0.547217 1.301949 -0.05558396 0.3338244 0.9175214 0.3173335 0.0483826 0.00312744 -0.1203017 -0.871513 -0.1614811 -0.1123861 0.03833302 0.2356421 0.6146507 0.06987283 -0.5239013 0.1475774 0.6385769 -0.07455432 -0.931066 0.3010526 0.0368648 0.2242823 0.7565473 -0.303435 -0.1172027 -0.2946913 0.415174 -0.1791941 -0.05679221 -0.426507 0.09058541 -0.8369228 0.9845418 -0.5834163 0.1256513 0.2884257 -0.3768837 0.5930691 0.9333928 -0.635067 0.1554366 -0.7040229 -0.08329754 -0.579106 0.4660554 -0.5741248 -0.5624354 0.3136375 -0.09117895 0.9831286 -0.6487507 
  -1.295943 -0.4814658 0.3033488 -0.3663081 0.6768716 0.4311653 0.08199171 -0.8849574 -0.3913317 -1.076795 0.9449236 0.8763039 0.06367243 -1.721564 0.2250535 -0.452435 0.05687998 0.2047751 -0.2199876 -0.6180816 0.2360042 -0.9164588 -0.8268355 1.036057 0.5873052 -0.616342 -0.9905656 0.918318 0.2712193 -0.02784202 0.7211763 0.1976651 0.7981235 0.4605863 -0.6735609 -0.9415249 -0.9842237 0.5678276 0.8041083 0.2667709 0.8249854 -1.265514 0.110979 -0.2802514 -1.207719 -0.8130195 0.04905744 -1.768494 -0.1945588 0.6342887 0.6268322 0.1611257 -0.3534429 -0.8004581 -0.7327204 0.1875875 -1.902404 -0.4496343 -0.733228 -1.303684 0.2761028 -0.1858626 0.499043 1.311905 -0.5380982 0.02792753 0.04948371 0.3475775 0.9112387 -0.2183971 0.3431669 -0.8534189 -0.1744109 0.01041871 -0.09220072 0.3619496 0.4038484 0.5780063 -0.4499905 0.8326731 -0.4491015 -0.7179304 0.7869104 0.8012325 -0.04877098 -0.1006475 -0.2351393 0.1237227 -0.1400383 -0.2720738 -0.3672057 0.1465774 -0.5629914 0.9537324 0.1912483 0.03568176 -0.1240215 -0.5809275 0.2706033 0.7062637 0.01291 -0.01693277 -0.9581848 -0.2344236 0.3774874 0.6569326 0.1957876 0.4208223 0.1097965 0.3025434 -0.213366 0.6326533 -0.04520878 1.346311 0.1476419 -0.0414065 -1.070484 -0.3784837 0.07122386 0.2375824 -0.1982833 -0.4146948 -0.8121096 -0.2939158 0.005679976 0.4222557 -0.1247631 -0.1156001 0.01300143 -0.1186603 -0.02341338 0.1380948 -0.9447414 0.210748 -0.2563405 0.6459528 -0.1604711 -0.1290576 0.4147737 0.560776 -0.4937185 -0.003612641 0.3548088 0.07452527 0.4237007 0.5557965 0.1578349 -0.3217558 -0.6507362 0.9766615 0.1672643 0.0001481966 -0.4594687 0.001376299 0.2227862 -0.1810736 0.3153232 -0.6923202 -0.3736477 0.5372501 0.5772377 -0.5315896 -0.4868268 -0.4269848 -0.6214949 0.3244059 0.1842906 0.1165139 1.045997 -0.208419 -0.6056374 -0.7671741 -0.560859 0.8514851 0.1405424 0.5701508 0.04701309 0.431013 -1.015354 -0.2866843 0.1635234 0.2673026 -0.1359957 -0.2748216 -0.4228726 0.02682891 0.06881753 -0.3338391 -0.06260089 -0.06174934 0.6979162 0.2060288 0.2265081 0.721103 -0.6870366 0.4855835 0.09517016 1.102271 0.5272872 0.08774144 -0.120589 0.6076742 -0.6111755 0.2852467 0.2696177 1.072081 -0.1653443 0.5813278 0.1097761 0.414681 -0.2656083 -0.7396646 0.1503643 0.02015368 -0.2387961 -0.9641886 0.6728801 0.3539147 0.2834136 0.390994 -0.632919 -0.3392979 0.2352025 -0.5811452 0.01025826 -0.4554363 -0.2175003 0.02982453 -0.9249108 -0.3642133 1.018065 0.2775244 -0.4356608 0.515119 -0.2699156 -0.788452 0.5490294 -0.3956164 0.6690233 0.2778549 -0.2656786 -0.1514789 -0.5143251 -0.01759409 0.6550165 -0.07680257 0.5223973 0.4538057 0.2662551 -0.2140126 -0.6231897 0.380017 0.7318233 -0.09429047 0.1315261 -0.2358819 
  0.02440404 -0.368435 0.471062 -0.02368917 -0.2083922 0.2974407 -1.051041 1.07655 -0.1946352 -0.4516536 0.2742346 -0.6632643 0.640438 0.09015782 0.09259664 -0.5940793 -0.2200391 -0.1148921 -0.243706 -0.6384177 0.6556718 0.5112556 0.542838 -0.6728629 0.4129876 -0.2587607 -0.86449 0.7333182 0.3768681 -0.9680909 -0.3893883 -0.2132736 0.3514426 0.1915486 -0.01646166 -0.279307 0.05636002 0.3052654 0.5432469 0.0897644 -0.1534066 0.1254558 0.396386 0.1392704 -0.331924 -0.1652049 -0.6796316 0.2191808 -0.2484777 0.3142425 0.1528045 0.338607 0.4410398 0.335294 -0.9531734 0.3004975 0.09069011 -0.1365624 -0.3294801 -0.7328783 -0.3027279 0.3434813 -0.2108468 0.1372616 0.16421 0.4608938 0.198453 -0.1124438 -0.7174172 0.6977957 -0.377108 -0.6340329 -0.6332521 0.06729455 0.4669262 0.1481809 -0.9969211 0.4301531 -0.3522145 0.1112705 -0.5206889 -0.483623 0.667293 -0.2596098 -0.1507571 -0.06101828 0.2249387 -0.1716118 -0.5165644 -0.3219375 0.4456895 -0.2068983 0.3255626 0.2084759 0.638348 0.2139264 -0.06425861 -0.4074766 0.3950351 0.6314705 0.01235587 0.4095733 -0.9603594 -0.8521422 0.5555052 -1.096218 0.04858345 -0.004690848 -0.1588811 0.4359652 0.9447566 0.2145801 0.03893446 0.08308823 0.4115793 -0.6603562 -0.6316183 0.379843 0.5273741 0.946876 0.00224518 0.5986034 -0.7446315 0.6768522 -0.8251935 -0.6158064 0.2214226 0.155853 0.3272355 0.5903878 0.436322 -0.1002524 0.1959293 -0.8230477 -0.06496097 1.003543 -0.09539905 -0.3128945 -0.2285271 -0.1108116 0.3263572 0.1478068 -0.3634691 0.4678032 -0.2327237 -1.76459 -0.1702051 -0.3174334 -0.3462327 -1.334436 0.2054362 0.3229118 0.5399519 -0.4051316 0.6969157 -0.004381307 0.3962814 -0.2512857 0.3780198 0.5420588 -0.1561964 0.4922438 0.1407865 0.3437709 -0.1019647 0.3847953 -0.7611037 0.251666 0.06867346 -0.3132494 -0.2619248 -0.4356525 0.1491148 -0.1989219 -0.1341137 0.2068101 0.2888658 1.330587 -0.2669099 0.1197322 -0.0957348 -0.1767824 -0.6656434 -0.9083412 -0.2510995 0.9215074 0.835051 0.4269345 0.1659886 0.8962799 -0.4776461 -0.6506104 -1.065456 -0.04906351 -0.08252744 0.2859105 -0.03452381 -1.141883 0.2353377 0.6116889 0.40353 -0.2799998 0.9909474 0.4697718 0.7711607 0.08163732 0.5229803 0.2363406 -0.4029139 0.1738115 -0.1210124 -0.04704228 -0.08812568 0.5610706 0.640537 -0.5092219 -0.6442785 -0.1575373 -0.3468634 0.264308 0.1822516 -0.6241068 -0.3429228 0.638999 0.422538 -1.067542 -0.04502746 0.003339741 -1.107124 -0.3108624 0.5657235 0.1490962 -0.444105 0.2826388 -0.03359138 -1.015973 -1.113833 -1.206576 0.233141 -0.7426454 0.3402956 -0.2259329 -0.1673234 -0.4730725 -0.196126 0.7073916 -0.07272082 0.08766289 -0.009684708 -0.1275314 -0.8826813 0.2544991 0.4627559 0.1314033 0.02136759 0.2649173 
  -0.3917205 -0.8410015 0.2330492 -0.02895632 1.259808 0.1970908 0.2957135 0.1082294 -0.5549935 0.4079116 0.02699292 -0.04906344 0.2216166 0.4906476 -0.3863838 -0.4149767 0.6398736 -0.0986997 -0.3906963 0.4231597 0.5052654 -0.03017554 -0.2787738 0.4953486 -0.07326888 -0.09709569 -1.991592 0.1332646 0.356954 0.1979604 -0.3746607 -1.161859 0.225348 0.8435613 -0.1756741 -0.1992496 -0.4489229 0.001278185 -0.04934187 0.2716311 0.1997803 -0.7905164 -0.3157915 0.3137294 -0.2209631 1.480896 -0.0374544 0.02046838 -0.3304134 -0.4092084 0.5510488 -0.20472 0.01517896 0.4581919 0.09243409 0.007328875 -2.115147 -0.1729895 0.7814232 -0.126288 0.4589792 0.1912732 0.04682537 0.8933207 0.003344272 0.1630255 -0.1323302 0.5350143 -0.02068067 -1.34085 0.2126818 0.02288333 -0.8518553 0.02097294 0.7929162 0.1246309 -0.3112796 -0.706891 -0.6208124 1.598681 -0.7206188 -0.3013272 0.07735445 0.4398571 1.184155 0.02755452 0.2568773 -0.2663861 -0.1348617 0.3678176 0.2731269 0.08350699 0.4930943 -0.873925 -1.130877 -0.931212 -0.364763 -0.02933921 0.07097053 -0.2948907 -0.3986269 0.1406458 -0.3102574 -0.1608635 -0.4624478 0.2288474 -0.1386456 0.1540404 -0.1500508 -0.7421721 0.3444991 -0.1411362 -0.07909611 -1.397962 -0.2818714 -0.8528259 -0.694281 -0.3276691 0.3831235 0.3678106 1.407637 0.2523052 0.5098954 -0.3500333 -0.6750935 0.3648933 0.4111681 0.4658477 1.359318 -0.05059838 0.7384032 0.2818001 -0.8806632 0.5584572 0.3108999 -0.7253089 -0.6823339 0.1593358 -0.8393819 0.6918309 -0.4135787 0.008167159 0.7308813 0.7924897 0.2537657 1.132753 0.2748581 -0.6598114 0.1347798 0.1088836 -0.1402955 0.9066644 -0.6712459 0.232403 1.032194 -0.1866473 0.07783448 -0.01139416 -1.178718 0.3370618 0.311848 -1.156693 -0.2590007 -0.6907909 0.715877 -0.2221 -0.2131458 0.9193465 -0.4469199 -0.6753577 -0.4418831 0.07213056 -0.01451332 0.1558178 0.27289 0.4111495 0.8430177 -0.1356661 -1.138682 0.1472563 0.6218479 -0.1962523 0.09533921 -0.2056905 -0.2019912 0.2623439 0.2598308 0.4475031 -0.3079043 0.9012541 -0.1166385 -0.07549968 -0.6251246 -0.04353058 -0.3107562 0.572746 0.8713815 -0.6055989 -0.1242709 0.1745307 -0.2376603 0.8810512 -0.2921624 0.3685614 -1.007438 -0.3974505 0.5900529 -0.1576288 -0.2969716 0.2661481 -0.827912 0.7653905 -0.4383355 -0.6749495 0.3838343 -0.7126938 -0.1347579 -0.2725051 0.3953232 0.03140704 0.4113783 -0.529423 0.4925305 -1.188463 -0.00915954 0.02432692 -0.007890051 0.3109578 0.3904677 -0.02570023 0.1315441 -0.1506199 0.0647454 -0.1589945 0.1779867 0.2347026 0.4321214 -1.194901 -0.6774949 0.1691703 0.04834969 -0.2103448 -0.2096194 -0.4122399 -0.1552349 0.7347948 0.07116225 0.9322004 -0.4474049 -1.287155 -0.6533432 -1.115595 -0.3503586 0.2088568 -0.5175241 0.04745616 
  0.3981986 0.5844327 -0.340296 -0.3039426 -0.8645187 -0.4846556 0.1079414 -0.2780478 -1.498532 -0.2457938 -0.3998431 -0.2865065 -0.6108608 0.2264297 -0.8893329 0.2263851 -0.3553323 0.1448307 -0.1850405 0.04037239 -0.5062126 -0.2409304 0.06872097 -0.2763955 0.25698 -0.06301416 -0.1023911 0.09958779 -0.2397478 0.02574233 -0.3442979 -0.1396418 0.5055489 -2.312718 0.495445 -0.2058731 -0.1144998 -0.2269938 -0.7733649 -0.7253851 -0.4211108 0.781357 0.7500032 -0.1424267 -0.5873856 -1.389725 -0.2337748 0.2465693 -0.6165699 0.8194609 0.3336913 -0.4554692 0.4188927 -0.6487674 -0.7586308 1.450954 0.5219901 0.1260134 -0.1136704 -0.7195147 -0.05860217 -0.01925734 -0.4967336 0.1730548 0.4494692 -0.5504636 0.121405 0.8919628 -0.2408172 0.3348024 0.8502927 0.2108185 1.66863 -0.6988172 -0.1760581 -0.6598824 1.080805 -0.1022318 0.01366173 -0.2653795 1.507329 -0.1837389 -0.2333168 -0.1010112 1.190709 0.4231773 -1.059042 -0.1610891 0.1679194 1.046198 -0.9512361 -0.6449873 -0.6494265 0.4123114 -2.569856 -0.6223254 -0.5665871 0.7089084 -1.473599 1.034955 -1.827702 0.5705097 0.9722168 1.411391 -0.4368978 0.4010235 0.1131733 0.08936889 1.391008 0.1570757 -0.241033 -1.185971 0.6315386 -0.07427857 0.9850259 0.06247435 -0.6632758 -1.392458 1.373954 0.7271557 0.4835018 0.7165141 -1.104361 0.1341286 0.5767643 -0.8441761 0.4073505 0.2778011 0.5024298 0.5533087 -0.8374351 0.1338909 0.1617513 -2.049501 -2.285901 -0.9516613 0.1419857 0.5438202 1.003245 -0.6566489 -1.048976 -0.3005778 0.1304661 -1.481206 0.7419781 -0.5176951 0.3483032 0.04612004 -0.4392775 -0.07365616 0.8213473 0.3785789 -0.07319179 -0.4021373 0.3147927 0.1738519 -0.09087721 -0.5511672 0.3175188 -0.2636539 -0.250849 -0.05505969 -0.2566124 0.7079322 -0.1008896 -0.05723785 0.4328104 -0.2621096 0.7991297 -1.074138 -0.974774 0.0852971 0.1014117 -0.04949434 1.320556 0.3097185 -0.2585766 -0.2675247 -0.6745174 -0.1965545 -0.4775203 0.3668471 0.09596027 0.8885911 1.459077 1.164987 0.4260562 0.1535106 -0.4728358 0.2091217 -0.4328431 0.6226941 -0.03303457 -1.327845 -0.2420698 -0.5181066 0.7088172 -0.3184601 0.3544637 0.08744326 -1.171257 -0.2683882 -1.365621 0.3459108 -0.4661076 -0.2998409 -0.7844853 -0.545384 -0.7598882 -0.391209 -0.04707112 -0.2776877 -1.42931 0.6609373 1.532184 0.1072752 1.245015 1.65123 -0.4079432 -1.125586 -0.5589274 0.2929282 0.4224488 1.172306 0.4830515 0.6086683 -0.5913331 0.06225887 1.265754 0.3199126 0.02085704 -0.1905528 0.02822741 -0.06278227 -1.115669 -0.4062757 1.119696 -0.5895777 0.8209367 0.6506254 0.4584643 0.3550357 0.1012232 0.447998 -0.4290952 -0.1228253 0.3535789 -0.01196372 -0.8872845 -0.2221468 -0.1740996 -0.01705152 1.245487 -1.48286 0.296436 -0.6890212 
  -0.5401472 -0.08593205 -0.2222445 0.4568148 0.0506346 -0.8237684 -0.5524058 0.3346715 0.2208961 -0.05840709 -0.1831059 1.132343 -0.2623304 0.05365295 -0.3349866 0.6445022 1.28908 0.1560816 0.02096335 0.1005844 0.4177231 0.03987889 -0.2564873 0.4192781 0.2954764 -0.2460852 0.3282135 -0.2031012 0.07228725 -0.2398769 0.2902808 0.05942115 -0.3992224 -0.1860431 0.04897439 -0.5186087 -0.4520326 -0.2734547 0.7180783 -0.2054912 0.690301 -0.1742258 -0.02810481 -0.008899001 -0.595996 -0.3428198 0.1039019 1.020831 -0.009668983 0.09129948 -0.0172268 -0.1238865 -0.5953975 -0.4115899 -0.1444478 0.3738275 -0.2443939 0.4525764 -0.5626155 0.853408 0.2591116 -0.2891206 0.5601642 0.02859288 0.02766745 -0.8541743 -0.4553976 -0.04571582 0.1981591 0.4454447 0.296535 -0.1671355 -0.0008083701 -0.2935259 0.2353173 -0.26115 -0.6390115 -0.4742461 -0.1482322 -0.7093693 0.2156913 -0.2060174 -0.1415398 -0.7526399 -0.2532935 -0.02608377 -0.310846 -0.6625471 -0.9160321 -0.1045568 -0.03312977 -0.3612367 0.2447886 0.0359687 0.1439106 -0.638624 0.7849188 0.2386903 0.4685195 -0.3887342 0.1675166 0.3598999 -1.66775 -0.5680608 -0.6715066 1.061853 -0.1643807 -1.654479 0.2567812 -0.1358025 -0.4808863 0.8237821 0.7030315 -0.2018951 0.08216367 1.467409 0.02856929 0.255399 0.475989 0.2238178 0.3680619 -0.9623051 -0.8698758 0.04229566 0.3116609 1.109368 -0.8740696 0.1134916 -0.06254847 -0.07347905 -0.6740023 -0.02971224 -0.08107361 0.1920488 -0.5530276 0.05607219 -0.184136 0.02733108 0.2704583 -0.4821831 0.8339805 0.3924757 -0.4273472 0.2578495 -1.323238 0.6384799 0.02978701 -0.5217443 -0.1581101 0.4228885 -0.5960954 -0.05089463 0.6424065 -0.8247635 0.2028197 -0.3941603 0.3586588 0.708953 0.2710321 -1.117956 0.742756 0.02366236 -0.362579 0.3570918 -0.1970056 -0.07469518 0.7027701 -0.4852201 0.1241796 0.9461302 -0.3974011 0.6977283 0.4570819 1.108198 0.004627177 -0.4775133 -0.9250753 0.8349619 -0.127225 0.812358 -0.2390834 -0.4672419 0.732961 -0.1363037 -0.9336194 1.272625 -0.3455402 -0.1327916 0.05788592 0.04076813 0.3594503 -0.4528991 0.5308189 -0.8061075 -1.577292 0.08999541 1.567541 1.201485 0.2927123 -0.8058477 -0.5346937 -0.4040515 0.3928509 0.857719 0.3990745 -1.188182 0.7554539 -0.2979696 -0.6616362 1.989171 -0.2499351 0.7016857 0.5118738 -1.097885 0.336827 0.1505324 -0.2461132 0.1074105 0.1985483 0.0878507 0.01546202 0.1978118 -0.6043813 -0.272514 -2.326837 -0.9838621 0.1367038 -0.3627543 0.2460062 -0.8008498 0.2830211 0.5356253 0.9600785 -0.279983 0.4106303 0.4711272 0.5370199 -0.1650258 -0.6154609 -0.3612699 -1.204556 -0.2423399 0.3950997 -0.1163514 -0.6508521 -1.504956 -0.3654889 -0.6825658 -1.603662 0.4818908 -0.07903455 -0.2299886 -0.8818496 -0.1437453 0.5860856 -0.4785779 
  -0.3304557 -1.647453 0.367712 -1.017575 0.3463375 0.05736212 0.05775115 0.2275658 0.7007958 1.755348 -1.219936 -0.2583012 0.1281045 0.0606107 0.4341601 -0.07355135 -0.8170629 -1.232485 2.017949 0.03791608 0.8272033 0.7289167 -0.5011801 0.3366092 -0.888994 1.31554 0.09940063 0.3058163 -0.02079382 -0.265777 0.7735297 -0.1731275 0.9075707 -0.2932648 0.6245724 -0.6706448 -0.1242221 0.1309893 0.1217297 -0.1172853 0.02771958 -0.2422437 -1.212359 0.5999624 -1.141115 0.1240246 -0.7490482 -0.08694883 0.6883064 -0.8592499 -1.500788 0.7313724 -0.7656085 0.1068332 -1.271721 -1.950033 0.4028768 -3.245565 -0.6076986 0.06059143 -0.4076419 0.2283313 0.1918972 -0.2955746 0.03958471 0.3686634 -1.229144 -0.2782964 -0.7886786 0.1296238 0.2324263 -0.6581027 -1.556436 -0.8257982 0.6655617 0.6765553 -0.01878555 0.1245269 0.02463589 0.4535907 0.280638 0.1429708 0.0378629 -0.0385702 -0.2194382 -1.24054 -0.1060423 0.9677176 -1.073868 -1.269918 -0.1508111 -0.4734473 -1.034249 0.1941631 -0.5474359 0.2007903 0.461237 -0.2073114 0.6068971 1.451356 -0.3516765 -0.7097889 -0.3379964 -0.8319242 0.6041539 1.041193 0.1825055 0.5099301 -0.2782937 -0.5531111 0.1229679 0.2058411 0.0711467 -0.3488083 -0.6979415 -0.8116668 0.2564481 0.1483813 -0.2918911 -0.1161172 1.195674 -0.02247799 -0.8459831 -1.363245 0.1352539 -0.09690237 0.2174858 -0.09395943 -0.06578611 0.1082092 -0.2518499 0.9915661 -0.9991623 0.1245708 0.009285733 -0.5425097 0.03797807 -0.4860923 0.4521851 -0.2584009 -0.4098004 1.015644 -0.249606 0.4836815 0.1837013 0.6448169 -0.2573777 -0.1843519 0.003093419 0.05180374 0.5381613 -0.1596076 0.1287024 -0.4951698 0.4068062 0.539296 -1.21347 -1.250491 1.272222 -0.7803298 -1.361637 1.030193 0.08642174 -0.1998095 1.271049 -0.3393849 -0.4959078 -0.2424419 0.1295913 -1.256794 0.5956265 0.598845 1.111222 0.5496885 -0.09555262 0.76285 -0.3819193 -0.1441235 1.02078 0.06865408 0.06264295 -0.8364317 1.84477 -0.1615752 0.4011886 -0.6020775 0.3325632 0.2729105 -0.5101224 -0.3052261 0.08866123 0.2771064 -0.3351014 1.131511 -0.2062261 1.641001 0.3902726 0.7821639 -0.1050442 0.8093811 -0.4820232 0.7396151 -0.4636101 0.4814615 0.6916512 -0.2859556 -0.1140633 -0.02021761 -0.2143534 -0.1579265 -0.2328555 -0.3055133 -0.06766363 -0.4167402 -1.145807 0.866765 0.4723082 0.5559269 -0.02730514 -0.3522494 -0.6125706 -0.6029187 0.06331403 0.5142783 -1.083919 -0.3815747 0.8494266 -0.9487427 -0.8463579 -1.096548 -0.4755605 0.3760379 0.04926573 0.4859113 -0.03806941 -0.8095275 -0.09001386 -0.3272655 0.1008298 -0.8115016 -0.8477505 0.5319905 0.03469682 0.2196319 0.5803961 0.3110599 -0.4752042 -0.1840961 -0.004297235 -0.8717285 0.3732422 0.4037431 1.434789 0.0727256 -0.7844055 -0.5850579 
  -1.085689 -0.01477511 -0.1412526 -0.08706131 -0.9913693 -0.20056 0.770346 -0.2274965 -0.04109902 -0.23098 0.5241589 0.1518921 -0.02952899 0.947345 0.5694215 0.4705218 0.6718053 1.253072 0.1972263 -1.173779 0.9095663 -0.189996 -0.4044753 0.1775465 -0.2236572 0.3659701 0.6949791 0.3241308 0.1686839 -0.7254711 -0.7855027 0.2599875 -0.01914599 0.6200002 0.3255039 -0.2898493 -0.1962764 0.2486611 0.1914522 0.3247828 0.1179734 0.09127866 -0.5811374 0.08335884 0.5534551 0.2830779 0.9352444 0.2080381 -0.4307509 0.7972884 -0.172133 -0.09035924 -1.107204 0.008035053 -0.3237405 -0.3462985 -0.5026959 0.3044222 -0.6007296 0.4164559 -0.5289312 0.6415557 0.04197657 -0.181097 -0.409288 0.56226 -0.01413864 -0.4373952 0.5807244 0.580385 0.4352603 0.01471979 0.2330204 -0.1453116 0.3397633 0.9255558 0.2254979 -1.281337 0.1594696 0.0532933 0.5706456 -0.6338131 0.1342441 -0.3263763 0.1433581 -1.341559 0.1940534 0.2860786 0.0763747 0.183364 -0.1499254 0.03975347 -0.003895694 -1.478017 -0.1672213 0.3936596 0.2624562 -0.07895704 0.2225137 -0.1868331 0.302056 -0.4931364 -0.3705098 -0.2864397 0.27892 0.4862434 0.07696581 -0.003062714 -0.9814165 -0.3717393 -1.02578 0.6369207 0.5859182 -0.5931573 -0.5553622 0.2116601 0.3729388 1.020522 0.6665188 -0.01617173 0.502032 0.1547574 0.5166225 -0.6482278 0.1303181 -0.4096259 -0.0418546 -0.8110976 0.1344098 -0.4222636 0.1424206 0.4912958 -0.18622 0.2395836 0.1287365 -0.8983004 -0.1380911 0.2049714 -0.6390802 -0.5138339 1.150192 0.5026239 -0.06776928 1.030031 0.168735 0.2352576 -0.5742665 0.3025243 -0.444602 0.1037795 -0.5244089 0.03726557 0.5835757 -0.645528 -0.05607824 -0.1481085 -0.2822235 -0.07974624 0.3434037 -0.5309424 0.2897539 0.5393808 0.1972701 -0.2479143 0.5096219 0.6614799 0.1251531 0.4778028 0.7825778 -0.2301402 -0.2369165 0.548149 -0.4902673 -0.7708013 -0.3757505 0.08511969 0.362805 0.288049 1.154445 -0.358292 -0.1435424 -0.3770256 0.5246549 -0.9203666 0.2935291 0.2018657 1.016407 1.035157 -0.6395032 0.3637146 0.4059713 -1.018338 -0.5132127 0.7942318 0.719771 0.1736937 -0.3519009 -0.164714 0.2744675 -1.05486 -1.01166 -0.3576041 0.2605233 0.504145 0.2956823 0.7473687 -0.1321125 0.3839802 0.6796148 0.6530859 0.3365238 0.1610069 0.7941543 -1.154739 0.2634405 0.4122409 -0.05432183 -1.169743 0.9699578 -0.2582213 -0.1230322 0.04892997 0.3230354 -0.7675481 -0.1320844 -0.3930605 0.7531887 -1.570882 -0.1384379 0.2735416 0.5385547 0.4247026 0.7203973 -0.4471526 -0.0176417 -0.1785277 -0.1344181 0.03708669 -1.102058 0.3544399 0.009112215 0.6662454 -0.07302933 -0.2898876 -0.4790341 0.03921817 0.4534379 0.0694767 0.9050761 0.2701225 -0.1117793 0.4949021 -0.1366815 -0.1433993 -0.4154552 -0.3115818 
  -0.4203089 0.3728217 -0.3287755 0.1356673 -0.001073619 -0.1299431 -0.312066 0.2627236 -0.2457949 0.4419922 0.6198024 0.5763919 1.070578 0.4642954 0.4956876 -0.03255035 0.9861383 -0.1996707 -0.1512164 -0.541296 -0.2852789 -0.1563016 -0.0221576 -0.11553 0.9559098 -0.1667598 0.3629501 -1.162039 0.2487391 0.8186722 -0.1722215 -0.9193013 -0.2499278 -0.7273531 0.3799257 -0.5425877 0.3657421 0.04607496 0.196768 -0.1205445 0.5094267 0.04944721 0.007530242 1.887909 -0.1411785 -0.1426649 -0.6138112 0.4963576 1.159349 -0.251608 -0.284506 -0.2569533 0.6880292 -0.2730289 -0.4377819 -1.473985 0.6559704 -0.6262669 -0.7083261 -0.01514883 -0.08790372 -0.4823801 0.1794747 -0.5991819 0.4515548 -0.3710315 -0.961926 -0.2454849 -0.4041384 0.07294407 -2.056838 -0.3232843 0.7228384 -0.4098722 0.7325153 0.4714939 -0.2095021 -0.2420212 -0.1381648 1.023446 -2.23635 0.1236541 -0.3685355 -0.139609 -0.4954299 0.3380267 -0.06081342 0.6061251 0.7415333 -0.763304 0.006529595 0.5559466 -0.1968992 0.673378 -0.2929685 -0.07007298 0.4461214 -0.7538874 0.5781135 0.5098181 -0.2441915 -0.5654892 0.233689 -1.806881 -0.2975949 -0.1959894 -0.3006571 0.3988793 -0.6005822 -1.078163 0.2126865 0.1063934 0.1943491 -0.1386352 -0.2070222 -0.2614403 -0.1353253 -1.127073 0.4866862 -0.01835311 -0.1410171 -0.1974031 -0.141495 -1.059602 0.05678587 -0.2553961 1.29061 0.550769 -0.1816305 0.4002173 1.106107 0.7717621 -0.02221053 0.1742609 0.6235215 0.1738893 -0.6641706 0.2617551 0.3508792 -0.6131555 0.1735922 0.3572553 0.5155133 0.0691926 0.4265838 0.5779347 0.09894499 -0.2540534 -0.4135679 0.3373201 -0.9227834 0.596648 0.2109293 -0.06919403 0.2108525 -0.6236541 -0.1789006 0.1141401 -0.360572 0.6117617 -0.1815847 -0.9952989 -0.4118697 -0.2681004 1.124084 -0.2981438 -0.5236754 -0.6794523 -0.3590471 0.231023 -0.1757585 0.2520918 0.3104781 -0.06979664 -0.1842392 0.7433124 0.03324531 0.05914292 0.08326108 0.00767559 0.2929625 0.1193854 0.2620441 0.2891193 -0.6478589 -0.9252248 0.02502245 0.8564412 0.617111 0.4220461 0.2277912 -0.6788091 -0.638707 -0.8054395 -0.04999521 0.754319 -0.1263441 0.6778499 -0.2683465 -0.2208108 0.9256717 0.3915818 -0.6841388 -0.5347378 0.2281643 -0.183431 -0.009479563 0.072612 0.464347 0.4840017 -1.075497 -0.3563333 0.5406466 -0.8135709 -0.07316072 -0.2940028 0.5794865 -0.1150144 0.07873543 -0.1286032 0.3807603 0.3648403 -0.1555168 -0.437056 -0.1419258 -0.3121885 -0.1014448 -0.3996481 0.3126939 0.6253083 -0.260057 -0.01042954 0.06822528 0.5426608 -0.2802724 1.508732 0.3192765 0.1414841 0.1365778 -0.5701663 0.8297666 0.6056128 -0.35691 -0.0530008 0.1002657 -1.179514 0.424029 -0.5641959 -0.1175075 -0.5878848 -0.04539414 0.02042296 -0.407839 0.5750378 0.3531996 0.05585914 
  0.7394082 -0.4310569 -1.101771 0.4340228 1.397122 0.1308908 0.4370318 0.9317053 -0.4316907 0.4394141 -0.7707399 -1.530286 0.1135411 -0.2495649 -0.2067142 0.541086 -0.02856646 0.4579121 -0.670825 -0.236785 0.0251614 0.03127689 0.7118242 0.5950962 0.1268258 -0.6735061 -0.7320415 -1.447703 -0.1830021 0.920803 -1.073965 -0.4090174 -0.1575973 0.3518421 -0.3988569 0.1078075 0.08333983 -1.253557 0.5936329 -0.3096046 -1.138872 -0.6966435 -0.09915095 0.1835617 -0.3477735 0.1085161 0.2179333 -1.412311 -0.8370463 -1.292725 0.1468723 -0.02662705 1.435664 0.7949287 0.09656975 -0.1142308 0.3502651 -0.4856513 -0.299094 0.7244828 -1.258798 0.729316 0.3661433 0.06455944 -0.4672557 -0.1732169 -0.0383079 0.2956705 -0.6532326 -0.4472108 -0.3017487 -0.5189068 0.1453553 0.3002985 -0.2977381 0.3697004 0.1433867 -0.8815569 0.6267529 0.4749505 0.1834527 0.6728616 0.3258633 -1.280788 -0.02889516 1.567883 -0.09094431 -0.2046463 -0.4250262 -0.2287611 1.117598 0.4596291 0.1657706 -0.758777 -0.4879429 0.504055 -0.6415164 0.1318889 -0.5112688 0.7248269 0.05901872 -0.1987907 0.7056004 0.1383607 0.3942256 0.5064906 -0.3085032 -0.1392546 -0.889825 -1.266553 -0.08657978 -0.2485844 0.2128309 0.3522476 0.0840366 -0.87255 -0.3980808 -0.2294266 0.01827742 0.5297909 0.02277773 -0.1106108 0.02169411 0.1603973 0.01155723 -0.271539 -0.2144849 0.3015301 0.4675153 -0.1679937 -0.09985813 -0.6429765 -0.7804288 -0.7390964 -0.3805115 0.3951436 -0.08353793 -0.1073517 -0.08262836 0.6168528 -0.1687963 0.5376271 -0.4128506 0.1147333 -0.01002754 0.4752695 0.0113988 -1.076615 1.378911 0.6365128 -0.2799997 0.05934174 0.3021982 -0.5054522 0.06662818 -0.8971658 -0.4707849 -0.7371522 0.1628539 0.132728 -0.4110946 0.1583869 0.241215 0.1869424 -0.4384638 -0.1466812 -0.4228419 -0.1664654 -0.179808 0.2814098 0.1134184 0.04737873 -0.5104929 1.158852 -0.1261892 1.118739 0.3958957 0.03313909 -0.4576756 -0.6566946 0.5135159 -0.7337067 0.1657874 0.1143232 0.0008556237 0.03559842 0.3466066 0.08290654 -0.2374939 0.0575382 -0.1778769 0.1672626 -0.1787325 -0.1153063 0.2866961 -0.01671452 0.2900398 -0.5468211 0.6178186 -0.3622249 -0.5746611 0.2157939 0.2297646 0.5468426 0.2906909 0.47574 0.7518675 0.2331767 -0.3717485 1.15087 -0.05611755 0.3345994 0.3810791 0.8113278 -0.454867 -1.667914 0.4093228 0.1714434 0.5538251 -0.5002022 -0.07346364 -0.6152378 0.4174151 0.2771086 1.200638 -0.6370843 -0.1232011 -0.2208515 -1.110915 0.9648672 -1.913594 -0.8786085 -1.033826 0.01316275 -0.02872072 -0.5320201 -0.4008395 0.5105796 0.06467196 0.1674966 0.7193223 0.5754374 0.09393681 0.3498935 -0.3691691 -0.07595862 0.0868248 -0.06643408 1.005529 -0.5306304 -0.4293541 0.08963491 0.05995279 0.5909781 -0.9367541 0.6365864 
  0.887202 1.944348 -2.015755 0.5990975 0.2350864 0.5419824 0.618507 -0.1898385 -0.2080593 0.5179279 0.3665805 -0.3201334 0.2731459 -0.1732518 0.335665 0.08956134 0.5214669 -0.2349254 0.4894032 -1.466118 -1.149925 -0.7573472 1.404843 -1.155481 -0.1623741 -0.2275857 -0.0511075 0.3780461 0.1092314 -0.1140302 -0.7663187 -0.994949 -1.306022 -0.4208735 0.04238552 0.7018807 0.9046956 -1.13006 -0.7218311 -0.5175271 0.9800732 1.149333 -0.4425366 -0.1478602 1.044862 -0.1854254 -0.2622353 -0.2281691 -0.3665182 0.5639525 1.043048 0.2969888 0.3607826 0.8263578 -1.452333 0.1958793 0.107407 -1.243932 0.05638966 -0.411932 0.06455825 -0.7305438 1.141394 0.04188338 0.3105001 0.4048693 0.7657732 -0.1400114 -0.2364081 -1.045397 0.0994698 -0.49685 1.119335 -0.6036497 0.2416286 -0.4082051 0.9960155 0.01210076 -1.839693 -0.5500755 -0.07628317 0.09591616 -0.6983932 -0.2807797 0.5696295 0.3273667 -0.9404078 1.027589 0.973919 1.796905 0.3999423 -0.8381416 -0.3569994 -1.294446 -0.1837972 0.1106254 -0.4645345 -0.04181587 0.8634915 0.7865175 -0.08052313 -0.8780057 -0.9397079 0.5174735 -0.7650249 0.08148849 -0.7734162 -0.1901544 -1.040477 -0.9456291 0.6753988 1.476791 0.6519287 0.373001 0.5979754 0.2001559 -1.465331 -0.5355359 0.8289186 0.8351205 -0.9086649 0.007044924 -1.205924 1.37847 -0.01058284 0.1834764 -0.8547327 0.6371598 -1.720721 0.4073344 -0.294183 0.4569687 0.05553835 0.2383565 0.4437539 -1.676612 0.3554639 -0.1099423 1.15826 -1.050166 1.000733 -0.2295554 0.07345668 0.5662931 0.1614289 0.2753732 0.7932847 -0.6320783 0.2652153 0.5817083 -0.2075375 0.1041754 1.157829 0.3866638 0.4555845 0.1767982 0.009651273 -0.7149388 -0.6627786 -0.2810377 -0.8606923 0.08609953 0.4078468 1.04667 0.06179085 -0.4813263 -0.2245431 0.1228424 -0.938096 0.2080282 -0.6108741 -0.156032 0.7086499 1.769033 -0.1145341 -0.4466094 -0.5024863 -0.1499438 -0.06051415 0.1993315 -0.3892708 0.4379482 0.5432484 -1.172034 0.554475 0.3294526 -0.7517347 0.2306178 0.6892801 -0.7896352 -0.607701 -0.2178099 -0.5117334 0.5546389 -1.311425 0.4535106 -0.6005383 -0.3415515 -1.411069 0.8046005 -0.1292245 -0.3058 -0.8208247 -0.6179838 -0.06620428 -0.8704214 -1.108291 -0.06700988 0.07562996 -0.8071648 0.4212869 -1.442497 0.6094537 0.3894081 0.1203516 0.1508038 0.3369455 0.6517329 -0.546012 -0.5483425 0.4881284 -0.8476384 0.1978043 -0.6935857 1.134612 -1.398397 -0.2221865 -0.6417734 0.5109732 -0.230276 0.281644 0.4848659 0.3680312 -1.22224 0.4841428 0.2898599 -0.443679 -0.3574615 0.7630239 0.3499887 0.5596889 -1.153832 -0.6070189 0.44982 0.09346824 -0.8022265 0.6860511 0.4992481 0.4570979 0.3419827 0.3669993 0.6386067 0.1616606 -2.031847 0.1957638 1.098729 
  0.06746438 0.8117202 -0.2209861 0.3971715 -0.5539258 -1.273008 1.079807 -0.8554639 0.6477719 -0.3184889 0.07505552 -0.4329277 0.5078723 -0.8925205 -1.872918 -0.5149477 0.3032702 -0.6781604 0.7217163 -0.3810413 -0.335481 -1.562852 0.7243972 -0.5595385 -0.2071569 -0.8446887 0.4274747 0.4290401 -0.09469778 0.2347653 -1.38004 -0.1195046 0.8030959 -0.5109789 -1.362183 0.1827666 0.7340458 -0.6572542 0.6785665 -0.7101617 0.02169402 -0.2736519 0.9941614 -0.3585929 0.6546251 -0.3709446 0.1012202 -0.1801516 -0.4971684 0.4283955 0.6668181 0.4091893 0.2233279 -0.9425203 -1.175442 1.13174 -0.0302435 -0.4418387 0.8712137 -0.0554891 0.3155932 0.8352543 -0.4234864 -0.2021204 0.6506706 0.499118 0.815059 0.7094657 0.4826503 -0.2684622 0.5755404 0.3994079 1.303603 -0.6282946 1.174157 -0.7898847 0.4711204 -0.01576972 -0.5474786 -0.2734709 1.128854 0.2737021 0.1079277 -0.05041762 0.045662 0.009166646 -1.061623 0.6092296 0.5790024 1.883473 -0.5015848 -0.4335783 0.3549393 0.7387222 -0.5155879 -0.1227473 -0.3475423 -0.5914355 0.04213335 0.4477854 -0.9915578 0.4507798 -0.155757 0.8139879 -0.1358433 -1.575535 -0.2304473 -0.9867393 -0.6434354 0.4118148 -0.4915075 -0.3339798 0.4737738 0.3530599 -0.2002401 -0.8466594 -0.2038924 0.03516418 0.2097408 -0.4498301 0.121875 0.7353975 -0.9960896 -0.2075503 0.3742701 -0.5483266 0.02018589 0.0563768 0.4109035 -0.06639586 -0.1705256 -1.266172 -0.1931087 -0.3692048 -0.9823052 -0.726972 0.3801158 0.08951751 1.244931 -0.3253731 1.083988 -0.1717245 -0.1083502 -0.5416625 0.9814745 -0.09678929 0.6122314 -0.0932207 -0.1516069 0.4313053 0.2025542 0.3712743 0.1453308 0.5799543 -0.1460431 0.7989381 -0.2519945 -0.5766506 -0.7841363 -1.195273 0.4344769 0.05394199 0.6268522 1.119083 0.4400455 -0.2448618 0.3773107 0.6157736 -0.1154323 0.1751849 -0.1790502 0.5666824 0.9342073 1.345335 0.7826542 -0.02927943 -0.6708356 0.1732419 0.1593415 0.1405106 0.07043972 0.9544936 -0.7103941 0.2316362 1.391489 1.268156 -1.031149 -0.6012599 0.4954863 0.9802159 -0.8122217 1.051258 -0.4474211 -0.1239561 0.3082525 -0.884941 -0.4848074 -0.9308757 -1.075137 0.1797242 0.3183101 0.3781047 -0.9967154 -0.7296016 -0.6688812 0.9782266 0.8095959 0.5083308 -0.674193 -0.2266764 0.177662 -0.3504829 -0.03215138 -0.1061767 0.9923837 0.7479162 -1.011935 0.9277394 0.01895662 -0.9810537 -0.06733426 0.1420311 -0.5791823 0.05066999 -1.659253 -1.545659 -0.571651 0.002929875 0.2459622 0.3297407 0.5638186 -1.986911 0.1256201 0.3712409 0.3204243 -0.2907541 -0.7738167 0.3429438 -0.1141629 0.341304 1.227927 0.597281 -0.3002181 -0.3979425 -0.6449704 0.04788606 -0.1121753 -0.04258524 1.291593 -0.1210449 0.7267582 0.09615564 0.6236324 -0.6998331 1.451291 0.8910446 
  -0.6999956 0.6796879 -0.08709633 0.2530221 0.8022884 -1.090857 -0.5609682 -0.2746055 1.505973 -1.696849 0.4331003 -0.1587816 0.5703813 0.2693131 -0.5830321 0.1935335 -0.2871507 -0.1759129 0.01652705 -1.135131 0.4248044 0.9767776 -1.275175 0.5335459 0.475354 1.109511 0.02046022 0.9197407 0.2515002 0.6717697 0.3757921 0.02231619 0.5790674 -0.5514642 -0.1851236 -0.7754766 0.99194 0.431512 -1.577141 0.6339014 -0.9336522 0.09332936 -1.293703 -0.5354113 -0.7763857 -0.863289 1.017863 -0.4153666 0.9151137 0.4010701 0.5746698 0.4768122 -0.4140449 0.3108232 0.283725 1.029744 0.4187078 -0.4608497 0.5800077 0.6989147 -0.2854495 -0.4300871 -0.8609036 1.514597 0.01681277 0.3999029 0.2507649 1.585028 -0.8284992 -0.2545393 -1.03119 0.9045561 -0.9503117 1.630412 -0.7784933 0.7688077 -0.6703545 0.1866431 -0.4546281 -1.075951 0.6927384 -0.2682244 -0.268735 0.7202547 0.3743313 -0.4065789 -0.1209866 0.2138171 -0.7809894 1.186626 -0.4648184 -0.1018659 -0.8684357 -0.6933643 -1.325282 -0.4442043 -0.5463028 0.5963551 0.6421872 -0.3259984 -0.7009524 -0.2795405 0.05042956 1.156545 0.8755527 1.024461 0.9666452 0.2941785 0.26997 -0.2938825 0.4073654 0.2648026 -0.3667012 -0.5777507 -0.0510561 0.2934337 0.639931 -1.203346 -0.9331844 -0.6024219 -0.001653908 0.3969894 -0.5353932 0.294533 0.2169108 0.5012209 -0.02969131 0.06900899 0.9688846 0.9125277 -1.317325 -0.9051111 -0.1124726 0.1102536 -0.2711022 -1.33899 -0.3627331 -1.523518 0.7077401 0.6598463 0.5939473 0.2872992 -1.359051 -0.02977731 0.8637611 -0.3182269 0.7835873 -0.6005118 -1.149302 -0.4263426 -0.1496115 0.3142516 -0.8791536 -0.4295767 -0.5363898 0.7870194 0.00922534 -0.3119632 0.3210635 0.1737149 0.8819672 -1.937313 0.2563034 0.2498626 -1.34877 -0.215204 0.6735057 0.6501663 -0.02631342 -0.04654524 -1.67346 -1.097603 -0.2861636 -0.02453095 0.4228092 0.6546009 -0.164048 -0.1697716 -1.149387 0.4218146 0.5275497 -0.2173612 -0.8965838 1.513667 0.7669097 -0.3465127 -0.003834586 0.2238185 0.05945055 -0.7512286 1.22777 0.06075523 -0.6960433 -0.9864966 -0.6265405 -0.07910468 0.2406363 0.1601156 -0.2244154 0.4468927 0.2249606 -0.07319631 -0.5182962 0.2494877 1.34864 -0.03557689 0.1620234 -1.047403 -0.1057202 -0.239523 1.348475 -0.6397821 -0.2771017 -0.6788811 0.1999599 0.647052 0.3268948 0.2360192 -0.151769 0.5064436 -0.3631102 -0.8986924 0.6206628 0.5139919 -1.133125 -0.1804906 -0.5517777 0.3548788 1.075155 -0.431164 0.4198342 -3.002957 0.2953346 -0.9907057 0.4197577 -1.838071 -0.6158508 0.0588991 0.4950348 0.5509272 -0.2969693 0.8519543 1.29269 0.1942816 0.4568661 -0.40435 0.8907694 -1.098218 0.488364 -0.1638608 0.2484542 -0.1917467 0.4625927 0.6718724 0.2655957 0.2537909 
  0.348624 1.089667 0.04678581 0.6495023 -1.167702 -0.114741 -1.321851 -0.6080572 0.2455565 -0.2154734 0.1687151 0.2136577 0.303509 1.162298 0.1438531 -1.59324 0.3492509 0.1079551 0.3930821 -0.2324583 0.1191521 0.3685514 -0.6300424 -0.8403569 -0.6809744 0.1568422 -1.320234 -0.1841045 0.09101147 -0.05989122 0.1569043 0.5281351 0.05570271 -0.7459438 0.7432723 0.09231933 0.2934097 -0.09752434 -0.2395917 0.4405846 0.2916709 0.2515399 0.1978704 0.5115879 -1.164213 0.3740149 -0.2657794 0.6524653 -0.1709228 0.3072695 -0.01492928 1.500944 -0.7263954 -0.8639789 -0.3656621 0.08966445 -0.4607833 0.1889212 0.5536197 0.2090245 -0.460801 -0.5302218 -0.7423574 -0.674225 -0.06082533 0.3291797 0.3167345 -0.09492814 -0.6115931 -0.07090507 -1.037722 0.2398695 0.01282127 -0.5463869 -0.1412182 -0.9940829 0.4068185 -1.19843 0.6314526 0.2614053 0.2896108 0.4405844 -0.5735729 1.957669 0.1060077 -0.3296818 -0.09286551 0.3590989 0.5898485 0.2260737 -0.5762962 -0.7036254 0.7755262 0.1099985 0.4465195 0.3202605 -0.03810795 -0.4113367 -0.1546577 -0.01917532 -0.6475233 -0.3971042 0.5507095 0.1347845 -0.4408129 -0.2973943 0.3428182 -0.215629 -0.2322789 0.1977907 -1.235432 -0.03097425 -0.484823 0.333271 0.2239172 0.3820447 0.3495693 0.3305841 -0.5629297 -0.5428979 0.6114904 0.2777007 -0.09694436 -0.4350386 -0.1338682 -0.396039 0.20026 0.3257358 -0.009623864 -0.08228534 -0.1481273 -0.1780879 0.5717447 -0.7661847 -0.3753988 -0.4394029 0.3209735 0.250056 0.5567777 0.03523971 0.1926705 0.6683085 -0.6318193 -0.8514099 0.3571848 -0.198721 0.1661956 -0.4483564 0.6832292 -0.5935477 0.2306426 0.008856159 0.2605048 -0.3500155 0.2503628 0.4517621 -0.4552402 1.072293 0.2060024 0.06629287 0.5161259 -0.1211562 0.4108102 0.5350175 0.6714169 -0.496765 -0.2398076 -0.3936568 -0.6404884 -0.4647385 0.8664525 -0.2750548 0.380401 -0.7486745 -0.1670739 0.6316857 -0.341267 0.421077 -0.0771914 1.187785 -0.4089551 0.9086714 0.1929571 -0.2536708 0.2877643 0.5314455 -1.348152 -1.105801 0.5939916 0.4090408 0.2495978 -0.0377888 -0.4481537 -0.1944568 -1.289285 -0.1822411 0.5161127 -0.1220483 -1.230518 -0.4389605 0.7647464 0.05247219 0.3086327 0.2467748 -1.175128 1.154715 -0.04116894 0.09074573 0.4968429 -0.8589168 -0.4239501 0.8012615 0.3426185 -0.263869 0.05841945 -0.09006885 -1.73657 -0.3845908 0.5350314 0.1889675 0.2694435 0.4322762 -0.0742386 -1.162195 -0.05747839 -0.7352794 -0.5311807 0.3783795 0.7875105 -0.5814543 0.868615 0.4094588 -0.314638 -0.2786205 -0.0007786675 -0.7233306 -0.526723 -0.7086151 0.7781469 0.2468466 -0.2830357 -0.001615055 -0.03760418 -0.1350784 -0.4261824 0.4996736 -0.4454198 -0.7010362 -0.03585712 -0.0750405 0.3276077 -1.357881 0.359868 -0.4328135 -0.05851348 -0.7806718 
  0.9634198 0.1355036 0.4123008 -0.8627201 0.1439278 0.2474909 -0.09675033 -0.08325378 0.1453414 0.834393 0.7794936 1.077806 0.9280342 -0.2792472 -1.017244 0.1917208 0.542272 0.8486698 -0.2896648 -0.06837798 -0.5310004 -1.186858 0.1202064 0.2380989 0.8174329 0.5278114 -0.1764697 0.2907652 0.4358361 0.4133567 -0.7951213 -0.9039416 0.9523196 -1.68172 -1.071034 0.2553699 0.06596444 0.06622786 -0.6755568 -0.08947554 0.4239199 0.1438362 -1.396197 0.4107716 -0.3707705 -0.02635336 0.2510783 -0.530879 -0.2096327 1.125417 -0.2065519 -0.3813512 0.3710134 0.3864273 -0.06113247 0.1284221 0.1009912 0.5661136 0.2237582 0.4767717 0.003983628 0.8224044 0.6498971 -0.4583427 0.1692773 -0.1335908 0.03254099 0.008078317 0.2864272 0.6997474 -0.8527535 0.315991 -0.3075941 -0.6714311 0.5600806 0.4261043 0.2269069 -0.1358952 0.1760593 -0.6416582 0.4612807 0.8697182 -0.08650772 0.1804388 0.6330798 0.4252919 0.5702663 -0.3522103 0.3124748 -1.841516 0.02227569 -0.3411516 1.127643 -0.3245653 -0.1027617 0.4340725 0.1151113 -1.340422 0.5292064 0.2970593 0.7947407 -0.1455775 -0.7463611 0.1656731 0.5256693 -0.3826602 -0.5340952 -0.3901995 -0.2240075 0.1022711 0.9932446 -0.01255642 -0.244886 -1.260093 0.1639115 -0.04833855 0.5197234 -0.01150107 -0.5299533 0.4299167 0.1400373 -1.056017 -0.4784161 -1.212604 -0.3265431 0.003997261 0.01939065 -0.3346359 0.2343353 0.5033686 0.5034634 -0.5135193 0.7377819 0.2985607 -0.02849025 -0.4643631 0.002444956 0.5638524 0.4046868 -0.05845868 0.2018133 -0.5010765 0.4200225 -0.3415657 0.3837194 0.03399213 -0.51431 0.6391388 0.2877035 0.51739 -1.0651 -0.1397757 -0.06540808 -1.215814 0.1701831 -0.3832789 0.7154076 -0.5608143 0.5759139 0.1742903 -0.4729711 1.449007 0.2460976 0.2986259 0.297007 0.5665844 -0.396944 -0.09360982 0.9077505 -0.437685 0.6876402 -0.3406107 0.3593404 0.1303678 0.2235947 0.8351507 -0.09010097 0.2847103 0.354271 -0.1157949 -0.09942556 -1.243938 0.4252194 0.9937505 -0.1497772 -0.2460947 -0.5527844 -0.9184671 0.430129 0.6383761 0.008430883 -0.9355856 -0.4318723 0.8350596 -0.1361801 0.5085459 -1.478513 0.1387889 -0.07658892 0.9312812 -0.6518735 0.6876189 2.089774 0.084378 -0.3481254 -0.2938665 -1.726951 -0.3059084 -0.1684918 0.07435418 -0.3377522 -0.3492311 0.1663115 0.09733545 -1.034759 0.4954245 0.1880315 0.3517745 -0.04276602 -0.2993341 -0.5841952 0.2276212 -0.9389945 0.2491759 0.06030791 1.01738 -0.01539377 0.1725762 0.118698 -0.3213433 -0.3447172 0.321122 -0.3122688 0.3499123 0.9632811 0.06741768 -0.3111181 0.7698842 -0.5507315 0.6889216 0.2472982 -0.3974768 -0.7770979 -0.4379448 0.10996 0.1745432 -0.8526002 0.9217302 0.3270777 0.452696 0.3291784 -0.269506 -1.16355 0.1244108 -0.5211105 -0.3080379 
  0.3271019 -0.642176 0.1029394 -0.0516174 -0.009409684 -0.8906381 0.09931397 -0.5045593 0.4549789 0.7337326 -0.9674186 0.2398884 -0.3569463 -0.08801454 0.5243094 -0.8046629 -1.082152 0.3050689 0.3706931 -0.1726219 -0.9418051 1.000777 0.3631476 0.3160379 -1.447955 -0.07220873 -0.03860233 -0.4886798 0.4641246 -0.140851 0.4921235 0.2727633 -0.417659 -2.069144 -0.6456596 0.6258991 -0.526426 -0.1595213 -0.6218917 0.6663818 -0.9074426 -0.05919224 -0.313738 0.1090705 0.4208151 -0.08482507 0.1713146 -0.6187837 0.09256294 0.211138 0.555337 -1.118809 -0.1841524 0.1832383 -0.2461359 -0.1925696 -0.0678876 0.2287332 0.4307577 -0.6984519 -0.2350037 -0.1061671 -0.1041575 0.2766283 -0.05765824 1.013889 -0.857175 0.3680779 -0.03395359 0.09201193 -0.306617 0.3191748 -1.045784 0.1841692 -0.5688893 0.3341025 0.5263923 -0.08797058 -0.215473 -0.4283242 0.9594113 -0.1601783 0.9663109 -0.0649304 0.2635188 -0.9392211 -1.480551 0.4321985 -0.8808419 -0.1292564 -1.102566 -1.144989 0.03003512 0.1967909 0.5700363 0.3203544 0.1660633 0.1485455 -0.3318447 -0.2190662 -1.000495 -0.1711163 0.6028093 -1.620996 -0.1139569 0.3443082 -0.2594875 0.2125222 0.01010999 -0.1121334 0.7481672 -0.03949589 0.3181716 -0.7252855 0.7271274 -0.7253862 0.1514481 -0.1102593 -0.3054641 0.1383285 0.2539418 -1.130504 -0.002406346 -0.2178418 -0.06105996 0.05148979 -0.2713833 -1.082744 -0.050829 -0.3489782 -0.3612311 -0.3814397 0.2825022 -0.1140563 0.4964472 0.4042606 -0.540773 0.4594911 0.1760872 0.6818686 0.5526217 -0.486525 -0.3042173 -1.223146 -0.1395157 -0.1350284 -0.5888796 -0.07387955 0.7754178 -0.6081835 -0.8829221 0.0823915 -0.6387617 -0.7588978 -0.4686461 0.4931105 0.09287691 -1.680134 -0.1205638 -0.8865791 -0.4828642 0.6327301 -0.4665934 -0.05664105 -0.6895513 0.8606516 -0.3647459 0.02545372 -0.3960796 -0.387748 0.2786501 -0.162745 0.1040365 0.275355 -0.400292 -0.2027246 -0.2703215 -0.5351248 0.5780402 -0.9251395 -0.6649483 -0.5212415 -0.5005712 0.126148 0.3046045 -0.7264405 0.02446819 -0.2856704 -0.1381547 -0.143273 0.4894793 -0.6184506 0.6194236 -0.1057182 0.5366764 1.296706 -0.6796132 -0.4621617 -0.5300727 0.02105279 -0.2772611 0.1369154 1.117765 -0.4062226 0.1193788 -0.9931453 -0.2884495 -0.1366499 -0.7374507 0.2427263 0.8876764 0.5787209 -0.5987639 -0.2570812 1.096132 0.5574933 -1.055912 0.1679025 -0.392865 -0.2398351 0.05713912 -0.5288174 -0.529219 -1.310049 0.2206308 0.3875367 -0.8423456 0.3102468 0.2896126 -1.120125 -0.975728 -0.4540903 -0.9083576 -0.044546 0.7917137 0.0366316 -0.7322744 -0.4283132 -0.06478056 -0.3389131 -1.225283 -0.3357184 0.9814898 0.2486251 -1.528312 0.6423256 -0.4722937 -0.4650435 -1.135761 0.6414802 0.1530218 0.218011 0.1994893 -0.07877216 -0.3461416 0.8063797 
  -0.7966273 -0.1694998 0.3226691 -0.8553944 0.9578659 0.02177058 -0.4957173 -0.09063575 0.1731628 -0.04384747 -0.00849848 -1.19351 0.1972324 -0.1173731 -0.2464392 0.05361703 0.1660442 -0.08694814 -0.3245024 -0.6245452 0.7323843 -0.6519148 -0.1991601 -1.015648 -0.9834894 -1.258415 0.5386295 -0.4465715 0.1855383 0.5576472 -0.905377 0.5739288 0.2062875 0.4140372 -1.043318 -1.137165 0.1502949 -0.7508165 0.4032568 -0.3551299 0.9031285 -1.229899 0.7113648 0.09372924 0.6449855 -0.05473871 0.1000991 -0.3969352 0.5464712 -0.009396744 0.1285909 -0.3230349 0.3163075 -0.3117124 -1.194181 0.6887749 0.5128408 -1.157928 -0.2095556 0.5938046 -0.2665183 -0.9127798 0.2809506 0.006798952 0.4746065 -0.2427865 -0.07121546 0.2148843 -0.002968283 -0.7371693 -0.1961592 0.5844377 -0.5339463 -0.1206659 -0.2282639 -0.3354111 0.1875173 -0.1367546 -0.1605522 0.1320857 0.3713419 0.3617864 0.2558922 -1.182669 0.3644937 0.1731601 0.2228508 0.1100349 0.2895224 0.3879621 0.3942131 0.4765402 0.7441102 0.1600271 -0.8031706 0.2443832 -0.3805742 -0.9627053 -1.116437 -0.357588 0.4362445 -0.7572592 0.2850184 -0.1020378 -0.567306 -0.1624739 0.6024445 0.4688589 0.7198402 0.4017031 -0.1830445 0.2089827 0.4422003 -0.8993223 0.04515144 0.44013 0.08662265 0.2759065 -1.01024 0.8295659 0.4148476 0.4137773 -0.3041265 0.4727962 0.4475639 -0.3678499 0.275821 0.1619161 0.4748631 -0.02476984 0.2526408 0.257405 0.7964086 0.5201396 -0.4840204 -0.4869347 0.3409267 -0.0155734 -0.4139729 0.2164182 -0.3550783 -0.1033565 -0.2574319 0.4796322 -0.5166507 0.1058163 -0.08702274 -0.06933541 0.05675426 0.07710681 -0.1650271 0.4519659 0.3632549 0.6987125 -0.2235086 -0.7760093 -0.4133401 0.745802 0.2678662 0.4600826 -1.064042 0.3379244 -0.004217188 0.4314556 -1.094007 0.0291736 -0.8204381 -0.4420629 -0.3525818 0.2014769 0.2699252 -0.7523971 -0.6308751 0.5926819 -1.192262 -0.294056 1.463656 0.4416213 -0.6817531 -0.2553705 -0.2937273 0.5333165 -0.4482888 -0.8412338 -0.09038806 2.150167 -0.03425669 -0.1360595 0.6061789 0.2973051 -2.501473 0.4257102 -1.116921 -0.3152887 -2.326894 -1.207931 0.1720008 0.8785957 0.272313 1.214936 -0.1997305 0.6939223 -0.6198379 0.2562378 0.4435777 0.3478515 0.183309 -1.194702 -0.2047028 -0.820077 -0.8265625 0.04100462 0.9516789 -0.110339 1.109675 -0.07923095 0.4592971 0.0921166 -0.5846584 1.09792 -0.1633238 -0.7348137 0.2110905 -0.4721217 0.5347196 0.2092849 0.02340724 0.04720649 -0.404313 0.2195722 -0.4221601 -0.1782884 0.6023551 -0.5033689 -0.2684005 -0.6263089 -0.2767839 0.3130226 0.4390984 0.302214 0.4312045 -0.2611526 0.2744284 -0.5168411 0.1006029 0.4431375 -0.469543 0.3050553 0.02299865 -0.2180927 -0.4535174 0.1249883 0.6260202 0.01634663 -0.2424664 -0.1873642 
  0.0705108 0.02768563 0.2778134 -0.5664111 -0.2422944 1.318835 0.276667 -0.3498489 -1.490855 0.1200296 0.4823474 0.01910453 0.180961 -0.3273681 0.9434524 0.4791012 -0.4822611 -0.4693676 0.4619173 -0.4334188 0.1937767 -0.4220853 -0.2654574 -0.1118091 -0.7353054 0.3473684 -0.1992228 1.847257 0.6374052 0.3206667 0.07025764 0.07072233 -0.2919741 1.165539 -0.5918612 0.4043247 0.1041666 0.7167435 -1.097235 -0.2885492 0.7624478 -0.4375542 -0.1109559 0.1439982 -0.3065413 -0.2229454 1.060779 -0.3029546 -0.345726 0.7615978 -0.4562115 0.2868498 0.74149 -0.3936253 0.3663569 0.2793954 -0.4995856 -0.2650183 -0.214818 0.3228189 -1.207599 -0.860766 -0.2451881 -0.2172613 -0.8445219 0.6447158 -0.0531291 -0.1419196 -0.5517807 0.3103099 -0.392053 0.3975562 0.9766991 -0.1341862 -1.217649 -0.2582095 -0.5052721 1.278239 0.3355629 -0.4053249 -0.5403979 -0.2823019 -0.3399043 0.05140746 0.4848825 0.06988275 0.4346987 0.1423292 0.03354179 -0.04381084 0.1352959 -0.5128245 -0.07664781 -0.7200457 0.2630137 -0.3014456 -0.08892856 -0.1695773 -1.017807 -0.5724483 0.356194 0.4372895 -0.451074 0.9408996 -0.1655194 0.3642471 0.1817594 0.7298188 0.9220554 0.8455343 0.1252628 -0.4059614 0.296459 0.1643878 0.3791024 -0.6255641 0.1193949 0.73562 0.06147866 -0.2039563 -0.1495894 -0.5220134 -0.1502341 -0.1066044 -0.06963769 0.5380473 -0.9928466 0.2426601 0.4142787 -0.4928215 -0.7528551 -0.03199359 0.6243014 -0.1291292 0.0262056 -0.09106722 -0.4116648 -0.02415529 0.1081078 1.371773 -0.95709 1.069142 -0.3608078 0.4646594 -0.4136024 0.9519024 -0.06669554 -0.3585719 0.4958729 0.1269017 0.955114 0.2595146 0.2499379 -0.1222227 -0.0891858 1.083717 0.2841489 -0.2273935 0.171749 -0.5816709 1.421014 -0.3551818 -0.4703878 0.5071138 -0.5223881 -0.2206743 -0.1874613 1.136025 -0.2246446 0.2132052 0.1364979 0.504848 0.1309579 0.08213218 -0.3089755 -0.3827235 0.44539 -0.2881359 0.01798669 0.04074446 -0.2060946 -1.739401 0.2225574 -2.655506 0.4917875 -0.3134981 0.1564209 -0.3824566 -1.139072 -0.3633442 0.9550902 -0.1515072 -0.3683645 -0.2331954 0.1951748 0.4471064 0.2644928 0.2593068 0.007520081 -0.006756617 0.4077661 -0.3446091 -0.1470431 -0.2355379 -0.01072668 -0.5728914 -0.01171957 -0.508438 0.7756341 -0.5212852 -0.1131094 -0.3963207 -1.165546 -0.1713814 -0.9204793 -0.1938766 -0.07095563 0.432945 -0.4064489 -0.04528617 0.02773798 -0.4294912 -0.4557197 -0.1790468 0.5702127 0.3606855 1.152834 0.2594611 -0.2749141 -0.4678272 -0.2069248 1.138138 0.0558158 0.13973 0.2886036 -0.6772415 0.1377741 -0.3724285 -0.05522449 0.7946838 -0.7401649 -0.5448691 0.1563914 0.3696182 0.6127955 0.2554598 0.09324685 1.219179 0.1996556 -0.2963484 -0.05642856 -1.085226 0.5549573 -0.9910381 -0.7271303 -0.1135775 
  -0.5047756 -0.5143167 0.3559315 0.4499102 0.02924841 -1.337779 -0.3633359 -1.213183 0.2838041 0.2143756 -0.2072018 -0.08208556 0.4419377 -0.1896657 -0.307326 0.6058647 0.1057612 0.8685067 0.3243132 0.02441484 -0.510141 0.2709671 -0.7197787 0.9454867 -0.294511 0.4448405 0.6144087 -0.01597426 -0.2767825 -0.07727541 0.1842397 0.1479683 0.00526944 -0.09965901 -0.04751819 -0.03070233 0.5598674 1.546489 -0.500317 0.03020006 -0.1143992 -0.2225448 -0.270924 -0.2090294 -0.1875414 -0.6571715 0.03773442 0.3897298 0.2343319 0.08299705 1.655887 0.2151977 0.08305802 0.4698129 -0.07931645 0.02439464 1.145197 -0.5973299 -0.6241202 0.3903779 -0.5044073 -0.1666032 0.7095158 0.1724223 -1.500958 0.4405306 -0.266836 0.4382991 0.1850115 -0.336573 -0.08189821 0.3275461 -0.2706358 -0.1136784 -1.006403 0.06523674 0.8598423 -0.1549336 -0.204095 -0.7450439 -0.07926733 0.2369962 -0.9964556 0.4837997 -0.3336918 -0.2247344 -1.673994 -0.2557748 -0.191628 -0.294976 -0.122257 0.06323755 -0.9566832 -0.3121921 -0.3815406 1.212982 0.6396028 0.3839335 -0.01739607 0.4151963 0.2299538 -0.456948 0.225527 -0.333097 -0.5575114 -0.09854823 0.03659535 0.129862 -0.1207791 -0.7059262 -0.5104373 -0.2638473 0.5689614 0.3216974 0.6807345 0.4062781 0.7479173 -0.3308679 0.4764642 -0.3248145 0.243027 0.8572102 0.0344736 -0.4388666 -0.9628749 0.4615879 -0.2084148 0.6119109 -0.2353986 -0.2287738 -0.7003029 1.006757 -0.7250353 -0.006717968 0.4764425 -0.04575431 0.4661233 0.1447259 0.5553609 0.4643101 -0.8867531 -0.9742866 -0.4451225 0.06893385 0.1956892 -0.4690939 -0.6173576 0.0007590948 -1.076228 -0.1357598 -1.15027 0.4252051 -0.8643434 0.08415626 -0.6716389 -0.04917349 -0.7621696 0.1438878 -0.533561 1.086164 0.02808016 -0.1204707 0.8489633 -0.06822337 0.3295974 -0.2498896 -0.3566644 0.08204035 -0.3353478 -0.1323448 -1.091886 0.2582732 -0.3701909 -0.3899805 -0.1229334 -0.3951527 -0.1488074 -0.1344191 0.1939951 0.4024566 0.4026302 -0.045256 0.3701373 0.1808791 -0.7799138 0.1636207 -0.101983 -0.007208014 0.1531491 -0.5399168 0.444151 0.3738171 -0.06564894 -0.8029752 0.009209208 -0.04357708 0.1961135 -0.1072942 0.3579575 0.1230618 0.02385355 -0.9999476 0.1899623 -0.6009691 0.060761 0.714691 0.0206781 0.2103764 0.4305713 -0.7949474 -1.218975 -0.1592088 -0.7518922 -0.7096184 -0.1085172 -1.110742 0.2354417 -0.9818966 -0.4705248 0.375179 0.2976029 -0.1840078 0.3392131 -0.546867 0.6679404 -0.04075254 0.2617252 -0.6409428 -0.3761185 -0.47206 0.7148761 0.137662 0.3182651 -0.9262123 -0.1450164 -0.01215493 -0.4749388 0.5306129 -0.2168152 0.5951999 -0.1081954 -0.005006862 1.061563 0.09185816 -0.1658771 -0.4774328 0.4505754 0.1739942 -0.1688115 1.010785 0.8113725 0.170681 -0.06239306 0.49725 0.1568349 -1.041831 
  0.6598714 -0.08785386 -0.01319478 -0.1798431 -0.6108766 0.03331665 -0.02372566 -0.2232627 -0.06780525 -0.5012715 0.6287929 -0.1318545 -0.3769068 0.2487585 -0.05799073 -0.4754502 -0.1023817 0.0280255 -1.102645 -0.2063039 -0.7816727 0.09748077 -0.08110855 -0.2744251 -0.1115305 0.09093844 0.4387293 -0.07179929 0.06864326 0.3190185 -0.5031131 -0.290968 0.1239764 -0.5350014 0.2368049 0.1380724 0.2863176 -0.1616735 -0.2418401 -0.2240632 -0.04218273 -0.85359 -0.5696163 -0.2820614 -0.5426441 0.357097 0.1328341 -0.334118 0.07013004 0.1375657 -0.117462 -0.4283922 0.1436046 0.5929212 0.3710579 -0.2621699 -0.4760809 -0.03627307 0.8087964 -0.1104641 0.4944766 -0.06169957 -0.3884404 -0.03298853 -1.244761 -0.4495609 0.1417467 0.2580169 0.6392776 0.6182229 0.8317736 -0.05484359 0.8667539 -0.655135 -0.07349489 -0.3394385 0.4075788 -0.2605753 0.5975311 0.3360416 -0.3620951 -0.1680336 -0.255134 -0.1203295 -0.1141801 0.6357496 0.04431357 -0.5894644 -0.1593948 0.1187603 -0.1103175 0.4452453 0.1361149 0.2538342 0.1748461 -0.2808164 0.03413568 -0.6481921 -0.1159342 -2.122381 0.5157784 0.5970079 0.2687451 0.9666142 0.6114849 -0.565756 -0.2131981 -0.3250687 -0.2351519 0.6300291 0.05882737 -0.4696332 0.0188536 0.3713545 -1.075894 -0.1355127 -0.3891607 0.1878063 0.9374494 -1.048625 -0.656087 -0.3289908 -0.09352546 0.2367634 1.302888 0.2191437 -0.1405198 -1.063443 0.1599098 -0.5181887 -0.01440308 -1.295823 0.09188664 0.4674749 0.4825526 0.6250049 -0.560946 0.1840901 -0.276532 -0.3232702 -0.7713894 -0.4167252 0.5295067 -0.3300427 0.5828382 -0.1559905 -0.6445842 0.1821853 0.3309963 0.2089902 0.7618691 -0.5387651 -0.4734414 -0.3687394 0.3897903 -0.1861208 0.3035567 0.5137928 -0.6788642 0.06232326 0.1574945 0.1789238 -0.05871451 -0.2843366 -0.9959368 -0.03494648 0.739715 -0.408065 0.4754359 -0.2474471 0.3357919 -0.4795039 0.007974004 0.1071771 0.245976 -0.1758855 -0.1481603 -0.2687204 -0.8651525 -0.1304941 0.1089679 -0.06798598 -0.1881948 0.1419896 0.1676949 -0.3508677 -0.4285375 -0.0540211 0.2281302 0.2884935 -1.204503 0.5705249 -0.01945107 0.003822951 -0.06196376 -0.8749784 0.1146239 0.03558528 0.009978184 -0.4591245 0.05551494 0.05554896 0.7132012 -0.3144444 -0.4191635 -0.2174244 0.1529507 -0.3892379 -0.2166008 -0.5526044 -0.3882166 -0.7984785 0.08210454 0.4224848 0.507773 -0.4700156 0.2495745 -0.4548438 -0.0339639 -0.6356048 0.1240452 0.496795 0.5405216 -0.150618 -0.03626863 0.1830319 0.1242699 0.03264713 0.6962374 0.5090668 0.03187493 0.09294277 -0.6799368 0.2409773 0.1387084 -0.06702174 -0.8415827 -0.5502924 -0.2317045 0.2555315 -0.24259 -0.4544289 -1.315894 -0.5129245 0.1041989 0.08771234 -0.388476 0.07502397 -0.2691286 -0.01547494 -0.9357532 -0.07500461 -0.5333949 0.3721416 0.4027781 -0.1020064 
  0.623955 -0.9142516 0.3203678 -0.3479123 0.1683219 0.06382459 1.015437 0.08955044 -0.4283386 0.3428886 -0.2649498 0.1515277 0.4382235 0.1531953 0.4562636 -0.4429198 -0.4670064 0.1589612 0.06491927 -0.2137524 -0.2842174 0.7437781 0.395027 0.1466834 0.6863901 -0.06401942 -1.039676 -0.1743505 -0.008272699 -0.6426735 -0.2591386 0.5058989 -0.5726145 -0.03761122 -1.147726 -0.07187929 0.1621423 -0.93123 -0.0238861 -0.179887 0.7983719 0.3347674 0.4664682 -0.139944 -1.361543 -0.06517085 -0.3872766 0.416256 0.04215451 -0.81997 -0.4701805 -0.3289415 -0.2924855 -0.2977055 0.2519382 0.02592586 -0.1911965 0.5316063 0.4447492 0.583384 -0.2575343 0.6101867 0.04115598 0.4689929 -0.2675768 1.49152 0.7637073 0.2206986 0.09461051 -0.4288228 0.06970096 -1.239376 0.5737851 0.7017923 0.1188415 0.0532131 -1.097128 -0.4354277 0.3364547 -0.1030238 0.4397095 -0.05374021 -0.5334505 -2.611575 0.6813771 0.4921955 -0.151448 -0.09310101 -0.530708 -0.2704533 -1.470738 -0.3280598 0.6869833 -1.178454 0.04798566 0.8553926 -0.5225261 -0.2429171 -0.0636251 0.009582541 -0.2325004 0.4623912 -0.006404903 -0.269091 -0.240191 0.1381789 0.4236872 0.5545427 -0.09055921 -0.05829847 -0.04420159 0.5840421 0.07253333 0.05368361 0.04506773 -1.556887 0.3135645 0.7110454 -0.2263117 -0.6091901 -0.4545998 -0.1991281 -0.08348177 -0.6108698 0.2996898 -0.1211354 -0.1128315 0.663503 0.2065521 0.3221751 -0.2898686 -1.440317 -0.3162489 0.6730721 -0.6032202 -0.5446978 0.4155525 -0.3239407 0.3530065 0.05935238 0.6239961 0.3075645 -0.1057428 -0.8901231 0.6444206 0.8300796 0.004173027 0.2484725 0.1016211 -0.2400102 0.1973695 0.2766568 0.3367623 -0.527352 -1.646656 -0.6708443 -0.1099664 0.0618579 -0.1845539 0.2488264 0.7197017 0.2650004 0.6234264 0.200768 0.6616632 -0.461035 0.149457 -0.127481 0.771685 -0.351199 -0.4599173 -0.7234181 -0.5026579 1.036222 -0.02153534 -0.4196749 -0.171295 0.1642657 0.04309632 -0.006039288 0.1437774 -0.2864495 -0.1705658 -0.03168762 0.136846 0.2579116 0.2945392 -0.0689273 -0.6892792 0.3247904 0.1400273 -0.4698905 -0.2329813 0.5340378 -0.1749664 0.09571894 0.4647963 -0.04124455 -0.2663507 0.3477238 0.7993966 -0.6713491 -0.6328829 0.2262837 0.04402889 -0.152111 -0.6961972 0.1197658 0.4320228 0.666189 -0.01539732 -0.5628274 -0.3326568 1.28 -0.08253514 -0.7042426 -0.3549841 0.2633397 -2.745072 0.6024687 -0.05346119 -0.900613 0.3434409 0.9425026 0.03150443 0.7023452 -0.08007471 0.418135 -0.828151 0.2355737 0.255266 0.4727331 0.2902435 0.1276079 0.02887586 0.05978099 -0.115105 0.491005 0.9498963 -0.1949485 -0.1592319 0.4172057 0.4190082 -0.1362846 0.2478023 0.3612835 0.02544763 -0.005727214 0.7154417 -0.349558 -0.6320996 -0.002562379 0.8189061 0.1040597 -0.08568551 0.5061599 
  0.474143 0.7676227 0.009714044 0.1766805 -0.5440352 -0.5356153 -0.3748362 -1.216623 0.6661614 0.4049915 0.3956494 -0.1781012 -0.4474754 0.2726406 0.3190536 -1.468211 -0.2830863 -0.1887262 0.5812406 -0.2956682 1.047853 0.28735 -0.2595911 -0.593363 0.188511 0.3997044 -0.5520966 0.5612157 0.5215882 -0.4008668 0.766976 0.5326228 -1.166782 1.031325 0.4182719 0.3063631 -0.8630891 0.2384034 0.7104011 0.03193136 -0.1992404 0.6322171 0.5580537 0.1201472 0.707976 0.6394485 0.9078251 -0.1669988 1.097865 -0.1662014 0.2731397 0.4304125 -0.1469309 -0.4431562 -0.6043364 -0.5998313 -1.093156 -0.5940964 -1.422483 0.02124077 -0.6739088 -1.120783 -0.2375448 1.420373 -0.0643841 0.04895214 -0.8286734 0.19767 0.421907 -0.1658833 -1.530075 1.535794 -0.6206061 -0.8753074 -0.04022545 -1.180158 -0.7744824 0.1668466 -0.8374332 0.4439583 0.1196731 0.3661232 -1.281607 0.3276778 -1.541219 -1.785492 0.5981302 0.5340534 1.353866 -0.3675861 0.6572614 -0.08306438 -0.3034161 -0.9308959 0.1902757 0.05007651 0.1111631 -0.3312354 -0.07112203 0.01783138 -0.8907699 -0.196309 -0.2540576 -0.008105471 0.5400574 1.021055 0.938095 -0.4091314 0.4758234 -1.168258 -0.6971239 0.538529 -0.2461206 0.07213543 -1.323608 0.1828963 1.425917 -0.2198061 -1.165251 0.8014079 -0.4379428 -0.8975176 -0.2761831 -0.06047422 -0.1822471 -0.1842398 0.2756629 0.4254363 -0.1408767 0.3378308 -0.4628142 -1.315343 0.3276659 -0.03311423 0.7347659 -0.5149812 0.6713517 -0.5832915 0.1247562 1.086153 -0.3831185 0.9192787 -0.2220742 -1.060399 -0.7017723 -0.7778835 -0.6148514 0.9876443 0.01780562 1.159345 -0.3146407 -0.3692925 0.8135789 0.713759 -1.355057 -0.6562032 0.06511316 0.6973423 0.4962996 -0.7236812 -1.424722 0.2602566 -0.6908728 0.04044762 0.7104862 -0.422362 0.5570162 -0.3339052 -0.06212443 -1.109389 0.6149025 0.7091789 -0.1185737 0.05986592 0.7249388 -1.065863 -0.4068242 -0.7910181 0.4352992 0.3595537 -0.7569022 -0.3752635 0.4702312 1.174633 0.6245029 0.9493527 -0.4749967 0.04550235 0.003524187 -1.19417 -0.7481204 0.7890645 0.2990226 1.101291 0.2611611 0.8752571 -0.1004874 -0.2571491 0.9187165 -0.0611173 0.1335221 -0.9113154 -0.1712852 0.1885035 -0.7706217 0.7333804 -1.356745 0.02931265 0.1186216 0.2530825 0.3698552 0.0592924 -0.987114 0.1328214 -1.464787 0.3815889 -0.4790868 0.366271 -0.4690166 1.597751 0.7229216 -0.2615409 1.075286 -2.533405 0.09711162 0.4426465 0.8924904 -0.3195805 -0.337542 0.4715791 0.8067276 0.4237505 0.7946719 0.4825093 -1.295753 -0.1964775 0.01505754 -0.6026721 1.371862 1.03383 -1.446421 -1.106146 0.5183836 0.5628729 -0.9365526 -0.2538221 -0.1852616 0.6107001 1.767727 -1.35307 -0.7501838 -0.361142 0.9080356 -1.333137 -0.5867397 0.4569424 
  0.271299 -0.2889724 0.6837874 0.7926749 -0.5056204 -0.8239887 0.3493576 -0.2140337 0.01790475 -0.8011207 0.5654162 0.5780511 -0.254904 -0.1396959 1.126519 0.008535261 0.2843782 0.4862463 0.4414499 1.243369 -0.3419851 1.057793 -0.3185828 -2.321316 -1.010882 -0.08878028 1.278605 -0.41728 0.02983581 -0.3829523 0.2186006 0.7504317 -0.5171896 1.145912 -0.3378199 -0.1078587 -1.111559 0.4997151 -1.619951 -0.2347324 -0.3442731 -0.09572558 0.3007881 0.02061437 0.7073655 -0.5283245 0.3762423 -0.2885914 0.3458278 0.1761721 -0.9306583 -0.2870382 -0.06740854 0.1361304 -0.761107 -0.6149536 0.4809279 -0.03142002 1.344898 0.1530336 -0.5716265 -0.5332003 0.5058603 0.4461991 -0.2084577 0.3372817 0.2357076 -0.2950752 -0.4091489 1.073484 -0.190901 0.3336662 -0.2696084 -0.4203221 -1.504799 -0.293447 0.1945716 0.1874744 -0.4786152 0.7276296 0.3013466 0.5748731 -0.1298456 0.6846642 0.4874099 -0.4634753 -0.4907521 -0.03065421 -0.9455575 -0.4643582 -0.2175968 -0.3302138 0.3916314 -0.07491565 -0.3394541 0.8999123 -0.8923701 0.8663698 -0.2673867 -0.03782452 0.3225972 -1.010723 0.2267978 -1.628829 -0.5498897 -0.4434311 0.5623546 0.5791989 -0.1179188 -0.7654742 -0.8523946 1.205745 0.9571097 0.321417 0.2673024 0.02738517 0.2886791 0.4921916 0.4673469 0.5521332 0.8301203 0.3545719 -1.086258 -0.1820939 0.8446163 0.5422899 0.9163262 -0.1810774 0.1125071 -0.2087152 -0.698016 -0.1015109 -0.0595409 -0.3323493 -0.7073818 0.164889 1.034423 -0.2310468 0.9644781 0.9337561 0.1962298 0.4071626 -0.0652329 -0.2465352 -0.3430669 0.3781213 0.03174587 0.2832494 -0.2863905 0.0612892 -0.364727 -1.57566 -0.2076327 -0.1708405 -0.1637392 0.6650176 -0.2880824 0.2521752 0.06277446 0.08140084 -0.1662031 -0.03737908 0.3050745 0.2328471 0.5673295 -0.07632465 -0.9894617 -0.5373143 -0.3509831 -0.4563473 0.3301644 0.6278532 0.3347066 -0.4153464 -0.9649748 -0.6259215 -0.9134049 0.0744701 0.887555 0.577329 -0.1576411 -0.5486214 0.2669506 -0.3491646 -1.137293 -1.259554 -0.4514669 -0.7263302 -0.441964 -0.4225467 0.3945966 -0.05633968 0.2426578 0.75658 0.5979711 0.7164723 -0.02017936 -0.4563146 -0.6241292 -2.428601 -0.5882146 -0.2991826 0.1436894 -0.5625627 1.176745 1.113362 -0.3046121 0.7733943 0.8656366 0.224862 -0.08754735 0.1762333 0.649754 -0.261236 -0.2431332 0.1291892 -1.772181 -0.4391452 -0.1400667 0.5831108 -0.1268831 0.02600295 0.09728223 -1.876485 0.2097594 0.09330607 0.119191 0.3097578 -0.1998214 -0.383931 0.5810636 -0.153588 -1.151978 0.1659962 -0.1111083 -0.006278996 -0.7004357 0.9953599 -0.1933489 -0.03038615 0.4333585 -0.6730434 0.2291361 1.029015 -0.6907364 -0.1268512 -0.385313 0.03739591 -0.1818667 1.034491 -0.9194949 -0.5230338 0.7312879 -0.7627762 0.1129331 -1.904593 
  -0.02188596 1.141035 0.7664592 0.453729 -0.0798751 -0.796751 0.1459647 0.7207821 -0.5219286 0.2871508 0.7349737 0.4169701 0.4274946 -0.4075199 -0.5999762 0.1162938 -0.0329012 -0.5313537 -0.1089993 -0.5287277 -0.1168687 0.1529265 -0.03124116 0.06384077 -0.3695183 0.2101148 0.09546648 -0.9486709 -0.3732438 -0.3908066 0.1867307 -0.2799089 -0.3340519 -0.003778268 -0.02540869 -0.311918 0.0726895 -0.1530895 0.8208643 0.08663114 0.1146586 0.382504 -0.1060314 -0.07621965 0.6377625 -0.5634915 0.1525888 0.203938 -0.5389645 1.337132 -0.3114917 -0.05463661 -1.839366 0.386418 -0.5608426 0.06495061 -0.3959082 0.8429049 -0.9618049 0.7445285 -0.3289991 0.5532838 -0.4829023 -0.7686931 0.5943625 0.2663817 -0.7869779 0.5371377 0.1532983 0.03200429 0.3472581 0.1546621 0.5314631 -0.4366474 0.6827053 1.465721 0.2420401 0.3081209 0.2064726 -0.2612776 0.3988085 0.4973828 -0.0276389 -1.056654 -0.3808455 -0.1630005 -0.04908923 0.2012348 -0.4192872 0.4077998 0.3913547 -0.4484471 0.5059446 -0.06656507 0.6496991 0.04626869 1.072434 0.6547152 -0.7946286 0.4749352 -0.09361938 0.4349565 -1.348526 0.2742481 0.5458874 0.163973 2.198405 -0.6647319 -0.3899351 0.341403 -0.7217371 0.1645418 0.03769582 0.9842356 -0.138209 0.08737967 -0.1674917 0.2736301 -0.02464982 -0.1754806 1.419029 0.8883476 -0.3200477 -0.4294039 -0.5894379 0.425338 -0.005886053 -0.5961192 0.6426142 -1.916302 -0.8440839 -0.2948114 -1.003168 0.5424948 0.763269 -1.011111 0.8162478 -0.4734346 -0.9764618 -1.53874 0.06484473 0.07528092 0.3612558 -1.213285 0.8563204 -0.338509 0.1587163 -0.6617978 0.9315377 -0.2781898 0.1394683 0.1437016 -0.03522941 -0.03612901 0.4875883 -0.7255788 -0.2783287 -1.794934 0.8550097 0.2099489 -1.540826 -0.4055073 -0.2233479 -0.101532 -0.4297675 0.8168017 0.406348 -1.079816 -0.5366142 0.2688295 -1.700536 -1.573384 0.4531626 0.5985207 0.2825185 -0.3560063 0.1709346 0.9345567 0.08191437 -0.4471467 0.2116681 -0.5935662 0.6396562 -0.9956542 -0.9222865 -0.3387123 0.5310515 -0.5500466 -0.01360651 0.104165 -0.1993196 -0.3793096 -0.1045647 -0.2048128 -0.5073936 0.08697649 -1.038105 -0.1532518 -0.481148 -0.4296643 -0.3583663 -0.4546966 -0.4181147 0.2955159 -0.08711453 0.8222572 0.2534543 0.5592602 0.281189 -0.01671796 -0.4695052 -0.9305962 0.2803578 -0.1879029 0.2787652 0.83546 0.1740091 -0.09268585 -0.03886692 -0.239021 0.3441532 -0.427646 -0.5308793 0.3133699 1.221994 0.4132338 0.1434777 0.02146368 -0.4753023 0.9632397 0.3463408 -0.6646737 -0.4859284 -0.5235241 0.4033398 -0.2303282 -0.245445 -0.3106543 -1.122205 0.5881442 0.5514892 -1.511705 -0.3102547 0.08273428 -0.2817247 -0.5000831 -0.1992078 1.529199 0.271928 0.1323924 -0.6603919 -0.6779701 -0.6302506 -0.2700158 0.6641001 0.002613995 
  0.2016904 -0.1524375 -1.307531 0.1977408 -0.02083853 0.7257102 0.9470091 -0.255321 0.05128317 -0.1924857 0.6280003 0.4153544 0.2823684 0.003100841 0.5465488 0.02345722 0.1486682 -1.187074 -0.1133097 -0.3048933 0.2732462 0.0103557 -0.5485069 0.4640015 0.4325107 0.6240565 0.2511806 -0.1102962 -0.4687226 0.5856733 -0.6380824 -0.2484454 -0.3926401 -1.203813 0.3496073 0.03780315 -0.7332915 -0.4053241 0.9530465 -1.709354 1.22273 -0.05331682 0.4429904 -0.08961223 -0.5523272 -1.183579 -0.2549641 0.2347237 0.934615 -0.05957513 -0.1091481 -0.06567015 -0.4819233 -0.6726622 0.3090701 -0.1769643 -0.03311147 1.012884 -0.1996383 -0.2517699 0.2438815 0.4005791 0.7608657 -0.1915552 -0.19294 -0.1135413 0.6493105 0.2741338 0.02603307 -0.4392096 0.548445 0.5712403 0.0352664 -0.1793248 -0.01729792 -0.4380843 -0.09072361 -0.6096796 -0.2718086 -0.01058004 -0.1858968 0.6535374 0.5996902 0.5582644 0.02981045 -0.3683902 -0.7635186 -1.046098 -0.03460737 -0.4902128 0.211946 0.6960464 -0.176841 0.1898413 -0.2609106 0.08390931 0.7022495 -1.363342 0.1407346 0.2471261 0.07915914 -0.05801989 0.5028324 -0.2012961 -0.1459552 -0.7625592 -0.4752661 -1.131608 0.5406141 0.6172898 0.574983 -0.6349978 0.5216577 0.01619861 0.4787956 -0.4545714 0.2001955 -0.3165936 -0.4225944 0.6396028 0.06978438 0.2083981 -0.2470151 -0.1568583 -0.2737558 -0.9741306 0.5217259 0.2464524 -0.2796819 -0.5421016 -0.6149625 -0.02908909 -0.1559649 0.4953641 -0.5826278 -0.2916447 0.07575706 0.4790492 1.071406 -0.5521455 0.7739739 0.06798997 -0.2874893 -0.09335559 0.6267384 -0.1350616 -0.0452833 -0.543424 -0.06564157 1.021753 -0.03034663 0.549105 -0.2527471 -0.7218381 -0.163809 -0.4363161 0.004833785 0.2999447 -0.03934607 0.03442237 0.1054539 0.2168306 0.0430226 0.4654472 0.09560355 -0.1903729 0.3590191 -0.3868257 0.4024086 -1.302076 -0.496714 -0.7011665 -0.1269623 0.6526138 0.1239629 0.45985 0.1461065 0.381749 0.4765275 -0.2102092 0.03724865 -0.4328379 0.3259717 -0.6665932 -0.8126744 0.9116098 -0.07139559 -0.4096507 -0.3143749 -0.8086861 -0.01462459 0.3833345 0.1265788 0.3576673 0.06811366 -0.361653 0.3944091 0.7942367 -1.979312 0.7843375 0.0562375 -0.01248178 -0.07642838 0.2562691 0.5769626 0.128012 -0.06799182 0.9750365 -0.03575496 -0.6159695 -0.1022251 0.1111438 -0.2673671 -0.4559225 0.2481727 -0.39926 0.6254063 -0.07114767 0.2125728 0.2062225 -1.150005 0.06225673 -1.517461 0.0463508 0.8431658 0.3436773 -0.3027275 0.2926904 1.22383 0.129572 0.5220176 0.07868726 0.07897502 -0.8578838 0.5213344 -1.671526 -0.493861 0.2923236 -0.8185503 0.1184479 -0.01694871 -0.9051374 0.0401465 -0.4408925 0.1421158 -0.7083681 0.2995408 0.4692478 0.3090011 0.9834942 0.231138 -0.2223811 -0.2818156 -1.695071 0.760002 -0.4048759 
  0.9660399 0.5134468 -1.660721 0.5972783 0.4795824 -0.9119036 0.04658882 1.130885 -1.000114 -0.8253291 0.6988307 0.84404 1.019875 -0.5050547 0.00609402 0.5828257 0.4935996 1.751866 1.161886 0.851184 -0.5869401 -1.348214 -1.288413 -0.3968477 1.094723 0.3605713 0.1433407 -0.2216841 -0.2446525 0.09748507 -0.8816804 1.136008 0.5478269 -0.321026 -0.6751046 0.6388871 -0.950657 -0.2192547 -0.6259621 -0.6841804 -0.08720578 1.030788 0.8600845 0.3468892 0.133874 0.2567589 -0.2589449 0.6102288 0.7356962 0.5861824 0.9432714 0.1343908 0.01050789 -0.2903906 -0.252451 -0.07146939 1.682078 0.01370583 -1.399633 -0.4301587 0.02835236 -0.39037 0.3945056 0.2094647 -0.1583619 -0.9066628 0.1344521 -0.710799 0.1007095 -1.357324 -0.8328184 -0.2372616 0.6361007 0.2615453 -0.6959782 0.4887146 1.232995 1.086708 -0.1962408 -0.136751 0.7178245 0.9092728 0.1380551 0.1607863 0.9742905 -0.4408841 -0.7504358 0.4985048 0.05349 1.464675 0.313066 0.1301912 0.02900194 -0.6039854 0.2777136 0.6480029 0.1257184 0.7047683 -0.8641578 -0.3761432 -0.397016 -0.3598559 0.5687171 -0.01505535 0.1678192 -0.392668 -0.2572856 0.5918272 0.3947307 -0.0031877 -0.4591956 0.5010273 1.184912 0.491695 -0.03512286 0.1725865 -0.1502166 0.1276296 -0.2791928 0.3195505 0.6648175 -0.8577464 -0.5683759 -0.4930435 0.4193482 -0.8344002 -0.1095345 -0.4187792 0.2079193 -0.07993639 -0.7241666 -0.6913015 -0.1520144 0.9593382 -0.3046824 0.5072019 0.6787983 0.5898709 1.570191 0.6348585 -0.1086478 1.061052 -0.580241 0.5392283 1.200137 1.217865 -0.09060324 0.5555854 0.9481674 -0.9297055 0.7591522 -0.6761801 0.924157 -0.3558861 -0.4438847 -0.4768747 -0.4225631 -0.4824392 -0.0624104 -0.4446616 0.2601691 0.7062 0.01519643 0.2967502 -0.6909402 -0.6606929 -0.4066504 -0.3532245 0.8491762 0.5040436 0.9628341 0.6772128 1.112542 -0.2362604 -0.943767 -0.1290509 -0.4296075 0.5474393 1.01896 -0.002248768 -0.3914305 0.4232549 -0.7156424 0.2750596 0.6581017 -1.074947 -0.8763576 -0.6778824 -0.05116617 0.2410261 -0.3612226 0.2132108 -0.4982561 -0.05275877 1.141269 1.033618 0.8284332 -0.7535065 -1.729787 -1.737449 -0.2568596 0.09303366 0.9739021 0.4195744 0.3727125 0.006101426 -0.8058444 0.8823206 0.853834 1.334808 1.246332 0.05764765 0.8285745 -0.1998058 -0.03924099 1.689368 -0.5271686 -0.2580823 -0.4231847 0.1548264 -0.4760205 1.158221 -0.09918107 -0.5446318 -0.2857592 0.5500564 0.51667 1.044881 1.456109 1.08106 -0.4525862 -1.062563 -0.4309044 -0.08585566 -0.7375774 0.8816973 1.116329 0.08007488 -0.1204402 1.147216 -0.01247015 1.505758 0.2775531 0.6937824 0.8210713 -0.5513074 -1.001734 0.8238649 -0.04245136 0.1854834 -0.6050788 -0.8441856 -0.9516022 -0.1921172 -1.520081 0.1566185 
  -0.1759581 -0.204346 -0.07011843 -0.05037904 -0.2179687 -0.4743166 -1.030376 0.2741435 0.1224469 -0.2217217 0.01183232 -0.09452734 -1.823757 0.5085933 -0.185355 0.4166494 0.3782733 0.3867644 0.2482886 -0.7347226 -0.5068945 0.02420878 0.1765222 -0.2039708 -0.4975378 0.2414571 0.2069513 0.8125678 -0.3661324 -0.4474342 -0.2988326 -1.009029 -0.1806941 0.1155675 -0.5146549 -0.5647744 -0.02606035 0.2371127 0.127233 -0.1792675 -0.4015866 0.1466251 -0.1120183 -0.08267662 -0.1305848 -0.1028961 -0.4769743 0.05205358 -0.7948478 0.6846007 -0.1552256 0.6771863 -0.2402626 0.2837188 -0.31864 -0.2288917 -0.3695922 0.001556234 -0.6898075 -1.514974 0.6483949 -0.08383044 0.362738 0.1604541 -1.131071 0.477134 -0.2599789 0.6625097 -0.7166684 -0.3577503 -0.3885013 -1.518994 0.01319493 -0.7349291 0.2557383 0.9386092 1.474093 -0.06426699 0.1091511 -0.6752676 0.7031659 -0.416249 0.3791354 -0.1379595 0.492062 -0.1504083 -0.6603214 -0.2497582 -0.5890826 0.243291 -0.7007393 0.6157477 0.5647963 0.7770318 0.6618021 0.6633302 0.4885832 -0.1188304 0.4522888 0.5670074 -0.2401997 0.004113192 0.05476596 -0.4732898 0.6152776 -0.6398166 0.5357415 -0.1309113 -0.2304936 1.576598 0.7555048 0.4420287 -0.3106039 -0.3948222 -0.3822973 -0.2772261 -0.5725926 -0.7265607 -0.4042396 0.08354022 -0.7819583 0.1335448 1.204794 0.1506751 0.2140818 0.552841 0.0411216 -1.380323 0.512071 -0.4012927 -0.1500523 0.06020819 1.063683 -0.3684039 -0.3380019 0.2488095 -0.6480821 0.2708835 0.09285543 -0.2170356 -0.4181014 -0.6930546 -0.2726567 0.5692495 0.7196696 -0.1906255 -0.2711809 1.286124 -0.2026494 -0.2220339 -0.5089275 -0.5387657 0.04373136 -0.784049 -0.5732834 -0.06086346 0.97494 -0.317302 -0.7290958 -1.276758 -0.08223593 0.6205682 -1.262439 1.074364 -0.7139787 -0.006024563 -0.4605167 -1.085685 0.4839294 -0.3854663 -0.2000321 0.3312171 -0.7810746 -0.5074492 -0.2674485 0.2167782 -0.2291373 0.3413061 0.06720203 1.141815 -0.6095182 0.5140806 -1.267128 -0.01553206 -0.5748549 0.713467 1.033287 -0.1996853 0.2744934 0.04567694 0.5386806 -0.6498832 0.5099528 0.06642841 0.6049274 0.24422 0.01442697 0.1616997 -0.8008182 -0.3130476 -0.9816883 0.4109623 0.09659814 0.5536243 0.4337335 -0.2425832 0.2094906 0.1756201 -0.155247 0.1118374 0.1414935 0.3161842 -0.1567248 -0.03963945 0.4614899 0.08798079 0.5364568 0.2960465 -0.6754081 0.2968066 -0.2273194 -0.3454614 -0.4924125 -0.5234084 0.03470325 -0.487849 -0.1499004 0.417583 0.4479966 0.252894 0.55413 0.1100399 -0.36523 0.1357015 0.06185345 -0.5587746 -0.08655069 -0.05991623 -0.1063403 0.2927889 -0.3597205 0.2676938 -0.1343646 0.0328853 -0.3830508 -1.46196 -0.3223676 0.04799454 -0.6554201 0.2368747 1.474662 0.3111657 -0.2196837 0.5503643 0.164519 -0.9572497 
  -0.04304529 -0.8079659 0.05208138 0.8494853 -0.4203896 -0.5944928 -0.4312682 0.6223301 0.04959305 -0.5669757 0.5835378 0.003749035 0.3161922 0.1976591 0.5434575 0.5943288 -0.1390843 -0.4992516 0.9426174 -0.2406721 0.1036453 0.1786927 0.2069216 0.6710981 -0.5012457 0.754551 -0.639945 -0.7972188 -0.08327106 -0.7144597 -0.08051651 0.06622679 -0.2442557 -0.2040888 -1.291235 0.3031921 -0.4936139 -0.1106851 -1.280088 0.322508 -0.38719 -0.3631284 0.2669115 1.068574 -0.4898664 -0.7760327 -0.8976962 -0.1272484 0.07415299 0.7350115 0.4952288 0.9915868 -1.503626 -0.292243 -0.5461413 0.4467593 0.4314177 -0.05503089 0.3233078 0.6272934 0.4550742 0.2619666 0.4577665 -0.7820177 -1.513083 0.7482824 -0.5330366 0.6511441 0.2713768 -0.4937232 0.1386721 0.3799273 -0.4970817 0.5892193 -0.03271028 0.6278573 0.3418255 0.5869846 -0.4689913 -0.435723 -1.469244 -0.7039867 -0.219155 0.6337937 -0.3545461 -0.02344088 -0.3571639 -0.02075696 -0.2710592 -0.3814907 -0.3544123 -0.1829373 0.4954309 0.2841375 -0.04521766 -0.2362657 0.2172286 -0.1267584 0.1192488 -0.7602048 -0.4617991 -0.3369701 0.10281 -0.2197595 0.1128969 -0.8973758 0.020353 1.03514 0.07750855 0.3034608 -1.196041 0.4824013 0.407226 0.06945173 -0.4647422 0.08875364 -0.1360408 0.5949675 -0.1530244 -0.5709543 0.4403453 -0.4506586 1.093922 -0.3840943 -0.3257833 -0.996192 -0.120131 -0.09175955 -0.1913388 -0.3539688 0.3455701 0.1912979 -0.3151236 0.08343317 -0.1908219 -0.06826016 -0.7379845 0.7132984 -0.4944302 0.6269098 1.392806 0.0348285 -0.1433671 1.252019 0.005292961 -0.07771574 0.169037 0.3592996 0.314295 -0.4802419 -0.1101138 0.8340527 -1.084064 -0.9885553 0.1495628 -0.2255837 0.08664902 -0.2698033 -0.2057292 0.2336649 0.2029613 -0.553787 0.2667829 0.3423329 -0.0769137 -0.03433648 -1.001415 0.8982018 0.09893914 0.1575079 0.02322532 -0.7671157 -0.6886929 -0.2765501 -0.5827636 0.2349712 0.3263397 0.1840614 0.4778384 0.4104871 0.1306207 -0.7003379 0.3330227 -0.05824557 -0.9823254 -0.1361874 0.03364922 0.6444595 -1.143989 -1.003704 0.2214888 -0.1559171 0.1922061 -0.8556296 0.1611983 0.9907647 -1.08292 -0.9570691 -0.2819856 0.1239982 0.7773204 0.06548738 -0.3348125 0.4628779 -1.753855 0.8382117 0.194029 -0.7213718 0.8640944 0.3009933 -0.3212043 -0.9913714 -0.2146485 0.4460529 -1.265095 -0.06393548 -0.1754477 0.2932286 -0.4221856 0.1361773 0.4442151 -0.09687483 0.3951468 1.083895 -0.3119221 -0.3136847 -0.1186579 -0.9953755 -2.023522 -0.7354608 0.53452 0.1905541 1.163718 0.205107 0.1752312 0.02300866 -0.3326431 -0.5572672 -0.07679743 1.01393 0.3097384 0.1611082 0.2995636 -0.06525459 0.65677 0.6717472 0.8982615 -0.8150204 0.226776 -0.08330964 -0.07251992 0.1856363 0.6633685 0.1523748 -0.3239408 0.4633936 
  -0.1780666 -0.1261425 -0.2983934 0.02750197 -0.1044613 -0.7309823 0.1436544 0.6859245 0.413243 -0.5002257 0.07377279 0.3010329 0.2294508 -0.4637153 -0.6764482 -0.7599608 -0.3638252 0.5599054 -0.366763 0.01849155 -0.2601961 0.07272259 0.06903362 0.02794063 0.3389404 -0.3682545 -0.01270627 -0.6512113 -0.7099718 0.4530286 0.06719651 -0.9235346 -0.8926849 -0.232255 0.4802235 -0.8163593 -0.3202411 -0.03018141 0.9061522 -0.1121785 -0.08688872 -0.4517326 1.417793 0.2710153 0.1734845 -0.2432477 -0.4784515 0.6145458 0.4880661 0.4601114 0.6026719 0.01794979 0.3104385 -0.1829257 0.1859413 1.040033 0.4853836 0.1036387 0.2206606 0.4632624 0.6547738 -0.03864038 0.3414907 0.6051291 0.5620891 0.2324836 -0.2879521 0.4282517 0.8495286 -0.6680368 -0.04647407 0.765124 -0.44635 0.4663605 1.449561 0.167634 0.9555758 0.143939 0.2710862 0.5468967 0.256212 0.9384411 0.08357286 -0.3722239 -0.2665919 0.5818625 0.3785338 -0.564285 0.316068 -0.1042815 -0.1344074 -0.2915026 -0.1783215 0.3058893 -0.5723898 -0.2754127 0.4390111 -1.434465 0.4290609 -0.0869781 -1.700078 0.3195081 0.4004497 -0.3060081 0.2760204 -0.4823408 -1.397522 -1.005077 1.066844 0.3131812 -1.236001 0.2622109 0.0006829436 -1.917343 0.04195518 0.2272015 -0.4000594 -2.012618 0.3251581 1.047233 -0.245529 -0.6063492 -1.165358 -0.3366264 0.06571358 -0.2315918 1.209297 -0.4614076 0.398741 -0.1750665 -1.135495 0.06446315 -1.074765 0.6889544 -1.085614 0.6391733 -0.2995439 0.4383555 0.6155074 -2.045599 -0.5041124 0.5933964 0.7504745 -0.4194832 -1.518927 1.139634 0.08615549 -0.5040675 0.5731733 -0.105204 -0.07243221 -0.3984064 -0.03961317 0.4767297 -0.1734972 0.4903134 0.2071573 -0.03216604 -0.08618227 0.157543 -0.1210083 -0.2455343 -0.176087 -0.371455 -0.1899297 -0.03048625 -0.4975972 -0.08394419 1.098362 -0.6063738 -1.475167 0.1011798 0.04277968 0.1978444 0.01746216 0.797332 0.7038835 0.2602641 -0.1830233 -0.1005324 0.295483 -0.3061616 0.8341846 0.4166453 -0.5017829 0.171205 0.2273975 -0.2282007 0.8052603 -0.08616905 -0.43444 0.7190545 -1.353146 -0.005684854 1.555848 0.1159421 0.4348641 -0.7063218 -0.4870433 0.6204269 -0.789032 0.3038921 -0.5629145 -0.748644 -0.2212452 -0.2390344 0.9207721 0.5681837 0.6173795 -0.1569911 -0.3902955 -0.3929617 0.0180658 0.3126757 -0.3955151 0.2318884 0.1311571 -0.3221485 -0.4047238 -0.4309814 -0.5302935 -0.1818093 -0.5016204 -0.3668407 0.13916 0.3194491 -0.3193063 0.5559447 0.1690729 -0.2455492 0.928044 -0.5416149 0.3945467 -0.02505037 -0.009459098 -0.5374557 0.3134063 -0.4372103 0.1535948 -0.7420288 1.141225 -0.1186312 -0.04242608 -0.1490539 0.1705843 -0.9831349 -0.9091078 -0.1855899 0.04952734 0.7760671 -0.09794704 -0.08966294 0.008715251 -0.0739622 0.9358448 -0.07958838 
  0.4100712 -1.382721 -0.1165623 -0.1048507 0.4106939 0.2814984 -0.09336645 0.5118349 0.491983 -0.05730896 0.4824506 -0.07053011 -0.3484115 0.2972941 0.8260099 0.870445 0.277162 -0.2327789 -0.1623748 -0.5820303 -0.8266265 -0.9016714 0.7638274 0.4109405 0.4596746 -0.01472176 0.5010282 0.4960912 -0.81896 0.01739193 -0.332749 -2.37484 -0.1910989 0.2691366 0.4902502 -0.7947515 0.3538484 0.2856313 -0.3757541 0.04179526 0.8270224 -0.07441699 -0.4308301 0.08046836 0.05629523 -0.6066955 -0.3459457 0.03749733 -0.4558254 0.08436583 -0.8381042 -0.9364218 -0.9346712 0.5448858 0.5082647 -0.2321838 -0.4077263 -0.263931 -0.4301488 0.2683391 -0.5750545 0.09253349 -0.09975108 -0.5222964 -0.01012998 0.8233337 -0.4509857 0.1789599 -0.4272163 0.492734 -0.1982602 -0.4866919 -0.5467643 0.2513927 -0.03200209 0.2840784 0.7122595 -0.6511613 -0.3492114 -0.2369218 -0.5856302 -0.2555858 -0.3473816 0.2032376 0.4974612 -0.1824738 -0.5350003 -0.8026701 0.708586 -0.01548065 -0.8954669 1.226819 0.5843792 -0.1525128 0.1214325 0.4901593 0.5516495 -0.4231611 0.223908 0.09727148 -0.08683267 0.4051546 -0.1971635 0.1406823 -0.5586722 0.3235034 -0.1489164 0.9616198 -0.2815174 1.082329 0.4700186 0.3521321 0.6100056 -0.646029 0.008763253 -0.04467883 -0.441261 -0.4088565 0.7885275 -0.08960292 0.8232824 -0.307412 0.1322814 0.07759798 0.445237 0.1462302 0.2515678 -0.4105195 -0.09901639 -0.2046041 -0.08731284 -0.2369976 0.2514251 -1.085642 0.5915303 0.5722061 -0.8487638 -0.2354485 0.167597 -0.003568509 1.411254 -0.6350296 0.1430616 0.6818836 0.2959825 0.1902529 0.01320907 -0.6917001 0.07339135 0.8384982 -0.6526107 -0.2453811 0.7143031 -0.4324839 0.8467477 -1.081141 0.3970504 0.2616091 0.5885852 0.3538258 0.1725428 -0.4404005 -0.1334932 0.03148778 0.4908131 -0.102106 0.04424243 -0.4044855 -1.205379 0.6896246 0.5600802 -0.4626825 0.07942093 -0.03138026 0.1558956 0.5166363 0.4456838 0.2747978 -0.307515 -0.6959155 0.5177085 -0.4461109 0.488281 0.5052591 -0.05316088 -0.1881174 0.4680409 -0.4796854 -0.004470136 0.4964238 0.3426239 -0.3420712 0.6626798 -1.01263 0.02660746 0.2264872 0.3431318 -0.2861097 0.8065662 0.4628304 0.07411287 0.5408416 -0.4606533 -0.496634 -0.1929447 -0.2041359 0.03039923 0.4230487 0.9698904 0.5954826 -0.3935987 -0.4773712 0.9227544 0.7986958 0.09759001 -0.00832714 0.8044624 -0.3439191 0.07067458 0.1936682 -0.2957539 0.4940276 -0.5898927 0.1484002 -0.6475143 0.2767298 0.3499992 1.020066 -0.4937865 0.4773543 -0.894965 -1.118853 -0.3983028 0.2836032 0.03014869 0.516324 -0.5495886 0.1187672 0.4273343 -0.9308519 0.8800229 -0.06155879 -0.3721683 -1.314286 -0.09773177 -0.2615421 0.09186997 -0.7131389 0.2736215 -0.147976 -0.7276945 0.5086541 0.09354873 -0.2198787 0.7455322 -0.4223321 
  -0.6937159 -0.1647223 0.1238997 -0.791575 -0.7970635 -0.6611075 0.5262935 0.1878363 -0.4731452 0.09318617 0.2993016 0.00299308 0.03302446 -0.1703908 -0.08617549 -0.3219179 -0.8137494 -0.6648667 -0.1704669 -0.6586204 0.3758341 0.2519768 0.08110376 -0.3810157 -0.409667 0.3331933 0.03619343 -0.3286753 -0.05237352 -0.1927398 -0.1662182 0.3753371 -0.2461082 0.1767738 0.01500132 -0.02600812 -0.05617544 -0.2909755 -0.6690666 0.4406153 -0.5419613 -1.050466 -0.2925538 0.5187151 0.2917071 0.7735482 -0.01132418 0.08467595 0.741723 -0.1171598 0.4968899 -0.1719326 0.4373923 0.6083261 -0.08657999 -0.06724332 0.602046 -0.3532272 0.1616323 -0.1871549 0.3361843 -0.05256592 -0.5838447 -0.3202931 0.03954184 -0.5210004 -0.8378939 0.2218888 -0.5463985 0.3346543 1.319765 0.2149722 -0.0939421 -0.06008905 -0.6839867 -0.2739367 0.9288677 -0.07963073 -0.5755762 0.4993872 -0.6764323 0.3672851 -0.3627141 -0.6878647 0.5090935 -0.06746201 -0.3812685 -0.01554615 -0.3760085 0.02269098 0.4266239 0.5261686 0.2959343 0.3198638 -0.4751827 -0.4988204 0.8096568 0.2828262 0.0816704 0.9448833 -0.2917016 -0.04403368 0.2972674 -0.7190307 -0.01073088 -0.5675123 -0.2275984 0.1935012 0.6611177 -0.03870408 0.2267442 0.7373213 -0.1756126 0.2343464 0.3268909 -0.4706986 -0.6896975 -0.3136659 -0.2256164 -0.1566342 -0.218059 -0.6903214 -0.3192596 0.2662642 -0.9052598 0.1577024 0.2337222 -0.1301613 0.07908956 1.451495 0.09930755 -0.1182939 -0.4774913 -0.0006253517 0.4815131 0.4434354 0.1284804 0.4955187 0.002605033 -1.561775 0.09458435 -0.1031892 -0.1254244 0.6785906 0.2750081 -1.157935 -0.1405742 -0.8697729 0.9000931 -0.5263863 -0.2183546 -0.737626 -1.452978 -0.4210054 -0.2656738 0.1546461 -0.151336 -0.3156945 -0.2554725 0.1066612 -0.2100327 -0.4065354 0.6550487 0.8498166 0.2367886 0.2413363 0.2156789 -0.7999106 -0.7787772 -0.5450565 -0.8027484 0.1595361 -0.1304237 0.7588666 0.1317846 -0.01344902 -0.1587636 -0.1854301 0.3556962 0.1088046 0.1790828 -0.01153429 -0.3622007 -0.1287613 0.4827472 -0.005856653 -0.3197148 0.3884524 0.01157464 -0.1663458 -0.1160567 0.9957189 -0.124841 0.1862973 -0.1956133 0.8577888 -0.7541211 -0.5555906 -0.01071035 0.003549707 -0.6616417 0.1131274 -0.274224 -0.3394236 -1.379295 1.086421 1.129807 -0.4404677 -0.291537 -0.5482082 -0.2876027 0.3070158 -0.1009227 -0.2897958 0.2899973 -0.313966 -0.139487 0.7378929 0.1385956 0.1412436 1.027065 -0.0009621267 0.345006 -1.074305 0.2756538 -1.784677 -0.3873595 -0.6144878 0.3484839 -0.1522428 0.09285434 0.428991 -0.04132757 0.4794583 0.1819862 -0.4082995 -1.117373 -0.5049828 0.2324355 0.7578275 0.1076245 0.2820264 -0.2685699 0.4581634 -0.4531394 -0.5133415 0.03958862 -1.003068 0.4387502 -0.02597413 -0.265182 -0.5639142 -0.07142816 -0.952448 0.1121895 -0.02014414 
  0.3810056 -0.05178615 0.07723438 0.6194298 0.06048506 0.06933122 -0.2011878 0.6729253 -0.1842356 -0.8530309 -0.09638635 0.9763137 0.3477832 0.4338421 -1.119992 -0.5895631 0.01753904 1.424989 0.008539454 -0.3146937 0.2740303 0.1129506 -0.6402965 -0.5204784 1.160627 0.003757607 -0.7812998 0.6419674 0.0914262 -0.01654422 -0.0003937352 -0.4092459 -0.54632 -0.7566859 0.3203751 -0.3689045 -0.5490391 0.447879 0.2426725 -0.1196664 0.02959251 -0.3050539 0.424927 -0.5924773 -0.71573 -0.9856336 0.1356349 -0.788515 0.2931502 -0.8006192 0.1369328 0.06580979 0.3899347 -0.2059527 -0.6232024 1.234206 -0.1030917 -0.04073302 0.3667203 -0.208217 0.2324938 0.6327291 0.8123567 0.496277 -0.2016659 -0.1467728 -0.05523691 0.7128848 -0.3440836 -0.854893 -0.621069 0.3132815 0.2389626 0.2388939 0.1509796 1.352316 0.5614889 0.07885666 0.1455661 -0.3823271 -0.9102129 0.8959708 0.0720217 0.0775014 0.6657959 0.155028 0.1544614 1.012201 0.6585258 -0.5597307 -0.1128982 -0.3568567 -0.4317923 0.3224627 -0.2305774 -0.7908695 0.005647478 0.09235794 -0.2633441 -0.3411273 -0.613139 -1.373697 -0.02905473 0.5053328 0.3389013 -0.1884546 -1.239175 -0.3895101 0.8811572 0.5932945 0.623328 -0.1608567 -0.1248249 -0.8306768 -0.09870505 -0.2129407 -0.4171602 0.2391055 -0.06151283 0.4327095 0.1145384 -0.1769318 -0.07649375 -1.05459 0.5356542 0.2017408 0.7366351 0.2855656 -0.2523595 0.3037701 -0.5233521 -0.5985166 0.8273377 0.2280221 0.0713009 0.2561293 0.08674341 -0.1936189 0.2966329 0.1349318 -0.3404449 0.7362724 0.2600895 -0.2077674 -0.4446061 0.4381879 0.1262908 -0.3077548 -0.2586718 -0.002736833 0.5362812 -0.6485695 -0.3449122 -0.8804555 0.03436721 -0.1299016 1.095992 0.2700808 -0.6894522 -0.0331252 -0.6330543 0.475816 0.4804791 -0.04650497 -0.1155539 0.2812244 -0.5555885 0.2164819 0.2278444 0.3703074 -0.898512 -0.2991982 0.007951546 0.2610132 0.3300807 0.5861137 -0.01911213 0.4502895 -0.2177154 -0.03141309 0.4684416 0.05820037 -0.4708664 0.1521361 -0.4595622 0.2085175 0.3057535 0.05800721 -0.7029362 -0.007470447 0.1673354 0.1312011 1.272935 -0.09237975 -0.9153893 0.111731 1.530408 1.147095 0.7883512 -0.9449923 0.1203009 0.6632082 2.65631 0.04806194 0.1762297 -0.02768667 -0.749109 -0.6442159 0.7209221 -0.70428 -0.04022311 -0.2083802 -0.2900394 -0.6136361 -0.01343167 0.001709093 1.107643 0.7472208 0.1600823 0.6480953 -0.8299037 -0.296643 -0.6070413 -0.3705634 1.408881 -2.521683 -0.8870683 -0.5388089 -2.036776 -0.1035705 1.741895 -3.41841 0.9447199 -0.7484532 -0.7606542 -1.133011 0.5279986 0.2757876 0.5210602 -0.3075516 1.169753 2.149038 -0.1086094 -0.6586717 -0.4691187 -0.4968328 0.5055572 0.3466666 -1.122816 0.9855441 0.1091185 0.03991513 -1.283063 -0.1998455 0.8037437 -0.5704028 
  -0.1790948 -0.2623591 -0.6351134 0.5347317 -0.05242062 -0.009306169 -0.9580876 -0.13839 0.3009414 0.5460184 -0.836559 -0.7791519 -0.6361661 -1.025204 0.762537 1.237574 0.02956183 -0.1899621 1.634252 -0.2345464 -0.668936 0.5090885 0.4702428 -0.3118591 -0.1178298 0.05071754 0.1094129 -0.06898829 1.159189 -1.312636 -0.09769803 0.2099172 -0.08591618 0.5222952 -0.6692312 -0.5400655 -0.06649355 0.3516526 0.5972573 0.1171096 -1.04002 1.173008 -0.3246474 0.226865 0.7905346 -0.3216484 0.7772048 0.1313959 -0.4905642 0.6372877 -0.01282835 -0.8165612 0.5904634 -1.214463 -0.1916684 0.7795348 -0.04893186 -0.6979639 0.1982009 -0.06258543 0.0563699 -0.07050446 0.9270911 0.2595414 0.3451616 -0.2700022 0.4596162 -0.1332402 -0.3565761 0.3651556 -0.4116744 -0.8067466 -1.029828 -0.5145996 0.3254323 -1.614188 0.1834457 0.3492603 -0.7964735 0.3490641 0.01085993 -0.6782758 0.3049441 0.3540163 0.6354799 -0.9062935 -0.5759179 -0.09591366 0.5309772 0.5963925 -1.552234 0.311058 -0.2117248 -0.3878777 0.5064024 0.6572508 -0.2528738 -0.1665022 -0.7561444 0.216516 -0.001019167 -0.1956614 -0.7382784 0.163475 -0.4387146 -0.2471303 -0.06939312 0.5960436 1.060312 0.5870085 0.1754913 0.1553109 -0.06461 0.4108123 0.929818 1.185797 0.206764 -0.9222016 0.8200769 0.5830541 -0.6235837 -1.037279 -0.118086 0.7529752 -1.631837 -0.02644367 0.4118273 0.4234028 -0.5885357 -0.1584585 0.2908698 0.4243438 -0.2509842 0.3475741 -0.2806995 -0.3587198 0.2036489 0.3261326 -0.7055133 -0.2223734 0.2182918 -0.7090388 -0.5393193 0.9834456 0.500023 -0.553514 0.7151662 -0.002062517 -0.4856028 -0.5729231 -0.2280816 -0.4744635 0.864558 0.1496712 0.3553492 0.7040905 -1.442132 -0.3970087 0.1838087 -0.02863167 0.05272515 -1.174062 0.1477882 -1.265264 0.6560204 0.6701897 0.3310266 0.6796 -0.5468186 1.147121 -0.1340468 -0.3243373 0.844065 -0.6490642 0.4671743 0.3109295 0.5657356 -1.021597 -0.4495958 -0.1357936 -0.01947229 0.5733131 -0.1151661 -0.6396838 0.1866989 0.8628381 -0.08773051 0.1522363 -0.2861804 -1.114608 0.9629176 0.7234595 0.1718515 -1.070737 0.4254169 1.344763 -1.021695 -0.6184347 0.2108822 1.337029 -0.2725283 0.03853554 -0.5935913 0.2415725 -0.7187992 0.8064893 0.6549681 0.2229222 -0.02093597 0.2998004 -0.3286096 -0.5801926 -0.6749966 -0.9344579 0.2476197 0.7242102 -0.3879584 -0.4761733 -0.252512 -0.6857734 -0.6887602 0.4213364 -0.3504734 1.203762 0.6370686 -0.5171128 0.4887792 -0.359285 0.04753039 -0.6532878 -0.7516852 -0.1941835 0.5054636 -0.9063642 -0.1472667 -0.1652753 1.471449 -0.06046697 -0.03898731 -0.9101728 0.9903479 0.1591098 1.239154 0.2245285 0.04731333 -0.2645687 0.1711407 -1.083883 0.2430332 0.3881049 1.009719 0.7737594 1.193459 0.6286241 0.9266426 0.02580046 
  0.0311604 -0.05122504 0.502958 1.155522 0.4375977 -0.7019174 -0.2878108 -0.9863167 0.6968626 -0.02676947 0.1921836 0.1339301 -0.01806108 -0.4623928 1.296432 -0.1321462 -0.3883604 1.162012 -0.6342368 0.6365043 -0.9795449 0.6751577 0.522008 0.2384378 -0.6734681 -0.5126951 0.7010159 -0.4284509 0.1175184 0.4371454 -0.6763644 0.5813655 -0.619525 -1.241345 -0.6653113 0.07489939 -0.1297393 0.05689421 -1.024727 -0.499923 0.1202596 0.4348884 -0.1862174 0.5797181 0.4412147 -0.2888379 -0.4566956 -0.4627287 1.000083 0.009586044 0.3667015 -0.1929033 -0.6517408 -0.5006962 0.04871886 -0.9718904 0.7853755 0.09061635 0.5752984 -0.1245089 0.5094541 -0.2792595 0.0129807 0.3904134 -1.541654 0.1289164 -0.7171009 -0.4638961 -0.1226905 0.5074166 -0.961894 0.2667005 -0.3352261 0.5005946 -0.2717891 -0.3546796 0.1527511 0.1382877 -0.4834065 -0.9272758 1.093803 -0.518908 0.9417207 0.016519 -0.3754022 -0.71212 -1.268716 -0.51741 -1.631041 0.2667607 -0.846929 -0.7422778 -1.149286 -0.1769453 0.1300806 -0.07420375 0.2646317 -0.2417517 0.1758038 -1.295114 -0.5995141 -0.5791132 0.3145408 -0.1504774 0.4821804 0.1448118 -0.6776718 0.2240708 -0.3712666 0.9961144 -0.2601178 -0.07480697 0.18969 -0.09743597 0.312636 0.7285899 0.1838046 0.1569228 0.05430597 -0.1353535 -1.396702 -0.6053734 0.3129404 -0.1702737 0.2115715 -0.05251972 -0.04851254 -0.9080716 -0.7712721 -0.4370106 0.07282155 -0.705363 0.02684886 0.7683473 0.2256746 0.6082644 0.4402309 0.8935213 0.2299725 1.091485 0.02139445 0.2236403 0.02765196 -0.9041184 -0.1919869 -0.284351 -0.8698714 -0.07972164 -0.06089101 -0.1173402 0.5405283 -0.1120114 0.4970446 -1.034373 0.2404795 0.736916 0.5643467 -0.6341512 0.6758185 -0.4189056 -0.2386194 0.3015614 0.2160935 -1.140476 -1.410662 0.3074481 -0.9563303 -0.4331218 -0.01255328 0.5617742 0.8036739 -0.2306028 -0.473855 -0.3702004 -0.1091697 -0.8473778 0.1219921 -0.3722643 -0.01794661 -0.6176071 0.09352395 0.191341 -0.8096844 -0.3796432 0.2099012 -1.471183 -0.1059418 0.03661569 -0.6402438 -0.7064072 -0.5512252 -0.4216646 0.7128991 0.2271513 0.483274 -0.8586808 -0.5777524 -0.2038498 -0.8659501 -0.4537646 -0.07249115 -0.2969637 0.5528809 -0.7449241 0.555029 -0.8353608 -0.6174893 0.1420025 -0.30108 0.6509663 0.9474868 -1.147503 0.400417 0.5362831 0.6238047 -0.3305155 -0.9074804 -0.3890547 -0.5360113 -0.6045417 -0.6356294 -0.6245015 -0.3989356 -0.4863485 -0.624732 1.134803 -0.766727 0.7910781 -0.1861143 -0.1286669 0.3636756 -0.8163534 -0.1849073 -0.3395254 0.3292698 0.7420108 -0.04658819 0.9396919 0.5820351 -0.6791821 0.9126793 0.2157081 0.3489321 0.4210857 -0.6924114 0.09984855 -0.4809349 -0.5098106 -1.173996 0.5228996 -1.291229 0.1064148 0.4825814 0.2965817 0.1595825 0.3723651 
  0.4783026 -0.8300087 0.008040801 0.0358867 0.4092973 0.6284381 -0.03868485 -0.3809609 -0.02854504 0.1437967 -0.1349839 0.9957718 1.042208 0.6868162 -0.4889812 1.165149 0.1989967 0.01262018 -0.4953774 0.5638453 -0.2872587 1.26241 -0.1133231 -0.3619463 0.1695488 -0.4479971 0.07865551 0.1077444 0.1558891 -0.02784988 -0.485921 0.1306759 -0.02740295 -1.3072 -0.2517885 -0.3603411 -0.6996226 0.0371183 -0.3638038 0.1547487 0.3600444 0.3927058 0.2179197 0.6108252 -0.5851957 -0.6252369 -0.9280624 0.4327592 0.754374 -0.6675994 -0.7581552 -0.06635573 -0.3092442 -0.580242 0.4353482 -0.2686103 0.3309005 0.05770173 0.4595224 0.3151658 0.5818484 0.862182 0.0963093 -0.6731485 0.1087076 0.3786819 0.1319287 -0.5424057 -0.4667132 0.3912542 -0.4053042 -0.03860303 -0.5806906 -0.2124638 -0.1540363 0.826524 -0.3695837 -0.2228279 -0.2434492 -0.05324169 0.414682 -0.05782121 0.2094979 0.6348268 0.6318914 0.1630527 -0.347994 0.3294007 0.948693 -0.4992736 -0.09324306 0.1293877 0.2215722 0.3610681 0.08822288 0.188997 0.4225201 -1.39418 -0.3256398 0.5763583 -0.6705051 -0.5270292 0.1292251 -0.5754783 0.4232575 -0.02857363 0.4156835 0.6664284 0.0818693 0.6279153 -0.1081559 0.2719237 0.6691372 -0.1529022 0.2228194 0.4301028 -0.3140839 -0.320647 0.5104071 -0.6824916 -0.4768712 -0.2739732 0.06257014 -0.4588374 -0.2053969 0.3791472 0.6124172 0.2576839 0.9337332 -0.4739211 -0.1194218 0.3735808 -0.1025745 -0.1720536 -0.05814588 -0.3362315 0.8593979 0.634315 0.5870965 0.4418817 0.150026 -0.1489048 0.4570319 1.122272 0.4671388 0.4232382 0.498643 0.04730017 0.6014542 -0.7160972 0.3657379 0.3202662 0.1881812 -0.3519587 -0.05089375 -0.06665376 0.4686514 0.9415049 0.3886814 -0.08865139 -0.2528148 0.5810872 0.4663159 -0.6922302 -1.203458 1.446923 -0.3710418 0.3552617 0.1916489 -0.4257658 -1.723227 -0.3480512 -0.5953392 -0.3565558 -0.3419428 0.2606098 0.5793628 0.4244432 -0.4181516 0.2045148 0.4396795 0.6433194 0.06282269 -0.2721354 0.2280992 -0.7311349 0.8990414 0.1489301 -0.6586747 -0.4988222 0.03793838 -0.2324528 0.4917665 -0.7116596 0.1810233 0.3795319 -0.8541431 0.2954503 -0.3226125 -0.02216014 0.5530282 0.1848659 -0.7900453 0.2379035 0.2007188 0.7488517 0.5959322 -0.4792241 -0.05345966 0.4831619 -0.09585265 -0.9161836 0.6101814 0.07926643 0.3661897 -0.8615567 0.1010331 0.135649 -0.5038117 -0.5280646 -1.135918 -0.4421784 -0.4511214 -0.5944557 0.1075021 -0.07297102 -0.4636014 0.1865209 0.1511841 0.644177 0.1311667 -0.543031 -0.7419922 -0.812771 -0.6387736 -0.08453674 0.4821501 0.7315418 -0.9860172 0.7751158 0.6125778 0.9849333 -0.2736898 0.3388842 0.2057093 0.71679 0.4041914 -1.182663 0.4883277 -0.2553615 -0.9858382 -0.4248295 0.3223803 -0.7135265 -0.1857713 0.4860861 
  0.6201608 0.9312819 -0.1245911 0.3126122 -0.6454223 -0.3188772 -0.3540747 -1.237855 -0.1154492 1.035499 -0.3877842 0.4383035 0.3771612 0.1089833 -0.1543497 0.9967363 -0.4100859 -0.02819665 0.01805747 1.315487 -0.2597871 -0.113135 -0.3436194 -0.2469694 -1.945022 -1.045826 -0.1186143 0.794733 0.437815 -0.0910826 0.671337 0.7886786 -0.3577395 -0.1364879 0.3453458 -0.4802043 -0.4729733 -0.3221489 -0.3656389 -0.5144772 0.5778846 -0.1678578 0.2096754 -0.05205028 0.1921051 -0.5766692 -0.2533639 0.1175618 0.6157916 -0.09331253 0.122135 -0.1281634 0.9257146 0.06835645 -0.8126345 0.4727145 0.3438439 -0.5249809 -0.4458642 -0.7905572 0.2299516 -0.8098956 0.1232742 -0.1660429 -0.4054867 -0.2218646 -1.002787 -1.021174 0.3268223 0.2703854 0.01009118 -0.02683482 -0.2326964 -0.6648108 0.3835304 0.1675993 -0.05650682 0.0899188 -0.7376968 -0.1907302 0.5399457 0.4010433 -0.4720086 -0.5724781 0.386062 -0.282322 0.1708645 -0.4552974 -0.06069391 0.426419 0.2877047 -0.2930169 0.07673775 0.8407391 0.4030528 -0.9785153 -0.3554469 0.835489 -0.7337669 0.2881749 -1.927403 -0.9179587 0.2837133 -0.6728984 0.6618708 -0.2044996 -0.2264456 0.06913343 -0.2744027 -0.04517002 0.166069 -0.06848178 0.2205658 -0.2380651 -0.100153 -0.2953735 0.2217805 0.1124702 0.07132991 0.5144886 0.321094 0.4385302 -0.9004403 0.5661613 0.138495 0.6225815 -0.4200444 0.6180663 -0.7694111 0.08551693 0.5722712 -0.06616246 0.2092465 0.3068458 0.1412861 0.02208949 0.3069317 0.196805 0.5295572 -0.009415153 0.8515461 -0.02444155 0.7939438 -0.4761532 -0.5473541 -0.5503283 -0.4003071 -0.1733595 1.423632 -0.05973801 -0.08064046 0.3934093 0.2088215 -0.1210172 -0.9101394 -0.1326881 0.3096503 -0.8988311 0.36393 -0.4685462 -0.5727757 0.7146512 -0.02153821 -0.2255174 0.2093254 0.1781813 -0.9105153 -0.3221487 -0.3257302 0.1222074 0.6910419 -0.257872 -0.03345916 -0.9933676 -0.08148649 -0.03664542 -0.3211448 -0.4598266 0.5795848 0.3334599 0.5034538 -0.5632897 -0.1556804 0.5671102 -0.4125418 0.03724034 1.091199 0.489049 -0.8299973 -0.4542019 -0.2969033 -0.4334621 0.9567849 -0.06089715 -0.3357992 0.7634577 -0.732366 0.08181448 -0.3725321 0.2813833 -0.1832688 -0.01296737 0.1411023 -0.03931806 -0.09265116 -1.139632 -0.05307518 1.084474 -1.347964 0.3705565 -0.2609722 -0.4928689 -0.2666887 0.1494846 0.3202055 -0.08499634 0.105737 0.8394731 -0.7670819 0.4330165 0.4578049 -0.007231492 -0.5353221 -1.474245 -0.05685423 -0.5986845 0.03723253 0.2798585 0.4756411 -0.3145431 -0.6945644 -0.5293781 -0.6418985 -0.1343605 0.2852153 -0.1525323 0.4148661 0.1301509 0.4710693 -0.1393266 0.1449714 -0.1663854 -0.1949433 0.4500025 -0.2751477 -0.2337707 -0.4847338 0.04147382 -0.1110018 -0.005908189 -0.5630081 -0.4351282 -0.2088422 0.345777 -0.1125175 0.8338462 
  0.01980487 0.8096927 0.3852355 -0.5402866 0.2573795 0.2729084 0.226912 -1.162711 -0.2108805 0.3948751 0.01479379 0.1506298 0.9981063 -0.5173286 -0.3693097 0.07907034 -0.7151146 -0.1580544 -0.6461151 0.2397049 -0.02339936 0.7347292 -0.5429727 -0.5122741 1.050207 0.3526177 -2.51606 -0.6119803 0.3491477 0.369284 -0.03949296 1.483793 -0.4694928 0.3206068 0.3874608 -0.3098225 -0.7804195 0.1032037 -0.3710879 -0.4567848 0.8059334 0.02798278 -0.03489055 -0.3533861 -0.2024311 1.003426 0.3640399 -0.3583789 0.5900325 -1.027461 0.2622846 1.24392 0.5231274 -0.4080806 0.2605453 0.070649 -0.3910972 0.1649788 0.0500094 0.1392789 0.01898115 0.1897976 0.3710372 -0.7208312 0.1574938 0.2372479 0.5533441 -0.0885972 0.1772888 -0.2624047 -0.01480814 0.1016244 0.2716692 0.01935094 -0.1408313 -0.3093379 -0.836641 0.737067 0.3315918 -0.2454904 -0.4779477 -0.679966 0.2482278 -1.184266 -0.9922001 -0.3486131 -0.1859126 0.02029852 -0.3293181 -0.06253364 0.4962303 -0.1201899 0.8793089 -0.1997471 -0.1268044 -0.9081073 -0.600206 0.1951254 -0.5298388 -0.044591 -0.04474081 -0.1317697 0.2479481 -0.2224134 0.2618625 -0.214631 0.7479696 0.3709481 1.208913 -1.605682 0.07479514 -0.1310877 0.475917 0.06822713 -0.1629021 -0.2492867 -0.6530315 0.7293404 -0.2572125 -0.2932932 0.300404 -0.1559451 -2.801951 0.2744044 -0.1337699 -0.9166998 0.4092319 1.176908 -0.9039976 -0.3037522 0.1495458 -0.3554202 -0.6402594 0.1114086 -0.6294215 0.4728201 0.4490493 0.7359208 0.4953645 0.4369219 0.1508932 1.33567 -0.1053638 0.3290758 -0.4415446 0.05436115 0.1874364 -0.4220322 0.7775974 -0.6037968 0.4501061 -0.009405555 0.1345168 -0.1940048 -0.1738227 0.6888883 -0.8419933 0.8185923 -0.1272011 -0.3477287 0.2786408 0.140392 0.3785787 -0.5720869 0.4743065 0.05121096 0.5365297 -0.7113067 0.681719 0.2326424 0.04630324 -1.705423 0.3482289 -1.003612 -0.7121566 0.4810049 0.507075 0.2075161 -0.1973556 0.4948623 0.2394499 0.1437869 0.4789587 -0.4327154 0.3118956 -0.1492952 -0.8869718 0.08310498 -1.958067 -0.08239804 0.2502731 0.5540413 -0.009062873 0.3938136 -1.309285 0.4965528 0.4130109 0.08503263 -0.9283221 0.6700609 0.7450056 0.4884795 0.4246836 0.3583186 0.2180137 0.7464496 0.0717385 0.3236151 -0.5071409 0.5282684 -0.1944567 0.1858499 0.6707316 0.3377975 0.2785414 0.2130436 -1.159301 -0.2171918 -0.3086866 0.5734528 -0.09650717 -0.121106 -0.1830067 -0.3385302 0.02090805 -0.1230984 -0.4196633 -0.1520057 0.02273879 -0.2113171 0.1658159 0.1304371 -0.16259 0.08810274 -0.6648482 0.3669163 0.9926422 0.1659286 0.582094 -0.8646061 0.3017668 0.4025536 -0.3209883 -0.07849687 -0.5543564 0.05361097 -0.776387 -0.1365126 0.4148281 0.08083602 -0.5932074 -0.7311914 0.4055614 0.02455613 -0.5240988 0.5674737 
  -0.3292268 0.9006362 0.727388 -0.06753272 -0.3344202 -0.06419703 -0.03956543 -1.031479 -1.317575 0.4870593 0.4287555 0.3678441 -0.1659976 -0.8472282 -0.4735174 0.6534051 0.06973255 -0.4535432 -0.3229096 -0.2109349 -0.4330844 -0.1814868 0.2967488 0.2926354 0.2956771 0.04215781 0.4400209 0.2365787 0.1268807 0.4240366 1.034481 -0.4876758 -0.899202 -0.0469524 0.1901874 0.9999383 0.9454225 1.629917 0.460888 0.4708889 -0.7024013 0.2888655 -0.8605466 0.2836076 0.4425368 -0.21276 0.01778637 -1.021923 -1.345891 -0.8229858 -0.2290138 1.039293 0.05684915 -0.1341604 0.7242954 0.5371947 -0.4642139 0.1246937 -0.3906504 0.1823182 0.1517472 0.07129377 -0.007792239 0.4700888 -0.5678936 -0.4048554 0.2552155 -0.64275 1.253676 -0.004868598 0.1714765 0.4608877 -0.1077156 -0.08081894 -0.1439839 0.6530195 0.2746482 -1.30138 -0.1944054 0.1337235 -0.5253001 -0.5955126 0.08381601 2.237825 -0.5768119 -0.2128207 -0.3968814 -0.4173597 0.01744059 0.4308839 1.0365 0.1797971 -0.6382047 -0.2739581 -0.7728935 0.07419301 -0.2232052 -0.5477637 -0.003875138 -0.6144985 0.1465751 0.2376362 -0.3353997 -0.2653649 -0.4754592 0.1345707 0.03601025 0.2551225 -0.8194108 0.410422 -0.3059108 0.008444526 1.024803 -0.1555646 0.2051051 0.1114732 -0.3533308 0.2189696 0.1262768 0.3711985 -0.6466088 -0.1254409 0.8075255 -0.1267237 -0.1316192 -0.1908675 -0.24804 -0.2992703 0.731359 0.3397828 0.7416102 0.3200789 -0.7233452 -0.1366833 -1.1884 -0.3895569 -0.3387304 0.01772542 0.1916933 -0.8306833 -1.664868 0.6585531 0.1740886 0.2421975 0.5375178 -0.6781921 0.1037223 -0.7028266 0.3086791 0.6414283 -0.5027633 -0.9841537 1.879402 0.4533338 0.9903263 0.8722173 -1.14661 0.06994151 -0.2048489 0.19517 0.3826562 0.1277243 -0.325603 0.3012706 -0.2023251 0.3733672 0.4770952 0.3452059 0.1335531 0.368957 -0.414357 0.2813143 -0.3664302 0.9207164 -0.6663336 1.149337 -0.4454946 1.349862 0.1451432 -0.4619448 -1.1586 0.03749813 -0.2073776 -0.5351207 -0.6237854 0.4667602 0.3171353 -2.273714 0.04491856 0.08160904 0.1235575 0.4791471 -0.5402483 0.548287 0.3219292 0.4790162 0.3497433 -0.598209 0.1591713 -0.2633865 -0.6565118 0.05190224 0.3822731 -0.5925676 0.638397 0.3830676 0.1841845 -0.1647317 0.3047253 2.70986 0.1103211 -0.2982595 0.5519106 -0.5016488 0.03146389 -0.8900846 -0.1486393 -0.05077073 0.375803 0.7626051 0.1830593 -0.465672 0.1573345 0.2056106 -0.2364931 -0.4118912 -0.7520846 -0.3198998 0.3173696 0.1491967 0.02256259 0.6980751 0.7547083 0.1181579 -0.4946648 0.1920721 0.2192657 -0.07772866 -0.2562839 0.1030633 -1.657171 -0.6552629 -0.5383056 0.8460356 0.6909254 -0.188635 -0.7345598 0.2596975 0.1798596 0.3485507 -0.6010312 -0.123304 0.3785031 0.00297729 0.7051527 -0.9040306 
  0.7519205 0.2162579 0.4953191 0.8107417 -0.6345278 -0.6401264 -0.5908498 -0.7366482 0.774727 -0.5802169 0.8220689 0.3868927 0.7797149 -0.7253221 1.258981 1.135301 0.7362424 0.8101677 0.4024546 1.618734 -0.3354003 -0.1243939 0.1025747 -0.9203072 0.2985312 0.6536849 0.3851307 0.7148111 0.1966189 1.166374 0.1804855 1.355272 0.1183539 0.01505512 -0.7731997 0.2257159 -0.3938111 -0.3848077 -1.194256 -0.5789232 0.3539045 0.2725309 1.00878 -0.1662795 1.132958 -0.209783 -0.7430735 0.3152243 0.02607241 0.1383429 -0.5718055 0.3017095 0.4740845 -0.8889171 -0.4224142 -0.3718909 -0.143771 0.7548195 1.343347 -0.02886177 -0.9649544 0.1837783 0.3066147 -0.2028767 -0.4798013 0.2551993 -0.8356455 -0.5676439 -1.28979 1.7125 -0.1807213 0.8593826 -1.080484 -0.2989218 0.1952892 -0.5552584 0.8276199 0.2355623 0.05693747 -0.4022572 0.5145237 0.7655615 -0.02980326 0.8515285 1.924389 -0.7994816 -1.040162 0.56549 -0.07799093 0.5174806 -1.022102 -1.130819 0.2791298 0.6719559 -0.7609202 0.5482689 0.2991358 -0.4467452 -0.2072973 0.8013814 -0.6380447 -1.586574 -0.1091168 0.5110472 -0.01823335 0.000132154 -0.1871721 1.398373 1.289263 -0.9092212 -0.236423 1.624854 1.003808 -0.06269747 0.2501731 1.589789 -0.6537626 -0.3876859 0.9563642 0.4164563 0.5363886 -0.6307151 -0.5937539 0.6526867 -0.762419 0.7553859 0.03296192 -0.5103257 -0.4007526 0.7806246 0.6295212 0.343411 0.2105121 -0.2723445 -0.1314148 -0.2359562 0.529877 -0.02946494 0.05126572 -0.1875987 0.9508694 -1.370284 -0.1120068 0.1682145 0.09615103 0.5724325 -1.322564 0.8788859 0.8441388 -0.3489412 -1.365648 -0.3155106 0.5155452 -0.6619527 -0.9047259 -0.7732396 -0.0957998 -0.002122171 -0.2621189 0.2506124 -0.7260758 -0.3678063 -0.5410309 0.380736 -1.474077 0.2604685 -1.536348 0.02833489 1.129441 -0.9209546 0.7359577 0.6340157 0.1001627 -0.143208 0.6120342 0.8849588 0.4102689 0.06536379 0.05031041 0.4470697 -0.3622566 -0.4351341 -0.8518084 -0.2076664 0.7808877 -0.5620078 -1.039883 -0.2369618 -0.4690204 -0.1915616 0.1494846 -0.952598 0.7432597 -0.06604059 -0.6999926 1.054352 0.3178341 -1.268479 -0.8747472 0.8002343 0.4994763 -0.6475921 0.5947198 -0.2129582 -0.7168487 0.5927936 -0.1298261 0.7088604 0.8051812 0.8485165 -0.5359229 -0.4290717 0.6959711 1.004555 -1.506392 -0.4603146 -1.546139 0.9508311 -0.5701079 0.3217472 0.09916732 -0.5847285 -0.6927217 -0.9503736 0.3447163 1.722449 -0.9349704 2.477954 -0.3939898 -1.853658 -0.8482952 -0.2447039 -1.047353 -0.2242894 -0.01887324 0.2810046 -1.100451 2.209739 0.4965936 1.08465 1.19353 -1.086071 0.687649 1.361063 0.2650388 0.004131975 -1.582347 0.4087819 -1.08269 0.4178547 -0.2088149 -0.5161525 1.274458 -0.007708034 1.045703 -0.3947355 
  0.1834729 -1.939499 0.4793543 0.9639938 0.6620453 -0.07119299 -0.9007696 0.3664553 -0.2196202 -0.2629102 -1.087617 -0.351435 -0.7147076 0.08849332 -0.154548 0.4509867 0.8340486 -0.1956698 1.292185 -0.2791486 0.7293464 -0.670903 -1.809792 -0.235733 -0.4859484 0.1499129 -0.7657545 0.09974128 -0.06793981 -0.0774719 0.5008956 0.9365616 0.03440809 -0.03384007 -0.3638271 -0.06512587 0.507674 0.4352454 0.7064672 0.06358123 -0.2621483 2.213588 -0.2262354 0.8402687 -0.04792335 0.6098903 -0.5936073 -0.1333559 0.3868724 -0.5998526 0.6248309 0.5145764 -0.05760392 -1.106374 1.004841 0.1347041 0.6682225 0.5703757 0.4939812 0.3912744 -0.8440986 0.3227068 -0.883774 1.034652 0.3828939 0.051897 0.0335695 -0.4510784 -0.3198652 -0.6273884 -1.088376 0.1119559 -1.337067 1.821601 0.1142712 0.1684451 -2.154934 0.3290909 -0.6775967 0.3129197 -0.1671709 -0.4257761 0.3851923 0.3173966 -0.1783538 -0.03932887 -0.04580071 0.3446687 -0.6021436 -0.4993629 0.4853377 -0.421993 0.0995839 -0.03457693 1.947305 0.5105061 -0.004623445 -0.1350949 -0.3724566 0.7195441 -0.2556008 0.589312 0.3044448 -0.08334228 0.3844655 0.9563772 0.6473667 0.3954137 0.6179437 -0.7668778 0.1252881 0.6345709 -0.5572773 -0.2495163 0.03074872 -0.8408551 0.2119674 -0.4586177 0.01270931 -0.1953419 -0.01208444 0.6214191 0.1731957 -0.2586662 0.1671453 -1.111482 0.7175151 0.4893148 -0.9225971 0.712799 0.3670746 0.1976537 0.1881804 -1.286771 -0.492905 -0.008336441 -0.03766394 -1.396472 0.3393635 -0.4228827 0.000767331 -0.3125715 -0.7100821 0.4871642 -0.8299922 -0.2366583 -0.4386545 0.5573699 -0.4212002 0.7363773 -0.07945091 0.3222697 1.621565 0.1870946 -0.05610828 -0.06630812 -0.1256679 -0.004155276 0.09921413 -0.8724475 -0.8258283 0.1425117 -1.206174 0.2144435 0.5625498 0.5921094 0.3186796 -0.182483 -0.3679239 -2.318383 -0.2182397 -0.5399005 1.051936 0.09364864 0.3371207 0.01296732 0.041262 0.01247552 -1.213181 0.6164337 0.4222877 0.941351 0.7331287 0.01792763 0.827815 -0.07793005 0.01911769 0.8294968 0.2520854 -0.1016488 0.501169 -0.2370336 0.3972919 0.09018847 0.4564672 0.2026704 -0.4840169 0.1461091 0.1644814 -0.3003111 0.6640781 -0.8271281 -0.3546238 0.6768616 0.5374156 -0.5833206 0.4449699 -0.2992017 -0.9425002 -0.09925213 0.5878032 0.4636687 0.1255235 0.9545811 -0.08116084 0.7017671 0.7510611 0.296265 0.3549411 0.08587746 0.3042662 -0.2599132 0.1716641 -2.617278 0.05419992 -1.133707 0.7448021 0.7918999 0.4437308 0.1096946 -0.6993871 -0.3013319 0.3688278 0.3236138 -0.04502341 -0.9955072 1.169674 -1.073071 -0.01287984 -0.0670854 0.2960978 0.4794826 1.142577 0.5179016 0.2269783 0.0902801 -0.2150137 0.2404141 -1.8144 0.5040656 -0.1223689 0.09206042 0.1626857 -1.30761 -1.226475 0.5778025 
  0.06692971 0.4897898 -0.3322584 0.8898879 0.4781351 -0.6795688 0.07931785 0.06597791 -0.901112 1.22788 -0.0441583 0.3527768 -0.744739 0.2909086 -0.07926755 0.1114051 -0.3325355 -0.01405387 -0.4393466 -0.6571561 0.2459145 -1.45918 -0.1955977 0.09767882 -1.105006 0.7521394 1.212595 0.8102914 0.2395498 0.5050544 0.07503101 -1.697212 0.6906945 -0.7015434 -0.4096421 -0.1887608 0.02608616 1.05983 -0.09578601 0.001951221 -1.201224 -0.957786 0.7590803 -0.9114529 0.1264158 -1.696177 -0.354983 -0.3249559 -0.05606403 0.05453062 0.05653707 -0.8051895 -0.7182151 0.5669634 -0.2134765 -0.7249974 -0.3226538 -0.09846336 0.4250091 -0.528284 0.7602556 -1.074635 0.008574998 0.5345792 0.1506419 0.1057405 -0.1371201 0.450498 -1.046729 -1.162766 -0.1449706 0.09123725 0.07055414 -0.2013935 0.4915607 0.03571191 0.1383488 0.4033419 0.7763573 0.3707354 -0.2920304 -1.132648 0.06415077 1.338139 0.9685917 0.7435689 0.1854123 -0.04421396 0.4799939 0.3663928 0.3113582 -0.3860361 -0.5743049 0.3659354 -0.04776386 0.2914659 0.5866069 -0.3789718 0.1399235 0.1637593 0.4377813 0.05268456 -0.6623625 -0.7133244 -0.5259961 0.1519983 0.1870243 0.01370186 -1.029636 1.286843 -0.04514425 0.3049973 -0.3239803 -0.008559317 0.1420334 0.4115455 -0.01918059 -0.20761 0.2111468 0.08703867 0.03910016 0.188713 -0.2050461 -0.2254564 -0.2029843 0.7706821 -0.8671606 -1.186368 -0.5295241 -0.1106317 0.00281934 0.7031499 -0.0009379374 -0.09235874 -0.1575757 0.2905216 -1.031327 -0.6147231 0.739221 0.0299124 0.553898 -0.4525477 0.4491484 -1.050205 -0.1581659 -0.353505 0.1122972 -0.2663206 -0.739766 0.4283367 0.07436171 -0.7709393 -0.3383144 -0.3982257 -0.5697565 -0.7046158 -0.09755296 -0.9827982 -0.02133065 0.504267 -0.1126494 -0.6788653 -1.417957 0.369064 -1.567597 0.6477656 -0.3619121 0.1453216 0.2975222 0.7365561 -0.8300055 0.2597483 -0.7245848 0.6715564 0.236347 0.3647216 -0.2216587 -0.7869406 -0.1622767 0.4982188 0.1481484 -0.3768517 -0.8019475 0.3205713 -0.6112674 -0.03889283 0.2135286 0.4149876 0.1319683 -0.5965693 0.1459849 -0.2500568 0.1404625 0.4920311 0.1579628 -0.388644 0.0921414 0.02955176 0.6349112 0.2824794 -0.1292958 0.1952788 -0.7556648 1.385589 0.8994401 -1.617932 -0.8683037 0.3965805 0.004769983 1.592831 0.1033542 -0.1562702 -1.193748 0.0688914 -0.699603 -0.06725371 -0.2186127 0.3675041 -0.3232673 1.074599 0.3315531 -0.3756143 0.7328033 0.552536 -0.2385561 -0.393975 0.4468052 -0.3644711 -0.729117 -0.6016021 0.595789 1.061975 -0.3728452 0.0333678 0.2566131 0.3250914 0.6220051 1.430343 -0.1089663 0.1209577 0.2055173 0.05259985 -0.3318488 0.2572087 0.6536895 -1.030519 0.2536744 1.094027 0.6722661 -0.06277694 0.4985663 -0.3367816 0.851088 0.1367089 -0.2216769 -1.612148 
  0.242597 -0.550771 -1.489008 0.1613102 -0.2709416 -0.4610189 0.3975404 0.2490375 -0.6392714 0.03465739 0.4051518 -0.227957 -1.197904 -0.06204706 0.3920201 0.7068833 0.7503832 0.4151065 0.3687167 0.4400987 -0.05198218 1.25091 0.1638141 -0.17989 0.09654944 0.6022668 0.7232421 -1.547925 0.1553397 0.7679811 -0.3740373 0.5688493 0.7019185 -0.0299006 -0.07408349 0.003768016 -1.631103 -0.6395807 -0.8229973 0.3516086 0.167868 -0.3599914 -0.0007968798 0.7039948 -0.08576789 -0.3601315 -0.2590074 0.1826964 0.6034039 -0.4290255 -0.162611 0.4705682 -0.1862629 0.02282447 -0.1534874 0.1271064 -0.4923884 0.4775248 0.1021602 -0.3226532 0.2823433 -0.7221689 0.5555075 0.9032418 -0.7171059 0.04859584 0.1161907 0.2667842 0.02640627 0.3157301 -0.1540082 -0.03507891 0.2252089 -0.05597068 -0.8677081 0.7000538 0.4105133 -0.8674848 -0.2070033 0.1599891 -0.460731 0.07753811 -0.3681916 0.5425271 -0.253515 -0.9651406 -0.04384355 0.01460027 0.08908916 0.1281895 0.1538877 -0.2922553 0.08699461 -0.1529715 0.4393327 -1.347263 -0.5044846 -0.484356 -0.9021699 0.5509931 0.155838 0.3547795 -0.5401236 0.4386661 0.2972761 0.04032921 -0.02153324 0.2551436 1.218527 -1.289407 -0.6997499 -0.02434406 0.9842947 0.5761125 0.2890843 -1.261981 0.6278854 -0.1810319 0.706841 -0.5921668 -0.5288473 -0.3185043 -0.1331503 -0.5783525 0.07654635 0.6732658 0.1460568 -0.188632 -0.2907071 -0.1031267 -0.7976493 -0.2774395 -0.3319574 -0.3723303 -1.991681 -0.5403297 -0.5309966 -0.5838241 -0.4259065 -0.3488819 0.1979102 -0.8730859 -1.320314 1.411095 0.4069169 0.04467775 0.3967887 0.04199986 0.5491872 0.8251026 0.1466018 0.2108285 0.08811429 -1.208541 -0.9536825 0.4895112 -0.2859598 -0.05569429 0.1842521 -0.5334819 0.5044521 1.102482 -0.1371956 0.4252664 -0.9078123 -0.1774923 -0.9215776 0.6590866 0.941736 -1.054395 0.2432641 -0.3210869 -0.682918 0.6423356 -2.482662 0.2810229 0.06485011 -0.324677 0.06915102 -0.2220212 -0.7759455 -0.7726789 0.1904207 0.4127078 -0.1267663 -0.9329069 -0.1995539 -0.6526104 0.2922876 -0.5640365 -0.5057681 -0.07389531 0.3632231 1.141495 1.102342 0.6006833 0.03896818 -0.9383966 0.9482754 -1.221125 0.1910081 -0.0947904 -0.5444378 0.4632062 0.7456139 1.413141 -0.3307743 -0.8854985 0.2178877 -0.1259038 0.2429291 1.3161 -0.2979503 0.554871 0.4849013 -0.2706068 -0.4026564 -0.06720912 -0.4181959 -0.5272475 -0.004446935 0.7335951 1.062914 0.1323283 0.237525 -0.1570213 -0.2315271 -0.18115 0.05677304 -0.2061094 0.3251974 0.2753313 -0.3637946 0.3413298 -0.7042173 -0.1346617 0.3909391 0.1661674 -0.9014263 0.1509899 0.3715347 0.58851 0.3150049 -0.2602392 0.1673842 -0.2754538 0.2365971 -0.2346019 0.0102549 0.3986871 0.01622388 0.5150295 0.6591286 -0.6706874 0.238029 0.05432258 
  0.2079297 0.2884483 0.5824686 -0.03871091 0.4575188 0.6806785 -1.196774 -0.3567154 -0.1933369 0.3444264 0.6725994 -0.229551 0.7240414 0.5785996 -0.6163941 0.5908279 -0.2624266 -0.9305778 -0.05617607 -0.7781243 -0.01339817 0.4253078 0.3272233 -0.4818879 0.1823454 -0.3509838 0.07494831 -0.350264 -0.1421288 -0.6730469 -0.5620785 -0.1066297 0.533496 0.3585653 -0.6561956 0.0999724 -0.1910187 0.2255896 0.2543859 -0.2425818 -0.4478375 0.3413549 0.9765638 -0.3949792 0.374646 0.1692694 -0.1436383 -0.07172853 0.03137875 0.6357121 0.4479466 -0.1909104 -0.1779558 0.1836222 0.06096031 0.235065 0.7193767 0.3464309 -0.4693953 0.231322 0.6382659 -0.2285948 -0.3307149 0.0528651 1.050727 -0.9174721 -0.9419805 0.5745736 0.1012046 0.3362634 -0.01443544 -0.09620009 -0.2075337 0.04082498 0.9643647 0.02601314 -0.1579941 0.0150105 -0.1711546 0.517984 0.3095317 1.349732 -0.1454625 -0.3735617 -0.2268947 -1.04631 0.3582238 -0.3569616 -0.02747427 -0.0005770944 -0.3109259 -0.6784492 0.2033478 0.06028536 0.15204 -0.7684101 -0.1048896 -0.5300769 0.1660069 -0.2541564 -0.3180703 0.3377812 -0.4841133 0.9955716 -0.004301272 -0.130068 -1.712449 -0.2490921 -0.8614274 0.07015719 -1.365422 -0.5002421 0.6169456 -0.3015279 -0.09301676 0.3732459 -0.3094602 0.4531181 0.4259484 0.6559081 0.3185616 -0.4311168 -0.2939984 -0.4034353 0.02941546 0.2845825 0.9731594 0.4969442 0.5754843 0.64978 0.7814607 -0.09441078 0.1214616 0.4759992 -0.3424883 1.383865 -0.1543331 -0.310079 -1.201612 -1.438792 -0.1002477 -0.2323781 0.7213674 -0.2907823 -0.1818153 -2.527241 -0.1922615 -0.03048963 0.3312785 1.339993 -0.432396 1.276092 0.3798305 -0.2067624 0.9646453 -0.06167211 -0.05716559 -0.2531339 -0.7882204 -0.184348 0.3322552 0.05449608 0.06373881 0.2802407 0.3295748 0.5856687 0.3302666 -0.6329225 0.2241449 -0.2812484 -0.827397 0.4690984 0.841895 0.03366382 0.4223999 0.6332842 1.560291 1.188819 -0.03932826 -0.4550173 0.6291756 -0.05181746 -0.2878048 0.6331464 0.339929 -0.04952781 0.2984814 0.09294032 -0.3394675 -1.165725 0.2903232 0.2020236 0.2404887 0.2660314 0.8181974 0.3161582 0.2609615 -0.6997755 -0.9794959 0.01166335 0.5190136 0.2102184 0.06423107 0.2044254 -0.3581559 0.2151416 0.2006621 -0.658578 -0.908188 -0.2104204 0.2802428 -0.3795786 0.06347122 -0.04573067 -0.442286 -0.1588331 0.3018617 -0.1047347 -0.03566021 0.02863756 -0.1748504 0.3140204 -0.07981206 0.5272483 -0.2125951 0.2505497 0.2647521 0.04530136 -0.2573293 0.6728464 0.06023115 -0.3965686 -1.100312 0.129418 0.6981139 0.3949879 0.4792195 -1.336609 0.399841 -0.1875633 -0.0779368 -0.5175962 -0.7747464 -0.08964877 -0.04081811 -0.4857979 0.07372107 0.8963157 -0.3002737 -0.6030747 0.04558732 -0.918823 0.8287152 -0.2624678 -0.5101389 -0.7315915 
  0.676028 0.6833733 -0.4172027 -0.01337706 -0.1063753 -1.70744 -0.4857618 -0.2371807 -0.0697575 1.26596 0.332076 0.1393835 -0.1424552 0.3984134 0.7421155 0.01684118 0.7570997 0.7694584 -0.4885644 -0.07384292 -0.3657681 0.09061772 0.7152505 0.1870036 0.02911484 0.5429352 0.1395292 0.9930673 0.1726474 -0.4354812 0.5698874 -1.076763 -0.1146674 -0.9467324 -0.05906288 0.1237557 -1.081187 -0.705146 -0.08717778 -1.295882 0.3111042 1.064904 -0.8705025 0.7320988 -1.132893 -0.6341195 -0.1934269 0.153115 -0.3322462 0.009458971 0.5698964 -0.1664091 -0.1344834 0.1679653 0.05431398 0.0709921 0.9349201 1.470044 -0.9557975 0.0135968 -0.4163883 0.5253311 -0.1024709 0.5600939 -0.8667601 -0.6267479 -0.3839017 -0.8605882 0.5307492 -0.4762924 -0.4002031 0.1997254 -0.4488418 1.24255 -0.2072706 0.1978522 0.1758689 0.2425449 -0.1248933 -0.03481427 -0.07687803 0.04835684 -1.520482 0.5038548 -0.2803032 -0.4880334 -0.218055 0.07311126 0.856022 1.216621 -0.06618778 -0.4672794 -0.6213065 -1.025384 0.311897 -1.068962 0.1706734 0.7855944 -0.377924 0.08282161 -0.8216628 -0.3455616 0.272999 0.3156398 0.3776599 0.4731466 0.03667712 0.2935312 0.7400534 0.6167196 0.07739219 -0.2139805 -0.4753279 0.6657555 -0.6815921 -0.44493 0.7398706 0.2268786 0.3211346 0.4991943 0.4111675 -0.8456197 -0.579382 0.4739543 0.0597341 0.02806091 -0.3553267 -0.9776128 -0.6625787 0.3625543 0.1834414 -0.08921407 -0.1807988 -0.2310122 0.3154646 -0.3755173 -0.2102991 -2.308722 0.8557032 -0.6838526 0.2050343 0.08459501 0.1235141 -0.5932153 0.1028422 -0.7312035 1.34195 0.1887978 0.1781093 1.25358 0.2473981 0.1884043 0.8053724 -1.102419 0.4386721 -0.08718629 0.182221 -1.080882 -0.3998529 -1.010843 0.5590481 0.2712525 -0.07994412 0.263314 -0.184991 0.6727273 0.6510881 -1.041152 -0.1247724 -0.2292673 -0.4255534 0.4354003 1.236883 -1.384818 -0.309033 -0.2250953 -0.5223069 0.4649653 1.877892 0.4084789 0.4753932 0.821793 -0.2655124 -0.1372793 -0.2792968 -0.7423353 -0.09710131 -0.3750945 0.4038914 -0.8806505 0.2922574 -0.4523747 0.7512452 0.3914267 0.3860007 0.6994035 0.1631641 -0.113447 -0.237536 0.2621142 0.1968295 -1.190363 0.04890336 -0.4355373 0.2061412 -0.4923947 -0.6653848 -0.4489229 -0.03914578 0.3585836 0.4539562 0.2913842 -0.5979796 0.7579702 0.05858938 -0.4869807 -0.01749997 -0.2502319 0.4703613 0.06623974 0.2822304 0.04552824 -0.07936501 0.08575556 -0.5082119 -0.5977069 0.6241724 -0.04502879 -0.4669012 0.3317388 -1.024088 -0.4049058 0.5898725 0.9801636 0.4698661 0.3143303 0.2044927 0.2265416 0.2076993 -0.8740747 0.5330552 -0.04348716 0.5815295 0.01591733 0.7592141 -0.002071134 0.7853943 -0.1550436 -0.7906804 -0.2867838 0.5955709 -0.2138567 0.2865226 -0.1141635 0.01645208 -0.1207961 
  0.7365894 -0.002535743 -0.2927959 0.2814527 0.5803549 -0.07335488 -0.3401939 0.5478914 0.01776824 0.4377253 -0.2797316 -0.0424591 0.235347 -0.1482138 0.5013269 -0.1520497 0.1765059 -0.3589096 -0.3394547 0.1864946 0.2248777 0.6935477 -0.8256389 -0.5465 -0.5795845 0.3489842 0.7134646 0.1077121 0.5024557 -0.9511667 0.1146008 0.6220706 0.4986558 -0.2140722 0.3318402 0.5144953 -0.4366029 -0.5008528 0.05235375 -0.06324051 -0.2284209 1.000786 0.3777448 -0.1777995 0.2569985 -0.1607915 -0.6907744 0.1327135 -0.03955697 0.2834715 1.414732 -0.05005661 -1.149768 -0.2003038 -0.2428992 -0.5466836 0.05459653 -0.6646338 0.3025407 0.5734131 -0.9978221 -1.081312 -0.4347352 0.4796204 0.03638773 0.161243 -0.02362451 0.03022382 -0.1965634 -0.02127597 0.1587508 -0.4854868 0.341867 1.157132 -0.1873186 -0.6451992 0.5634578 0.3532542 0.3021301 -0.6373311 0.5962063 0.05335644 2.060669 -0.3779044 0.1782406 -0.07085662 0.9944838 0.1158554 -0.7523847 -0.5242843 0.2291155 -0.2136128 0.07852988 0.03410535 -0.0502791 0.01284976 -0.1224688 -1.116359 0.3999433 -0.3877502 0.2589114 -0.1630514 -0.1064854 0.1111004 0.9819196 0.2207818 0.1650591 -0.1206256 0.1937513 0.2582767 0.08734342 -1.00256 0.6620188 0.4230989 -0.5263599 -0.0378543 0.2867106 0.1209685 0.4494305 -1.136768 -0.5803861 0.7710012 0.3765932 0.1508222 0.7731509 1.18506 0.05822778 -0.2552028 0.09723193 -0.02223254 -1.00366 -1.288648 -0.2733883 1.083372 0.1766789 0.6805997 -0.02695296 1.04602 -0.4127526 -0.2808688 -0.330974 0.6774181 0.3927494 -0.04056491 0.2161769 0.766028 -0.6670152 0.361858 -0.3237565 -0.003479939 1.398828 -0.126117 0.1923058 0.4059954 -0.09437441 -0.468495 0.9009477 0.2272241 0.09465393 -2.496529 0.06814897 -0.01851923 0.2030049 0.2242871 -1.563861 -0.4892153 0.1761337 0.2125425 0.3493788 2.256043 0.2435715 0.1066469 -0.1485302 0.1160131 0.2655759 -0.02907833 -0.7082754 -0.03215783 -1.085491 -0.407785 0.4091171 0.3008262 0.6326957 0.5139329 0.8607303 -0.517298 0.3975079 0.01160732 0.5127545 -0.3809327 -0.3886332 -1.287376 -0.8275959 -0.1788378 -0.1702435 -0.1556587 0.5135943 -0.3196822 -1.955078 -0.2400236 -0.2952438 -0.1820798 0.2277171 -0.4881427 -0.2240073 0.2929191 0.2681251 0.2339003 -0.8812419 -0.3187985 1.869084 -0.2492079 0.2801079 0.3607536 0.3249728 -0.6060752 -0.603389 -0.232077 0.04966656 -0.7354271 -0.1896402 -1.124242 0.3781395 -0.7658161 0.363802 -0.6585781 0.04686028 1.223377 0.4824845 -0.1936929 0.1955686 0.04064448 1.029353 0.2568254 -0.7500547 -0.4558256 1.283155 -0.4986866 0.411956 -0.1518197 0.3287749 0.2755336 1.357887 -0.034683 -0.4471194 -0.1871681 -0.4546614 0.04416203 -0.7466695 0.2979262 0.3105422 0.5587347 0.4639592 -0.6147738 -0.1228989 0.7807796 
  0.1292839 0.4016074 -0.4906817 0.06630158 0.4091078 -0.7691347 -0.3728209 0.5929164 0.2843013 0.6391205 -0.4683415 0.2695009 0.4814976 -0.6633061 -2.226971 0.04623761 0.7942781 0.8749202 -1.515347 -0.1201112 0.265078 0.03442428 0.3518765 -0.08976937 -0.9973841 0.001109572 -0.444799 0.4289334 -0.4070629 -0.684741 -0.08654737 -0.7064172 -1.163477 0.2581955 0.9019163 0.1584517 -1.503558 -0.7643603 -0.4986022 -0.3822398 -1.006155 -0.4227277 0.1232877 0.6943029 -2.390923 -0.7141525 -0.524358 -0.2358474 -0.577518 0.4151881 0.9809127 -0.03263646 0.4156853 0.5954042 0.5681894 1.75047 0.323289 0.9216489 0.1042476 -0.3038591 -1.009069 -0.009902712 -1.015884 0.4859026 0.3603624 -0.9365643 1.746203 0.7636078 -1.250701 0.5655913 0.33992 0.4053749 0.02812081 1.094028 0.04021792 -0.3003464 0.2677817 0.00827646 -0.5457478 -0.666104 1.445322 -0.6620899 -0.02289985 0.1729312 1.062616 0.7167923 0.5320442 0.5814116 -1.712827 1.359231 -0.5500104 -1.160293 -0.556281 1.062298 -1.103339 0.02359061 0.5950683 -0.5015971 -0.3249418 0.2017302 -1.461895 -0.3323779 -0.8766237 1.990381 1.38331 1.003028 -1.048534 -0.09923392 1.318657 -0.1700046 0.4681126 0.8499717 -0.1972802 -0.4150195 0.4470623 -0.1281499 0.002499202 -1.394042 -0.2362801 0.3628003 -0.1706435 0.2812869 -0.6954972 -0.1509805 0.578628 0.5303144 0.1885988 0.1482704 0.3618128 0.07836107 0.188032 0.2125922 -1.514841 -0.6207471 -1.417746 -0.09248409 -0.4942483 0.5934042 -0.2619639 -1.026708 -2.042301 0.09104216 0.396565 -0.587759 0.4823782 0.001737959 1.538522 0.3863457 -1.636802 -0.3512571 0.4065461 -0.7503523 0.6865644 -0.1501531 0.5338384 -0.195668 0.5691496 -0.1829172 -0.645798 0.7567938 -0.2138035 -0.1389329 -0.4860448 0.6652861 0.7005551 -0.7534978 1.431201 -0.569577 -1.31446 0.55549 -0.5053774 -0.8819197 1.111267 0.8536947 0.5591477 0.340806 -1.119859 0.6949754 -0.1819027 -0.01945027 0.9159484 0.1518881 -0.2635582 0.2878029 2.24337 -0.1010469 0.1306849 1.326525 -0.7163944 0.2250285 -0.1940634 -0.9120658 -0.2389852 0.06995363 0.2381766 0.5723624 0.0928916 0.1774033 -1.020826 0.7814196 0.2187179 0.3847808 0.3910929 0.1067359 0.187888 -0.2028433 -1.472303 -0.4578997 0.5599129 -1.311005 1.034072 -0.3692791 -0.1256574 0.3829139 -0.3163589 0.7243214 -0.01196556 -0.05088023 0.1778696 -1.335935 -0.4918668 -0.6173469 0.6963634 0.4815058 -1.096869 -0.5811778 0.3109073 -0.7118533 -0.3103483 -0.1335833 0.4126285 -1.173762 -0.2216221 -0.4573111 0.1222023 -1.280517 0.7391169 0.2623649 0.9689838 0.3610444 -0.5427101 0.4119029 0.4302201 0.3402984 0.9659922 0.2346785 0.9285231 -0.5796714 -0.3323245 -0.6706724 -0.02768246 1.261066 -0.03362143 -1.407096 0.1405931 -0.6567559 
  -0.01518997 0.3161723 -0.7801374 0.437816 -0.5912532 -0.5611772 -0.6577181 0.8589693 0.8750917 0.1427116 -0.04634178 -0.1669177 -0.2126275 -0.005872368 -0.6209061 -0.2963124 0.3354123 -0.03305399 -0.04026973 -0.3301561 -0.2769723 1.250846 0.4195684 0.1578549 -0.1646249 -0.5143551 -0.9043457 0.1062883 0.4487437 0.1675851 0.09665103 0.7048487 0.1156734 0.3464611 -0.9239464 -0.05881838 -0.9828776 -0.3120007 -0.001982603 -0.5948035 -0.5869126 0.4401285 -0.1236321 0.8821272 0.3658774 -0.1014917 0.5959538 0.0009383069 -0.1305277 -0.8063571 0.1733801 -0.5180793 0.4799244 -0.2019506 0.0995216 -0.01544117 -0.5703047 0.02862346 0.1726248 -0.803901 0.3339247 0.5343801 0.5019838 0.9615301 -0.7110955 -0.1178592 0.7184451 0.01816337 -0.2366036 -0.2619717 0.1885999 -0.7754159 -0.160577 0.01264408 0.3315666 -0.06225543 0.6541522 -0.1521774 -0.4810934 0.1893367 -0.01960319 -0.5776109 0.008689802 -0.4794528 -0.01827092 0.1220649 -0.5506233 0.1160084 -0.7985092 0.3222278 -0.9425189 -0.121718 -0.3167897 -0.8210776 -0.3958116 0.7505836 0.2989021 0.2644611 0.5195917 0.7346296 -0.1673002 -0.07069153 0.1422079 -0.08832648 0.6245217 0.1445398 -0.7088594 0.1155619 0.1480934 0.6257936 -0.01393698 -0.09416073 0.2254231 0.3092986 0.2488085 -1.437431 -0.7122304 0.06190997 -0.1709043 0.1569636 -0.5919094 -0.2963524 0.5372143 0.3997597 -0.2348015 0.8192846 -0.04889408 -0.3138537 0.05871699 0.1623423 -0.2716948 0.427717 -0.163387 0.5793628 0.7317618 -0.127921 0.7263688 0.1176413 0.6520938 0.5562837 -0.01976759 0.1116582 0.04723061 -1.099563 -0.2514388 -0.8603971 -0.17094 0.9644641 -0.3365878 -0.392813 0.08691826 -0.8671042 -0.2267148 -0.6374462 -0.3264275 0.2393741 0.3309936 -0.4771822 0.03501938 0.09766477 -0.2396466 -0.8582726 -0.04549728 -0.2769395 -0.07898913 -0.1698464 -0.6877646 0.5387208 0.3176976 0.2356826 -0.05342082 -0.1713878 -0.5746236 -0.1113546 -0.1520144 0.2117008 0.4302614 0.01540574 0.1911386 -0.8890613 -0.0787334 -0.004558894 -0.08401088 0.153733 -0.06214628 -0.0004993294 0.8987935 0.4126108 0.225889 -1.043405 -1.067821 0.02185982 0.2907696 0.09191946 0.02900888 -0.3087792 -0.7398033 0.08860312 0.03551331 0.003447472 -0.2674313 0.2735036 -0.2299379 -0.1256292 0.7867669 1.029827 0.01902717 0.1164025 0.2370105 0.1386424 0.4580639 0.4361744 -0.7983999 0.03623602 -0.1239466 -0.1291594 0.381596 0.186095 0.2315746 -1.08524 -0.1360506 -0.2574231 -0.5688879 -0.3653198 0.2507345 -0.1942639 -0.1953475 -1.227214 -0.3626563 -0.2507205 -1.055149 -0.7952908 0.08074283 -0.3361585 0.3624129 -0.2552427 -0.3339081 0.09184872 0.3289659 -0.6944353 0.08040437 0.2956346 0.120032 2.496202 -0.09918962 -0.9076413 -0.08582054 -0.09924712 -0.1708043 0.3095896 0.3564606 0.3440333 -0.2871072 0.4720586 0.5933573 0.04105116 
  -0.5600458 -0.2732948 0.2165153 0.1652222 -0.8686492 -0.09934558 0.1170935 0.4245315 -0.3339071 -0.629738 0.4442946 0.7980423 -0.4551984 -0.6483012 0.3511762 -0.3799215 0.6573889 -0.8209246 0.8247573 -0.04473846 -1.328497 -0.5231225 -0.4572339 -0.09482897 0.5752389 0.0480729 0.3692929 1.441821 0.2591535 -1.463797 -0.1511949 -0.8895541 0.4357851 -0.02370179 0.2255281 -0.3376525 -0.919116 0.1678317 0.5865663 0.1525804 1.341949 -0.2965312 0.4633521 -0.2126487 -0.7777007 -0.1032528 -0.008326011 0.2879829 0.1521285 0.2774329 -0.2396211 -0.004952692 -0.8660371 0.162698 0.1838035 -0.1169371 -0.05348549 0.6820213 -0.4586315 -0.702643 0.5097122 -0.9362076 0.1840904 0.280397 0.643433 -0.09715796 0.098465 -0.917776 0.6159055 -0.7066469 0.2792957 -1.403381 -0.5054092 0.9329004 0.368268 -0.3456116 0.7150977 0.375013 -0.610112 0.1110919 -0.8132893 -0.485662 0.008728397 0.07948378 -0.2423443 0.333332 -0.0985155 0.3950736 -0.7882457 -0.01119556 -0.03551451 -0.5547354 0.1102232 -0.392166 -0.4110093 -0.7079448 -0.4728115 -0.5253325 0.2629117 0.3294156 -0.423731 -0.06464572 0.4423761 0.2507194 0.01764974 0.4614546 0.2366063 -0.8762802 -0.5033928 1.48078 0.1978429 0.6574512 0.687371 0.09261356 0.06679571 -0.3665852 0.5337561 0.1295709 -0.7290193 -0.01028853 0.05302029 0.1859504 1.033231 0.2846954 0.149446 -0.2580479 0.01209228 0.2861454 0.6352288 -0.2123834 0.07141861 -1.007757 -0.4500725 0.130595 0.1125171 0.698824 0.01207981 -0.5719396 -0.3747342 -0.4929626 0.1680411 0.7314402 0.4272511 0.05313041 0.551559 -1.160549 0.09476157 -0.09707994 -0.04112015 -0.03305214 -0.3802795 0.320345 0.4800821 0.3631129 -0.9149033 -0.1343307 0.2539293 0.2327986 -0.9094175 0.2417627 0.386804 -0.1490428 -0.3890992 0.4703279 0.2645129 -0.2572566 -0.1080632 -0.001529502 0.03342381 -0.3938126 -0.08992722 0.1912214 0.0389032 0.04075512 -0.2766117 0.7978534 -0.3204678 0.336441 0.2704739 0.2518465 -0.05753618 0.1808492 -0.08875845 0.0837182 0.1403461 0.03959373 -0.3364503 -0.3986475 -0.03328633 0.5347388 0.1007976 -0.2386563 0.5662705 0.3557453 -0.2403394 0.4951576 -0.3406573 0.7757499 -0.1140803 -0.5010296 -0.1470193 -0.5019227 0.1594933 0.1525496 0.3286703 -1.368846 0.3534934 -0.1886293 0.02231653 -0.4262832 -0.02963341 0.6731964 0.4712776 -1.104287 0.3561379 0.3276384 0.5605295 0.1300072 -1.936414 0.7074409 0.09875066 0.04048188 0.3198502 0.6675359 -1.123242 0.07068942 -0.6432783 0.294154 -0.2055249 -0.8920805 1.348798 0.275884 0.9538254 -0.0719746 -0.1165306 1.114147 -0.3931687 -0.004598815 -0.03460745 0.06077633 -1.130775 0.4345948 -0.4778537 0.2542964 -0.03754506 -0.1390511 0.6528102 -0.7761494 -2.352612 -0.04881066 -0.6677716 -0.3244814 -0.004521512 -0.5377187 0.5007126 -0.1754936 
  -0.8745822 0.5895808 0.4025059 -0.07201876 0.4611968 0.03855662 -0.1799937 0.254977 -0.5771551 0.5211402 0.01028717 0.2216434 0.6729694 -0.6147866 -1.525431 0.4899835 1.423478 0.9020715 -0.7434274 -0.2947731 0.0328795 -0.0133 -1.549965 -0.5820908 0.6300632 -0.4751573 -0.266502 -0.3447089 -1.331392 0.5728498 0.1176537 -0.4928269 0.5314627 0.6811692 0.4995304 0.4845042 0.07186671 0.1236822 -0.3455357 0.9798006 -0.4549861 0.7303386 0.7849853 -0.2457726 0.2309087 0.2021487 -0.1002326 -0.1909546 0.9208572 -0.1440443 -0.06576022 -0.1834296 -0.681261 0.9022076 -0.8865805 0.7715023 0.930204 -0.1615107 -0.1086038 0.8719701 -0.3758631 -0.5188436 0.1121172 0.8755949 0.7250614 0.3837789 -1.099876 -0.01348894 0.05107247 0.5245439 -0.4887859 -0.3796922 -0.151278 -0.09956518 0.3052258 0.9065625 -0.3948026 0.3978169 0.6416354 -0.4079445 0.4743485 -1.778505 -0.2253773 -0.1857227 -0.3283353 0.3376766 0.5805596 0.4014877 0.4784148 1.108744 0.6899149 0.380629 0.05816891 -0.2186814 -0.3234392 -0.1971906 1.020158 0.5141638 0.5384963 -0.2709706 -1.997295 0.2514053 -0.4968518 0.6689029 -0.04432837 -0.3394025 -0.4817492 0.01904109 0.01045325 0.1601063 -0.700196 -0.04659547 -0.08311882 -1.392847 0.2956741 0.2049037 0.892118 -0.8032496 -0.07699165 0.02363303 0.2921154 0.2132081 -0.3706344 -0.7989081 -0.06454524 0.203237 0.5786663 -0.1842902 0.8062108 0.4108078 -0.1798699 -0.06789337 -1.17897 0.5219647 0.5379688 0.191446 0.3423926 -0.02850672 0.1446249 -0.2344018 -0.2864608 -2.694399e-05 0.6151207 0.1700052 -0.3286549 0.5922781 -0.06413842 -0.5711792 0.9035651 -1.674364 -0.08024784 0.1742584 -1.081929 -0.7973056 -0.3505944 0.4675583 -0.2515943 0.2045725 0.1498418 0.837267 -0.8333352 0.2289269 0.4142634 0.1833914 -0.5387166 -1.046204 -0.7809832 0.7092259 0.8087777 -0.6067562 0.3961537 -0.9604632 -0.01022212 0.08034509 -0.1033647 0.3805353 -0.2113726 0.4000194 -0.8162835 -0.02519265 -0.05236363 -0.3564548 0.252894 2.072956 0.8381741 -0.3529708 -0.3149848 0.04192703 0.08595509 -0.3565748 -0.663343 -0.5149896 -1.779213 -0.1985155 0.7147421 -0.07142634 -0.6726688 -0.9879946 -1.054522 1.141445 -1.328928 -0.832255 0.5585468 1.74492 0.3471723 -0.4262104 -0.7935067 -0.7309426 0.534002 -0.0362579 0.1766121 0.1441603 -0.5306559 0.6520965 -1.00092 0.9726551 -0.09181499 -0.6448331 -0.6166133 -0.543611 0.5683239 -0.5698622 -1.557986 -0.5436118 -1.104821 -1.069154 -0.4861984 -0.2028409 0.8566039 -0.1606979 0.6882071 -0.9274986 -0.8786919 0.7892662 -1.915201 -0.2001713 -0.7867822 0.08344819 0.5955404 0.3202225 -0.3860185 0.8721616 -0.379249 -0.2242368 0.5684229 1.529108 1.232464 -1.477337 -0.6106619 -0.5804527 0.1440082 1.006604 -1.6313 0.7541106 -0.1007474 -0.0995104 
  0.9054214 0.2439054 -0.0215779 -1.09426 -0.08005003 -1.614007 -0.185905 0.02157505 0.2464396 -0.2840747 0.8815786 0.3730046 -0.4418534 0.7544883 -0.3798702 -0.1225751 -0.08619159 0.08384509 0.2048555 1.095035 -0.659116 1.70524 -0.3579929 0.04243517 -1.349401 0.3823095 -0.03277303 -1.363113 -0.6298198 0.448088 0.2768017 -0.6467312 -0.1672892 -0.9172351 -1.624359 1.042733 -0.9912144 -0.05180766 -0.3917808 0.9478406 0.6112218 1.206031 0.7794894 0.187627 -0.1932518 -1.037196 0.1750986 -0.2784697 0.1413446 0.2872925 0.1702471 -0.3190085 0.5581362 -0.02976621 -0.7744648 -0.6456736 -1.654514 -0.5016598 -0.002122003 -0.6846701 0.808002 -0.242926 0.3631769 0.2960835 -0.8310395 1.575781 -0.6019524 0.7496716 -0.3963912 -0.2857269 -1.253811 1.031815 -0.2912179 -0.08052828 0.308766 -0.3190523 0.2021914 0.1941609 0.2902218 -0.8243222 1.333091 -0.5071414 -0.7108121 0.6415592 -0.08678056 -0.3946792 -0.3002724 0.4446192 -1.085403 -1.259918 -0.04365738 0.03225012 0.439245 0.151265 0.7890466 -0.1362982 -0.2750622 -0.8132378 -0.04993021 0.8262765 0.07375752 -0.3503113 -0.2782245 -0.2888183 -0.2635473 0.4369226 0.1307538 0.1875413 0.6107401 -0.02564639 0.3697546 -0.7984051 -0.7170565 -0.0843542 -0.3939208 0.3315981 -0.4049414 -0.830399 -0.3942093 -0.4439279 -1.441628 0.3739343 -0.3748559 -0.1792222 -0.3723013 0.6382902 -0.332701 0.5864882 0.2402201 -0.003964067 -0.04247175 -0.4282408 -0.3078505 0.4749554 0.5360618 0.4709281 -0.2577326 0.1906321 0.6279876 0.102815 0.526253 -1.425709 -0.3744603 -1.125768 0.3568434 -0.2076171 0.9982574 -0.5383896 0.4818861 -0.4725129 -0.1870464 -0.2226053 0.1229051 0.2453767 -0.4730252 -1.173012 0.952895 0.4245348 0.09523789 -1.642146 -1.012818 1.042914 -1.330453 0.2216947 -0.2834035 0.1738704 -0.887788 0.3718978 -0.3995049 0.006972069 -1.352352 -0.5114526 -0.5186232 0.09009062 -0.5779275 0.8332692 0.06706089 -0.6927624 -0.5290435 -0.04591703 -0.9070346 0.03213272 -0.3920394 -0.03511808 -0.660149 -0.1331102 -0.1794602 -0.8190873 -0.2748132 -0.5066172 0.469543 0.5693104 0.5720212 -0.146061 -0.6123685 0.8500741 -0.9355319 0.4363269 -0.2456597 -0.05110475 0.3796895 0.5350857 0.4067425 -0.8543731 -1.215041 0.4688148 -0.9392539 -0.1779774 0.1075531 -1.305369 -0.221902 0.0701757 -1.388526 -0.6913452 0.1798781 0.4800131 -0.4417301 0.4828174 -1.507927 0.05216275 0.3339995 -0.09783687 -0.6399052 0.8515643 0.03930697 -0.02161042 -0.5933329 -0.5158205 1.124859 -0.9918784 -0.8197474 0.4915859 -0.4150908 0.3644384 1.094609 -0.7455295 -1.209756 0.06678897 0.2659769 -0.1759105 -0.7866052 -0.6348265 0.9667773 -0.1260002 -0.467742 0.9992428 -0.0342117 -0.08127228 -0.8445593 0.415296 -0.4444477 -0.6809846 0.7736422 0.434652 0.9833539 -0.2589283 
  0.2655798 1.380509 -0.8104435 -0.3084745 -0.1902799 -1.081306 -1.071986 0.6473472 0.913844 0.5709992 -0.1337111 0.76481 -1.019185 0.2851651 -1.088576 -0.8683408 -1.360122 0.2738635 0.8142002 0.2292384 -0.7741117 0.621757 -0.2902609 1.624294 0.06911647 0.8057063 -0.06365437 0.6516428 0.07801811 -0.341424 0.1413725 0.665413 0.2474633 -1.113395 -0.8440831 0.2245999 -0.1649498 0.7000993 0.006065102 -0.5154217 0.3416473 1.135284 0.2701782 0.1826051 0.2182437 0.038597 0.481224 -0.0198181 0.6228043 0.06449827 -0.2114028 -2.196134 0.632145 0.4130042 -1.005516 -0.6721941 0.5198786 -0.3637493 -1.188787 0.2247805 -0.2069654 -0.4515707 0.1879449 1.096043 -0.3752169 -1.340172 -0.1431701 -1.360211 0.5562295 -0.4959459 0.2933431 0.3640738 -0.5088249 -1.181804 -0.3811325 -0.3981319 1.091425 0.1817666 -0.97227 0.07047925 0.836714 -0.04614891 0.6917574 -0.7587423 -0.3448786 -1.316892 -0.7673127 0.8826642 -0.5979597 -0.4743264 -0.637383 0.04984298 -2.789596 -0.1873949 -1.027523 0.6033168 -0.4524115 1.047126 0.6653464 -0.8712685 -1.11487 -0.3043826 0.3422807 -1.179683 0.4880497 0.3975564 -0.8498852 0.3356652 0.4875903 -0.2988174 0.471054 -1.005365 -0.291267 0.7736304 0.5119694 1.168717 -0.3716985 -0.8016267 0.06751182 0.8807786 0.6236753 -0.5592571 -1.036313 0.6080357 -1.099057 0.7318288 -0.1225871 -0.4466514 -0.551102 0.9914818 -1.163837 0.5453939 -0.9579938 -0.4788767 -0.1569 -0.590346 0.5481218 -0.6988553 0.3068332 0.4797222 -0.6721227 -0.7036679 -1.370521 -1.394502 -0.0471025 -0.4479546 -0.9973819 -0.7187877 -0.09188382 -0.1010817 -0.6107039 -0.190644 0.1723976 -0.1617873 -0.5269073 0.8921551 0.1079 -0.6294435 0.4806202 0.1941687 -0.1586848 0.3893832 0.3105399 0.2392317 0.1194478 0.7413322 -0.5377601 -1.193659 0.5725139 0.3308265 0.129642 0.07531217 -0.3792842 -0.7526022 0.3512554 0.5410441 -0.4380072 -0.3202135 1.043143 -1.103458 -1.039681 -0.4560141 0.4284045 0.09345103 1.410977 -0.458573 0.5108331 -0.168886 0.1196286 0.2194728 -0.610344 -1.414543 0.9468741 -1.357131 -0.1334342 -0.8786368 1.179477 -1.23591 0.4804818 1.284265 -0.7163156 -0.1693869 -0.9174923 -0.8726791 -0.3177811 -0.694289 -1.084102 -0.002323119 0.09027929 0.3044597 -0.1667515 0.007629257 0.1315959 0.1113869 -0.1573629 1.200672 -0.6818034 1.527978 -0.5869526 -0.780467 0.5037382 -0.1842826 -2.323277 -0.7771308 -0.2322477 0.4681791 -0.8099822 0.2648634 0.5875866 -1.362173 -0.8780189 -0.2855626 -0.01419032 0.7673409 -0.5669224 -0.1041805 -2.036151 1.028349 0.6209413 -1.762548 0.1622133 0.1385638 0.7051821 -0.3689823 -0.4035195 -0.8342295 -0.7137369 0.021101 -0.2726871 -0.2968056 0.00635615 1.175515 0.2764409 0.6359411 1.079947 -0.1927275 
  1.083697 0.681811 0.4201674 0.881076 -0.2395946 -1.173311 0.3669312 -0.2738164 0.2362815 -0.7165183 -0.1276055 -0.01080129 0.180425 -0.2535776 0.6158867 -1.039123 1.037386 1.14329 0.0615192 0.4831661 -0.6858851 -0.7534525 -0.4850361 -0.01739004 0.9897826 1.150509 0.6030417 -0.04308826 -0.2018925 0.7510756 0.01538069 1.495807 -0.6365582 0.4827234 0.2927746 0.78997 -0.3534896 -0.5157141 -0.5016271 0.03161437 -0.1948102 0.09581919 0.07190769 -0.280682 0.5229307 -0.008339287 -0.2512835 0.4735034 -0.6883246 -0.5226997 -0.3812401 -0.2102012 0.4160071 -0.9541584 0.1530093 -0.1468831 0.0748974 1.196339 1.054065 0.05618292 -0.8906029 -0.3747963 -0.7960762 0.4276353 -0.7595803 -0.4187904 -0.6173495 0.2956085 0.01148447 0.7628384 -0.3249911 0.2205325 -0.7716039 0.1289596 0.03509263 -0.1122521 -0.1944341 0.777844 0.5353571 0.6401048 -0.3695324 -0.3300815 1.031728 0.6287147 0.9450186 0.7943253 -0.6340773 0.8503695 -0.8495688 -0.1976713 -0.3089987 -0.01172646 -0.2314794 -0.3770393 -0.02100424 0.433177 -0.4758158 0.5251207 -0.7323207 -0.5108644 0.3594273 -1.130635 -0.848291 0.4547305 0.7027248 0.4883555 0.02510143 1.593607 0.5700146 -0.3747644 -0.8365007 1.079913 0.1037249 0.3515771 0.5854383 -0.2915109 -0.08139064 0.1770708 -0.2145759 0.7153437 -0.1398819 -0.4944273 -0.6714455 0.7624238 0.1390036 0.7190165 0.02685778 -0.2097142 0.9154401 1.298635 0.1995255 0.557164 -0.6700695 -0.3923625 0.184101 0.8280337 0.02655767 0.6315181 -0.3232161 -0.3038388 0.8701341 -0.7069111 -0.2889478 -0.5576914 -0.6970485 0.5518933 -0.7278172 -0.1089999 0.1604827 0.04456051 -0.3756787 -1.572159 0.1052516 -0.1405704 -0.04014516 -0.1980156 -0.1190795 0.3598758 0.7271125 -0.160516 0.08821264 0.806428 -0.5039662 0.6867444 -1.008936 -0.8537681 -0.666819 -0.7521784 0.2962853 0.2058708 0.1563084 0.4827316 0.1873021 -1.135342 -0.8952345 -0.1214423 -0.3061994 0.2663451 0.04746558 0.8096102 -1.057884 0.3368629 -0.8915263 -0.1969357 0.4709787 -0.6269928 -0.1772684 0.106237 -0.4638854 0.398394 -0.4833161 -1.362769 0.01556305 -0.4934401 0.9486648 0.2209539 -0.3291102 0.5973426 -0.6730577 -1.194632 -1.131622 -0.8454841 0.5226302 -1.698416 -0.861228 -0.2805536 -0.001182975 0.5306356 -0.3434389 0.8425175 0.3083387 -0.3089674 0.1165457 -0.5761595 -0.4435405 0.3943675 -0.7092972 0.5112738 -0.4985404 -0.3939778 -0.3843381 0.04421628 0.2351007 -0.2913577 -0.7386566 -0.8109673 -0.9819397 -0.01693447 0.274957 1.029461 -0.03489897 0.2328709 -0.1829373 1.285956 -0.970233 0.9978799 0.08237193 0.9166781 -0.1939185 -0.02091311 2.269126 -0.4653157 1.558439 0.1633252 -0.06222452 0.434621 -0.7498153 0.9452299 -0.2141509 -0.7846761 -0.8275584 0.1887241 -0.8615073 0.6016244 -0.84152 0.6549321 
  1.45401 -0.3739856 -0.3459195 0.9908346 0.05648814 0.2530775 -0.08056631 -0.08445182 -0.4533499 0.5744199 -1.055358 -0.4910119 0.3596598 -1.26986 -0.9516276 -0.4099888 0.2495465 0.5087233 0.867044 0.8902626 -0.1450319 -0.0402152 0.2645533 -0.3895962 -0.5943208 0.02058118 0.5764338 -0.3166122 -0.08166319 -1.329274 0.2308245 -1.085603 -1.066841 0.4663998 -0.6759704 -0.6396693 0.2493025 -0.07452449 0.2290742 0.2549475 -0.2645622 0.03381813 -0.7547947 0.1603056 -0.2365126 -1.111326 0.4713409 0.7205351 0.1363468 -0.5856434 -0.2216067 0.216497 -0.5502259 -0.1905988 -0.08151238 0.6852551 0.5649193 -1.021476 -0.4833846 0.3178097 0.7076716 -0.07498074 0.7649134 -0.282719 0.06563255 0.9117233 0.0473664 -0.208973 -0.5640677 -0.5711892 -0.6060975 0.6556268 0.283756 -0.5723222 0.555191 -0.4152367 0.6068667 -0.03482629 -0.4733639 -0.3069937 -0.3041904 -0.2936268 -0.2392567 -0.08817552 -0.8074233 -0.6138709 0.02717963 1.137857 -0.4363609 0.1917996 0.1654152 -1.255079 -0.06080291 0.3542895 0.3996791 0.7886686 -0.154751 -0.03406416 -0.07670202 0.5851573 -0.7972466 -1.350094 -0.3873864 0.1523483 -0.1386395 0.6126773 0.7182891 -0.3102672 0.0284271 0.5142862 0.4853241 0.2199521 0.7080969 -0.0697029 1.582989 0.137989 0.1501907 0.1659088 0.2178291 0.2591575 -0.5869649 0.2231433 0.2950591 -0.242448 -0.354704 0.4916618 -0.2675308 0.7115784 -2.383993 -0.5763116 0.8168539 -0.3626285 -0.4140704 0.5586271 -1.107101 -0.08647559 -0.4912983 0.06644396 -0.2853193 0.6061895 -0.09069589 0.486766 0.1376215 -0.4417424 -0.5241572 0.3963678 0.39841 -0.2301902 -0.8526244 -0.5376527 0.1041894 0.2381401 0.7585952 0.1296585 -0.103684 0.1038409 -0.3431354 0.6093921 0.3460932 0.9733222 1.164356 -0.599779 0.02513369 -0.0399492 0.2963029 -0.4688079 0.9801812 -0.2229789 -0.04674767 -0.7777669 -0.4691661 -0.2931369 -0.1076384 0.1052978 -0.7705805 0.2591132 -0.4058068 0.6749857 -1.712829 -0.01142739 -1.242117 -0.4547515 -0.8628864 -1.155466 0.1760352 0.8331159 0.6943137 0.1914873 0.04702999 0.4713154 -0.3061677 -0.3946836 1.365486 0.8269869 -1.18054 0.8890617 0.5854036 0.3316581 -0.2648467 0.1801459 0.6647542 0.0006669146 -0.01450023 0.3236712 0.1678453 -0.2375334 -0.1204862 0.5613618 0.3959756 -1.190367 -1.438939 0.0714187 -0.2206566 -0.1076936 0.4748229 0.1632275 -0.7283952 0.1535104 0.02871245 -0.7837729 0.05581041 0.9031172 0.1008084 -0.5486939 0.1344494 -1.070524 0.216074 -0.8422576 -0.8521023 -0.4936491 0.9463145 -0.4544931 0.3434944 0.149905 0.05299911 -0.8471656 0.7324423 1.035958 -0.2088873 0.7833608 0.5026481 0.06442228 0.5770855 -0.1385306 1.092565 0.01394856 0.002355353 -0.8525524 -0.9327951 -0.3824393 -0.1296109 1.030229 -0.5737808 -0.7587168 -0.5041677 0.1368768 
  -0.7317555 -0.5824362 -0.3099139 -1.632422 0.2253091 -0.3942592 -0.2410066 0.3376046 -0.2175791 0.3982418 -1.550983 -0.8661124 1.073477 1.260571 -0.06161954 1.002582 0.4651353 0.2307325 0.1146642 -0.2141972 0.260892 -0.05973909 0.03704343 -0.2207994 -0.1608875 0.1961564 1.231486 -0.2168056 -0.6754886 0.2460952 -0.8589812 -1.012595 -0.5272917 -0.1663965 0.4239217 -0.5211046 -0.4293595 -0.2767797 -1.442765 -0.2228202 -0.4019137 -0.3315994 -0.1500693 0.2707782 1.1529 -0.169833 0.3713235 0.2991404 -0.1447748 0.7298657 -0.542991 0.1936879 -0.1261616 -0.3459676 0.273641 -0.01539538 0.9206815 -0.4461162 0.5127086 0.114332 0.02844939 -0.1713708 0.3730172 -0.8499706 -0.5750369 -0.3141522 -0.1363373 0.1678953 -0.778103 0.02126932 0.4683971 -0.4003447 0.1050654 0.3859441 0.3487989 0.5565441 0.5529808 -0.01112142 0.2121383 -0.3490828 -0.7999535 1.016467 -0.2811961 -1.24202 0.2865902 -0.09470928 -0.07793377 -0.1915358 -0.2373853 0.4675903 0.2630039 -0.3982036 0.4292605 -0.2369034 -0.1282012 0.004285449 0.2412529 0.1174878 0.2514763 -0.04866102 0.05128893 -0.3501165 0.1029186 0.1990784 -0.5501994 -0.3289017 0.1498458 -0.7921474 0.1019845 -0.1854376 -0.4608633 0.1862861 -0.004565691 -0.04297373 0.4511982 -0.3151602 0.08952342 0.2328674 -0.09525689 0.3076116 0.5238054 0.2431386 0.4297015 -0.3973569 -1.061079 0.4881143 -0.6567687 0.1176868 0.2264583 0.4940608 0.3441036 -0.1481147 0.01560669 0.09404768 -0.4384567 0.2717632 -0.6571266 -0.2582836 -0.8235188 -0.3034076 -0.05814936 0.1459777 0.3140898 0.781819 -0.08890638 -0.3891269 -0.02055923 0.09678269 -0.2513926 -0.4773566 -0.5524872 0.4486576 -0.1628185 0.222561 -0.6804169 -0.1621617 0.185922 0.5048594 -0.1668833 -0.08942663 -0.2414077 -0.2338027 0.09375656 0.5238978 0.2957291 -0.4572768 -0.2154072 0.325179 -0.5570788 -0.4803635 -0.1761339 -0.5088769 0.2200066 0.3137001 -0.276332 -0.5782197 0.597806 0.3270939 0.3439037 -0.1196769 -0.1526285 -0.8708276 0.008387491 0.2609291 -0.04970127 0.6527565 -0.1001438 0.8605324 -0.1694688 -0.2234156 -0.9078223 -0.0373386 -0.5732092 -0.4807616 0.05460232 -0.01089144 0.6065738 0.08699125 -0.1971177 0.05774999 0.25916 -0.001143701 0.002709683 0.6586298 0.5144799 -1.407432 0.2210648 -0.757982 -0.02711358 -1.41936 -0.4574478 0.2647942 -0.7350557 0.2126728 0.08590201 -0.3694429 0.5701857 0.05579841 -0.3426717 -0.1859436 -0.6557946 -0.5312852 -0.03907161 0.613103 0.2602728 0.3046377 -0.2824773 0.4405742 -0.7634283 0.02304819 -0.4964911 -0.1827593 1.065293 -0.1399386 0.2123711 0.08804697 -1.323333 1.119185 -0.9686385 0.5984783 0.6986522 0.3695717 -0.369792 0.1641905 0.3820524 0.5647355 0.3331285 -0.07507235 -1.37677 0.4307238 0.8175397 0.7403772 -0.3797261 -0.3137767 -0.2734953 0.4022675 
  -0.2359016 0.6516126 -0.5814449 -0.4435576 0.8854065 -0.5942742 -0.761125 0.7757506 -0.4515505 -2.102904 -0.4908242 0.4426991 0.5718456 -0.01635711 -0.2833363 0.3294908 0.07404764 0.5739295 -0.4268199 -0.5958527 -0.4744727 -0.4084573 0.211969 0.3386082 -0.6608848 0.3460357 -0.5008696 0.2327071 0.03462226 -0.470267 -1.673388 -0.3294179 -1.370421 -1.113448 -0.9403471 0.431393 0.3210843 -0.3844885 0.09151383 0.1405661 -0.6837766 0.01102787 -1.006215 -0.04349007 0.1877444 0.3396899 0.4961997 -0.07664511 -0.1867006 1.263905 0.3604139 0.2160239 -0.234677 -0.3269148 0.188842 0.387682 0.5592556 0.05954815 -0.3358573 -0.2766924 -0.3542274 0.4267138 0.3889508 0.4656864 -1.183045 -0.09879567 0.0174013 0.4982459 -0.4961306 -0.04608057 0.6460128 0.04210092 0.2352478 0.6630771 0.4984818 0.05240486 0.4155397 -0.5101656 -0.08435878 -0.4293911 0.3744405 0.1693937 0.24549 -0.3289567 0.3368108 -0.452115 -0.464163 -0.2558906 -0.1118317 0.08594652 -0.06196843 -0.4716272 -0.3729157 -1.87532 -1.136504 0.5665795 0.723211 0.3392605 0.9829404 -0.2815737 0.1430184 0.2407407 -0.01550731 0.3016045 -0.257539 -0.1170477 -0.3548777 0.4310864 -0.1007632 0.2144763 -0.6997769 0.2197138 -1.042248 -0.01454567 0.5546175 0.108923 -0.3469121 0.3161578 0.4938941 -0.253017 0.1198932 -1.286612 0.5284619 -0.4586116 1.137521 -0.7024612 0.6667289 -0.9244556 0.3894475 -0.1338068 0.2133206 0.4797124 0.2452004 1.277951 -0.2564332 0.2251356 -0.256727 -1.344579 0.61904 -0.332904 0.5348777 0.1594225 -0.1047917 -0.1608007 0.1665757 -0.05041898 0.4366805 0.407722 -0.6210822 0.5779107 -0.06559104 -1.156837 -1.076392 -1.632191 0.5447307 0.1187179 -0.3351154 -0.0403859 0.1187523 0.2993708 -0.6713716 -0.291775 0.3386834 -0.1753625 1.120775 0.1467563 0.4568181 0.4146792 -0.6145874 0.5517768 -0.6907699 0.4430617 0.8065868 0.3815466 1.581066 -0.0472035 -0.08861472 -0.3006146 0.2705369 -0.219526 0.391077 -0.2022024 0.6930094 0.2693215 -1.150454 1.448557 0.606598 -0.4020737 -0.1677551 -0.04530325 0.7414183 0.3065504 0.1599265 0.3584754 0.6495162 0.7990317 0.4700533 0.2870149 -0.101149 -0.4920911 -0.652573 0.02864028 0.3009872 0.1014359 -0.5816314 0.6209587 -0.9700357 -0.1689132 -0.3019115 0.4240839 -0.2724024 0.2668109 0.05826565 0.05759211 -0.1726024 -0.1235358 0.3230888 -0.5591264 -0.5886947 -0.5949697 0.1748622 0.4154031 0.7269815 -0.1294536 -0.1134357 0.7041295 -0.1053137 -0.4014686 0.1063206 0.4632291 0.1755674 -1.001664 -0.594997 -0.6769757 0.5164211 0.1017827 0.1966306 -0.03019458 0.1775781 0.2833882 -0.03826924 0.2107003 0.8141409 -0.0458022 0.5554982 -0.3894494 0.3926495 0.306833 -0.7581571 -0.5619305 0.22057 0.1142858 -0.7552568 0.06549631 0.08128614 0.397534 
  0.2790252 -0.2798685 -0.07515319 -0.9635255 -0.112329 0.436067 0.2945654 0.3368953 0.5202342 -0.8168343 1.265458 0.008124443 0.6220351 -0.6237325 0.3164682 0.07063215 0.8714902 0.2980636 0.9016883 -0.1238581 -0.531253 -0.1498165 -0.06527914 -0.4899964 -0.1006219 -0.8967038 -1.440584 0.2977613 -0.007543755 -0.9312612 -0.740975 0.4512275 0.6775045 0.03782862 0.7171689 -1.675537 -0.2965503 -0.420158 -0.03346422 -0.4887779 0.6055827 -0.2817967 0.1024314 -0.3155804 -1.933392 1.898508 -0.4813294 -0.1673667 0.7539955 1.608637 -0.04182642 -0.1584477 -0.04983806 -0.06345776 -0.1011165 -0.2976669 0.7099579 0.1785919 0.8768495 -0.4786378 -0.4197684 -0.04182523 0.2488776 -0.1316862 0.3764092 1.246748 -0.4575245 0.2952696 -0.1117435 -0.1134537 -0.3234155 -0.006533035 -0.2785822 -0.2835627 0.2960536 -0.08769769 0.1958863 0.1926881 -0.3447519 -0.3761187 0.2537745 0.7268708 0.3050748 -0.6584917 -0.5594299 0.4011575 -0.3583889 -0.6095167 -0.3021879 1.193995 -0.7291293 0.5151107 0.6013864 0.4209402 0.7280555 0.7953357 -0.5195462 0.6787003 -1.293192 0.5578907 -0.02508779 -0.8238623 0.4667 -0.009427293 0.2523651 0.3372243 -0.5131158 -0.100947 -0.4189959 -0.8652399 0.2391489 0.2885592 -0.6935214 0.2660727 0.1667234 -0.1743591 -0.2225146 -0.246772 -1.350976 -0.3552837 0.7477593 0.2299356 0.5297123 0.2887993 -0.02109865 -0.6907132 -0.1410889 -0.6441686 -0.3369952 0.1162754 -0.204026 -0.3564208 0.5987136 -1.079642 0.145592 -0.3216152 -0.1361139 -0.1379261 -0.291202 -0.1098097 0.4335799 0.2369917 0.1763556 0.225435 -0.8987089 -0.1248442 0.1327088 0.6234607 0.03711948 0.7193241 0.8264815 0.8915544 -0.3508042 -0.1515751 -0.5529508 -0.4652855 -0.6011862 0.7237893 0.361489 0.6028854 -0.4074084 -0.2132958 -0.03259696 0.8237398 0.7329282 1.046949 -0.3153526 0.2008979 -0.3151158 -0.3343699 0.4738468 1.020979 0.5307026 -0.8546676 -0.1096551 -0.5282954 0.1106086 -0.4636872 0.253934 0.6725522 0.5964209 -0.07245994 -0.04761741 -0.489176 -0.6159707 0.06454139 -0.5872257 0.8474659 0.1803122 0.5015522 -0.01101565 0.02209546 -0.3297884 0.7474273 -0.5420318 -0.3240312 -0.3143529 -0.4292325 -0.006799745 -0.1540703 0.4178114 0.5768077 -0.01651894 -0.03063417 -0.4085657 0.7738348 -0.2670706 0.1339484 -0.04107687 -3.309059 -0.2550409 -0.02192868 0.3915121 0.3195848 0.481301 0.868012 -0.5894011 -0.9463944 0.2734692 -0.2575506 -0.1072701 0.2978994 -0.2507881 -0.02641226 0.5305565 0.8809784 1.818763 0.3299256 -0.8112056 0.7717713 0.5157253 -1.080693 -0.6687242 0.1248805 0.2012868 0.1855867 0.1160614 0.04909719 0.0889814 -0.223743 1.068932 0.9079317 0.02292631 -0.8814543 -0.2486834 -0.0262406 1.065429 0.3780936 0.437988 -0.664894 -0.4139734 -0.5486022 0.7656752 -0.07992361 -0.3630969 0.2440791 
  -0.3521009 -1.159225 0.1032567 -0.7017319 -0.2455824 -0.2500665 -0.05388135 -0.1460105 0.1357867 0.0406201 0.404051 -0.2793728 -0.3183862 0.4369738 0.1681993 -0.2173749 0.4473341 0.1026237 -0.2063124 0.4028799 0.3043633 0.2313174 0.1572368 0.08157556 -0.4246101 0.5160368 -0.1838785 -0.4268003 -0.0459668 0.9110423 0.2639569 -0.436053 -0.3576513 0.3766272 -0.3565373 -0.176259 -0.03861294 -0.0163189 -0.1081276 0.2864354 0.2343818 -0.4716038 0.319073 -0.1305591 0.3243366 -0.3010927 0.1039863 -0.04802975 0.2808242 -0.2214952 -0.6625862 0.9193014 0.1674211 -0.2009747 -0.1276163 -0.1639201 -0.5720873 0.08693413 0.4779428 -0.4362155 0.5607895 0.3509789 -0.559524 -0.1531967 -0.3876133 0.08078209 0.3884169 0.3346028 -0.2252426 0.4188043 0.16429 0.1373596 0.07453907 -0.9132475 -0.1386382 0.001856938 -0.30605 0.2599709 0.3637511 -0.01537428 -0.7368259 -0.3620279 -0.4214288 0.2748187 -0.3878537 0.6746538 -0.286557 0.410962 0.6091542 0.3382517 -0.4209958 -0.8844395 -0.06902349 -0.09067555 -0.6086785 -0.4270123 -0.1892077 0.8069518 -0.1349012 -0.3447815 -0.2124848 0.1413103 -0.1321553 0.2383539 0.07109408 -0.5143212 0.3956622 -0.6094573 0.06294461 -0.1966036 0.07395173 -0.3024167 0.1327323 -0.1122351 -0.6106471 0.9206035 -0.5572113 -0.09032426 0.666891 -0.2223267 -0.4734645 0.06377426 0.5112774 0.1908322 0.5252103 -0.09369236 -0.6528454 -0.5583615 0.6384929 -0.2184492 -0.1796839 -0.2258836 -0.7440848 -0.3575549 0.4609593 0.6281831 -0.1838596 -0.2391869 0.08349289 -0.8519775 0.0154258 0.4254113 0.3102272 0.1663765 -0.2941285 0.07293536 -0.8145914 0.4206451 -0.141574 0.6428041 0.2578965 -0.6477301 -0.3948372 0.131459 0.4322574 -0.0833683 0.4446815 -0.07158962 -0.1384706 -0.2384128 0.1437924 -0.1152045 0.4564414 0.8644359 -0.2717236 -0.00607636 0.4576077 0.3636965 1.34325 -0.8845446 0.04713196 -0.7094965 -0.4147466 0.4094743 0.06626895 -0.320124 -0.1995873 -0.273856 -0.4671869 0.1136921 0.594219 -0.08244162 -0.7818055 0.2769033 0.2986168 0.3043181 0.04089341 0.4402745 -0.2275506 0.09205386 -0.1408342 0.3027125 0.376798 0.4062097 -0.6944473 0.04794431 0.1356826 -0.1575754 -0.03014998 0.02498641 0.4004379 0.1297188 -0.1082149 0.06336308 0.06682076 -0.3411708 -0.05221605 0.1969363 0.2811545 0.219588 -0.4086662 -1.375041 -0.9950864 0.6346564 0.455388 -0.7181258 0.07448991 -0.03144534 -0.2567921 -0.3336178 -0.2032894 -0.14375 0.3310538 -0.415893 0.463966 0.3849456 -0.1625801 0.6145787 -0.07323171 0.05844479 -0.2730511 -0.1115936 -0.6842262 -0.08931413 0.4069444 0.1477747 -0.153057 0.8731583 0.2283002 -0.388836 0.002732521 -0.4986127 -0.9790098 -0.3725258 -0.1618253 0.04416036 -0.1935294 -0.2684312 -0.8548076 0.6453267 -0.6653661 0.1108142 0.3528967 -0.328989 0.1313084 0.5511705 
  -0.1118652 0.638366 -0.03918007 -0.5410101 -0.4355965 -0.8755065 -0.4102505 -0.4638165 0.9466997 0.4915985 -0.7689661 0.1541168 -1.079553 0.8607684 -0.4666069 0.5490789 -0.7259879 0.045339 -0.9914107 1.308649 -0.2185617 1.224375 1.116933 0.8628777 -1.046948 -0.3070677 -0.3027764 0.1663741 0.3436523 0.6969696 0.6133026 0.7303723 -0.488519 -0.09878931 -0.5976177 -0.318041 -0.4522776 0.3149712 -0.05809144 0.3505385 0.1760928 0.02787454 -0.3968373 -0.516649 0.421227 -0.3790895 -0.3157664 -0.7740079 0.09397534 0.1408062 0.146437 -1.221411 0.5310727 0.9222506 -0.2877012 -1.314188 -0.2694122 -0.2959732 0.1414909 -0.1269941 0.510788 -0.8179769 0.005759997 0.3282894 -0.1469465 0.2170844 0.07866567 0.3728266 -0.5585244 0.02221113 0.1647329 0.4350054 -0.5853915 -0.5008571 0.08298442 -0.2546358 0.9158522 0.5081845 -0.6787754 -0.4952537 0.4530618 0.1435017 -0.2433812 -0.1792018 0.2562337 0.2773709 -0.348073 -0.2753424 -0.3159056 -1.94188 -0.3056668 -0.4226436 -0.9833912 0.5621094 -0.2884099 -0.4281275 0.01319328 1.069642 -0.03393473 0.2556202 -0.5344321 0.3041417 0.6246785 -0.9940434 0.9397269 -0.209832 -0.0251719 0.5250283 0.6342928 0.6948543 0.1609144 0.2357039 -0.109447 -0.06181685 -0.8275346 0.7616472 -0.09775338 -0.5113824 0.4034956 0.740427 0.1828733 -0.3774812 -0.03544756 0.2082144 -0.1949522 0.5498574 0.2000585 -0.2457891 -0.3836284 0.2570641 -0.06530179 0.3132029 0.1763777 -0.03433092 0.06440768 -0.09927782 0.6461248 -0.6188817 -0.333665 1.046467 -0.5782251 0.1305109 -0.4115372 -0.4792916 -0.2096687 -0.6694081 0.1113157 0.6546889 0.1280934 -0.3040107 0.7215253 0.1848819 -0.9706175 0.2267454 -0.5636454 1.090099 0.6820575 -0.7628456 0.4105213 0.2607768 -1.115554 -0.6934481 -0.1035473 0.03150873 0.4548451 0.5615197 -0.693809 0.1431705 -0.1286244 -0.3735777 -0.4566865 0.1140192 -0.9102921 0.4143167 -0.4966111 0.2283351 0.3842364 -1.372454 -0.07219106 -0.4951063 -0.410679 -0.9083199 -0.2120487 0.007163126 0.1768934 -0.4453878 -0.1590856 -0.7240263 0.33058 -0.2216146 -0.5133616 -0.2111766 1.151025 -0.8140689 -0.1586682 0.2964562 0.08263387 -0.7054543 0.457655 1.199016 0.4073318 -0.167983 0.6311314 -0.1903151 -0.794373 -0.01788342 -0.2583908 -0.1642392 -0.232531 -0.02606563 -0.4906848 0.8121415 -0.9843169 0.7161822 0.3797136 -0.2725223 -0.2024356 0.04287553 0.1702022 0.1313727 -0.1774852 -0.3294351 -0.2314575 -0.589768 0.1835328 0.996063 -1.125442 0.5120388 -0.1267421 -0.9987909 -0.06419124 -0.2366494 -0.3562602 -0.2050744 0.4996682 0.1574326 -1.068327 0.9456802 0.5026345 -0.1697979 -0.8140442 -0.1128902 -0.3486548 0.5696712 -0.4708236 0.3559941 -0.3173361 -1.215082 -1.258113 0.4129624 0.2032782 0.5330547 1.06017 0.07691275 0.6313938 0.7131964 
  -0.1817694 -0.4100902 0.36702 0.0814454 0.5386918 -0.2671107 -0.6164489 -0.3363773 -0.5949071 -0.2817157 0.3046514 -1.068833 -0.1126521 -0.02323942 -0.3568302 0.6451491 0.7006899 0.4317989 -0.7248092 -0.1355699 0.3929018 -0.627596 0.7621254 -1.790765 0.393115 -1.389416 -0.3708713 -0.09758445 -0.07986152 -0.1371626 -1.484313 0.2651094 -0.5349191 0.5309916 -0.8619704 -0.500012 0.481376 0.2969347 0.9519628 -0.877444 0.5250571 0.141727 0.8276525 -0.2001695 1.05832 1.498912 -0.1523089 -0.6298737 0.7575466 -0.763226 -0.5627097 -0.1253559 -0.31373 -0.04891428 -0.009469651 0.3033442 -0.08982378 -0.70977 0.6481038 0.184176 0.4496191 -1.448512 0.06954251 0.5296602 -0.1269514 0.1829376 -0.5912264 -0.1318042 -0.1953283 -0.08938538 -0.0730698 0.2811946 0.5228378 -1.073678 -0.02456482 -0.2518969 0.0958003 -0.2376453 -0.233945 -0.3010249 0.3132247 0.5236954 0.2827724 -0.1513894 -0.1550012 -0.7900303 0.26319 0.3232486 0.3345667 0.4394786 -0.4645433 -0.2105468 -0.2917987 0.01705617 -0.7351974 0.2058778 0.2107704 0.1001254 0.2547161 -0.05394653 -0.3388939 -0.2534038 -0.3573274 0.6704131 -0.7615228 -0.4704871 -0.003890689 -0.07652385 -0.6790814 0.01461353 0.222817 0.5015047 0.3119857 0.3211693 -0.4658182 -0.1616022 -0.2949633 0.2546951 0.8885276 -0.9253631 0.1295373 -0.9421938 0.1972122 -0.07487059 0.05029064 -0.4869417 0.3814033 -0.7396093 0.2036005 -0.2834679 0.04343859 -0.3349016 -0.3841503 0.3415027 -0.1848379 0.4653732 -0.284161 -0.117989 -0.4536268 -0.4638381 -0.3295793 -0.2637856 -0.30955 -0.04083499 -0.1452055 0.1310715 -0.6100035 -0.3995923 0.6618063 -0.8673574 -0.02648001 0.1137855 -0.00195791 -0.4908489 -0.04493582 0.6990362 0.08017279 0.1011897 0.2270663 0.7045294 -0.004323331 -1.13182 -0.2803296 -0.313387 0.5009151 0.1826478 0.2558086 0.6788897 0.1594749 1.09067 0.5941686 0.1195357 0.8268341 0.3084003 -0.3605342 0.4365466 0.3750531 0.3639658 -0.5479281 -0.2339923 0.2679442 0.1862628 -0.109597 0.7127466 -0.7088081 0.4247256 0.6436427 0.7529844 0.285585 0.9796208 0.2465664 -0.3489219 -1.156344 0.4505106 0.4585568 0.3795891 -0.02261009 -0.4459124 0.1851245 -0.4404876 0.706022 0.641046 0.5960342 0.3868929 0.7419325 -0.2247895 0.3254502 -0.8013716 -0.07867604 0.1343894 -0.6292698 0.7544469 -0.06442063 -0.6254928 0.4194331 0.2680807 0.3488473 0.1546617 0.2262736 -0.09508543 0.01210216 0.3838879 0.06683611 -0.06889276 0.04873701 -0.1909315 -0.1149596 0.5836864 0.1451314 0.4756016 -0.007118233 0.3996955 -0.4347831 -0.3345588 -0.4389711 0.2340138 0.7847629 0.8139881 -0.1053081 -0.2498126 0.02786336 0.04060373 -0.1754577 -0.03640794 -0.8924586 -0.1672739 -0.189264 0.9502938 -0.5050305 -1.359489 0.2250006 -0.2824301 -0.4544403 0.8580632 0.5466015 0.2858526 
  -1.306136 -0.9342672 1.13088 0.1602793 -0.07908128 0.2520082 -0.6058087 0.0261474 -0.5809978 0.2806576 0.8786786 0.7929543 -1.005677 1.11657 0.1398863 0.03697614 -0.1503572 0.5947484 -0.2055862 -0.334678 0.5186796 -0.1973191 0.264542 0.7158147 -0.1329148 0.1374076 0.07574245 -0.09027871 0.007317972 -0.02976757 0.5830445 0.9920696 0.5632992 -0.2080545 -0.7159246 0.02481589 -1.604349 -0.7318498 -0.8092769 -0.4081295 -0.2242515 -0.02063919 -0.1179984 0.7932549 0.5406907 -0.896903 1.382801 0.05237668 0.5168635 0.3747326 0.2723795 -0.2793272 -0.4458691 0.1596632 -0.4625575 0.01269798 -0.241883 0.1623636 1.003368 0.01766088 -0.2747532 -0.2849174 -0.09510116 -0.3486133 -0.6578259 0.08416751 -0.08945145 0.06545134 -0.4941918 1.330267 -0.6280395 0.5792673 0.6959586 -0.1495376 -0.02785047 0.8184825 -1.846517 0.2779005 -0.9586248 -0.9428797 0.008443182 -0.2516254 0.08562475 0.1523626 -0.7075509 0.5777601 0.2653069 0.3770151 -0.6194147 -0.7984831 0.682 0.6814561 -1.072506 0.6162497 -0.6359116 -0.1487817 -0.5446422 1.197873 0.02143207 0.007664994 0.4512025 0.0940858 0.4286289 0.1883165 0.2988362 -0.2495059 -0.08420327 -0.622963 -0.04659473 -0.2131245 0.08469156 0.2258176 1.003482 -0.2948284 -0.1348868 -0.3145186 -0.2891095 0.7089978 0.4531282 0.6853622 0.3828004 -0.5765561 -0.9421313 -0.01931474 0.2572896 0.434617 -0.600282 0.3327425 -0.1299617 0.4653875 -0.2781419 0.02989602 -0.2670287 -0.6091496 0.4563778 0.8941356 0.4627086 -0.1380387 0.1744943 0.5574272 0.05202749 0.8342723 -1.101771 -0.1799005 -0.4252898 0.03533267 -0.2183605 0.3493126 0.1021827 -0.4603347 -0.6437121 -0.5420452 -0.3194075 -0.9334149 1.07696 -0.7730864 0.4512623 -1.382946 0.09162627 0.2899468 -0.1433454 -0.5802783 0.3168172 1.021961 0.3040313 -0.2679053 -1.293043 0.08404694 -0.05445218 0.1826119 -0.3646843 0.09627289 0.1659804 0.6663247 0.1397196 -0.02781674 -0.1361535 -0.1304392 -0.4806997 0.1265479 0.01336566 -0.7351493 -0.07161131 0.1059735 0.8267098 0.6503348 0.4303375 -0.9088663 0.4684906 -0.5015959 0.3135198 -1.20724 0.5544673 0.7281036 0.5374823 0.5572052 -0.6786567 -1.347415 0.4392111 -0.275007 -0.9206877 0.5858424 -0.1590634 -0.1272953 0.8077914 1.484709 -0.2810162 -0.7214763 0.3063092 -0.5647718 0.2188386 1.040842 0.1173929 -0.5098722 0.3520693 0.1997295 0.5843931 -0.01139422 -0.684011 -0.138558 0.6641887 0.596444 -0.333009 -0.7427003 0.7414731 -1.11447 0.1939811 -0.447179 0.0987286 0.3287661 -0.7401438 0.6418127 0.07155375 -0.4326919 0.9266824 -0.6275324 -0.3543194 0.5604912 -0.5999964 -0.5732839 -0.2386434 0.4328391 -0.3454037 -0.04766605 -0.5867546 -0.9246765 -0.8194004 -0.1700408 -0.3143587 0.04220468 0.02962654 0.3059522 -0.3123249 -0.39516 -0.3793646 -0.03132567 
  0.02544618 -0.3950793 1.406125 0.5387807 0.4070756 -0.4932953 0.194979 -0.8757382 -0.2629121 -0.03874337 0.12896 0.2732334 -0.1236359 -0.2282596 1.38932 0.8582761 0.428313 0.02070872 0.2642857 0.225314 -0.08235531 -0.03987597 0.9064788 -0.1336242 -0.3273158 0.5156917 0.2957014 -0.1200444 0.7492964 0.5623093 0.3170601 0.6018012 0.2527198 -0.8813872 0.03985806 0.8470096 0.1570187 -0.343865 -0.9142356 -0.3446596 -0.6603692 0.9438554 -0.02276739 -0.6680053 0.9391686 -0.08685689 0.4174523 -0.02040596 0.5000192 -0.06880391 -0.29402 0.6292439 0.3279043 -0.2138476 -0.05241357 0.03475946 0.2266511 0.9799405 1.121047 -0.5543784 0.4949681 0.05382674 0.970269 0.2127056 -0.5352347 0.3995031 -0.4916888 0.311597 -0.2362682 0.7037565 -0.4806547 -0.3334082 0.2387733 -0.4210549 -1.022209 -0.3969171 0.1442333 -0.6772487 0.08689171 -0.5052433 0.8721275 -0.09377206 0.9173269 0.3818682 0.6017568 -0.8537193 -1.880139 0.0650257 0.09041889 0.2224366 -1.227143 -0.6722972 -1.151802 0.3572659 0.01197998 -1.226936 0.9875268 -1.432995 -0.7256718 0.5085419 0.01389719 -0.4366091 -0.3135352 0.2838384 0.06151189 -0.3840892 -0.7595738 0.08978544 0.5685778 0.2987055 0.8559917 0.04107106 0.8497026 0.2489481 0.7553525 -0.1182777 0.0002979471 -0.3442215 0.2013242 -0.9722336 0.2154729 -1.653385 0.08423947 0.006702165 -0.9944234 0.3339853 0.1500558 -0.6928002 -1.190038 -0.4185835 0.1413064 -0.2070532 -0.1183444 0.3727627 0.4398 -0.1312009 -0.3151644 0.3044759 0.443893 -0.3426602 -0.1536315 -0.8115596 -0.194279 -0.2170601 -0.2716155 -0.2013862 -0.9908938 0.4407938 1.012191 -1.167548 -0.819759 1.063964 0.3870005 -0.8066212 0.0186184 -1.005762 0.3979619 -1.535979 -0.9690439 -0.2371423 -0.3481309 -0.548469 0.4899778 -0.7493947 -1.111976 0.9191548 -0.5982587 -0.1078117 0.4999403 1.226765 1.139818 -0.9640579 0.4255526 -0.4035506 -0.140232 1.879132 0.5459048 -0.6930463 -0.03046847 0.766665 0.8847292 0.2199543 -1.210479 0.1024988 0.4447304 -0.2991074 -0.4730628 0.3180238 -0.321711 -0.1955232 1.078656 -0.4409665 0.5542517 0.4111133 0.01586158 0.5768485 -0.7406116 -0.1073453 0.2007383 0.6478461 0.3731473 0.4431601 0.4788287 1.577759 1.029004 0.2858011 -0.3354679 -1.416631 1.220318 0.06975819 0.5712003 1.414564 -0.08288676 -0.1716448 -0.2349756 0.4631434 -1.168205 0.4587221 0.3214632 -0.4114923 -0.5679229 0.2698379 -1.366195 -0.4936725 1.727549 1.21237 0.1648471 0.5750219 -0.2439642 -0.9220789 -1.032902 0.3910959 -1.198627 -1.266242 -0.245058 -0.126673 0.4282305 0.01622281 -0.8303905 0.4090284 -0.4318196 0.1588753 0.353466 0.02541954 -0.1556043 0.1781442 0.111468 0.03429848 0.2649874 0.5614471 0.6108683 -1.380497 -0.5291268 0.2643799 0.3129149 1.079437 
  -0.0369621 0.4203096 -1.059019 0.2953041 0.6370241 -0.4967997 -0.05636579 -0.4893689 0.6439223 0.3489961 -0.409012 -0.310814 0.3841336 0.650165 -0.2717475 0.2802176 0.3127228 0.5112287 0.01645754 1.550609 0.1949354 0.04526407 -0.1295276 -0.4292337 -0.1958065 0.07950865 0.903354 -0.3224721 -0.01195781 0.6024784 0.2373539 -0.2192105 0.3448491 -1.284646 -0.3781793 0.4029094 0.2200658 -1.04207 -0.3976012 -0.8742907 -0.6671868 0.177721 -0.3141307 0.03299254 -0.01723326 -0.09363874 0.2455051 0.713133 -0.1869554 0.2290969 -0.009739907 0.8634047 0.03869818 0.5589865 0.1028462 -0.3003464 -0.2004261 0.002114412 0.2203817 0.08550211 0.1236051 -0.2056728 0.2948538 0.2401585 0.2864306 -0.4227761 -0.0737955 0.02510659 -1.22513 0.1416268 -0.007126416 0.6743035 -0.06900656 0.02826634 0.3573498 0.5028446 -0.08328503 -0.3099163 -0.1614996 -0.3544485 0.2254648 0.08866063 -0.3628026 -0.1252208 0.2660729 -0.37097 -0.09717414 -0.5208366 -0.6593719 0.1840616 0.5566621 0.006673129 -0.9211049 0.5368596 0.07798909 0.1545881 0.110764 0.4118376 0.1059862 0.1246046 -0.01801125 -0.02798985 -0.734199 0.1353899 0.1650373 0.1783632 -0.1236283 0.4254535 0.04362869 0.3922656 -0.2477945 0.6613055 -0.3219323 -0.1564547 0.3366804 -0.3002882 -0.3090022 0.01029514 -0.5358627 0.08827614 -0.4358947 -0.4425073 0.4449645 -0.2661727 -0.2361008 0.04215717 -0.03553893 -0.528618 -0.346375 0.6075583 -0.2162709 -0.2403205 -0.4447857 0.13251 -0.5364921 -0.247658 -0.5654393 -0.6884365 0.2314892 -0.1609121 -0.6481405 0.001862469 0.09448356 0.04966924 0.5732205 0.1296023 0.08594839 0.9379082 0.5097865 -0.2007199 -0.08768153 0.2197622 -0.8385513 -0.2262636 0.6272288 0.2142383 0.6607839 0.3966855 0.2604683 -0.3262735 -0.767045 -0.2866112 -0.3509246 0.5837015 -0.8489395 1.048572 -0.3141317 0.38256 -0.1999185 -0.08834255 -0.2125071 0.1415861 0.6364521 -1.51076 0.06389073 0.1109381 -0.7415873 -0.6923584 0.6561255 1.443163 -0.1688773 -0.3156491 -0.5204061 -0.174569 -0.4832281 -0.25335 -0.1081596 0.4750189 0.08552979 0.06164734 -0.4966934 -0.7121713 0.07083309 -0.7413071 0.2363783 -0.5882427 -0.09031453 0.003200807 -0.3900799 -0.2673202 -0.08975648 -0.9332006 1.227279 -0.1462808 0.8054607 -0.109381 -0.07249293 -1.718261 -0.6951719 -0.3946731 -0.03589797 0.7697674 -1.632228 -1.179319 -0.03936764 -0.09075945 0.6527095 0.2737579 0.6817511 -1.085682 -0.7280803 -0.01041402 0.4277418 -0.0834694 0.6528925 0.06887936 -0.4103076 -0.6981376 0.09776984 0.065766 -0.1770311 0.4442647 0.3879968 -0.4936293 1.160583 0.1853475 0.2927162 -0.4122782 -0.8631741 -0.103759 0.468404 -0.4624287 -0.6415899 1.478337 0.5724064 -0.4689622 -0.1566076 0.4355985 -0.6439673 -0.2646037 1.253747 0.4972111 -0.9315109 0.1620879 -0.03360623 0.2733435 
  -0.2439284 -1.244259 0.306119 -0.8098854 -0.3751574 -0.09450218 -0.07941993 0.3928049 -0.1926155 -0.761904 -0.3094569 -0.7829175 -0.8550375 -0.05171837 -0.1214252 0.1167839 0.08371066 -0.835129 -0.02647672 -0.5954449 0.7750719 -0.5677187 1.114862 -0.7311166 0.9462221 -0.4999527 -0.2552268 -0.3881047 0.3998556 0.2779409 0.5602326 -1.473496 -0.3154474 -0.371765 0.358226 0.5028065 -0.03509708 -0.9170743 0.410082 0.04134057 -0.08913536 0.1221731 0.08080225 1.395998 0.00205548 0.2989398 -0.1201723 0.1822798 -0.8085909 0.3971823 -0.7755303 0.02794429 -0.6895868 -0.4556678 0.5920129 1.015284 0.3278954 -0.5308756 0.03581999 -1.230808 0.7099993 0.3775195 -0.9809641 -0.6541473 -0.2855898 1.41838 0.3629592 1.144621 -0.841362 0.6249332 0.2825336 -0.7073336 -0.3455486 -0.2229795 0.6216196 -0.1760036 0.3210554 -0.5118686 0.09878102 -0.3882213 1.208511 0.1401569 -0.2880686 -0.215055 0.2245223 -0.09929372 0.06787828 -0.6504648 -0.4947993 0.1920751 -0.347688 -0.09338127 -0.04297429 0.1558569 -0.7666971 -0.5421299 0.4438421 0.5103051 -0.0536802 0.9263145 -0.2588229 0.1064652 0.02477721 0.571511 -0.1543567 0.2381119 -0.04566188 -0.004514442 -0.1293194 -0.1249604 0.09175651 0.2058511 -0.461979 -0.6632836 -0.3247939 0.2584914 0.5256627 0.3632278 -0.4888315 0.1860892 -0.238916 -0.1162087 0.9525324 0.003109288 0.02045514 -0.04129756 0.5908393 -0.3813586 0.6719162 -0.7050414 0.5566674 0.3621543 0.4100509 -0.371838 -1.289797 -0.144406 -1.46684 0.3825616 -0.5201585 -0.1316539 0.06553506 -0.8145762 -0.2113033 0.2173543 -0.5917797 0.07697826 -0.4068245 0.05116 -0.7800182 0.05325928 -0.5592548 0.7128643 -0.1195955 0.1925412 -0.2210361 -0.4563139 -0.9389642 0.2457785 -0.3743202 0.4326744 0.2256308 -0.09561474 -0.5637821 -0.1121634 0.717295 0.2064044 0.7507727 0.2852724 -0.6214368 -0.4216383 0.2121165 0.6206617 0.05139684 0.9812527 0.3825012 0.6280906 0.2235996 -0.08815524 -0.3972141 -0.4078653 -0.05052752 0.03694624 0.2578116 -0.4230893 0.5795318 0.2048343 0.2097069 -0.4626289 0.4822395 -0.06659222 0.3016458 0.4435 -0.5306844 -0.5888627 0.6593443 0.2389225 0.4585695 0.4359767 0.5547265 -0.07791407 -0.184441 0.3065015 -0.3717791 -0.3258874 -1.031311 0.1162944 0.01482341 -0.1665103 0.6882306 0.4079141 0.1992757 -0.02630603 1.237806 0.01138743 0.2826847 0.1605172 -0.07601912 -0.428485 0.5022786 0.4613604 -0.7570292 -0.3221387 -0.3174747 0.6369543 0.662191 0.1762752 -0.1803172 -0.4318867 0.6206924 0.6798635 0.1917991 0.686424 0.4368953 0.9105114 -0.5440751 0.2782282 0.2646375 -0.9818439 0.9525436 0.3878197 0.3295711 -0.3234713 -0.6327124 -0.5866375 0.1766002 -0.2730974 0.5436875 -0.3624624 0.3588985 -0.5275422 -0.002643987 0.3179295 0.3456982 -0.2823561 0.2459824 0.07265826 
  -0.6319749 -0.3504677 0.7574134 1.252073 -0.2198757 0.4650722 0.403831 -0.8791087 -0.8919032 0.3615925 0.9118965 -1.05828 0.1507579 -0.8180417 -0.5680581 1.16466 -0.5996933 1.013635 -0.07877267 -0.3422363 0.6791652 0.06431052 -1.797242 0.4205493 0.1072431 0.5487668 -0.732049 -0.3681393 -0.8498116 -0.7440233 -1.598589 0.4871184 0.1834357 -0.3669762 -0.2985393 -1.205955 1.257695 -0.2601061 -0.7904665 0.5555596 -0.7516819 -1.494298 0.04411891 0.187794 -0.09200511 -1.08282 0.4870531 -1.29557 0.4969438 -0.1273203 0.5287786 -0.1168896 0.8638342 -0.4988011 -0.4647476 0.5342414 -1.181231 0.07277916 -0.07320018 -0.8659632 -0.0008200862 0.02085693 0.02626792 -1.535037 -0.1899068 0.2884763 0.2168201 0.2437291 0.2321411 -0.2875884 0.564016 -0.5804847 -0.8495155 0.2235813 0.1155401 0.6098291 0.146927 0.9615824 0.5396863 -1.175966 -0.7723031 0.09677271 -0.9991234 -0.3093477 0.1843277 -0.1719501 -0.843555 0.1644121 0.2325869 -0.2407541 0.3088638 0.7534506 0.273695 0.5603697 -0.4688934 0.3146845 -0.2147228 0.1638506 0.2619442 -0.6110899 -0.6202678 0.7385998 0.1646163 -0.2008247 0.7019832 0.5951661 0.8576404 -1.059944 0.2790543 -0.1944502 -0.7178106 0.142019 -0.6101084 -1.059955 1.281327 0.08782818 0.1066772 -0.2633919 0.4443232 -1.385074 0.5037034 -0.5212686 0.1461637 0.302578 -1.030297 0.01613646 -0.4003422 -1.47509 0.02694474 0.6170256 -0.4401655 0.6310237 -0.4020106 -0.0689416 -0.07866725 -0.3198349 -0.4544186 -0.4553153 0.3544285 0.3251162 0.1889124 -1.538653 0.2554447 -0.1071327 0.3925253 -0.03496952 0.1605334 -0.5218571 0.2609307 0.2584598 -1.848523 0.07633618 -1.645204 0.405883 -0.5320224 -0.5575493 -1.232916 0.1785666 -1.031797 -0.4044349 0.5797058 0.3220528 -0.3107105 -0.2021399 -0.2533445 -0.06793335 0.5318313 1.140296 0.9365799 0.759277 -0.5296618 -0.1203631 0.01733871 -0.393149 0.06530309 0.002832599 0.5353829 -0.2004693 -0.7673759 -0.2307925 0.4407299 0.1988516 0.6166375 0.1788657 0.2342085 0.4827957 0.2263865 0.812039 0.4217096 0.3774473 0.2055686 0.7603102 -0.05960098 -1.003717 0.2699568 -1.25007 0.08970911 0.1798445 -0.2444735 0.2530385 -0.1034319 0.4077141 0.597423 -0.5018805 -1.449626 -0.3033878 1.063095 -0.16465 -0.5639644 -0.04052609 -0.9539483 0.3389116 -0.4075757 0.2377454 0.3922042 -1.105688 1.121052 -0.1107882 -0.3131314 -0.6118526 -0.3242808 -0.5085013 0.152734 0.3172859 -0.1738964 0.5355197 -0.6278304 0.453158 -0.3204486 -0.03720929 0.4334324 -0.4729097 0.008940316 -0.2374479 0.2199353 0.0254631 0.1734425 -0.6256589 -0.8371115 0.3328958 -0.1085318 0.1526583 -0.907395 0.08553289 -0.1649796 0.25843 0.9888289 1.182051 0.6582334 0.411344 -1.530792 0.6270722 0.9581358 -0.1177157 -0.03230815 0.1400012 
  0.1081995 0.3677858 -0.6830521 1.025562 -0.1187083 0.6245779 -0.6358778 0.499896 -0.4368845 0.1688589 0.8741871 0.8081908 -1.107335 0.7101951 -0.5048807 0.9016609 0.4845933 -0.7213537 -0.7804601 -0.6054557 0.1957572 -0.9398661 0.2187643 -0.3759241 0.2988861 -1.61578 -0.3893619 0.001487337 -0.6088634 0.173661 0.7652296 -0.7257722 0.1915798 1.064436 -0.3408129 0.5549403 -0.2375792 -0.5050719 0.4538954 -0.6648715 0.5310021 -0.8953454 1.094212 0.1191484 -0.268698 0.1154625 -0.3307562 -0.5265849 -0.0818132 0.562367 0.406173 -0.2138072 0.5769522 0.2190247 -0.4847254 -0.2552662 -0.3008532 0.3384978 0.326424 -0.269787 -1.061912 -0.3805963 -0.4287106 0.6443745 0.004604804 1.682353 0.3045669 -0.4174818 -0.04124966 -0.7788562 0.5319083 -0.7136334 -0.4924135 0.06078438 0.7932475 0.1597826 0.5860655 -0.07062575 -0.154954 0.1207737 -0.9167984 0.8874846 0.5056387 0.2361387 -0.4676415 0.5356456 0.2170894 -0.6085978 0.003294638 -0.09015372 -0.1702696 -0.1211829 0.383672 1.088289 0.8265579 -0.2274987 0.3762883 -0.8510098 -0.137649 -0.4845125 -0.3530322 0.661108 0.1936762 0.1647978 -0.06938043 -0.4859014 -0.07585469 -0.05608663 0.1508041 -1.205232 0.4061343 0.1078454 0.2502578 -0.8553551 -0.9657359 -0.1023916 -0.06019225 0.05801249 0.01366646 0.3604043 -0.2226256 1.297542 0.3373006 -0.7653481 -0.4527493 0.1783859 0.3076604 -0.3290455 0.2123752 -0.2787816 -0.6408037 0.5570382 0.05488096 0.09599024 0.4780434 -0.952436 -0.2370266 0.1421532 -1.375409 0.4403477 0.9791023 0.06581782 0.01892234 1.106771 0.4799477 -0.5953017 0.6902329 -0.642023 0.06861374 0.2702482 0.361 -0.2267759 0.3599352 0.2711004 -0.3471053 1.207585 0.3011183 -0.1127128 0.5898346 0.2839571 -0.4191088 -0.5042709 0.4528262 -0.7931058 0.2562137 0.5653594 0.0303143 -0.4392934 -0.1094979 -0.6340351 0.1292436 -0.8410102 -0.2488897 0.1722919 0.2481441 0.1237744 0.4945589 0.8463607 -0.120638 0.06067857 0.2670031 -0.4715216 0.2179704 0.6010548 0.4344532 -0.01512143 -1.210987 0.05577595 0.3346006 -0.1748772 0.2262882 -0.05709895 -1.703616 -0.2342727 0.5602415 -0.1010191 -0.7843279 0.09242587 -0.4827635 -0.07688161 1.995031 0.2410905 0.4358273 -0.1146539 -0.9709512 0.5205525 0.6024341 -0.1296326 -1.08822 -0.05784648 -0.8002663 0.01753681 -0.2211819 0.5493308 -0.3785826 0.4477593 -0.8953414 -0.6152505 -0.2359498 -0.2175623 -0.3698709 -0.3322082 -0.3410962 0.1374277 -0.3218266 0.3315952 -1.519492 -0.4338284 0.4366097 -0.1936244 -0.5018675 -0.3803316 0.6338578 -0.4743161 0.4609297 -1.204063 -0.9738398 -0.1578927 -0.9338753 0.6774433 -0.002947602 0.4980693 -0.2739975 -0.7769979 0.9339993 0.3665695 0.5644707 -0.233803 0.3418375 -0.8555694 0.5484369 0.01368014 0.2893337 -0.3123316 0.6394357 0.07730685 
  0.1565655 0.68432 -0.5789354 -0.3534373 -0.1602851 -0.03228149 0.3948461 0.5410625 -0.3211473 -0.2272572 -0.3569928 -0.3680019 0.3194238 -0.07981508 -0.1559029 0.5283881 0.5337202 -0.5152738 0.1913876 1.980022 0.28921 0.2351041 -0.5563786 -0.6098318 -0.03817655 0.1945629 0.3719406 -1.308484 -0.2591167 -0.1870595 0.2084572 0.2980289 0.03119373 0.005399866 0.06844351 0.3865407 -0.1336109 0.1307703 0.1030806 -0.1172442 -1.886009 -1.082145 0.3459717 0.3052056 -0.1048592 0.8107017 0.8767892 -2.410512 0.211231 -0.4620878 -0.03977102 -0.1110464 0.4520244 -0.08909611 0.6357256 -0.2292946 0.6155572 -0.3057563 -0.5901909 -0.5130736 0.4874276 0.2021468 0.6289192 -0.3081586 -0.9925866 -0.02640948 0.1996341 0.258539 0.2987704 0.101423 0.1620039 0.00364892 -0.1404386 -0.6980867 -0.05628545 0.359675 0.004869345 -0.8538109 0.6184227 -0.2942335 0.1603541 0.3923956 0.393761 0.5510174 -0.8877608 -0.3154101 -0.5448816 -0.04930465 -0.2474086 0.2608939 0.2910137 0.2064443 0.02679848 -0.02663946 -0.4298587 -0.2129601 0.2113818 -0.2611341 -0.2813263 0.268712 0.6277612 0.6783761 -0.3937457 0.738834 -0.8515981 -0.8747291 0.1933693 -0.6578745 -0.7725204 -0.3472353 -0.7461694 0.4166606 -0.3602211 -0.2636214 -0.04005436 -1.286406 0.3944385 -0.2649203 0.4151884 -0.5060298 -0.01984615 -0.04606717 0.5255617 -0.9380882 -0.466569 -0.5860053 0.04915359 -1.357026 0.1512977 -0.9637398 -0.06151347 -0.7098778 0.3796044 0.5209877 -1.083638 -0.2101611 -1.796226 0.2422967 -0.3618915 -0.09111297 1.24541 0.07614791 0.687245 0.807663 0.4342513 0.3265411 0.05370945 0.1195682 0.195328 0.3245851 0.1768506 0.6732084 -0.2581292 -0.2948163 0.3656065 0.1299003 -0.8148407 0.4379135 -0.4102433 -0.08135905 0.5684302 0.1246606 0.684064 -0.1814492 -0.0270161 -0.4328762 0.7817436 0.1736177 0.648775 0.6973283 0.2441535 0.6086882 -0.1714413 -0.1434842 -0.7759926 -0.1074464 -0.7031133 0.4873314 0.1785765 0.4568678 0.07016183 0.5620266 -0.2929516 -0.09006459 -0.7973194 0.02850686 -0.182671 -0.9162942 0.5085641 -0.04593436 0.587193 -0.4383659 0.1870463 -0.3329878 0.3304762 0.377019 0.2122094 0.225983 -0.6294101 -0.3819882 1.4143 0.2437606 0.5164413 0.544885 0.7590873 -0.2235472 0.180683 0.5693392 0.09078828 -0.3135868 0.01425763 1.888896 0.2813498 -0.3630232 0.2010284 -0.455337 0.07829925 0.1982315 0.1717927 0.3450063 0.27329 0.79277 -0.5490456 -0.2583312 0.3996865 0.2011877 -0.1519596 0.3654745 0.2048919 -0.2613609 0.1289817 0.5499256 -0.6441335 0.4447092 0.1783889 -0.7998726 0.6564968 -0.0290189 -0.2287306 1.030188 0.7819461 0.4403048 -0.5827237 -0.1471198 0.1095601 -0.4544939 -0.1192572 0.4448662 0.6198451 -1.042015 0.6646332 -0.06791332 -0.6282048 -0.09792082 -0.5198122 -0.1823829 
  -0.8721509 0.7842612 -0.2834356 0.5104769 0.1639332 -1.406479 0.8297838 -0.3049865 0.4897733 0.8069728 0.0818682 -0.5166213 1.214478 -0.3474089 0.2987439 -0.2361653 -0.1209255 0.186178 -0.09164026 -0.6629332 0.3636315 -0.04096174 0.6946295 -1.102703 0.4945557 0.3465971 0.8527513 0.1930376 -0.1276922 -1.223605 -0.8828245 -1.011696 -0.6604679 -0.0475281 -0.1783143 -0.6322568 0.2991425 -0.880701 -0.9578498 -0.4510741 -0.7813867 -0.2663424 -1.010424 0.08845747 -0.4753805 0.03037144 0.6498033 0.1332285 0.1073252 0.07980972 0.4185217 -0.01125469 -0.2208471 -0.5836028 -0.8022649 -0.3772229 -0.8381251 0.3114475 -0.3542469 0.03094561 0.703492 -0.6269209 0.8669319 -0.0376822 -0.04016889 0.657795 -0.0510047 0.8767691 -0.4021211 -0.339488 1.081706 0.5903563 -0.2102959 0.7381908 -0.8018059 0.8214911 1.399245 0.359578 -0.600566 0.8056872 -0.1158176 -0.5836064 -0.4324468 -0.4335384 -0.8902859 -1.877927 -0.5792308 1.47046 -0.00962788 0.6709915 -1.827994 -0.2063943 -1.130036 -0.5767608 -1.017978 1.514588 0.9421633 -0.1506329 1.014505 0.6891139 0.2143487 -1.167311 -0.2352188 -1.181251 -0.894949 1.653286 -0.4457809 -0.6508034 -1.71163 -0.2635382 -0.6234165 0.640646 -0.05870571 0.2400864 -0.04667395 0.826439 -0.2582026 0.3365117 -0.502296 -1.307849 1.001976 -0.4485072 0.0368443 -0.5312275 0.5271499 -1.134586 0.3131673 -0.9238492 -0.02773748 -1.165263 -0.005822567 1.127545 -0.2790997 0.9644159 -0.0848824 -0.1620912 -0.7040229 -0.8085107 1.132519 -0.1189685 0.5226694 -0.9910167 0.3579308 0.04146472 -0.05992719 0.2589264 -1.445065 0.07948314 -0.7153629 -0.1022037 -0.02435176 0.6022466 -1.903312 -0.8052118 -0.3864554 -0.02843795 -1.138316 0.9784979 0.4798645 0.2652138 0.662352 -0.2422737 0.7236078 0.819811 0.8834763 -0.9751406 -1.289775 0.9022812 0.04727034 -0.1992597 -0.1495179 0.3233144 -0.5015959 0.04359477 -0.4968943 0.3590506 0.4416653 -0.3895906 1.526471 -0.5915691 0.5668148 -0.4356224 0.9342288 -0.001533297 -0.4482256 0.70859 -0.1585715 -1.119537 0.3264995 0.7465109 0.2331248 -0.525914 -0.3721338 -0.8415477 0.1630412 0.3827417 0.720337 0.1016485 0.3889502 0.295408 -0.2087926 1.088263 0.4455238 0.4721794 -0.7118012 1.143681 0.3661419 -0.4602577 1.033701 -0.1346582 -2.86772 0.251368 0.2003916 0.129794 -0.3384561 -0.5572143 -0.5571825 0.3771521 -0.3443263 0.7110974 0.7139085 0.3276361 -0.1691542 0.36415 -0.8841081 0.12524 -1.130896 -0.008909198 -1.167647 0.2600683 0.7782416 0.7735288 -0.2079581 -1.100767 0.3586254 -0.1176495 -1.238316 0.3700979 0.3397304 0.9561036 -0.5002418 0.4350328 0.9737291 0.269756 -0.1198019 -0.9352154 0.5384034 -0.3101037 0.5011029 -1.138295 -0.223874 -0.06393586 -0.103988 0.6988999 0.3254758 0.3312279 
  0.0110731 -1.197695 0.05634965 -0.1493769 0.3280636 -0.8296601 -0.436772 -0.3070805 0.4322721 0.4605888 -1.692851 -0.08045999 0.522315 -0.07978639 0.5957448 0.5347235 -0.08942428 -0.6381112 1.09982 0.1231254 -1.183169 0.2438045 0.1678227 0.2015552 -0.5697222 0.3923792 -0.04636741 0.7960375 0.9429494 -0.6192235 -0.3607359 0.3297064 -0.3521232 -1.057252 0.1304493 0.2010217 0.2112883 0.2250688 -0.2252123 -0.8035607 -0.152161 0.504272 -0.663806 -0.3161611 0.147948 0.05230408 0.01189699 0.2465399 -0.1089747 0.4322335 0.3481302 0.3338337 -1.104385 -0.2091002 -0.4818388 0.01260149 0.1194862 -0.4604059 -0.2071231 0.2719051 0.08731923 -1.12945 0.5504054 0.7623876 -0.6210549 -0.6474133 -0.2016384 0.4017043 0.6693442 -0.01829368 -0.1724772 -0.2882843 -0.3086945 -0.2552059 -1.080996 -0.6150445 0.5979464 0.5477476 -0.4699942 0.2734864 0.1556314 -0.5985423 0.08210888 0.5889528 0.05984878 -0.7238269 -0.3539615 0.5617428 -0.8084624 0.278504 -0.2230726 0.1637281 -0.4496825 -0.4340247 -0.1244189 0.9469579 0.2344829 0.3322793 -1.376693 -0.02366178 -0.9064282 -0.2847356 0.4075086 -0.02906499 -0.431215 0.3160481 -0.8525421 -0.2061407 0.2243971 -0.08742559 -0.03043178 0.4326302 0.3624531 -0.1892078 0.8209876 -0.2929368 0.05005213 -0.431518 0.2793885 -0.5937625 -0.09420904 -1.509672 -0.3697102 0.1358632 -0.7799044 -1.180804 -0.08443405 -0.9367874 -0.3077989 0.1090881 0.0861323 0.281318 -0.2520811 -0.04699402 0.4593707 -0.7107388 -0.6114197 0.2234623 0.2556739 0.3384865 -0.5065096 0.2088709 0.3629071 0.759749 -0.209701 -0.4091774 -0.778955 0.640977 0.3218143 -0.4351583 0.1882762 -0.2470207 0.3146141 -0.6704803 -0.2717774 0.3689007 -0.1752896 -0.3899111 -0.5596846 0.1072431 0.2806338 -1.038801 0.6877106 -0.1165051 -0.2352431 -0.3431609 -0.04680414 -0.4414665 -0.07011764 1.109674 0.399569 -0.4996308 0.784815 -0.0690804 0.1702878 0.308953 0.06645 -0.4574754 0.839744 0.5761774 0.6253496 0.004891715 -0.0471123 0.2411879 0.4362547 -0.483751 -0.8551328 0.1306517 -0.0371135 -0.8560762 0.3691494 -0.4532254 0.5955504 -0.7523856 0.3527334 0.4448742 0.6743154 -1.113149 -0.1005263 0.181192 0.3455113 0.5133303 -0.1488961 0.4304598 0.1268183 -0.06112197 -0.2450355 -0.4344638 0.4007699 -0.3135447 0.3887063 -0.5407569 -0.06989775 0.2589225 0.1776261 -0.2755245 -1.764131 1.052072 0.2679121 -0.4914815 0.4763031 -0.4267128 -0.4870166 0.7036593 0.04933084 -0.4238264 0.07795376 0.6870233 0.1816096 -0.4777868 0.06925035 -0.4925483 -0.275635 -0.2201498 -1.416982 -0.5244706 0.4803355 0.4378717 0.5710306 -0.1658397 0.3047487 -0.8635582 0.9891703 0.71595 -0.3001066 0.251916 -0.422714 -1.329782 0.03284948 0.0210092 -0.1536303 0.117227 0.555567 -0.8772293 0.5169281 0.1939028 
  -0.6292252 -1.340435 -0.04242022 -0.4456681 -0.7973738 -1.422692 -0.2709961 -0.1641077 -0.5910746 0.01327533 -0.3015322 1.020485 0.4222638 0.4385746 1.097685 0.5250695 0.5904123 -0.3518898 0.6698659 0.04853065 1.436742 0.9987401 0.2244544 0.4155041 -0.8073419 -0.439422 -0.3743657 0.5403696 0.213999 0.1652106 0.7872308 -0.3334015 -0.7093508 -0.2524339 -0.1471111 -0.5386871 -0.4843749 0.4508196 -0.601355 -1.353858 -0.3998396 -0.8801383 1.011525 0.8657065 -0.422195 -1.105286 1.498852 0.8347598 0.005812622 -1.713537 -0.4826178 -0.29187 -1.886485 0.2753218 -1.314549 -0.3921851 -0.06423315 0.6394064 0.9234245 0.5035852 -0.4435615 0.5823095 0.8845843 -0.9453855 -0.5062196 0.05615152 0.6249288 -0.4749452 0.2080964 1.482466 -0.9200962 -0.03719237 0.2948984 -0.5948765 0.1450558 -0.579551 -0.06891159 -0.8629819 -0.6043213 -0.8388928 -0.2919886 -0.383243 -0.0681611 0.08410387 -0.9571884 -0.36545 -0.1399733 0.1965358 -0.162619 0.04953744 1.000988 0.2692583 -0.05700316 0.7411009 -0.161461 0.1199288 -0.370817 0.1695874 0.5110954 0.2973027 -0.2952212 -0.1539798 0.9207606 -0.2774098 0.2822779 0.02903801 0.05612615 -0.2046156 -0.347684 0.5641282 -0.9105093 -0.2905188 0.9082528 -0.00271563 -0.3585835 0.04694396 -0.2385244 -0.2596849 0.6424449 -0.4918204 0.6830968 -0.7626206 -0.3791634 -0.5681661 0.5172617 0.05230654 -0.3725573 -0.3714189 -1.118597 -0.5418899 0.2447034 -1.520609 0.3076292 -0.6213109 -0.8669479 -1.17515 0.5148321 0.284913 0.8972022 1.034568 1.127488 0.4093373 -0.895264 0.9033883 0.3642584 -0.5750701 -0.618428 0.4767579 -0.1383328 -0.6859671 -1.122967 0.1367036 0.9375083 0.1237332 -1.136147 0.1524884 0.6966273 0.5106207 0.4352179 -0.3716104 -0.2892949 -0.2950954 0.4174979 0.3774244 -0.4582757 -0.5575752 -0.4598129 -0.5934336 0.09458945 0.1451149 0.1580196 -0.6912768 0.2068944 -0.6369889 -0.04667001 0.9690858 0.9735974 -0.3972016 0.5683925 0.5579889 -0.3856212 -0.4731077 -0.71422 -0.7983623 1.159202 0.04673068 -0.4405885 -0.4107555 -0.4963348 0.2398004 1.113868 -0.5843368 2.051127 1.0092 0.7256114 0.2816065 -1.415766 -1.03528 0.305758 -0.3967643 0.5700136 0.5489448 -1.608559 0.7856196 0.5292059 -0.2371129 -0.7528593 0.2940375 1.372229 -0.05097719 -0.7744489 -0.1147752 0.2815571 0.7003542 0.2436269 -0.7229477 0.3612507 -0.5048901 -0.134099 0.6701915 0.1513406 0.7635177 0.1394731 -0.8503726 0.6122751 -0.8132448 0.4721872 0.4197645 -1.653569 0.1582368 -0.6998786 0.1378101 -0.6782507 1.036012 1.050145 -1.172431 -0.7389813 0.4669882 -1.161836 0.9108951 0.6114742 -0.8755707 -0.2928033 -0.9886605 -0.9678338 0.2767191 0.01029493 -1.04793 0.9805195 0.108874 -1.392511 1.393287 0.8278154 1.233492 0.1524631 0.6015957 
  0.06075992 0.4966955 1.014534 -0.3644049 0.7528269 -0.2865147 0.4142231 -1.365003 0.3548729 -0.007134859 0.4553446 0.3876912 -0.3686249 0.5271767 -0.2371517 0.8911544 -0.6101505 0.1080567 -0.5526348 -0.3017633 -0.8426369 0.04838361 0.2977882 -0.0004615781 -0.7191785 0.66229 -0.1930231 -1.032637 0.4793028 -1.095498 0.5034189 0.2548439 -0.0002447071 0.7116815 0.05491828 0.1323368 0.211576 -0.3896302 0.5376862 -0.9586008 0.1216804 0.2344916 -0.8714404 -0.1474096 -0.3061866 1.137905 -0.008142296 -0.0810365 0.7433703 0.2609197 -0.1672778 0.4912249 0.5395976 0.508267 0.6833755 -0.3976389 0.4993868 0.2262873 -2.055002 -0.3537142 0.5667375 0.4556244 -0.4787038 0.4872147 0.3779398 0.01783764 0.2259562 0.2589947 -0.04819899 0.09124074 -0.6939276 -0.5459729 -0.2827019 -0.02499218 0.6814073 0.1978924 0.6508703 -0.4550392 0.2390197 0.06356459 -0.1476667 0.5930629 0.1419065 -0.3648945 0.846418 0.7056521 -1.472618 -0.8060027 0.1574813 -0.3473844 -0.7782622 0.3378923 0.03507406 0.1096121 -0.1002467 0.7574441 0.399372 0.2081707 -0.0007112991 -0.4463054 0.3750356 -0.7604924 0.1386122 0.1526072 -0.3115839 0.5334109 -0.2182628 -0.516651 -0.8333814 0.5535764 -0.1002616 -0.1161506 -0.9399554 0.08198114 -0.248999 -1.589058 -0.8968512 -0.6063741 0.183888 0.2839906 0.05116234 0.4631796 0.4937506 -0.2840095 -0.2664053 -0.337905 0.2028882 -0.1334185 -0.5552189 -1.173772 0.09969249 -0.814703 -0.07407799 0.5122611 0.2439783 -0.6038874 0.3147531 0.1726431 0.6930748 0.7421712 -0.16475 0.04369577 1.27569 -0.4815713 0.7319661 -0.2471158 -0.1326402 0.5744347 0.3057801 -0.1789637 0.312559 0.0473711 0.5217907 -0.3766529 -0.7497067 -0.4083181 0.1945338 -0.1614329 0.1061752 -0.2183336 0.3211422 -0.1879721 0.008775967 0.08211222 -0.3087376 -0.2863211 -1.565163 0.04904298 -0.1836092 -0.3935274 1.056914 0.4666559 0.5835432 0.8751416 -0.9776339 0.7512457 1.062959 -0.458115 -0.09036209 -0.2698798 0.9749523 -0.7585312 -0.6777186 -0.6781478 -1.507122 -0.02751746 0.7400848 1.640476 -0.6971872 -0.10735 -0.3484733 0.1562993 -0.1125732 0.4469541 0.8261568 -0.3387865 -0.8154134 0.4506454 -1.156272 -0.4182858 -0.007743845 -0.08809976 -0.4306078 -0.6824489 0.09010446 0.7774797 -0.3585764 0.3883658 0.1419333 0.4488224 0.1213867 -0.5859881 -0.1624693 -0.0008491085 -0.7414209 0.01965633 -0.1186231 -0.703078 -0.9100345 -0.9579276 0.2835529 -1.028405 -0.1578204 -0.1464838 0.5581387 0.3224354 0.2848533 0.2197091 -0.1709329 0.180856 -0.09912437 -0.2094297 0.7562006 -0.57529 -0.5066791 0.3362836 -0.100596 0.02713826 -1.033112 0.7942193 -0.1709272 -0.7366221 -0.06733707 1.706217 -0.0801714 0.186326 0.4620239 0.7177408 -0.2267854 1.025311 0.8872135 0.5235429 -0.7327549 -0.1406126 0.6006553 -0.5904875 
  -1.640646 0.2481168 -2.428078 -1.605675 0.2359343 0.67573 0.8269559 2.433435 0.7315991 1.39628 -1.494803 1.26687 1.988918 0.769319 0.994265 -1.110937 0.07085336 1.195799 -0.448669 -0.6164194 -2.503766 -1.867361 -1.470966 1.031318 -0.1716098 1.730497 0.3574246 -0.8889589 2.571994 -1.484036 0.9573005 -0.1769842 1.075552 0.4487775 0.2231368 0.1597618 -1.210411 -0.9261599 -0.6096274 -1.497292 0.1467282 -0.6677836 2.120193 -1.285242 1.216385 0.4706769 -1.009206 -1.0936 0.45948 1.55531 0.5580222 5.731045 -1.393938 -0.5534257 1.208257 0.4454792 1.876601 -1.294942 0.2963313 0.146407 0.07909185 -0.3101346 -0.1505545 0.141731 -1.056115 -0.2911522 -1.081104 -1.189772 1.225795 0.2355502 -0.9433846 -0.7776449 0.2314848 1.252145 0.3837419 0.2312982 0.9882634 -0.334787 0.3807468 -0.3410704 -0.1427202 -1.444783 -0.1448424 0.4334305 0.8679623 -0.3672977 -0.5685172 0.732655 -1.304722 1.228752 1.598939 -0.7880445 -1.679032 0.7791321 -0.7584212 1.656584 1.214564 0.06288293 -0.5309297 -0.8262619 -1.605296 -1.630407 -1.555783 0.3129978 -0.159612 -0.8790635 -2.083163 -0.02495404 0.03485703 0.1763702 -0.9379215 0.8489564 1.415831 -0.5491409 0.323897 -1.35367 -1.344463 0.3299297 -0.3283929 1.003751 2.855075 1.378437 -0.2074304 1.452655 -0.8093899 0.392513 -1.872456 0.3661611 -0.4047008 -1.097671 0.6853029 -0.3552277 0.5625174 0.7645192 -0.2104784 0.3034747 -0.1210223 -0.1439184 -0.1897229 -0.3610815 0.5674421 2.210464 0.1484821 1.886691 -0.01456377 -0.02638365 1.329248 -1.435225 -1.634346 -0.5452355 0.1750565 -0.4530026 0.6651866 -0.2621691 -0.8144302 -1.740788 -1.184013 -1.857558 -0.7412395 0.07109588 -0.1079532 -0.3776901 0.9707947 0.1109496 -2.223207 -2.932177 0.3492831 -0.08886156 0.8594369 -0.4438359 0.6359503 0.6311255 -0.294228 0.4429455 -0.341432 -0.1533549 -0.3408356 4.158648 0.4664822 3.955327 -0.9970605 0.1916103 -0.8873101 1.160813 -0.7795989 -0.1457894 -0.5334008 1.305662 0.002247398 0.4097244 0.4641784 0.2711917 -1.960215 1.370784 -0.1131783 0.2640039 1.421453 0.5870519 1.058218 -0.6966223 2.106694 0.2759798 -0.08615965 1.512049 -0.7262037 0.4058699 -1.065232 -0.4329026 -0.8220788 -0.5762426 -0.09673202 -0.8928353 -0.1796141 0.3574007 -0.1731457 -1.653607 -0.4017687 0.7145415 -0.3385372 0.3194853 1.382707 -0.6119659 1.226599 0.150346 0.4451003 -0.9394011 -0.6883695 -0.1079602 -0.5265476 -0.5724422 -0.8643089 0.03698944 0.1742185 -0.8876366 -0.7286776 -0.9316518 -0.9628021 0.6169972 -0.4720781 -0.4994817 1.963837 -0.1426739 0.1960275 -0.5286687 2.07804 -0.3435818 -1.809463 -1.388472 0.6127482 -1.210913 0.04652148 2.864692 -0.700895 0.1719907 -2.188369 0.1302219 
  1.352507 -0.09661333 -1.351527 -0.590136 -1.577481 -0.5239109 -1.046166 -0.659239 0.3089834 0.2505982 -0.009298938 -2.841822 0.2093581 -0.2234128 -0.03632995 1.055131 -0.4676492 -0.2197919 -0.4610074 -1.802016 0.3393755 -0.1500542 -0.8265472 -0.4846967 -0.3767051 0.2559556 -0.02582557 0.7274926 0.5145246 -1.454488 0.377318 0.08938789 -0.2641574 0.3037443 0.275224 -0.7090315 -0.6242 0.3544476 -0.6253742 0.7169577 -0.02441894 -0.1122994 1.223779 -0.9379827 0.0059276 -0.0853044 -0.5513613 0.1406997 -1.337545 0.7664634 -0.9951947 1.228404 -0.1114006 -0.1866885 -1.160629 -1.039849 0.6167894 1.064769 0.02770272 -0.3809211 -0.04376636 -1.271083 -0.098056 -0.3536808 -0.5037159 0.1799444 0.2569739 1.111841 1.78061 -0.3930086 0.3730779 0.01393143 0.5753692 -0.8523522 -1.843488 0.8965406 1.61233 -0.545585 0.09205307 -1.655434 0.4385777 0.02444693 0.1673373 -0.4690689 0.395985 -1.424836 -1.325214 0.1211622 -0.446043 1.117285 0.6266158 -1.430739 -0.11838 -0.1332123 0.05301787 -0.9186453 2.183364 0.1056717 -0.1060512 -0.06863143 -0.3728367 0.04339474 0.5142812 0.6052757 0.6626422 -0.3166268 0.814676 0.73895 1.001041 0.3782809 -0.4811189 0.7746673 -0.1592107 -0.6989393 -0.7284893 -0.3215056 -0.06571117 0.5398315 -0.8785486 -0.8703843 0.5802236 -1.148228 -0.1112225 -0.4387632 0.2807763 0.06009405 -0.2705479 -1.082367 -0.5370417 0.849041 0.112845 0.5866615 0.9272163 -0.4576385 -0.4104743 -1.08816 -0.03917667 0.2297326 0.2136017 0.3361196 0.7066634 0.28467 -0.5458143 -0.1542029 0.6424747 0.1442973 -0.8058826 0.126167 -0.8378999 0.1070248 -0.5268899 0.2442432 0.2861113 -0.6677613 0.3502858 -0.1847295 0.2151613 -0.1085873 0.3922303 0.2930243 0.3699729 -0.2611046 0.888429 0.5888383 -1.377892 -0.285065 0.8591102 -0.297305 0.4828571 0.7589203 -0.2381824 0.04057879 -1.328379 -0.3233598 -0.589123 0.9942178 1.042579 0.4746683 1.352696 0.7398657 1.011716 0.6050462 0.5032733 0.5344235 -0.2911099 -0.2203679 -1.081092 0.4576413 -0.2103241 0.6463786 0.1958226 -0.90294 -0.09775729 0.5480489 -0.03418229 0.5082501 0.1353179 -1.909516 0.8099948 -0.07757381 0.3010393 0.2994238 -0.9716592 0.6266049 -2.020587 0.8361138 -0.2124108 -0.3942097 -0.2220831 -0.2007776 0.5595887 0.02893984 0.4312127 -0.385667 0.4172327 -0.5433468 -0.76796 0.2009082 -0.2082996 -1.463285 -0.2249831 -0.3275981 0.3866445 -0.3774357 0.07553939 0.08130725 -0.01729391 0.2483951 -1.657893 0.2073656 0.2079025 0.699212 0.08488061 -1.428809 0.2211995 -0.9813595 -1.29131 0.3662955 -0.02542485 1.412104 0.04660473 0.8891095 -0.3902347 -0.2705789 -0.2778158 -0.4277962 0.1360099 -0.48722 0.1626863 0.4465822 -1.82135 -0.5473614 0.4878927 -0.5810133 -1.286573 0.9009837 
  0.8262845 0.9055691 -0.425147 0.2701139 -0.5447772 -0.3556826 -0.2860615 -1.491234 0.5354429 0.2495388 -0.3055117 -0.1224466 0.02284217 -0.1401258 -0.498087 0.3815765 0.3474657 0.3131639 0.1089921 1.698555 -0.5988758 0.9355363 -0.9138808 -0.8002872 -0.6839337 0.03762627 -0.580404 0.2292724 0.9744987 -0.4741128 -0.1586796 0.5440198 -0.771597 0.4409425 -0.348557 -0.4863038 -0.8006374 -0.3240252 0.09162088 -0.4334992 -0.4096026 0.3767594 1.100957 0.27202 -0.03329462 -1.146125 0.6043347 -0.1979342 1.059949 -0.3944246 -0.1872893 0.7238518 -1.215821 -0.5762503 -0.5152742 -1.246008 0.03126305 0.0528059 -1.883998 0.3514104 0.7934946 -0.7336605 -0.005222952 0.5518627 -0.02406719 0.1065468 0.3650553 0.4720648 -0.05129434 0.5539951 -0.7715426 0.03807943 -0.7588409 -0.7943096 -0.3107156 -0.6704395 -0.2778471 0.7573486 0.5992896 0.3492085 0.4906366 0.2596449 0.1583974 -0.3828911 -1.228885 -0.7862211 -0.225092 0.5686876 -0.2743323 -0.1534357 0.8128318 -0.3013555 0.107141 0.05656006 -0.1315294 0.5784829 0.1602433 0.9356892 -0.2457818 0.2036037 -0.1632733 -0.6960114 -0.4587 -0.1304724 -0.6619895 -0.5014239 0.4036776 -0.1403318 -0.310362 0.3193821 -1.032497 -0.9329402 -0.6026567 0.1246226 -0.1219883 -0.7389436 0.448262 0.06109933 -1.16091 -0.2038967 -1.172932 0.05819361 0.3924006 -0.2351775 -0.2331551 -0.6039695 -0.4974189 -0.61405 -0.6971593 -1.334219 1.266695 0.03093014 -0.2298056 0.6016653 -1.288404 0.2632175 -0.5342122 -0.1889835 0.695942 1.016409 0.3424304 0.3911467 0.7317523 -0.8874444 -0.7605309 -0.07537726 -0.36249 -0.3621718 -0.03333363 -1.429793 0.5686244 -0.03058167 0.6220465 0.122111 -0.7546176 -0.3585379 -0.024672 0.2735935 0.2743897 -0.02472363 -0.4396666 0.3809893 0.1269183 -0.6339052 0.8978626 -0.3710021 0.1319374 0.6696916 0.5935931 -0.867965 0.3664479 -0.3471788 0.8947001 -1.012907 -0.2620267 -0.4702163 -0.04559871 -0.6604123 0.4392218 0.07780988 0.2939157 0.1546125 -0.06170466 -0.8884527 -0.4091995 0.6525564 0.3987482 0.7210984 -1.507592 0.2430759 0.5315763 -0.1689027 -0.06131147 0.36625 0.4648662 -0.1262646 -0.3319693 0.9303604 -0.8550656 0.07843634 -0.149826 0.1345324 -0.09246089 0.1980218 0.5482675 0.2961525 -0.8815182 -0.01514647 0.1799166 -0.05173937 -0.5795948 -0.04243757 0.6521485 -2.095871 0.2171327 0.3807668 -0.4570758 0.09872055 0.2544674 -0.1478576 -0.5837506 0.1988768 0.5449126 -1.495477 -0.3636505 -0.01207845 0.8587164 -0.0830772 0.4173315 -0.9474611 0.2410911 -0.1184532 -0.2757488 -0.5866152 -0.7839736 -1.160954 1.364444 -0.7290783 0.4040005 -0.4174102 0.07613184 0.8689029 0.4792955 1.993498 -0.5289624 -0.09957505 0.4747599 -0.7204118 -0.1187964 0.2881837 -0.9166713 -0.007489856 -0.08305798 0.2887574 0.1441175 0.1780204 
  0.4313467 -0.04888149 -0.3808519 0.4195072 0.6186754 0.6525034 1.248143 -0.1499567 0.0255625 0.3271685 0.4901578 -1.018837 -0.4891491 0.5174984 1.032249 -0.03694346 -0.1203315 0.1028803 -0.4918205 -0.02310192 -0.05848015 -0.1594182 0.1020556 -0.7137371 -0.1804253 0.4263979 -0.1945978 0.5527117 -0.3349222 0.4531692 0.2244263 0.5323736 -0.5404619 -0.101036 -0.4982243 0.05026261 0.2278715 -0.3333093 -0.3351263 -0.6665907 0.765249 0.9148251 -1.086247 0.3286518 1.144037 -0.2429224 -0.2541637 -0.4452628 -0.2465703 -0.4179892 -1.135759 0.3592323 -0.6753823 0.1541924 0.1706952 -0.4842247 -0.6690698 0.1574564 0.06897181 -0.05658605 -0.308507 0.005685914 -0.3524663 -0.8510925 -0.6313413 0.5631871 0.2830937 0.7191465 0.5494362 -0.3835639 0.6708218 0.4637227 -0.3001301 0.3334984 0.5915135 0.5312057 0.5580574 -0.08271325 0.4569103 -0.1331037 -0.1991383 1.146756 0.02212064 0.8108007 0.399066 0.05981641 -0.2307265 0.07716461 0.2462315 0.3225508 0.041958 0.7729433 -0.496818 -0.0823137 -1.36393 -0.149393 -0.8477299 -0.3579973 0.3460781 -0.1161484 0.3912832 -0.8060728 1.031211 -0.6172153 -0.1854186 -0.7116194 0.8891379 1.127676 0.4229403 -0.2651336 0.7092404 -0.2353749 0.2641411 0.2401205 -0.5096577 -0.7036028 -0.327011 0.05375981 0.1188731 -0.3776554 -0.3110729 0.8533106 0.3792917 -0.08583531 0.01580613 -0.2688031 0.233996 -0.1010503 -0.2496921 -0.1068452 0.7660091 -0.5609896 0.1805542 -0.3175958 -0.1237563 -0.2499056 -0.3384798 -0.03857444 0.5538536 0.1949886 0.01262835 0.1811574 0.06063743 0.1886516 1.056697 0.2443317 0.3388726 0.2219377 -0.5621653 0.1635765 0.04349618 -0.5444357 -0.2489364 0.3527678 -0.4356916 -1.029611 -0.6253282 0.2212384 0.1829786 -0.1208043 0.6028017 -0.718475 1.013881 0.04494986 -0.08038139 -0.472698 -0.2528526 0.260492 -1.53793 -0.7324015 -0.220158 -1.146547 -0.07135574 0.3632568 -1.537229 -0.6812691 0.3727073 -0.1922669 0.3348344 0.2278801 -0.3861141 0.1370938 -0.7704028 -0.3542878 0.2767494 -1.138007 -0.4416046 -0.3703976 0.6655238 0.3747997 0.04966697 1.184892 -0.3598535 1.357491 1.689672 0.3022797 -0.4437996 1.379766 0.2402632 1.790379 -0.4562421 0.5948554 -3.363264 -1.418889 -0.09733409 0.2977671 -0.05183835 0.3213374 0.8862038 -3.103487 -0.1386889 -0.2372112 0.7659711 0.07446705 -0.9798796 0.01262154 0.4665604 0.5589866 -0.01583263 -0.09436037 0.08578645 -0.2297961 0.1906912 -1.164117 1.60566 0.8969669 -0.8484154 0.4581889 0.9003844 1.436081 -0.8943013 -0.4310519 0.329565 -1.130535 2.009617 -1.285955 0.17717 0.7786824 0.2536238 0.3493431 0.4571633 -0.9688819 0.02292397 0.03839234 1.432409 0.4687865 0.3333839 1.825527 1.138155 1.004207 0.6336493 0.04974059 -0.5812916 -0.978258 -0.7786911 -0.0699357 
  -0.07958375 -0.07299223 0.2914353 -0.7847242 0.2323298 0.1328636 -0.2358285 0.2211532 -0.09419547 0.2251699 -0.333661 0.3218412 0.5619777 0.280538 0.09876902 -0.1080496 -0.1602106 -0.2566273 0.1378174 -0.07325669 0.06640951 0.6336765 -0.182242 -0.290859 -0.1795773 -0.1183669 0.841526 0.1145607 0.7016862 -0.1172855 -0.2426461 -0.5375901 0.3770423 -0.7049091 -0.1202233 -0.08048017 -0.04715068 0.06872028 0.1507706 0.3535394 0.03391886 0.4222811 0.1033661 -0.0996602 -0.4517205 1.007092 -0.355012 -0.4801856 -0.1725895 -0.1763181 -0.1722141 -0.7899957 0.0227691 0.3451311 0.3728971 -1.140144 -0.4242455 -0.7271305 -0.3114747 -0.005368189 0.1129313 -0.02798878 0.4158287 0.1739087 -0.864165 0.2299763 -0.2015443 -0.6428775 0.07626315 0.489595 0.3712943 -0.2089398 -0.3049052 0.09650734 0.4113869 -0.3750437 -0.06091609 0.009495686 -0.3260344 -0.2812904 0.01941646 -0.02681503 0.4161545 -0.103877 0.03349262 -1.368239 -0.7044982 -0.306469 -0.4800611 -0.4411592 0.2213257 -0.621404 -0.2902198 0.2767448 0.02236371 0.3654618 0.1735344 -0.09325563 -0.006590832 -0.485702 -0.2727371 -0.2270329 0.2729107 -0.2641384 -0.08038685 -0.5054922 0.0695269 0.08675591 -0.5159636 -0.08049352 0.4151332 -0.1446812 0.00765902 -0.5811713 -0.616967 0.08648197 0.403631 0.1237482 -0.2933647 -0.4680105 0.7298186 -1.191668 -0.198256 1.31755 -0.8168912 0.6617341 0.2883222 -0.8497421 -0.7699597 0.5479425 -0.2669221 -0.5549518 0.3338657 -0.2703928 0.3036298 -0.7265013 -0.002695296 0.7049376 0.4539128 0.2108589 -0.7490988 -0.3971388 0.7288803 0.07156446 -0.3451355 -0.1185417 -0.89021 -0.09765875 0.3958609 -0.04807204 0.07198282 0.1590299 0.2085549 -0.2651272 -0.03305041 0.3931686 -0.2942155 -0.2652436 -0.7560321 -0.6329818 -0.1362459 0.09435154 0.6428873 -0.8842168 -0.1800436 0.6955699 -0.8719738 0.2775942 -0.2989381 -0.566075 -0.3319666 0.3539323 0.2047257 0.1366252 -0.1201743 0.4467577 -0.1224686 0.1237272 -0.9740729 0.07457536 -0.171918 0.6944492 -0.2105926 -0.1562239 0.112552 0.2666122 -0.4866962 0.04943292 0.2212783 -0.1685346 1.024672 -1.015483 0.4824251 -0.2093631 0.3471797 0.2880894 0.2012912 -0.3349413 0.3966205 0.1274 0.5168824 -0.9671072 -0.9244744 -0.7881683 0.4190883 -0.1439497 -0.1137927 0.07504646 0.1324446 0.07486305 -0.2906875 0.3896798 0.08034419 0.1783453 0.2697144 -0.1203859 -0.2251084 0.313252 -0.3466957 -0.1096251 0.6567583 -1.743775 0.1222939 -0.1077219 0.5866036 0.06270496 -0.1944766 -0.1583539 0.6367121 0.3771324 0.3825034 0.4814541 -0.5045483 -0.365096 -0.3022356 -0.2983498 -0.1516442 0.3989264 0.2985765 -0.6075635 0.4880164 0.09587009 -0.04435679 0.3151733 -0.1015991 -0.08822893 -0.3475809 -0.1987885 0.2694131 -0.7120549 0.14527 0.02367327 0.3490375 -0.6288374 0.05772855 0.7853335 
  -0.2627736 -2.46465 -0.1421116 -0.4605205 0.7239888 0.08880165 -0.2721326 -0.9634092 -0.9849344 -0.2185159 -0.6107853 -0.07092138 -0.4526801 -0.4230087 0.4739253 0.6153387 -0.05824666 0.1046782 0.6329908 0.8456506 0.1659215 -0.03407855 0.0008905539 0.03480402 -0.3826205 -0.07829678 0.1363204 0.1836159 -0.2264185 -0.1724885 -0.596179 0.1496395 0.1152727 -0.1789964 -1.054026 0.4535017 -0.8401966 0.5737275 -0.2034204 0.1975834 0.08411556 0.5309849 -0.03810593 0.5700644 0.08036593 -0.5189975 -0.01913129 0.6539565 0.4816003 -0.1574283 -0.8813199 0.6557494 0.3902465 0.01775228 0.7675289 0.659828 -0.01292463 -0.4755571 0.2769262 0.284515 -0.1382845 -0.3326666 -0.5078064 -0.006113591 0.4937107 0.1241606 1.083095 0.5043681 -0.2534467 -0.2409083 -0.8162209 0.3582907 0.5539178 0.1228735 0.04278841 0.275685 -1.132032 0.8941509 -0.5914268 0.6188067 -0.8009807 -0.4587071 -0.008894517 0.08981361 -0.0795302 0.3002748 0.483208 0.1055538 1.043989 -0.6929206 0.1133318 0.6850408 0.1258891 -0.3839049 -0.5179856 0.2390378 0.274229 -0.5877238 -0.3774974 0.9172691 0.222393 -0.2304434 -0.2995951 -0.6851351 -0.7857289 0.5344606 0.3269544 -0.6479288 0.6027369 -0.5320795 -0.08563598 -0.4842208 -0.2233921 -0.158609 0.07255506 -0.1125365 0.3357714 0.5870627 0.5133736 -0.8724116 -0.316074 0.08914919 0.3061264 0.160927 -0.3823943 -0.253861 0.5538548 0.9417431 0.4772536 -1.01795 -0.1819282 1.190802 -0.3955872 -1.105123 0.1255669 0.5922981 0.2626609 -1.109481 -0.2370358 -0.2799538 0.4510954 0.4585623 0.4926132 0.9165012 -0.3647333 -0.00877663 0.2519246 -0.4936613 -0.5688391 0.04987492 0.8217102 0.5629851 0.3764651 1.177709 0.4052047 -0.2684738 -0.571687 0.8859946 0.3263173 0.205017 0.5088845 -0.06098863 -0.07612319 0.6220704 0.4884766 0.7055757 -0.1061491 0.3671517 0.3631888 -0.287694 -0.8761999 0.0650878 -0.02319491 0.1256902 -0.3531519 -0.04188878 0.5041279 -0.6201944 0.2498015 0.1201715 0.451136 0.2946843 -0.05931865 -0.5323077 -0.6576619 0.5618702 -0.1257231 0.3178824 0.523982 -0.7410787 0.8475807 0.4584611 0.3990499 -0.988163 0.1170218 -0.08700848 0.4551241 0.09891866 1.480774 -0.2034329 -0.2224207 0.2380224 -0.8393961 0.5285364 -0.1310237 0.9522426 0.2858647 -1.04271 0.5842519 -0.2665299 0.03914319 -0.4157026 0.01302372 0.6682049 -0.1046877 -1.093183 -0.5683555 0.7979738 -0.05935529 0.4089476 0.2467698 0.05314169 0.2463853 0.1462118 -0.1308567 -0.2120329 -0.07670725 0.1695908 -1.005693 -0.1722223 0.7589237 0.4284038 0.484942 -0.4421583 -0.6192291 -0.5905232 -0.06723307 0.798918 0.4810601 0.6822653 0.188369 0.08491968 0.4183447 -0.2884793 0.3676439 0.09173474 0.3750457 -1.247402 -0.4705678 0.2570579 0.5073135 -1.316612 0.7764498 -0.6320455 -0.4868884 0.1362461 
  0.4817151 -0.1152875 0.04056653 0.5487064 -0.1084054 -0.2049474 -0.6506844 -0.2263561 0.3065117 -0.9864042 0.2896168 -1.35922 0.4107171 -0.04852801 -0.3182893 -0.2020604 0.7524852 -0.1290424 0.2378172 -0.7927703 0.2111242 -0.4224943 0.2423167 -0.6971888 0.1239104 0.1457732 -0.1533691 0.8533651 -0.04639617 -0.1434363 0.09645654 -0.4436874 -0.9010922 0.3996142 0.003689472 -0.1241231 -0.2106355 0.4032404 -0.454269 -0.3872277 0.5969191 0.2542764 -0.3722642 0.4884028 -0.7046924 -0.05222544 0.413075 0.3637949 0.2877366 -0.5358979 -1.07183 0.5147239 -0.2187257 0.3448392 -0.1889529 -0.2185031 0.3089748 0.1905686 -0.009678652 -0.4456768 0.242793 -0.2261906 1.20779 -0.05823531 -0.9344637 -0.6397237 -1.198602 0.34697 -0.5468601 -0.9865117 -0.2932944 -0.2868938 -0.1327646 0.1768081 -2.16564 -0.01843568 0.1978298 -0.2276357 -1.171804 0.008337785 0.1952948 0.1704573 -0.8916726 0.3057958 0.0698761 -1.15929 -0.622897 0.2707583 0.5115041 0.0940481 -0.1479506 -0.4653446 -0.06914718 -0.2325001 0.3251437 -0.1831729 1.318019 0.4976408 0.2001126 0.2115021 0.5601839 0.07289196 -0.04578672 -1.036701 0.5450653 0.4188771 -0.09063952 -0.3235099 -0.3540011 -0.1427571 1.040842 0.8702435 0.2797303 0.9434584 -0.3641846 0.1643327 -0.4993056 -0.8526829 -0.2545398 -0.1121592 0.6488902 -0.2483003 -0.3417181 0.1232563 0.2993078 -1.099846 -0.5659285 -0.948942 -0.8517641 -0.8122571 0.2732345 -0.4993194 0.7548006 0.6100789 -1.065627 -0.4140517 -1.2528 0.34083 1.42391 0.08869129 1.140921 0.07785094 -0.03826654 0.537766 -0.1254691 0.01867484 -0.2527016 -0.2285164 0.1876718 0.2272725 0.4954114 -0.01897194 0.3266554 -1.157331 -1.179173 -0.4302534 -0.6468907 -0.2315466 -0.150298 0.3594076 0.142872 -0.05713162 -0.1309189 0.4753778 0.7198583 -0.5256164 -2.11175 -0.0492502 -1.83622 1.111206 0.9424425 -0.3829975 -0.09972189 -0.4385905 -0.9210228 -0.01320141 0.641118 -0.7064994 0.8482206 0.1068877 -0.136881 -0.7523876 0.2062132 -0.3585017 -0.1406834 -0.6824414 -0.1130985 -1.622131 0.001178575 0.09717344 -0.1161534 -0.3074499 0.2052521 -0.3960983 0.2349009 0.6056604 0.679161 -0.2170786 0.2868005 -0.07321391 -0.3509479 0.5516553 0.3560147 1.227962 -0.3380405 -0.482885 0.09147984 0.4925194 -0.6715742 0.4200951 0.306741 0.03529127 -1.176348 0.3713331 -1.113801 0.2107301 -0.2388806 -0.2164849 0.6284046 -0.8888741 0.1571445 0.31297 0.1811167 0.4963061 1.079873 -0.5737611 0.3546298 -0.9072363 0.03224479 0.2107635 0.1484453 -0.08719951 -0.08420805 -0.2658974 0.5690776 0.8572639 -0.4164483 0.7825951 0.4848502 -0.2690073 0.08701342 0.4387816 0.04444928 0.0524275 0.1668753 0.4638424 0.4349281 0.3462277 -0.200994 0.349401 0.6032043 -0.05600001 -0.437812 0.01745883 -0.5080454 -0.2743553 
  -0.2197174 -0.09014281 0.5631451 -0.4089574 -0.5733455 0.2492748 0.826272 0.4382213 -0.158799 -0.1752177 1.26741 -0.3849105 0.9757008 -0.1763039 0.5754383 0.3111852 0.3174551 0.3188049 0.02240826 -0.3212692 0.2865858 0.8908939 0.7569288 -0.179602 1.091247 0.08917139 -1.197692 0.06714036 -0.3221804 -0.3915084 -0.1961061 1.235712 -0.5341091 0.8815085 0.4436868 -0.3027778 -1.330527 -0.6814521 -0.4312057 -0.4448344 1.636978 0.3822849 -0.1043766 0.4067108 0.1910804 0.428332 0.02521128 -0.8020366 0.2075714 0.4311164 0.5708762 2.20313 0.3655401 0.2019792 0.1623622 0.5729646 0.1074863 0.1915959 -0.2464582 0.1476999 -0.5005319 -0.1633177 -0.1826129 0.395108 0.2265405 -0.6635725 0.09215984 -0.461513 1.324356 0.9965062 -0.4107936 -0.4079759 0.2279525 -0.3378252 -0.251402 0.8560941 -0.8091077 0.5142045 -1.248027 0.4031664 0.653451 0.4158806 -0.2047527 -0.963379 -0.8982683 -0.8831581 -0.04331417 0.03322475 -0.6899375 -0.3125867 -1.347655 0.6259529 0.4108339 0.7424664 0.4047174 -0.324896 -0.2882314 0.2148648 0.4197282 0.1654526 0.2058826 -0.5351375 -0.8002604 0.4582367 -0.2005993 -0.3301009 0.6454262 0.4461525 -0.3099601 -0.3884389 1.17362 -0.6009651 0.02469771 -0.7029865 -0.01779296 0.785107 -0.7321109 -0.7451344 -0.9296736 -0.684501 -0.09054336 0.5081133 -0.5444781 0.3320206 1.018358 -0.6612813 0.2820106 -0.624319 0.2064943 -0.6885067 -0.3314441 0.5315475 0.06387571 -0.4873456 -0.03891164 0.1908467 0.907806 -0.2497643 -0.6412755 -0.02170244 -1.923996 -0.697464 -1.329528 1.485557 -1.084242 0.6077244 -0.2343147 0.5652386 -1.678718 0.9300934 0.09216291 0.3710381 -0.4112883 -0.3646996 0.7203604 0.2536998 0.1547043 -1.125004 -0.1794079 -0.2606474 -0.3846892 0.889933 -1.84143 0.04681386 -0.9153649 0.408331 0.2374117 -0.2468874 -0.8286555 0.4932954 0.4350937 1.002265 1.123799 -0.1974165 0.5363484 -0.2642078 -0.05609838 0.5656289 -0.08796333 0.09233729 0.2184417 0.6552896 -0.1888702 -1.371781 0.9084873 -0.4496519 0.5433674 0.4620854 0.6400219 0.2471947 0.445582 1.075499 0.3507183 -0.1412789 -0.6208066 -0.5361339 -0.6007925 0.05095972 0.3240683 0.9610944 -0.09517379 -0.08620328 0.2263615 -0.1171296 -0.24634 0.07751562 -0.7773753 -0.04279468 -0.7291777 -0.9384697 -0.2003821 -0.8354931 0.2053257 -0.1472813 0.3058539 0.2635069 0.409561 -0.03566668 0.6020952 -0.2294101 0.1937218 0.3589843 -0.4017978 0.4817908 -0.62865 0.337512 1.047752 -0.01812461 0.3037959 -0.2343831 0.5107642 -0.9174587 -1.768009 -0.005768479 0.4174741 -0.4124394 0.6394584 0.5813457 -0.1391435 -0.1282214 -0.03746006 0.08419604 -0.2800886 0.04915754 0.4075245 -0.885329 -0.4298916 0.05287095 -0.5170246 -0.5059785 -0.198707 -0.8101177 -0.3737733 0.5113235 -0.4889848 0.03981167 
  0.3132361 -0.3023828 -1.061719 -0.1306238 -0.1514524 -0.9543228 -0.07364228 0.2295335 1.311886 0.133085 -0.09305914 0.2361727 -0.8997288 -0.1021983 0.2347835 0.4824477 0.3774739 0.6134361 -0.3842952 0.9889146 0.2850343 0.06177958 0.5379459 -0.9387681 -0.2055847 0.7663299 -0.3127089 -1.124341 -0.5797977 -0.5031021 -0.07939696 0.1622223 -0.6219972 0.6305745 0.08992916 0.6131626 -0.7313506 -1.611838 0.3334011 0.1838628 -1.623724 -0.5393493 -0.5736356 0.415314 1.173048 0.8728078 -0.6553714 -0.1774335 0.2582125 0.5306317 -0.2460629 0.2249149 0.6028362 -0.09934691 -0.7641333 0.2927408 0.09835735 -0.4058606 -0.1522375 0.07184884 0.5257827 0.6177348 0.107762 0.8989253 0.06451343 0.1084866 -0.2410266 0.4057156 -1.191283 -0.8044855 0.7903838 0.2498939 -0.1586648 0.07917614 0.06217213 0.3724957 -0.253237 -0.416196 -0.1218194 -0.4756583 0.8390772 0.0611429 0.06588596 0.5628354 -0.1994749 -0.6731793 0.5144266 -2.236761 -0.6120423 0.3699664 0.775769 0.4900967 -0.3233528 -0.4818951 0.03902947 -0.2846663 0.6749818 -0.8561757 -0.4395973 -0.1591884 0.7870627 0.9294506 -1.879091 -1.075195 0.1708678 -0.129449 -0.06522998 0.7017019 1.254005 -0.530753 -0.3180436 0.7718036 0.05129054 -0.3977591 0.4480833 -0.2740183 0.2663797 -0.5317547 0.2673189 0.9939149 -0.154858 -0.2234006 0.2781842 0.9269645 0.3378851 -0.3050299 0.2009766 -0.2624155 -0.4128881 -0.4027178 0.2797654 -0.2038566 0.03437536 1.140696 -0.552705 0.6224902 0.3009675 -0.2225453 0.8836015 -1.366207 0.5650027 0.4041079 0.8223619 0.4203709 -1.606304 0.2353346 -0.01962094 0.04972919 -0.2770735 0.4001905 -0.2819555 -0.6549819 -0.3154956 0.1941826 -0.3499324 -0.4210025 -0.7914919 -0.1236912 -0.05247468 0.3865817 0.5072779 0.3995441 -0.106461 0.1547081 0.3761954 0.1609853 0.5543545 -0.2620689 -0.6869372 0.366153 0.5295431 -0.6855912 0.1882787 0.4153405 0.01011031 -0.1548145 0.04258328 -0.3844519 0.3585887 0.04551822 -0.9687517 0.7238757 -0.4256873 -0.03221411 -1.320918 0.1356736 0.120472 0.1682409 -0.4193326 0.3088908 0.03637179 -0.1385586 -0.58567 0.7326449 0.02695592 -0.6924004 0.7390561 -0.001360174 0.3334942 -1.076848 -0.9201289 -0.368504 0.5734515 1.3484 0.4746263 0.2190757 0.3931494 -0.8667763 -1.754099 0.8895738 0.131882 1.031841 0.759964 -0.2052866 -0.2441242 0.2793382 -1.548551 -0.3132022 0.2370052 -0.1470117 0.04057856 0.4201778 -0.2165145 0.225321 -0.8386728 -0.195341 0.4700908 0.7637224 -0.3950083 -0.3054076 -0.5289577 0.5621108 -0.3257526 -0.383714 0.9005385 0.6209784 1.037549 0.1581306 1.073068 0.1370407 0.2013618 0.3677571 0.4830552 0.2912944 0.1497069 -0.9586316 0.3496064 -0.1781875 0.9155101 0.3496109 0.2643834 0.8880882 0.07644579 0.06579772 -0.2960657 -0.4631253 
  0.7993731 0.3834946 -0.4899045 -0.599067 0.6414611 0.5214374 -0.1826691 -0.9674639 -0.2121513 1.074468 -0.1810475 0.7316192 0.008942076 0.0565648 0.4572677 0.5148896 0.6799198 0.3720618 0.277786 0.2229999 0.005232441 -0.4019569 -0.4936903 -0.1404359 -0.1588037 0.5824161 0.5752833 0.6546927 0.5716097 0.1142406 -0.3580656 0.06360801 0.3455284 1.399422 0.3581549 0.06396655 0.3337463 0.1596729 -0.4989385 0.4451428 0.6885175 0.3739381 -0.8410652 -1.475106 0.945507 0.7630199 0.2002901 -0.5158242 -0.7646255 -0.1063808 -0.5412431 -0.8352423 -1.003034 0.7273629 0.3354608 -1.220208 -0.3540378 -0.7882493 -0.249981 0.2899972 -0.1047656 -0.2756742 -1.798793 -0.8887585 0.4362049 -0.5256078 0.6266482 0.3725454 -0.6589718 1.078333 0.2189408 -0.7001105 -0.09097057 -0.1177021 -2.092888 0.7731457 -0.6629716 -0.5561402 -0.4143772 -0.9292284 1.176709 -0.19278 -0.1003981 0.2454745 0.4801706 -0.6286501 0.4832755 -0.1850065 0.02802618 -0.2645465 -0.3054316 0.4097562 1.110708 -0.8575311 0.8981176 0.1713011 -0.8762565 1.72805 -0.2600915 0.007506523 1.13071 0.8419219 -0.7971157 1.044573 0.07515747 -0.2272391 0.4978348 0.7031267 -0.3891284 0.376001 0.8155391 0.02124299 -0.5282607 0.6238099 0.2962067 -0.2337558 0.545649 1.369445 0.2410646 -0.2456161 0.1399834 0.21423 0.582714 -0.3929914 -0.740251 0.8049726 -0.2436808 0.05198791 -1.018288 0.2710692 1.131926 -0.6784205 1.02295 -0.2711509 0.8025774 -1.10755 0.05080306 -0.2028966 0.1563196 1.131552 0.5558234 0.1140856 -0.8077924 0.7548173 1.421029 0.352722 -0.07892662 0.5157601 -0.4476723 -0.6040754 0.2685612 -0.5375134 -0.5865464 0.1652595 0.1024246 -1.340447 0.2354027 -0.3091506 0.6199218 -0.01974575 -0.3849813 -0.4006834 -0.698707 0.3550755 0.564505 -0.4778098 0.2363203 -0.003822713 -1.370609 0.01993037 0.5540498 0.4366889 -0.1738434 -0.1886457 -0.4551199 0.01334797 0.004601489 -0.01213598 -0.3154522 0.009551423 0.04264913 -0.8803344 -0.5440897 -0.0630178 0.02259334 -1.032665 -0.01333328 -1.661322 0.3283437 -0.5189652 0.5712098 -0.2250724 0.7669612 -0.6389815 -1.23573 0.9383997 0.4256162 0.6431282 0.5830869 -0.4692349 0.4307928 -0.2125956 0.8827197 -0.2288731 0.3844894 -0.1783823 0.5197458 -0.5143703 0.4846199 0.6936061 -0.3132422 -0.3334198 -0.3123707 -1.055189 0.2546538 0.6138297 0.3389586 0.208771 0.2964222 -0.07793058 0.222137 -0.6606006 -0.03089839 -1.393886 0.03990581 0.2183764 -0.6429715 -0.5369611 0.2052776 0.6606091 -0.6832545 -0.2753848 -0.5464999 0.2993987 -0.6287935 0.7987533 0.1820555 1.824025 -0.3001543 0.4417049 -0.3393429 -0.5243139 0.05084205 -0.2577277 0.5663711 0.2465985 0.7695482 0.8064378 0.3007524 -0.8487965 0.6119094 -0.214854 -0.1829213 0.3646875 -0.5576645 0.5163754 
  0.6153224 -1.276854 -0.2703901 -0.9075462 -0.3773729 0.8096105 -0.1733202 -0.3370547 -0.2444393 0.2511324 -0.1394282 0.05625763 0.6891092 -0.6698834 -0.2869217 1.005437 -0.1162535 -1.200817 -0.02411829 0.6824554 -0.9245585 -0.8316937 -0.397065 -0.4584104 0.1526595 0.1479367 0.07522471 0.6751426 -0.01721457 -0.3529877 0.1314723 -0.8646351 0.1226835 -0.3546904 0.5453362 -0.3714108 0.3826768 0.1682383 0.3129826 -0.3809862 0.6289823 -0.425337 0.6292542 -1.729842 0.814734 0.2551707 0.0900277 -0.3411701 -1.183847 -0.8449726 0.1980401 -0.6960134 0.3982015 0.420213 0.06462577 0.03874091 0.4381825 -0.1776126 -0.487809 0.5769694 -0.1909163 -0.1936948 -0.06804585 0.3717022 0.693626 0.0836226 0.06983189 0.4045946 1.286543 0.3466593 0.01767833 -0.08022877 -1.462044 0.3416354 0.2587749 -0.3648086 1.322705 -0.9833954 0.2158805 -0.3460915 0.6876671 0.03466531 0.3224672 -0.3911053 1.035733 0.2144463 -0.6086716 -1.463556 0.8421108 0.124542 -0.2938816 0.024498 -0.1644407 0.2697274 -0.6017665 -0.81828 -0.7726031 -0.6649875 0.2970095 -0.8194886 -0.9580883 -0.03307406 -0.1370761 0.2594602 -0.3860487 -0.2158372 0.1382281 1.343777 -0.4024328 0.5119339 -0.4198838 0.4033969 -0.03954149 -0.1770166 -0.001422922 -0.1226906 -0.5311922 -0.6495925 -0.1726615 -0.0503653 0.4066206 -0.4745177 0.2723518 -0.02960233 0.2751326 0.3558229 0.6442392 0.2032908 0.8896982 -0.503912 -1.640213 -0.05441948 -0.2603869 -0.4329255 -0.3411377 -0.1057984 0.6264938 -0.04546184 0.3793989 1.032905 0.328416 0.0601157 1.218271 0.09828756 -0.01819395 -0.6271617 0.003925681 0.008568736 -0.2522075 -0.1281343 -0.2503534 0.5750796 -6.03281e-05 0.5628137 0.2461528 -0.4209661 -0.266945 0.1934858 -0.160433 -1.202117 0.004606992 0.5171359 -0.1020212 -0.5370969 0.354572 0.6990358 1.264598 -0.2133875 -0.5406184 0.2762208 0.05952823 0.9694073 -0.3957683 0.06043077 0.2690961 0.1045853 0.1310296 0.3855619 0.6722536 -0.1686963 0.2359032 0.668814 0.3287882 0.3448496 -0.1002047 -0.5729682 -0.6584429 0.8819329 -0.9750022 0.4131322 -0.001524963 0.3971539 0.2092829 -0.6973177 -0.2229755 0.144468 -0.3497049 0.8373948 -0.2670228 -0.2351297 0.5220545 0.06417863 -0.1815751 0.2458676 0.1862128 -0.3072842 0.5496795 0.2106992 1.173411 0.2685023 0.03223215 0.1802073 0.6219938 -0.09319133 0.4888486 -0.06053076 0.5964603 0.3410174 0.5802512 0.5574049 0.3803435 -0.6548117 0.681794 -0.2387899 0.1127791 0.484909 -0.1880855 0.4203338 -0.03172354 -0.4572754 -0.1328803 -0.4565143 0.01802932 0.3076162 -1.655463 0.5409099 0.1948642 -0.01675267 -0.133689 -0.2145692 0.1081476 -0.2191133 -0.09291515 -0.2480282 -0.5446478 0.59462 0.1948712 0.6641164 0.04078237 -0.2369318 0.3413063 -1.312242 0.0010583 0.2574328 0.06717943 -0.3627255 
  0.6851548 -0.1138766 0.1434002 0.6395367 0.7541475 -0.5280395 0.4789062 -0.0646341 -0.1633182 -0.1316031 -0.4336796 0.524926 -0.1223829 -0.8172435 0.6220003 0.219959 -1.125112 0.4039818 -0.2624089 0.5639675 -1.301723 0.1850621 -0.1709954 -0.7113307 0.1263982 -0.6793849 0.3025636 -0.2201841 0.1457718 -0.9999669 -1.460885 0.3615505 0.4104975 -0.8932782 -0.5163676 0.7211535 -0.7377715 -0.6390277 0.2307523 -1.449634 -0.2678463 -0.5312716 -0.5320977 0.4295381 -0.4996924 0.6244981 -0.1010506 0.325643 0.1101933 0.4629675 0.1633751 -0.5354386 -0.5164115 0.0317148 -0.03202543 -0.4068557 0.1023106 -0.3601869 0.7803898 -0.2474187 -0.07774675 -0.3599017 0.6070046 -0.113758 -0.5716577 -0.38256 -0.6346642 0.3028653 -0.7100163 -0.112757 0.9493902 0.1539452 0.4288155 0.1137506 -0.7400713 -0.7207069 1.291431 -0.6286234 0.04802769 0.2593204 0.6594225 0.8216106 -0.03142173 0.1707966 0.30746 -0.1098361 -1.396686 0.1221913 -0.03563838 -0.01375805 -0.5870776 -0.7421877 -0.2501941 -0.03250633 -0.589937 0.4310491 1.417335 0.6797034 0.1515476 0.5836866 0.3577215 -0.3232872 -0.7527997 0.4403572 -0.07974485 -1.071892 -0.5917524 0.5993072 0.9583891 -0.1366648 -0.1725385 0.07386266 1.302429 0.2582844 0.982401 -0.3571328 -0.2150107 -0.257792 0.7233216 -0.001277521 -0.6369551 -0.6110289 -0.4332262 0.3067334 0.1093894 -0.1149087 0.5328888 -0.2744408 -0.8710468 -0.8483441 0.1023895 -0.4311697 0.1649539 -0.4142844 0.1792893 -0.4887187 0.1198368 2.419838 -0.4695612 0.4263225 -0.3017923 -0.9941539 0.3752036 0.636184 0.3811049 -0.3092572 1.187048 0.3925091 1.464844 -1.005643 0.07928714 0.2265198 -1.848956 -0.9697364 -0.4474639 0.5761966 -1.059036 -0.8591368 -0.3437349 0.7729053 -0.6108665 0.2134777 0.08516928 -0.9887971 -1.059276 0.2169291 0.03573862 -0.4348942 -1.133861 1.213837 0.2114654 0.1775312 0.2555788 1.216461 -0.246996 0.1774931 -0.07951971 -0.8378723 0.5158172 -0.4580741 1.05055 -0.7186179 -0.1431707 0.2206872 -1.357614 -0.1169308 0.05437835 -0.6318734 0.3140184 -0.4693442 -0.4776821 0.4868219 -0.4145291 -0.3970336 0.3487942 0.9788153 -0.07460276 -0.1433261 -0.03087836 0.5510206 -0.6722023 -0.7727836 0.815011 0.1909358 -0.9451327 0.8383719 -0.08171719 -0.1274925 0.3605638 0.7045044 -0.7778293 -0.1727432 -0.7994165 -0.2137045 0.2753445 -0.4593961 0.2529848 0.2214647 -0.7370146 -0.8858788 -1.345149 0.3757839 0.04231515 1.112887 0.6054767 0.6706583 -0.2022811 -0.01330555 -0.4328253 1.007069 0.5150266 -0.3202843 0.1333985 -1.049541 -0.2092123 0.5716734 0.08739169 -0.529255 -0.02658362 -0.2062477 -0.3883243 0.3446058 0.2596443 0.3862405 0.4664363 0.2610863 -0.4000055 -1.194457 -0.3102321 -0.3147524 -0.8314574 -1.217376 0.9882106 1.470379 0.3401729 -1.70143 
  -0.1905179 0.1438216 0.2405769 -0.3313894 0.2101708 -0.019313 0.5014365 0.8807189 -0.2533686 -0.200098 0.4745443 0.222089 -0.3264212 -0.652146 0.4841619 0.3617144 -0.03392755 -0.2919142 -0.2073852 0.2519795 0.8695096 -0.4794935 -0.3145571 0.9893936 -0.2225327 0.2861642 0.232398 0.1293095 -0.8701382 0.4979734 0.2324356 -0.3202417 0.7204097 0.03536132 -0.5915669 -0.4932686 0.5871899 -0.3138336 0.4050637 -0.2297306 -0.6686599 0.002310974 0.5941389 0.2714342 -0.8158076 0.1132331 -0.7490821 -0.3956662 0.4464382 -0.5040908 0.2054621 -0.25318 -0.03135511 0.2115872 -0.04929852 -0.6779506 -0.349766 -0.4256145 -0.1436449 -0.09581189 0.4213005 -0.1312773 -0.7380742 0.476765 0.7223616 1.077516 -0.4677342 -0.04166559 0.796527 -0.384183 0.8562974 0.9182727 0.5966198 -0.1146474 0.2236536 -0.5320945 1.947082 -0.09083205 0.107431 0.5689895 1.200852 0.858806 -0.6099811 -0.05207747 -0.5417291 0.7023782 0.4864611 0.6261181 -0.0919302 1.231499 -0.7286726 0.02837712 -0.3277612 -0.3109924 -0.3972639 0.4275548 0.2160158 -0.3986286 0.3653436 0.5569635 0.1190717 -0.1643678 0.3690906 1.431214 0.2766084 0.2756127 -0.02843075 -0.4686066 -0.1032369 0.3216211 -0.0105132 -0.3551568 -0.2447785 -1.16658 0.06277531 0.1879892 -0.02065335 0.1824971 0.7257661 0.261785 0.1750444 -0.5733067 -0.2910586 -0.3795165 0.7122383 0.7158497 0.7170849 -0.0688142 -1.247266 0.2815751 -0.05023641 -0.345246 -1.379907 0.3241703 -0.04401753 -0.5906626 0.2580416 0.03915827 0.9417508 -0.8356403 -1.229317 0.15414 -0.09754553 -0.266572 -0.03480955 0.4078937 -0.5257815 -0.2095723 0.5100164 0.5123855 -0.4885726 -0.07649302 -0.3795289 1.504296 0.2163075 -0.4034752 -0.007056998 0.3654075 -1.351993 -0.9532666 0.1708567 -0.07217015 -0.5749126 0.0292332 0.3324875 -0.74009 -0.07663552 0.8577605 -0.3376537 0.1894368 0.178294 0.1831984 0.2270788 -0.4892085 -0.5349173 -0.4011007 0.3315398 0.1555645 0.6342034 -0.1486196 0.3169404 -0.4465634 1.427054 -0.04579818 -0.7661182 -0.2833017 0.1300157 -0.03106869 0.005664942 0.2262675 0.2459614 0.8781725 0.631949 0.1721773 0.7588666 -0.02062461 0.4399784 0.3265443 0.2179056 -0.3048743 0.6774334 -0.1899492 -1.111807 -0.3183053 -0.1398536 0.551666 0.6180715 0.5033122 0.08452883 -0.1970171 0.07203116 0.2299304 -0.03991137 -0.6635253 -1.104416 1.312178 -0.2405542 -0.7538487 0.1614213 0.4908925 0.01514445 -0.4796848 0.2830917 -0.5803134 -0.38336 0.1256466 -0.6659416 -0.423389 -0.3365396 -0.1625673 0.08013804 -1.020108 0.3107191 0.8692237 0.3463564 0.007365343 -0.7286763 0.162999 0.00393145 -0.473025 -0.6249113 -0.568261 0.008961682 -0.1756112 0.2025146 -0.7878954 -2.741151 0.5732875 0.1733115 -0.335952 -0.188597 -0.5352216 -0.1386822 1.099629 0.2832621 0.3000326 
  1.003349 0.4570005 0.05438752 -0.119688 0.01094423 -0.558385 -0.1599341 -0.1720719 -0.05494745 -0.06400149 0.6366547 0.3268155 -0.4357649 0.4018637 0.03128624 0.1723852 -0.8636802 0.2480697 0.3615995 0.0136085 0.5706976 -0.6744777 0.3846548 0.0176967 0.2646504 0.1584226 -0.1365276 0.08910368 -0.05480453 -0.6662092 0.3818683 0.5387734 0.159374 0.2509171 0.04378442 -0.02658219 -0.5328735 0.3782113 -0.186468 0.2571439 -0.0524426 -0.7996163 -0.6475967 -0.4394491 -0.4818724 -0.4224183 0.6761048 -0.1812052 1.048558 0.4748157 0.3405129 -0.3417769 0.5108514 0.3614401 0.1442579 1.013206 0.6051251 -0.4113701 0.1640491 -0.1102937 -0.3394682 0.04148108 -0.5085987 -0.1925389 0.0277523 0.2956909 0.4390417 0.1233775 -0.2865216 -1.75206 -1.311264 0.9078118 0.6538584 -0.1841554 0.04298599 0.3714528 -0.396823 1.220396 0.15741 0.5279287 -1.413296 -0.5435417 -0.2531355 -0.3434271 -0.4580972 0.4427653 0.06175194 -0.3403751 -0.6928998 -0.0781705 -0.3139347 0.1544701 -0.2704475 0.4085975 -0.578321 -0.0529422 -0.465707 1.137415 0.9681382 -0.103576 -0.2767353 0.8244417 -0.04233353 1.673744 -0.5198657 0.7878786 0.6215286 0.5706196 0.2583417 -0.6224791 -0.4593927 0.5664037 0.5966693 -1.586874 -0.1216633 0.02202135 -0.1648604 0.6054548 -0.1347916 -0.2967639 0.2354709 0.4828412 0.4954241 0.3546818 0.1176662 0.8322013 -0.8259136 -0.3608104 1.549934 -0.4865937 -1.976664 -0.3840425 1.911647 0.2571426 0.6054165 -1.522363 0.3683412 0.556388 1.858952 0.2677981 -0.03698894 0.03262991 -0.3455944 0.09392615 0.8669433 -0.1311816 -0.3064513 0.130849 -0.2905445 -0.9829214 0.5453946 0.5390145 -0.1601175 -0.1795464 -0.344611 0.3493468 -0.2889173 -0.6629742 0.934867 -0.4601655 0.3932337 -0.5812563 0.4597313 0.001867453 -0.535419 -0.002225923 0.1389087 1.163123 1.6041 -2.128659 -1.124905 -0.3144216 0.2690021 -0.2326232 -0.06611736 -0.679392 -0.5272871 -0.203989 0.5662357 -0.01708704 0.5769104 -0.08262777 -0.6125001 0.1853781 1.558829 0.06624296 -0.344687 -0.3817801 0.2498919 0.3515629 1.020591 -0.8146516 -1.364749 -1.300802 -0.1549897 -0.1856861 -0.205427 1.083937 -0.336682 -1.005688 -0.7914583 0.3778361 0.2604867 -1.337499 -0.593689 0.4838361 0.7615704 0.8426796 -0.5949308 0.5122884 0.309561 -0.1228843 0.3097651 -0.9153786 -0.164408 0.05151573 0.3337173 0.6199286 -0.07359736 -0.3106633 -0.3493685 0.2602518 0.2539259 -0.08673415 -0.2714964 0.3424261 -0.8588747 0.4546872 -0.15591 0.8637077 -0.0403713 -1.128545 0.9123648 0.208409 -1.059527 -0.1708608 0.6332914 -0.1078401 -0.3827708 0.1039378 0.3665142 0.7816976 -0.1935216 -0.3963576 0.8108439 -1.15882 0.5308865 0.3830709 -0.04049995 -0.537776 0.8123218 -1.559481 0.5438452 -0.09864756 -0.2266754 -0.2006057 
  0.3930568 -0.6075959 -0.397661 -0.08488552 -0.6107002 -0.9415458 -0.2918781 0.005810043 0.7317647 -0.7236216 -0.9555082 -1.24158 -0.4618268 -1.038046 0.1831792 -0.05754851 0.1482891 -1.680596 -0.04060571 0.2176402 0.728175 -0.9311536 0.9431459 -1.077535 -0.7676987 0.9669014 -0.09925516 0.2277756 -0.1488141 -0.02932524 0.1843784 -0.2428938 -1.264766 1.313356 1.414743 -0.07058468 0.6387505 0.5317596 -0.225702 0.5250635 -0.02454102 0.6057798 -0.5583457 -0.3109652 -0.4764724 -0.2036531 -1.243043 0.02225218 -0.9043655 0.1672684 -0.3274842 0.8105795 -0.3918904 0.5052294 -0.01840116 -0.4673261 0.229836 -0.3779221 0.6093261 0.73617 -0.2156586 -0.1817104 0.3738587 0.4410616 0.05416501 0.4877611 0.4176175 0.1940681 -0.5850245 -1.313298 0.09871759 -0.1761394 -0.2146018 -0.3170979 -0.2885946 -0.8851427 0.5812508 0.1097283 0.07918718 -0.1053984 0.8531663 0.03429716 -0.2960877 -0.2398581 0.6026556 -1.462636 -0.1957266 -0.2100578 0.2359566 0.1403631 -0.3624217 0.8250109 0.6931025 -1.657602 0.6007367 0.07845477 1.067643 0.1078884 0.1667633 0.1496798 0.3594277 -0.1345483 -0.7915127 0.5214077 0.4327693 0.6155207 0.7113537 0.2962433 1.128574 0.5999772 -0.217234 1.210921 0.05076202 1.284204 -0.2694793 -0.6564357 1.324437 0.6380063 0.09062763 -0.6863235 0.2575973 0.01031488 -0.6077161 -0.1528207 -0.678294 0.2075436 -0.2951763 -0.1733349 0.1054066 -1.162696 -0.07307778 0.08908956 0.5125725 -0.1201576 -1.446651 0.6306361 -1.032704 -0.0687097 0.7516065 -0.122907 -0.2103115 0.1478659 0.2591433 0.4481658 -1.44142 -0.3494976 -0.3222145 -0.3802218 0.6029171 -0.2758008 0.1775974 -0.3553247 0.4919101 0.07606044 0.03781517 0.6586576 0.3910765 1.118189 -0.300618 0.3413787 0.1127672 -0.9129771 0.1752155 0.6068764 0.2672742 -0.5547037 -0.2012168 0.5060105 -0.9418435 -0.7346897 0.8202903 0.4706177 0.4304391 0.5395471 -0.668419 0.08561056 -0.4835586 -0.8732859 -0.2676348 0.3796808 0.6760805 -0.5692739 -0.09031437 -0.1684239 -0.2405509 -0.7893071 0.4206507 0.1776766 -0.01109141 0.3950657 0.4248003 -0.6353716 0.4362313 0.8323287 0.8812097 0.5710018 0.5102327 0.1788436 0.6817858 -0.4842936 -0.6811762 0.04162059 0.8982098 0.4839328 -0.7479206 -0.5525829 0.2688078 0.5148631 0.9171696 -0.2007528 -0.06185701 0.2266638 -0.8861086 -0.003401438 -0.526216 -0.4957808 -1.421026 -0.03022736 0.9962423 0.6953909 0.1046899 -0.7837525 -0.3138613 -0.6890239 -0.3698067 0.6124477 0.7121499 -0.0307928 0.07981951 -0.4042551 0.6505876 0.7069142 0.1592404 0.2670336 0.3211879 0.455556 0.6769871 0.2478833 0.7015092 -0.3366208 1.015094 -0.2290502 0.9562994 -0.09166224 -0.0370075 0.3365242 -0.3441953 -0.7885706 0.1329731 -0.4704137 0.1674282 0.08170462 0.3237284 0.9616449 0.2403194 0.5704691 
  -0.1176539 -0.4004474 0.3708303 0.3664256 0.6093236 0.3831978 -0.4600848 -0.6769745 0.2334747 -0.05639029 -0.2844138 -1.532528 0.2119929 0.1454472 -0.7616267 -0.1550266 -0.5362231 0.9795787 -0.6212122 -0.05969054 0.6994816 -0.1809784 -0.6689451 -1.25385 0.5769315 -0.1326935 -0.0145671 0.8716345 -1.068555 -0.2310756 0.5681846 -0.4240913 -1.958352 0.1990039 -1.71168 -0.6046458 0.369415 -0.1778133 -0.2942449 -0.4182733 0.08637526 -0.3290708 -0.002106942 0.2866302 -0.288207 -0.05250469 -0.142157 -0.08085636 0.2030506 0.5586483 0.0194532 0.1863201 0.1876716 -0.620524 -1.062343 0.4622556 -0.2394421 -1.723844 0.2132331 0.3515544 0.03483708 0.3260676 -0.2231024 0.3268339 -0.6594719 0.3955196 -1.01485 -0.4740985 -0.3826817 -0.4491587 0.1429807 1.24187 -0.409315 0.3019029 -0.5980881 0.1182269 0.4880631 -0.1293917 0.1559112 0.2317336 -0.3450622 1.919856 -0.1342304 -0.247898 -0.007405701 -0.3113468 0.2415802 0.02000051 -0.08463477 0.7028401 0.4594033 1.067689 0.07825967 0.9326801 -0.3507493 0.3254814 -0.5507933 0.8531944 -0.2370057 -0.8625239 -0.3407237 -2.110208 0.2397594 -0.4807835 0.3027305 -0.8139563 0.1543289 0.2408757 0.8067753 -0.8829378 -0.04609025 0.05609738 -0.1520724 -0.5831178 0.1141827 0.03776311 -0.4566075 -0.8913999 -0.8197091 0.3831741 -0.1732005 -0.4117085 -0.2806777 -0.3036018 0.946705 0.138052 -0.5335686 -0.3442172 0.02016441 -0.2397841 -0.520155 0.6177297 -0.07867201 -0.5120186 -0.1550964 0.2122275 -1.663253 0.662744 -0.5564676 1.05867 -0.4034709 -0.8966559 0.5491212 -0.1063905 -0.728411 0.2831024 -0.4607163 0.2266343 0.1782699 0.9950982 -0.02525791 -1.203906 0.1874459 0.260352 -0.05221354 -0.7969913 -0.7686427 0.6509954 0.9849163 1.247384 0.5238423 0.1693515 0.2899786 -0.3566918 1.795125 -0.7351185 0.2502752 0.1064195 0.8267666 0.3046186 -0.07058673 -0.0001249673 0.2343198 -0.2641591 0.2537769 -0.4176783 0.4038317 0.7688839 -0.4397248 0.1500148 -0.1787088 -0.09921324 0.0329202 -0.2665777 -0.2482333 0.3187126 -0.2721144 0.4774593 0.4680161 -0.9043875 0.5478734 -0.2331617 -0.05604923 -0.2668939 -0.2337158 -0.6390671 0.06922097 0.2972523 0.1402248 1.588451 -0.1726136 0.04731588 -0.2733966 -0.5358475 0.1885226 0.3645324 0.5496981 0.2858512 -0.7416757 -0.06543472 0.05316934 -0.131871 0.6529183 -0.2017247 -0.05657136 0.0840919 -0.9281601 0.2858401 -0.1697114 -0.1565819 0.1075838 0.1782207 0.02785825 -0.5905137 -0.5345708 -0.2250842 0.2061253 -0.1692765 0.06671704 0.4213288 -0.07633892 0.07903309 0.08195876 0.7835759 1.041112 -0.349314 0.6550752 0.0002913158 0.6048315 0.243681 0.2384335 -0.1722064 -0.6863966 -0.2508317 0.2609763 -0.1224204 -0.2252004 1.118079 0.7263747 0.3610752 -0.8376206 -0.5134904 0.03245588 0.5436044 0.2367817 -0.8019202 
  -0.7102144 0.477739 0.3513545 -0.2983031 0.1353985 0.01590401 -0.003841925 -0.002319145 -0.1491697 0.1686986 -0.8729417 -0.3232541 -0.6536696 0.4685465 -0.3138262 0.1758751 -0.6402887 0.3202707 0.9280716 -0.8233524 0.7400028 0.6916328 -0.07710415 0.8052595 0.0487186 0.6483572 -0.5109887 0.092092 0.04351282 -0.1353373 0.5627934 0.1104623 0.3778241 0.8726737 0.06682052 -0.2156721 -0.4478934 0.528291 0.6922112 0.4551942 -0.2552261 0.9723219 0.01471119 0.3167756 -0.3491285 -0.1921393 0.203147 -0.2371328 0.07612705 -0.4772662 -0.3168241 -1.661885 0.5615173 -0.6188124 -0.5104536 0.8081965 0.5325372 0.0338371 -0.4008935 0.03337859 0.4959567 -0.6804702 0.6335995 0.5609172 0.2126726 0.6736698 -0.3021728 0.6532591 -0.03976476 -1.268154 -0.3445878 -0.09398638 -0.1953107 0.3925212 0.538745 -0.4070702 0.1889348 -1.239237 -0.3038017 0.151697 0.03137302 -0.1812512 -0.6453133 0.6200731 0.3667337 -0.3893437 0.4544236 -0.3158381 0.451219 0.1589332 -0.03129589 0.9700748 -0.3527507 -0.4632978 0.2264003 0.4884247 -0.1386011 -0.4823186 -0.294983 0.566929 -0.08171822 -0.4609019 0.3665852 -0.7726876 -0.3120352 0.08742569 0.2916491 0.3546635 -0.5301218 0.02907288 0.1625221 0.2206155 -0.4326137 -0.208588 0.815249 -0.3709732 -0.3895875 -0.5961205 -0.8220795 0.6023384 0.5923938 0.6319693 -0.7014362 -0.7840881 -0.7031507 -0.09761809 0.3537059 1.045626 -0.607779 -0.251983 -0.01751823 0.2633258 0.2415299 0.3451177 -0.3658129 -0.6020007 0.6959385 -0.2289517 0.2852985 0.04788301 -0.1371063 0.08947265 -0.2519853 -0.5024551 0.5473815 -0.07667328 0.7616024 -0.5459099 -0.837271 -1.210892 -0.4824351 1.180023 0.9927113 0.3114967 -0.7036588 0.7383548 -0.9808219 -0.12512 0.2609563 -0.1336784 0.05594777 0.7285767 0.6340613 -0.7577109 0.882713 0.5068361 -0.1631423 0.1409639 -1.467644 0.1909155 -0.2264277 0.436097 0.7441544 -0.8090174 -0.669719 -0.02100548 -0.7384548 -0.308369 0.9452899 -0.5485846 -0.32909 -1.033479 -0.1652983 -0.5134773 -0.8688202 0.5127741 0.1902163 -0.4647976 0.1360723 0.2970291 0.8624546 -0.110835 -0.8872055 -0.2140296 0.820803 -0.05872515 -0.04368657 0.5502117 -0.08439239 0.01982654 -0.02067647 0.3803146 0.209828 0.4243737 0.8543327 0.7499533 0.1739827 -0.5224775 -0.1437655 -0.327562 0.3282368 2.057905 -0.1237833 -0.759937 0.0743848 0.7277962 -0.02483457 -0.1910744 0.5743441 1.003683 -0.2731237 -0.6697281 -0.1195505 0.5395415 0.0485334 -0.2143941 0.2786527 -1.578112 0.3178276 -0.3219481 -0.02712039 0.4428778 0.5021366 0.01155224 -0.7542647 -0.4669224 -0.4445058 -1.020555 -0.6373071 -0.5882404 0.1038523 0.6368586 0.5252553 -0.4010953 -0.3994924 -0.06911961 0.5802907 0.4422837 0.2400585 0.2547447 0.9240979 -0.2083469 -0.05009118 0.6659747 -0.2137 -1.035655 
  -0.8132492 0.3473784 1.052964 -0.3765219 -0.1532459 -0.522931 0.1310137 -0.1537819 -0.345097 -0.9815987 -0.2262449 -0.02264471 -0.3106615 -0.08149309 0.2137621 -0.0264125 0.8367439 -0.4647364 -0.4823734 -0.4143881 0.1133305 -1.51755 0.2813984 0.05419753 0.6906741 0.8303477 -0.1750312 -0.3759181 -0.09553264 0.1098634 0.3711644 0.2546973 0.6742046 0.3486576 -0.6417568 0.8039162 0.1436945 -1.7161 -0.4280269 -0.1116319 -0.03071658 0.713477 -0.2369414 0.1022795 0.414351 0.005366625 1.456269 0.3523121 0.2926162 -0.3923561 -0.3722517 0.4973597 -0.7515799 0.094165 -0.7323884 0.3506292 -0.4844993 -0.3532476 0.3548594 0.01081654 0.04345755 -0.1074375 0.6448451 -1.064948 -0.9755732 0.6853806 -0.1973448 -0.02252402 -0.04474434 0.3821108 -0.6194739 0.005666717 -0.06849474 -0.2732833 -0.03879768 0.1240595 0.4705815 0.7238801 0.4183623 0.5048616 0.7383717 0.4668408 -1.518844 -0.02139292 -0.4981008 -0.1289468 0.3777345 -0.08099894 -0.8702667 0.3625776 -0.2025438 1.450339 -0.2926276 -0.01187758 1.271361 0.1543792 -1.066111 1.223994 0.319769 -0.188907 -0.1456738 0.06435065 0.1094122 -0.3867597 0.2842695 -0.02865673 0.2845085 -1.143623 -0.884351 0.7015519 -0.09544791 -0.4517388 -1.536141 0.4503355 0.3402547 0.01490377 1.14593 0.6680185 -0.3365928 0.3258061 0.4319534 0.1814879 0.7013342 0.1841761 0.4127871 0.01967754 0.481298 0.4207914 -0.2578895 -0.479036 0.08627987 0.2152785 -0.2454341 0.4979178 -0.4418576 1.043102 0.7011396 -1.491673 -0.7048291 0.4157254 0.4188464 0.4381838 0.1338672 0.3264265 0.01521886 -1.016673 0.08065724 0.560595 -0.1195342 1.071349 -0.0292051 0.2058622 0.5555925 0.1766169 -0.03167089 -0.6474231 -0.5367931 -0.2475899 0.1485213 0.3879733 0.1723091 -0.003715942 0.3016732 0.6551671 0.935003 0.1775371 -0.2006247 0.1030159 -0.9847093 -0.2358562 0.4224765 0.5399152 0.5174302 -0.4960458 -0.1033133 0.124582 -0.5734259 -0.1913836 1.424123 0.2773848 -0.03359358 0.05393254 -0.1529292 -0.8224722 -0.2355946 -0.2497021 0.2970949 -0.3335725 0.02496981 -0.8000033 0.05671107 0.7140377 0.3915431 0.2533849 -0.3728769 -0.5989863 0.2314286 -0.08044339 0.3554028 0.001268856 0.03394811 0.7044578 -0.141752 0.1309624 0.8503031 -0.4209919 -0.7279821 0.09160803 0.5134817 -0.7085821 -0.2658931 -0.452435 0.1158472 0.6175988 -0.4493253 -0.02666148 0.3319018 -0.96632 0.04159944 0.6818452 -0.7060344 0.316797 -0.0176785 0.7768256 -0.1792141 -0.4342313 -0.4650086 -1.555797 -0.5436419 -0.3598373 -0.1296794 0.005813839 0.4051416 1.33401 0.3182892 -0.7350888 0.5199544 1.009844 -0.4856819 -0.1147393 0.004719711 0.3549558 -0.2465175 0.5820644 -0.2725183 -0.0115541 -0.2337387 0.0346006 0.04952621 0.3615141 0.1022511 0.4001102 -0.4144868 -0.1725828 -0.07233367 -0.6206354 
  0.4336842 0.574433 0.002635506 -0.1664071 0.3951703 -0.1293141 -0.3634867 0.02942893 -0.6228437 -0.02240685 1.045923 -0.25238 0.1334567 -0.4534861 0.5666823 0.04632437 0.05933001 -1.112414 -0.155903 0.4259611 0.01295741 -0.6216311 0.2394916 -0.1220556 -0.7792122 -0.9080178 0.5623718 -0.969456 -0.248944 -1.229318 -0.2891516 0.2232758 -0.05845447 0.7732782 -1.272838 0.01984099 0.8693299 0.3726204 0.2139904 -1.12652 -0.2229122 -0.5474325 0.6041453 0.562724 0.1972622 0.5506176 -0.4631971 -0.002216337 -0.1078384 1.360153 -0.05588847 -0.2188827 -0.2817416 0.1872726 0.06457739 -0.1397893 -0.1087538 0.2636441 -0.1014527 0.3692762 0.1601864 -0.4249721 0.09814093 -0.4381335 0.6011865 -0.0879752 -0.04927886 -0.6274942 -0.6550614 0.4632748 0.7978887 0.05453856 0.5763267 0.02403863 -0.1734944 0.218289 -0.5999645 -0.09138586 -0.2521189 -0.4142541 0.7949739 0.2164981 -0.005213003 0.08053673 -0.355381 0.1640356 0.1521393 -0.2006949 -0.941266 -0.3170241 0.1869982 -0.6634651 0.3981044 0.3914254 -0.3431965 -0.3287164 0.4423144 0.06453151 -0.1191662 0.1958866 -0.2444456 0.3408464 -0.1782323 0.0135624 0.180273 0.6557326 0.05913934 0.2262255 -0.6353409 0.07203933 0.03234656 -0.4105571 0.1559793 -0.2600618 -0.5166613 -0.6049871 0.2029405 0.06001427 0.834478 -0.3484248 -0.3092196 0.4337303 -0.06133708 -0.7006185 -0.2447682 0.1875497 -0.3983133 0.2078176 -0.07261986 0.214577 0.02545522 -1.045329 0.1009529 -0.1442058 -0.4221122 -0.2981473 0.5076201 -0.7189606 0.05397978 0.6489396 0.1188795 -0.7384751 -0.7874798 0.2295119 0.5972003 0.9716879 0.2258218 0.1647801 0.4520102 -0.7811497 -0.05733483 0.7465909 0.3245924 0.2229025 0.3406868 -0.4647394 0.1030261 0.1946739 0.1461143 0.5693565 -0.4354247 -0.6897225 0.5988399 0.5465357 -0.3938947 -0.4044265 0.176143 0.02273528 -0.5462224 0.09610345 0.6081225 -0.5177834 0.7987582 0.2085725 0.6749412 -0.2709509 0.5470989 0.6168382 0.2090449 0.6488653 0.3361563 -0.6572917 -0.157441 0.1447943 -0.1377667 0.114551 0.1706146 0.2365339 -0.2722733 -0.5390543 -0.2493275 -0.2312564 -1.084151 -0.3659765 1.111362 -0.03542252 0.1824727 -1.691082 -0.441241 0.8994768 0.05795604 -0.3163837 -0.5631479 -0.7212127 0.8107145 -0.03775094 -0.810626 -0.4650266 0.2008162 -0.2877899 -0.4821606 -0.310923 0.2670698 0.1912125 -0.1346366 -1.491943 0.1494442 -0.3894031 -0.4040339 -0.4746219 0.4893163 0.7208605 -0.3596288 0.3679083 0.6740966 0.2844397 0.9076495 -0.09240489 0.6806843 0.432575 -0.2660842 0.5958765 -0.6848646 0.02540928 -0.1570991 -0.744789 0.1433119 -0.7176769 -0.1090502 0.1658726 0.3442781 -3.173928 -0.1413058 -0.6154622 0.4513348 0.8239428 -0.03510192 1.020611 0.6005629 -1.397324 0.1438826 0.3037092 0.4320216 0.269295 -0.03632006 0.4947459 
  0.4868399 -0.2837142 -0.4788681 0.9704779 0.2595165 0.7033711 -0.5173255 0.2823437 0.07291486 0.3988797 -0.2137726 0.2839035 0.5512012 -0.2579991 -0.6679091 -0.1506682 0.01576828 0.4258265 0.2502467 -0.4801251 0.2959322 0.1217842 0.1510025 -0.2056519 0.03429611 -0.8888578 -0.6070953 0.3470125 -0.7763091 0.4290404 -0.2546871 -0.6837533 -0.3858379 -0.7800813 -0.4447939 -0.1202232 -0.3441131 -0.8309659 0.3596013 -0.4001891 0.5350661 -0.5675964 -0.5655839 0.6862088 0.2121334 0.5419155 -0.04327872 -0.3833959 -0.5570572 -0.09247581 -0.4179748 0.1597663 0.5269266 -0.5085073 0.6060057 0.9259493 -0.4574328 -0.1529041 -0.3236448 -0.2115991 -1.352121 0.04435077 0.5410888 -0.3212368 0.6507344 -0.7783308 -0.8825551 0.01881829 0.8084159 1.095986 -0.2532735 -0.5436124 -0.01583856 0.2040915 0.134585 -0.163175 -0.3860854 0.135957 -0.4981263 -0.8131594 0.3496583 0.9285781 0.4040861 0.5736091 0.19951 0.01434288 0.1771451 -0.3291691 0.5526985 -0.1899086 0.3008573 0.4664207 1.110453 0.2184151 0.6440892 0.2355693 0.2452607 -1.011735 -0.3462315 -0.2079818 -0.8400562 -0.2968296 0.7859735 -0.1478806 0.001344763 0.2602513 -0.6528243 -0.5954601 -0.6244387 -0.02114464 0.2771943 0.7385278 -0.03192096 -0.6104102 -0.9032874 -0.341577 -0.2928334 -0.2210858 0.2568615 -0.04609708 -0.540196 -0.2615144 -0.1565411 -0.3927573 0.8057837 0.4664764 0.4983233 0.1455544 1.028034 -0.2235982 -0.01368497 0.07796565 -0.04419803 0.5539161 -0.1248675 0.4281024 0.2131888 0.2878426 0.3532626 -0.5484434 0.02811093 0.3007385 0.3379374 0.3135626 0.4431975 1.489177 -0.2758432 -0.164708 0.7206517 -0.06685153 -0.07769025 0.1457411 1.108991 0.05490341 0.01196828 0.01259733 -0.05777225 -0.7200668 0.5436694 -0.1145526 -0.1531636 0.3845114 -0.01083099 -0.5345684 0.1855754 0.1443124 0.1773536 0.08788779 1.078343 -0.4458017 -0.01920737 -1.147227 0.7287492 0.2486471 0.7188931 -0.04000573 -0.2496597 -0.5728934 0.1817296 0.2980485 0.2748668 0.02473039 -0.2216765 1.067595 0.7047726 0.6153914 -0.1360854 -0.3563987 0.3658324 0.2755297 0.1207701 0.3429939 -1.453738 0.7783595 0.5525449 -0.02834491 -1.801438 -0.1329672 -0.1938833 0.1572833 -0.3314757 0.37982 0.06808613 0.006927186 -0.445716 0.03463871 0.3669941 0.4898964 -0.4232933 0.03295779 -0.03832156 0.1530886 0.2146 0.4256371 -0.07839607 0.5087633 -0.4002774 0.5263823 -0.09521431 -0.8218672 0.07001249 1.008617 -0.2192517 -0.2433757 0.2073336 -0.1389411 1.010775 0.6652327 0.03594058 -0.2458868 -0.7916955 -0.2419906 -1.900281 -0.07928123 -0.3997654 -0.4132214 -0.1763136 -0.7015608 -0.1177632 -0.009310928 -0.4220584 -0.03869198 0.01320323 0.359437 0.01287527 0.108283 -0.4870729 -0.3708466 -0.2085563 0.6041147 -0.27563 0.241245 -1.548117 -0.05955773 -0.6670163 0.2586614 
  -0.2222103 -1.476503 -0.4138653 -0.09512877 -0.1886866 -1.087414 0.8124992 -0.6469592 1.201557 0.7263064 -0.1214936 0.2305426 -0.8432176 -0.9861968 0.5406957 1.936122 -0.7075929 1.215673 0.5762519 0.5433262 -0.4286 2.011526 1.712399 0.2048097 -0.4446715 -0.7270514 0.05794046 0.5823089 0.7046745 -0.2503516 -0.06129917 -0.7176403 -1.610204 -0.4659255 -0.6050012 -0.8708726 0.06352419 0.1617541 -0.3836107 0.2609262 -0.7647651 -0.5438589 0.5282685 1.252607 -0.07844346 -0.6680096 0.1724237 0.1347188 0.5211132 0.4709531 0.6208555 -0.8620963 0.3523221 -0.1007384 0.3815103 0.2327771 0.6264712 -0.001384468 -0.8753391 -0.5152327 0.7388857 -0.08492883 -0.1003101 0.4556004 -0.6460564 0.2058835 0.5760841 0.01008568 -0.7315535 1.40588 -0.3406346 0.6090631 -0.03803966 -0.7551059 -0.3276418 -1.117368 0.823947 0.1380794 -0.8409408 0.07067844 0.7684089 -0.8039854 0.6907827 -0.8641701 0.4936629 -1.073869 -0.6598417 -0.1537744 0.4898389 0.2246295 -0.7256773 -0.7382665 -0.193251 -0.2894514 -0.2053655 0.1939755 0.5973747 0.9671819 -0.3458787 0.3589334 -0.7547466 -0.3349546 0.4224171 -1.305804 -0.1304222 0.09341548 0.346591 0.9065812 0.4840129 -0.02571697 0.2915893 1.001773 -0.01581452 -0.1366975 0.1978023 0.7241186 -0.06666828 -1.044777 1.266257 -0.304105 -0.5766613 -1.168332 0.4469488 0.2821675 -0.9737324 0.4970101 -0.228894 -1.075012 -0.9172826 -0.2774982 0.5708683 -0.009953491 1.171051 0.2677785 -0.157144 -0.1050632 0.1821356 -0.1571017 -0.06248966 0.9088386 -0.04025915 -0.5052154 -0.2376344 0.3053051 -0.4094023 0.09534287 -1.338886 0.5264267 0.156038 -0.7357181 -0.89885 -0.5638891 -0.1955718 -0.1189966 -1.583146 0.9330671 -0.5774975 -0.8454676 0.03051222 -0.489338 -0.8770242 -0.2587014 -0.005104712 0.260605 0.3203436 0.8086562 -0.5215873 0.03609711 0.1227069 -1.112701 0.0433649 -0.6252475 0.2456834 0.06108577 -0.101308 0.3497016 0.5019492 -0.9160605 -0.1100891 -0.9930027 -0.7784225 -1.053289 -0.73884 0.1232179 -0.01647846 -0.05172744 -0.01758144 -0.2712693 -1.12816 -0.8133808 0.4118523 0.4392 1.566311 0.4518337 0.4026838 0.6651675 -0.8620047 -1.391855 0.6700303 0.7146777 0.2652194 0.04507302 0.14859 0.3303838 0.1842441 0.4653913 0.09696811 1.483536 1.254029 0.6255246 0.7237664 -1.254242 -0.2791725 0.1335192 0.9012457 0.3270707 -0.02591191 0.2717141 -0.03418479 0.243329 -0.2623278 -0.3949755 -0.1663451 -1.667011 0.1458472 0.9170951 -0.2405971 1.46123 -0.2432315 -1.143991 -0.7708606 -1.256893 -1.447172 0.4443415 -0.2299298 0.2685868 -0.4756825 0.09802476 0.5050272 -0.003890013 -0.8131849 0.6172248 -0.1664099 -0.09645247 -0.799831 0.0139809 0.2028637 -1.239828 -0.6520041 0.6838058 0.464685 0.3638878 1.177176 -0.3767889 0.4930964 0.2438245 
  -0.3569238 0.6842775 0.6389351 0.5198436 0.4877985 0.8209311 -1.159974 0.1255827 -0.4046351 0.2846067 0.1623092 -0.03122863 0.02882213 -0.503921 -0.7642788 -0.3702981 0.3530653 0.03856606 0.09105399 0.6808241 0.4124861 -0.9877172 0.2440122 -0.4864543 0.6417081 0.1854478 -0.2435427 1.025165 0.1138669 0.5927318 -0.9332592 0.09397066 0.2424162 0.6009716 0.7016541 -0.1257585 0.5197352 -0.558646 0.9116232 -0.3919638 -0.4529947 0.500235 -0.4570352 -0.7340463 -0.0977543 0.8846461 -0.116604 0.2650188 -0.6140649 0.4390551 0.7934137 0.2766243 -0.6593069 0.06961416 -0.1363383 -1.127182 1.192407 -0.1885066 -0.3958119 0.003237323 -0.02577854 0.7078089 0.2286725 0.5051354 -0.4179038 0.4586636 -0.5843918 0.5069307 0.4930822 -1.798824 0.06788867 0.2763978 0.1169299 -0.2998392 0.759589 0.248164 -0.08761155 0.2093361 0.2924133 0.4772986 -0.06964631 0.5817309 -0.0321941 0.1676419 -0.3770315 0.3830879 0.3675443 0.4904019 -1.506356 0.8028286 0.7433813 0.4028716 -0.2330992 -0.8840595 0.9524635 0.945725 -0.3494737 -0.1312483 0.5749384 -0.561512 0.710743 0.2564833 -0.7776633 0.2649091 -0.7153323 1.062453 -1.054404 0.1419717 -0.9456093 0.2780482 0.7162702 0.1078109 0.349487 -0.8360865 0.2746432 -0.1991256 -0.3121437 -0.1811948 0.1370637 -0.5532114 -0.8146026 -0.7292628 -0.1372444 -0.8047438 0.5183198 0.496289 0.5915079 0.7516871 0.2294348 0.1876866 -0.5915617 0.01689869 -0.6757588 0.5887405 0.4212448 0.01755179 0.1090489 0.4838041 -0.1627117 -0.5748185 -0.4253964 -0.1776914 -0.5060503 0.03132632 0.1288369 1.072384 -0.5946109 0.4089344 0.5577539 0.1268205 -0.3012699 0.1365182 -0.1248727 -0.150522 0.5263245 0.7218867 -0.3962941 0.89877 -1.184355 -0.7378228 0.2966207 0.7867922 0.2528841 0.07753734 0.1414104 0.2145781 0.3859158 0.7624261 0.8198579 0.7907518 -0.1918736 -0.3634166 0.5841318 0.5259179 -0.09917556 -0.8303908 -0.2940501 0.7054843 0.1696123 0.5427771 0.6510147 0.1052043 0.006652636 0.2434595 0.8602801 -0.08933894 0.34108 0.05130787 0.3117618 0.3970719 0.6215513 -1.351923 -0.6050434 0.753673 0.6653509 -0.1103746 -0.7905812 -0.6453565 -0.8873848 0.206678 0.4351729 -0.7759641 0.75545 -0.8946797 0.1053893 -0.707904 -0.7888607 0.1752819 -0.3859043 0.1730592 0.002546129 0.1697181 -0.1298615 0.01456788 -0.8816465 0.8165102 -0.04787444 -0.340562 0.3202952 -0.5171151 -0.126468 0.1345007 1.2098 1.082228 -0.5438999 -0.5860308 0.8005565 -0.5534245 -1.358842 0.04149309 -0.1602865 -0.9367873 -0.008561265 0.1499154 -0.2625964 -0.323429 0.6653149 0.3434863 0.3597958 0.3396415 0.3564095 -0.09397628 1.213302 0.09764477 -0.2366293 -0.00298157 0.06363766 1.063673 -0.08610192 0.2253745 0.4462263 -0.8343845 -0.7652519 0.5875211 -0.2366358 0.04755422 
  -1.006423 0.4848479 -0.5322678 1.032309 -1.623973 -0.2185539 -0.5610157 0.1193417 -0.06798584 0.6139087 0.641283 0.3126758 -1.008303 0.2825349 0.1432406 -0.2337554 0.01584593 -1.185964 -0.3327128 0.1807702 0.5371656 -0.9996447 -0.3001099 -0.6198198 0.2098143 0.9041693 -0.1317277 0.1432249 0.5067809 0.72049 1.122434 -0.2989556 0.5368335 0.4692727 -0.02389497 -0.06137226 -0.4034938 0.9828728 -0.3133611 0.04390966 0.3701124 0.5744005 0.3375178 0.2701684 -0.01108839 -1.031034 0.4335102 -0.1643711 0.1335894 0.08271205 0.2359639 0.09267886 -1.58509 -0.1445165 -1.024433 -0.2439251 -0.06198944 0.785798 -0.4270785 -0.7299588 -0.4663751 -0.2899767 -0.3459713 -0.04564342 0.1909831 -1.602999 0.01994368 -1.281426 1.059117 -0.7615079 0.6358979 -0.2567911 -1.038436 -0.06578116 0.3465215 -0.02109025 -0.4507713 1.197981 -0.8894293 0.354462 -0.1219372 0.2940261 -0.721579 -0.7648841 -0.911068 0.297484 0.06331923 -0.1508576 0.2742836 0.2035747 1.404343 -0.00540668 -0.1462969 0.9620553 0.07687207 -2.142453 0.2528427 0.03663042 -0.4190769 -0.2605639 -0.09163082 0.641094 -0.4768833 0.2795687 -0.4975136 0.5045106 -0.05603589 -0.483032 0.8405055 0.3341403 0.8848399 0.2744413 -0.1626271 -0.602191 -0.4615165 1.959857 0.192019 -0.6998714 -0.6991102 -0.09208827 0.5384993 0.3174611 -0.2687776 0.2909764 -0.1333495 0.4448016 -0.1009887 0.3076646 0.4472304 -0.06919433 0.2706914 0.5663298 -0.5914351 -0.1553447 1.089322 -0.2558861 -0.3356161 -1.26289 -0.4546547 -0.1153647 0.3742899 0.2736552 0.643634 0.4102162 0.1675991 -0.185974 0.9870627 -0.4131393 -0.1681848 0.2720261 -0.62023 0.3370374 0.5881577 0.04698228 -0.09246638 0.06664559 0.1923008 -1.17389 0.008147996 -0.07697862 0.6750419 0.5076368 0.9580588 -0.007393016 -0.5333829 0.3157593 -0.09703485 -0.7179329 -0.289108 -0.1113638 0.1048136 0.05416297 0.2054009 -0.9881478 0.8562441 -0.9132286 -0.2907642 0.7264385 -0.5151206 0.4824859 0.2543804 0.6148071 0.0948081 -0.6604493 -0.5883256 0.2663422 -0.8943283 -0.2275904 0.0886441 -0.5144011 -0.2430308 0.4732533 -0.05691561 -0.5108581 -0.5021696 0.09580776 -0.5508182 1.119872 -0.5456629 1.172039 -1.085718 0.4660938 0.006717594 0.7889099 -0.9376938 -0.007228512 0.03566597 -0.1012418 -0.4513918 -0.2759379 0.363952 -1.283029 -0.05941923 -1.760478 -0.1302741 0.74244 0.1519817 0.8571102 0.8910706 0.4966438 0.04755295 0.08304076 -0.6958089 -1.463355 -0.1333828 -0.7839367 -0.6496212 -0.1286693 0.2413801 -0.6079434 -0.54474 0.3340715 0.03918326 0.3275187 0.109973 0.128867 0.5334813 -1.063725 0.6753872 0.2663782 -0.8106993 -0.8277423 -0.2599231 -0.05455527 0.5139425 0.5384322 0.3993518 -0.1743358 -0.9160837 -0.5189609 -1.119147 -0.2991413 0.7363495 -0.2696223 -0.3072237 -1.200415 
  -0.2596601 0.0609294 0.615678 -0.1066671 0.3707993 -0.3782381 -0.09761086 -0.07087667 0.03202816 -0.3936303 0.6816235 -0.2340721 -0.3461436 -0.4106228 0.4431895 0.6642534 -0.1468451 0.1784686 -0.07104582 -0.1505165 -0.7300054 0.0930995 0.2221589 0.6214958 -0.3086265 0.1182699 -0.1857574 -0.5208455 -0.1048929 -0.06617235 -0.04304034 -0.02943496 0.005318319 0.2215394 0.1899024 0.4463953 -1.220306 0.367161 -0.761507 0.04824386 0.4196454 0.1241656 -0.410272 -0.09901749 0.3345786 -0.6492217 -0.1706538 -0.08486453 0.1716043 0.325471 0.1205561 0.6824833 -0.1693512 0.4845217 0.5586184 -0.0665084 -0.3040168 -0.1931183 -0.9241439 -0.06825314 0.1228833 -0.2307443 0.5154352 0.4249509 -0.8372964 -0.02210066 0.2310951 0.1570892 0.1031649 0.4560719 -0.2510156 0.1153013 0.3692567 -0.5864387 0.3840223 0.2312102 0.172026 0.5183911 -0.3702817 0.4385217 0.3799541 -0.9127437 0.4999797 0.313122 0.2361642 -0.791393 -0.9265057 0.07231221 -0.2100416 0.5301458 -0.8853315 0.2023121 -0.3539894 0.01725374 -0.02786483 0.6374593 0.2878348 -0.3371005 -0.1618478 0.4369301 0.8317532 -0.4408186 -0.3637273 0.3362917 -1.305919 -0.3736239 -0.7332606 -0.1617486 0.4655769 0.2224318 -0.8363941 0.116565 0.4316185 0.8193016 0.264718 -0.8586094 0.1758462 0.3162512 0.07947646 0.01555496 -0.5413026 -0.04182312 0.5252224 -0.1706832 -0.05497863 0.2863067 0.8598233 0.1454248 0.2127939 -0.4555815 0.05011747 0.6880952 -0.3957354 0.475556 0.1727586 -0.4966554 -0.6167767 0.1654539 0.44229 0.01982846 -0.1778162 0.2747804 0.1287225 -0.6797032 -0.003056388 -0.4216006 -1.438773 1.50547 -0.6468606 0.1013208 0.3857913 -0.4873321 0.1946424 -0.7522812 -2.049011 -0.6665874 -1.257333 -0.7363284 -0.2260244 0.4185664 -0.2169868 0.4690042 -1.423366 0.5180619 -0.5561304 -0.4863048 -0.9116902 0.7224237 0.09450004 0.3060355 0.03169742 0.3212882 -0.2198355 0.7895617 0.3177054 -0.4112831 -0.0004187844 -0.8409559 -0.08678927 -1.924844 -0.1621753 -0.3012134 0.562811 0.06345554 -0.4324634 -0.03440414 0.1512279 0.07673761 0.03253774 -0.07449004 0.6513089 0.1053954 0.1887631 0.8648695 -0.3990895 -0.3799897 -0.649112 0.3636612 -0.01670929 -0.1856953 -0.2793355 0.2539162 -0.145952 0.09714057 0.5235955 0.6274511 -0.8313035 -0.6508048 0.0233971 0.4775548 -0.6403856 1.214403 -0.1858903 -0.04603923 0.08417667 0.5665161 0.2240286 -0.2978185 -0.7891235 0.3016907 0.4302638 0.4543222 -0.1813103 -0.2636877 -0.7971848 0.4272377 0.461951 0.3208729 0.1622089 0.3157448 0.5535694 -0.5931073 1.003509 -0.7432112 0.3247538 0.2877274 0.3663208 0.3440097 -0.5506812 0.1030335 -0.2326064 -0.501286 0.08720197 1.557778 -0.1227603 0.6325949 0.2285429 0.3083466 -0.1387116 1.200635 -0.1611715 -0.01430194 -0.3668109 -0.5399081 0.2164224 0.303523 
  -0.5778033 -0.2290201 -0.3998126 -1.244374 -0.1829633 0.1833847 -0.9324186 0.6455573 -0.1294274 -0.01946716 0.1985607 -0.2022092 1.0089 0.430519 -0.3057882 -0.07916994 0.590022 0.3696126 0.8009149 1.245968 -0.5735996 -0.283813 -0.1560979 -0.7779725 -0.1232421 0.6860322 0.3835806 0.1658009 -0.006447311 -0.6593632 0.1775442 0.1840749 0.01458398 -0.55176 0.1601163 -0.5602394 0.2303617 0.3597686 -0.03508009 -0.6477573 -0.4443273 -0.1854029 0.5701883 -0.01149873 1.401588 1.179701 0.01035438 -0.8880532 0.1904436 0.6319952 0.1555246 1.834432 0.2856458 -0.8220006 0.2112141 0.2411268 0.2127522 0.2115747 0.7577565 0.5814452 -0.00222874 0.6197122 0.4608274 -0.6170838 -0.4921423 1.265178 0.485427 -0.2239792 0.1244241 -0.160511 -0.4106055 -0.2746759 0.8133733 0.2728617 -0.4358082 -0.1902589 -0.01143185 -1.362517 -0.1679718 -0.3098148 -0.2330241 0.1109501 0.3083445 1.905557 0.2308698 0.1573381 -1.273028 -0.1580596 -0.7313854 0.6773081 -0.4615216 0.6151776 -0.2111763 0.01828402 -0.0162516 0.2719202 -0.04084502 -0.08696876 0.111367 -0.3103682 0.3116122 -0.02416195 0.9256278 0.03627855 -0.7083299 0.02342141 -0.6799819 -0.6575492 -0.3394898 0.7981546 -0.3475299 0.1133151 0.4121979 0.255089 0.3169784 -1.065067 0.2333821 -0.06646267 -0.5564005 -0.05498702 0.3439305 -0.6387393 0.2094552 -1.24487 -0.6062924 0.2221416 -0.4946153 -0.3958165 -0.0367714 0.14068 -0.2659412 -0.4017698 -0.2679957 -0.6195419 -0.455744 -1.003585 0.5210443 0.1895206 -0.05237142 -0.3653538 -0.1888978 -0.2214327 0.1955919 0.5739182 -0.3306636 -0.290397 -0.8144711 0.3427379 -0.01182193 0.102653 0.80601 -0.5494153 -0.2465966 -0.7016184 -1.02646 -0.1208395 -0.9145283 -0.8044895 0.1563914 1.111949 0.3387207 -0.4109813 -0.07156606 1.255937 0.371927 -0.1314417 -0.2415751 -0.4304933 0.3189938 0.7896972 0.2136786 0.1974855 -1.240005 0.703384 -1.925648 0.01276135 0.2119579 0.1465945 0.07808143 -1.090377 -0.3480156 0.207415 0.6234571 0.07452917 -0.01037262 0.07501956 0.3155884 0.1739234 0.1163788 0.5110899 0.267343 -0.1231416 -0.1549457 1.378581 -0.03718028 0.3476393 -0.1719042 -0.2748389 -1.008015 -1.045521 0.4069092 -0.4058869 -0.5831009 0.6741004 0.1425867 0.3772551 0.03039181 -0.8928022 0.2542417 0.09205157 0.3375781 0.03308232 0.4727107 0.6641268 -0.1469532 -0.4932726 -0.1716754 -0.4150718 -1.565291 -0.4360982 0.03183201 -0.6769072 0.4715899 0.200983 0.8389505 -0.1176128 0.1892226 0.061409 -0.04249476 -0.04966993 0.2095545 0.05560731 0.727216 -0.4262684 0.2858078 -0.04434587 0.2365993 0.7232117 0.2150307 0.23278 -0.01219362 0.9097833 0.04762242 1.568237 0.2366308 0.4833143 -0.2870489 -0.4352947 -0.1539979 -0.2581419 0.75581 0.7199873 -0.5160725 -0.08112597 -0.6967492 -0.05644484 
  0.05009528 0.3964117 -0.5209984 -0.06076685 -0.5481123 0.6594355 0.8425651 0.8779368 -0.1736654 0.7771342 1.147829 0.8139404 -0.6405782 -1.785422 1.117936 0.1734148 0.5033491 0.2261103 2.266114 0.3885763 -2.079533 0.8845397 0.9598942 0.6585357 0.9775689 -1.161296 0.2468003 -0.1113831 0.8418777 -0.1678484 0.6983407 -1.595106 -0.9487515 -0.03564024 0.2412066 1.192898 -0.06173635 -1.082371 1.414547 -0.8340869 0.8927367 -0.06955492 -0.1391214 0.4192722 0.5111916 -0.4022205 1.206949 1.468928 0.3815254 -0.2724725 -0.08046489 -0.5658383 -0.5169979 0.03910679 -0.2894595 -0.864799 0.3645027 -0.685392 -0.4498349 -0.5517753 0.1565332 -0.7797541 0.2957554 -0.06500902 -0.1669364 0.8008143 -0.240204 -1.092225 1.809273 -0.914584 -0.2914754 0.4075514 0.03046307 -0.3630813 0.619731 0.4228081 0.2791052 -0.8173866 -0.07421405 0.2057183 -0.5850801 -1.413732 -1.111371 0.2335969 -0.8186364 0.02348552 0.2145622 0.3516515 -2.465478 0.1922536 0.4775248 0.6819866 -0.1359473 -0.2087454 0.8105686 -0.6139887 -0.7434729 -0.1614976 1.031857 0.5595132 -0.8743389 0.1365574 0.2915013 0.07642392 -1.605563 0.4412915 -0.01581905 -0.3243948 -0.7943134 -0.5799185 0.3382699 -0.4009581 0.03666197 -0.1481421 -0.5613227 1.051759 -0.6103028 0.2818571 -0.3907719 0.513131 -0.3678278 1.554088 0.7403033 -0.06970853 -0.5059979 0.9324103 -0.238912 0.1662468 -1.123979 0.8745477 0.6153724 0.2233608 0.8846929 0.2330819 -0.1072779 -1.413665 -0.3415898 -1.04429 -1.058529 -0.3831922 0.7144731 0.3187043 -1.499382 0.9987424 0.3631684 1.078083 0.4026169 -0.1898375 -0.3205151 -0.06399176 0.397223 1.184498 0.2414141 0.120143 0.7958227 -0.264907 -0.3837195 -0.5075336 -0.4982153 -0.7133565 0.234556 -0.3771976 -0.4561874 0.9721469 0.6478503 -0.1739806 -0.6270609 0.8412354 -0.1389384 -0.0769247 0.4868797 -0.7675427 -0.5261444 -0.07155285 -0.04800304 0.614163 -0.2759456 0.9007992 -0.1292376 -0.6282602 -0.3622232 -1.323309 0.4177271 -0.4173221 -0.3682454 -0.9788604 -0.5799429 0.06821418 -0.09241822 -0.6847447 0.6966793 0.254353 1.147599 1.022815 0.4250384 0.7700265 0.968769 0.01869092 0.3807589 -0.7478539 0.6635547 -0.7565976 0.4816419 0.4647025 0.3396602 0.2851806 -1.164124 0.5261417 0.2024728 -0.8864714 -1.52842 -0.8738353 0.01905743 -2.114136 -0.8513073 0.1164856 -0.743232 0.1295292 0.3481273 -0.758307 0.107689 0.5115703 -0.9134557 1.008685 0.5031301 -0.3854684 -0.5133373 -1.076004 -0.5352039 -0.3717843 -0.03470152 -0.634328 0.3354034 -0.2423509 -1.454212 0.1742893 -0.6689731 1.087162 0.01888651 0.6600223 0.8487014 -0.1589316 2.259156 0.110352 -0.1987293 0.5682269 -1.566912 1.804752 -0.3578202 -0.153702 -0.2846292 -0.05894056 -1.041912 0.7665985 -0.2218937 0.4829145 
  -0.7900845 0.5996752 0.09341584 0.4114868 0.1255752 0.3330368 -0.2031045 -0.09928551 0.7773867 -0.3848813 -0.4976176 -0.1126473 0.7111046 -0.07267737 0.2907754 0.256064 -0.4374652 0.3218375 0.7008895 0.2550671 -0.2831028 0.3050449 -0.4619087 -0.1227403 1.11795 -0.4453912 -0.3457227 -0.2508167 -0.6949368 1.110815 0.1954522 -0.6906576 -0.2752151 -0.03556776 0.02590967 0.9182332 -0.1055334 -0.188704 -0.7947605 -0.9888129 0.4539362 -1.49664 0.1895262 0.05727847 1.157515 -0.127978 -0.07789431 0.1659808 0.8111163 0.17524 0.8683337 -0.2936134 0.2290851 -1.280487 -0.7076323 0.6509449 -0.9620656 -0.07730062 0.03005128 -0.0820035 -0.2169553 -1.151744 -0.6151695 0.9463597 0.9726443 -0.5197341 0.5288411 -0.3068354 1.02748 0.2466592 -0.1032022 0.1413851 -0.1631778 0.5489669 -1.376175 -0.1873973 -0.3384547 0.263165 0.648867 -0.1846986 0.2657507 0.07861611 0.05388218 0.3398806 0.1516416 -0.599666 -0.3330615 0.725141 -1.210423 0.7105065 0.6488776 -0.2262615 -1.384816 0.6941931 0.1071259 1.310741 0.5781804 -0.2740045 0.01181741 0.01165137 -0.8108416 -0.6087146 0.7334592 0.4775317 -0.8130622 1.284192 -0.5166237 0.6454594 -0.3267116 -0.01630822 0.006036373 0.002359604 0.1565485 -0.02299251 0.3916242 -1.113195 -1.253258 0.06505295 0.1033649 -0.3540128 0.06221407 0.200107 0.05620559 0.3918066 -0.5351508 -0.2992138 0.1408148 0.9441926 -0.3822508 -0.8412818 -0.05498699 -0.2135011 -0.05846534 -0.3657407 -1.004266 0.2711919 -0.4463695 0.1374869 -0.5171629 -0.02257806 0.04264066 0.4100871 -0.1761934 -0.3693295 0.4396153 -0.4478508 0.6972668 0.09648567 -0.4738795 -0.5979133 0.672442 -0.488909 -0.0780069 0.01610516 0.2487095 -0.7141942 0.650328 -0.3722318 1.097973 -0.2756105 -0.7402424 -0.2108483 0.03159785 -0.2575876 0.5190268 0.6984339 1.105367 -1.504118 0.6185285 -0.4470949 -0.01464227 0.0818031 0.1288068 -0.005245178 -0.4643271 0.4867105 0.1058742 0.1752681 -0.9984815 -0.1046052 0.1319263 -0.4060825 -0.2397082 -0.4930289 -0.2489737 -0.6681789 0.1402316 0.3449003 -0.6027414 0.5231754 -0.0843912 -0.4325172 0.336752 0.3119801 -0.3196705 1.020239 -0.3869894 0.2652145 0.6898921 0.2492353 -0.01883194 0.1886895 0.2388788 1.165202 -0.8306954 -0.2841757 0.1578088 0.2302129 -0.8373653 0.2962601 -1.418785 0.1386801 -0.6212414 -0.391564 -0.5449049 -0.1026432 -0.14067 -0.5376588 -0.2091478 -0.4772429 -0.4394311 -0.07136024 0.7170492 0.0590487 0.2364451 0.2865918 0.4108616 -0.6812577 0.2475348 -0.2197734 -0.6039053 0.3223355 -0.7680566 0.3581993 -0.2369609 -0.6002605 -0.9187538 0.4845333 -0.2785633 -0.3590723 0.08305469 0.2645266 0.1071505 -0.023454 0.5785023 -0.07773173 -2.6186 0.5856479 -1.55105 -0.3349888 -0.7706189 0.6595408 0.124306 -0.5316522 0.3134319 0.632933 
  -0.1834506 -0.1447601 -0.02581782 1.084652 0.4610745 0.4672921 -0.4754942 1.077165 -0.2530627 -0.5111898 -0.04020857 -0.3392877 -0.2506854 0.2070378 0.2964868 -0.7823789 0.6846197 -0.7592718 0.4184863 -1.588344 0.2147816 -1.099042 -0.2037751 -0.4783308 -0.2587978 0.008944411 -0.5566404 0.4507738 -0.6660826 0.192681 -0.07238513 -0.799968 0.5809529 0.08967494 0.29863 0.1854956 -0.7161619 0.07679851 0.01117362 0.3052333 -0.4879705 -0.8301373 -0.3067231 0.3714776 1.023806 -0.8404959 -0.4012174 -0.3463772 -0.4171198 -0.7703189 -0.5801584 0.6991346 0.5622974 0.03726741 0.2443346 0.2631637 0.5966046 -0.5029027 -0.3091704 0.1155847 0.7084033 -0.2063998 0.01022124 0.2863666 0.09741636 0.9029589 -0.3519415 -1.357985 0.2273333 -0.3795493 0.1607133 -0.4976226 -0.4603709 0.5520432 1.439973 -0.7330874 -0.1695984 0.7705404 -0.3782147 0.01731079 0.04477083 0.191707 -0.1097681 -0.06639308 0.3173172 0.1145005 -0.2130444 -0.632359 -0.04277496 -0.2216859 -0.2089074 0.09995684 0.6295288 0.1994286 0.4691256 0.1748424 -0.05320282 -0.3237632 0.4544649 0.04364854 0.2254564 -0.0536997 -0.5817049 0.3672765 0.1141769 -0.9373382 -0.3538675 0.4514955 -0.5692002 0.7279723 0.7801331 0.2292361 -0.123761 -1.130512 -0.06881822 0.08343326 -0.1916018 0.5359432 -1.570282 0.8942802 0.5074434 0.3243755 -0.2647592 -0.210956 -0.7934352 -0.6933305 -0.3352489 -0.01799552 -0.03501555 -0.6503184 -0.2150431 0.2757973 -0.08897407 -1.154131 -0.3261409 -1.122955 -0.02289907 0.4234667 -0.3486776 -0.1248572 0.3787543 0.1987151 0.550366 0.1197945 -0.005424257 -0.5435005 0.6796451 -0.5433215 -0.644434 0.3501507 0.1913071 0.5442372 0.5511174 0.5378816 -0.5666962 0.4555308 0.351093 0.229605 -0.7169684 0.1696583 0.7643839 -0.1887731 -0.422069 0.2936945 0.2300992 -0.2161641 -0.3700203 0.2944404 -0.5826257 -0.01181526 0.2668615 0.5274577 0.7290167 -0.7112619 0.8462762 0.683252 0.1842908 0.05203399 -0.3452298 0.3247814 -0.2702999 0.4185841 -0.4847067 -0.9568702 -0.02061685 0.4400353 -0.5088823 0.7022808 0.7992404 -0.5384568 -0.3951117 -0.252809 -1.039103 0.257627 0.6290424 -0.4190191 -1.023905 -0.1244658 0.3968927 -0.6240758 0.0859367 0.5457111 0.7265189 0.2993914 0.2110099 0.6301575 0.3240895 -1.039601 -0.6523692 0.5329408 -0.6843579 -0.4725387 -0.3892109 0.1392696 -0.7689775 -0.7503197 0.2025835 -0.580506 0.8500749 -0.8343267 -0.8990663 -0.3730884 0.241099 -0.1707732 0.1538801 -0.7435977 -0.2009671 -0.6383749 -0.8236183 0.08769884 -0.1725652 0.6374978 -0.4337826 0.04396817 0.1381961 -1.039937 -0.981544 -0.5060014 0.2311645 0.7587309 0.9590591 0.7998641 -0.4352971 0.6140355 0.5095949 -0.9024652 -0.1805091 1.147894 0.8798052 -0.213859 -0.4242571 -0.1999191 -0.3568821 0.5929692 -0.8066345 -0.5516005 
  -0.09090392 -0.5142902 -0.9132249 -0.5417267 0.1060604 0.2110617 0.4290757 0.02222393 0.693435 0.05051095 -0.3407498 0.1806352 0.2112788 -0.2305751 0.4806391 -0.4558602 -0.02813552 0.1237477 0.4616223 0.03257404 0.1359275 0.6416467 0.1009738 -0.7121398 -0.4453322 -0.4908969 -0.7355492 -0.9177784 -0.2199019 -0.3389151 0.8110093 -0.1455177 -0.5794974 0.8438415 0.03832881 0.3373196 -0.1564665 0.38988 -0.3685711 0.2317346 -0.1773792 -0.1494744 0.2195694 0.7888804 0.7981182 1.157658 0.2442536 -0.4798056 -0.2253817 0.6175054 -0.1702932 0.6326892 0.6711408 0.9831065 0.6023682 -0.1314334 -0.4513748 0.03432392 -0.4156714 0.04067097 0.1539117 -0.7633424 0.01351244 0.6167033 0.3547204 -0.2814853 -0.7359951 0.6300946 0.3880703 0.06888196 -0.7392219 -0.04631139 0.3324004 0.4254276 -1.322774 0.0945014 1.307896 -0.7885154 0.05790785 0.1837573 -0.192652 -0.445994 -0.1002659 0.3695092 0.4953456 -1.848148 0.1299558 -0.9356732 0.5214711 0.1134022 -0.6397411 0.3835112 0.5154406 -0.9813693 0.4930551 -0.1650897 0.893579 -1.019074 -0.7675183 -0.9862562 0.5249134 0.2315507 -0.5667877 -0.1672009 -0.2846033 0.3148652 0.09979253 -0.3985646 0.7468222 -0.4140132 -0.9517966 0.1860888 -0.4587566 0.3713922 -0.3565322 -0.3883436 -1.230021 0.6399396 0.6087227 0.2933725 0.1597596 0.5969519 -0.2528955 -0.384622 -0.1216964 -0.5540206 0.1646837 1.227566 -0.2774528 0.4773116 0.1575494 -0.1425848 -0.4635902 0.1747595 -0.3669522 -0.2676912 -0.3836698 0.3469903 0.6183554 -0.213034 0.7278606 0.9042553 -0.1999889 1.234425 0.3644132 -1.010493 0.31244 -0.07152105 -0.1528557 -0.724798 0.6343677 0.3728275 0.8123268 -0.1706872 -0.08312645 -0.1080588 0.01559227 0.8596631 -0.389463 -0.2684192 -0.1928878 -0.8179234 0.7453953 -0.7019325 0.3097593 -0.1955325 0.218934 -0.2177898 0.1053156 -0.07809121 0.550348 -0.5363726 -1.011298 0.7839664 -1.176565 -1.075225 -0.8906267 0.1450977 -0.3389788 0.4902222 -0.3001448 0.655859 -1.181483 0.2714536 -0.1121384 -0.267086 0.2667194 -0.451097 -0.5819971 -0.1679783 -0.2499824 1.012488 0.4632328 0.1063945 -0.8713053 0.4470925 -0.4909952 0.3209507 0.02484558 -0.4659523 -0.254041 0.3589033 -0.2324711 0.5665258 -0.04149528 0.5444252 1.098349 -0.5528334 1.258859 -0.4290318 0.3139629 0.2706481 -0.3022716 0.6483949 0.2196836 0.3465038 0.5813909 0.3877127 0.6552518 0.4103407 0.2878912 0.5831045 -0.4440721 -1.836964 0.3751027 -1.1763 0.3517212 0.4079141 0.329188 -0.16567 -0.6502402 0.06449365 -0.3175775 0.01901877 -0.6019115 0.9493595 -0.3537638 -0.4555783 0.3077897 0.5589279 -0.2158491 0.001864274 0.2358473 0.148958 -1.235547 0.4168723 -1.245594 -0.9595459 -0.1762329 0.6926425 0.07453726 -0.5562792 -0.5764199 -0.6549428 -0.2142031 -0.5278317 
  1.081516 0.5287541 -0.06836478 0.8145664 0.2969259 -0.2754212 0.2297014 0.8251162 0.3056329 -0.4123142 0.01886201 -0.09999476 -0.03110021 -1.100561 -0.5417276 0.4045974 -0.1396973 -0.6665815 0.8340828 -0.6061571 -0.9892762 -1.492291 0.2169144 -0.01702796 0.9141296 0.5111099 0.007241641 0.9965134 0.6843882 -0.2916196 -1.017469 1.267778 0.2557604 -0.5345545 -0.05824596 0.01334889 0.2175204 0.1884405 -0.5147133 -0.8988758 0.002786499 0.9874218 0.06377488 -0.3496495 0.6504473 0.2697637 0.09113929 -0.07348864 -0.7775118 0.5418098 1.569781 -1.023097 -0.348693 -0.8117109 -0.3797317 0.1063728 0.6593314 0.00843606 0.4750977 -0.3456846 -0.5551772 -0.5737538 1.247401 0.2560365 -0.4921124 -0.1222845 -0.5106387 0.04921757 -0.8494145 0.0009690164 0.3066476 0.3370399 0.2124924 1.191619 -0.6567295 -1.187862 0.6530619 -0.2525185 0.1231815 -0.1944668 0.47089 1.162779 -0.5433881 -0.5415986 1.164614 -0.5950588 -1.469324 0.175078 -0.3779013 0.555259 -0.8082218 1.303462 -0.2689517 -0.557984 0.428965 0.3084781 -0.1234045 0.1144278 0.00778435 -0.6092119 0.7434363 -0.851579 0.4456928 0.1965069 0.06320151 -0.2292871 -0.4327917 0.6558686 0.347517 0.437387 0.06594571 0.233169 0.5084144 1.15191 0.5986902 -0.3787301 0.4459057 -0.5630801 -0.9614398 0.4938969 0.4152541 -0.3750157 -0.8010015 0.08049032 -0.3787173 -0.03462495 -0.04076809 -0.6965055 -0.5044064 0.1397325 0.448073 -0.4590935 0.05264026 -0.08512368 0.4469566 -0.4241315 -0.29699 0.8753269 0.1628233 0.8037592 0.7628371 -1.500748 -0.7307628 -0.1337994 0.3557325 -0.08834114 0.523932 -0.6272389 0.4335337 0.0120841 -0.1080698 0.1942503 0.4267247 -1.356857 -0.7719634 0.1780853 -0.3321143 -0.1594017 -0.2850287 -0.6197707 -0.6750923 0.2529456 0.8334333 0.1911741 0.006727798 -0.1819769 0.5811981 -0.6046125 -1.389439 0.5429402 1.214533 0.9631671 0.6769793 0.554085 0.3153229 0.2860584 -0.897567 0.1744198 0.1851311 -0.6526998 0.2439135 0.4062679 -0.692718 -0.1522209 0.4011331 0.3491617 -0.2376209 -0.7211859 -0.0512654 -0.4508021 -0.2124755 0.1341305 -0.5229316 -0.5344929 0.5089455 0.6383551 0.4330972 -0.743049 -0.7619193 0.8258684 -0.6668152 -0.4520375 0.6158718 -0.9066475 -0.7822552 0.1737298 0.04398981 -0.08790699 0.2773807 0.5548307 1.088908 -0.1975206 -0.2227758 0.006757939 0.228428 0.9103564 0.6195337 -0.2052964 -0.05473104 -0.04854193 -0.8520528 -0.5450656 -0.4302443 0.7292035 -0.8618747 0.6403179 -0.01782361 -0.2821393 0.4906341 0.3075058 0.6284468 0.4380902 -0.2338446 0.04965307 0.6559032 -0.4625543 -0.5890884 -1.363481 -0.3189997 0.5121195 0.8437824 -0.05468128 1.321489 -0.9468518 0.9912762 -0.7979127 0.2063887 0.6419516 0.1349456 0.6151226 0.1788069 0.3737667 0.381613 1.001654 0.1696268 -0.2745416 
  1.058853 0.06183512 -0.4549027 0.4355086 0.4933239 -0.02794662 -0.1145734 0.09738427 -0.1962899 0.0541699 -0.5255499 -0.1738637 0.3873298 -1.112716 -1.036091 -1.852723 -0.4016994 -1.098012 -0.6182026 0.2037874 0.169337 -1.804327 0.3828273 -0.8694105 -1.08855 0.09635136 -0.3284694 -0.0911741 0.423054 0.08540116 -0.03437186 -0.5138478 -0.6241218 0.09250777 -0.4558094 0.6272712 0.8314219 0.1121187 0.1727056 0.2938654 0.2486698 0.425013 -0.03440472 0.2473834 0.320472 -0.9111581 -0.7145554 0.004131376 0.7562855 1.004273 -0.3026026 0.2175865 0.1466516 -0.63479 0.4523791 -0.1384936 0.138475 0.225157 -0.7878151 0.06938457 0.4086692 0.1348792 0.4338288 -0.6594867 0.5804645 0.7238145 0.09962491 0.2591166 0.7238454 -0.2220514 0.4639387 -0.3390873 0.2638504 -0.07236693 -0.4874915 0.3644722 -0.6434678 0.5837532 0.2848004 0.1891052 0.2725298 0.7690972 0.2384235 0.4922351 -0.1310604 0.02576956 0.3303415 0.07955853 -0.2072518 0.119124 -0.6854118 1.278659 0.3965301 -0.3015474 0.1604982 0.3127475 -0.3310101 -0.4727791 0.3456211 0.4455119 -0.0823345 0.2905036 -0.03390616 -0.3134625 0.6246226 -0.7755746 -0.0418804 1.540535 0.3022743 -0.1589539 -0.3302594 0.5547614 0.9811648 0.5166994 0.4919435 -0.4669303 -0.09166432 -0.2770034 -0.03436198 -0.6995747 0.2049292 0.1489518 0.4790738 0.2511165 -0.4169255 -1.579883 0.2923796 0.5837259 0.2612391 0.03219859 0.7116775 -1.229423 -0.205319 1.19318 -0.1563598 0.190938 -0.01830148 -0.4521216 -0.003209389 -0.5240617 -1.015774 0.8112438 0.4632032 -1.281004 -0.230752 -1.031609 -0.01797906 -0.06620327 -0.6593121 0.7935649 0.2958855 -0.003120465 0.1410808 -0.3858613 0.2341852 0.6107459 -0.5592383 0.2038524 -0.3437075 0.5974177 0.4375158 -0.9929228 0.2137739 -0.04939136 -1.017653 0.2286573 -0.09956679 -0.2695417 -1.194367 -0.2760002 0.5203065 -1.087911 1.235511 0.2719371 -0.8127089 0.3674757 -0.7557411 0.620313 -0.1162157 0.2400375 0.3668763 1.328809 -0.8594295 0.6975675 -0.1917941 -0.01587806 1.031814 0.8073093 0.2554193 0.3242484 0.5877081 0.7275943 -1.098724 0.1653967 0.1868107 0.9802219 -0.3379611 -0.2525165 1.097845 -0.671479 1.209437 0.6714894 -0.1421929 -1.570084 -0.4865423 -1.407059 -0.03980546 1.304001 0.8009334 -0.8179175 -0.3183748 -0.3075671 -0.9619964 -0.7072418 -0.5193853 -0.3869361 -0.06542067 0.3025717 0.2305136 -0.1462954 0.7742341 -0.1341501 0.8191257 -0.2140182 0.3013705 0.4902595 0.6231263 -0.10835 -0.3867768 -0.9064871 -0.1630912 1.089478 1.827318 -0.3121041 0.3149148 0.6932948 0.5653043 0.4203482 -0.1759722 0.632782 0.3449998 -0.7111388 -0.01453403 0.192433 0.3539483 -0.110947 -0.3337668 0.3813193 0.1939858 -0.03428859 -0.1932308 -1.588143 0.002348403 -0.4534623 -0.7824757 -0.683929 
  -0.007529774 0.2893177 0.2279228 1.051457 -0.1322574 -1.000824 -0.5938311 -1.433332 -0.2125588 0.2643158 -0.4273633 -0.2410452 -0.8115565 -0.5113178 0.3201894 -0.4079165 -0.7191217 0.254523 0.214078 0.08749266 -0.346357 -1.579072 0.1224135 -1.315574 0.8387704 -2.209362 -0.3073014 0.4149664 0.8606732 -0.124844 0.4684599 0.4035406 -0.5431006 -1.226806 -0.4041651 -0.2231956 0.06331307 -0.4688345 -0.3159529 -0.8089709 0.1349281 -0.4061915 0.1457456 -0.628364 1.189752 -0.3535001 0.4760514 0.1237414 -0.3251599 1.308775 -0.003491949 -0.06985249 0.6500204 0.1520526 -0.0998804 1.534827 0.8957233 1.732359 1.22176 -0.7470288 0.7787027 0.5476595 -1.081475 -0.1249359 1.021849 -0.1617024 0.3358465 1.389664 0.5067074 0.8378074 1.268288 0.4185047 0.9009241 -0.2834175 0.01578959 -0.5850409 -0.0005845462 0.007961852 1.299674 -0.4537816 -0.1645557 0.02042645 1.066581 -0.2767835 -0.3855428 0.671266 -0.9503967 0.5023769 -0.2398366 -1.879989 -0.2705279 -0.09949825 -0.6546808 -0.781317 1.47684 -1.275209 0.3384205 -0.1232554 -1.184192 -0.6703076 -1.266681 1.18223 -0.03674852 -0.4193301 0.2497762 -0.7343015 -0.3297561 0.2054535 0.5289292 0.9252366 -0.459163 0.2967886 -0.1202153 0.05623255 0.3258543 0.4062399 -1.357984 -0.4475451 0.2921758 -0.4390672 -0.6384087 0.01689783 0.09990212 -0.1229009 0.6733852 -0.216792 -0.3334363 0.4240659 0.08359168 1.340818 -0.2708378 0.2006738 1.412522 -1.128151 -1.697782 0.5107585 0.1478219 -0.4420864 -0.1016208 0.07080816 0.5060582 0.2632436 -0.6012117 -0.2045854 0.2497723 -0.1521084 0.09225919 -0.2735837 -0.9666229 -0.2350618 -0.04635166 0.4517404 -0.4861944 0.2022302 -0.09281579 0.8880066 -0.401841 -2.895924 0.3251654 0.5009812 0.8917972 -0.6429237 -0.1508203 0.1509017 0.1920597 -0.2560956 0.111382 -0.2807828 -1.1902 0.657304 -0.394951 0.5275703 -0.2201946 -0.7362241 -0.1193022 0.2734697 -0.002321917 0.1925046 0.09478436 -0.08903769 -0.6577362 0.4807201 0.1101285 -0.4679428 0.1923743 1.478564 -0.4012445 0.2179817 -0.3658696 0.04008292 -0.09716392 0.3616498 -0.14366 -1.386834 0.8258027 0.1460603 -0.07175384 0.09452469 0.314135 -0.5040193 0.8886355 -0.1981816 -0.2659879 0.2903659 0.4200832 0.3620424 0.4059872 -0.4165126 0.1803924 -0.1395176 0.06699792 -0.01028748 -0.2701376 0.4442527 1.135822 0.1780744 0.6711439 -0.8637667 -0.2433518 0.3861046 -0.7557012 0.06571373 0.8493103 -0.2755984 -0.9145015 0.2852117 -0.4168255 -1.04071 0.05739922 0.2604054 -0.4872446 -0.6875997 -0.6865395 -0.2643225 -0.2054371 0.8095757 0.01901763 -0.2572577 0.7361206 -0.2195784 0.3370402 -0.2089253 -1.107904 0.7223948 -0.09944523 0.7858312 0.4381194 -0.09008156 0.3829506 1.409618 -0.1244096 -0.7474576 0.7169645 -0.4607247 0.0420319 -0.8770191 
  0.3311866 0.06084181 -0.3245036 1.345026 0.02326713 0.2947747 -0.2087716 -0.5799863 0.02479997 -0.4319516 0.5705381 -0.5057858 -0.3002088 0.3268675 0.1939374 0.02317599 -0.1746855 0.02724507 -0.8610108 -0.9603532 0.09938295 0.07693963 0.6547226 0.1724797 -0.7432992 -0.0266754 -0.3129243 -0.2489422 -0.5323668 0.1706045 0.05783668 -0.327001 0.8068593 0.5683237 0.6785622 0.440864 -0.6708121 0.1019227 -0.9331304 0.1355036 -0.1945217 -0.05762903 0.4127097 0.4251729 1.013015 -0.223186 0.05512973 0.1478998 -0.9704891 -1.187026 0.2975564 1.632874 0.1956084 0.08531515 -0.4428813 -0.3924849 -0.07549796 0.3693123 -0.2976836 -0.9840944 0.3053343 0.1797271 0.8513342 0.009711991 -1.315518 -0.6442745 -0.4026851 0.155137 -0.1944502 -0.4524769 0.3899059 -0.9617218 -0.6157166 -0.4086837 0.6995375 0.008854985 -0.4614146 0.7274588 -0.374825 0.1102795 0.5585853 0.03954375 0.09755728 0.7531781 -0.3091248 -0.3462248 -0.7079449 0.9484382 -0.4410201 0.1830629 0.1128466 0.1980907 0.3797683 -1.18485 0.2356247 -0.6914358 0.1854942 -0.6731986 -0.01417131 0.5996202 0.59252 0.2197308 0.7371452 0.3265707 0.02082109 -0.2687055 -0.4877074 0.1578813 0.761116 1.062982 0.5735021 0.4315201 -0.290283 0.2790692 0.07830046 -0.5936746 -0.1931635 0.06667535 0.2614631 0.5204197 1.180266 -0.05994885 0.2502239 -0.05589587 0.2900553 0.1757904 0.7324978 0.8324372 0.08477309 -0.3144384 -0.07713248 0.8906637 -0.2326882 0.0914747 -0.1880896 -0.07639935 0.4498341 -0.4016636 -0.109615 0.1271694 0.03775595 -0.4807796 0.4859667 -0.2616641 0.2929119 -0.01447744 -0.4846191 -0.570342 -0.1134861 0.8625025 0.628054 -1.064316 0.7782374 0.3328516 -1.023003 -0.3029421 -0.9750956 -0.8798412 0.04639702 1.076102 0.2852609 -0.4638155 -0.9449902 -0.350338 0.2573011 -0.9974114 -0.6026624 0.3112993 -0.545348 -0.3874938 0.3539158 -0.6645259 -0.2442768 0.1604343 -0.4092155 0.4304192 0.5712569 0.2182507 -0.09278735 -4.684981 0.4881771 0.01803943 -0.1882614 0.1174419 -0.1895039 -0.7976763 0.1313983 -0.346707 -0.4938155 -0.782854 -1.093813 0.0530034 -0.1017423 0.9639703 -0.6980348 -0.5252939 -1.756514 -0.605332 -0.5162966 -0.08968993 -0.2644976 0.2894022 -0.2362562 -0.7636805 -0.231451 0.7746522 0.4036781 -0.9597031 0.1417346 -0.4850259 -0.5556568 0.2503068 0.5956368 0.8481303 -1.22356 0.3982659 0.6533887 -0.1748282 -0.06197795 0.6035769 -0.1471513 -0.3998636 -0.5739922 -0.1895159 0.03827037 0.02618127 0.7143667 -0.02846156 -1.168242 -0.1718305 0.7312343 -0.7069061 0.02989793 -0.0430019 -0.2103568 0.5643731 0.2433274 0.3037624 1.21997 0.1276391 -0.574427 0.1414884 0.4611734 0.8654294 -0.675148 -0.3294666 0.5581657 0.3369265 0.7436903 0.8287542 -1.388775 -0.4952945 0.580123 0.4578868 -0.30856 0.04760035 
  0.1004478 -0.2681781 -0.4386739 0.09792942 0.2744133 0.1909839 -0.08536162 -0.4297554 0.4460482 -0.2895945 -0.2558345 -0.4961102 -0.03997073 0.2784189 0.2327676 1.266288 0.04403003 0.7276649 -0.07072916 0.8541002 -0.1045427 1.323014 -0.5787252 -1.061146 -0.806497 -0.4933471 -0.1914076 -0.9312847 0.9684716 -0.0942578 0.1964466 0.2564253 0.2690651 0.6375424 -0.8809304 0.320335 -1.815263 -0.7578113 -0.2335597 0.1396776 0.02514821 0.3906125 0.8903864 0.7748647 0.5697324 -0.1350077 0.3777251 0.2904273 0.4282335 0.3620112 0.162643 0.6867018 0.6627209 0.6846513 -0.312526 0.1401882 -0.03887941 -0.3202527 -0.3263499 -1.054809 1.140635 -0.2682329 -0.001514503 0.5221192 0.6610151 0.2931341 -0.1155715 0.2371485 -0.4745434 0.5378071 -0.7656205 -0.2645178 -0.5124857 -0.07590561 0.5699614 0.1548206 1.108508 -0.06235508 0.3520282 0.1995322 0.4730971 -0.01760692 0.6838142 0.2135041 0.9520707 -0.2759035 -0.04086291 -0.2309636 0.1037512 -0.7519622 -0.2919582 -0.7534432 0.2387652 0.7622858 -0.1922216 0.5218672 0.2422959 0.01283475 -1.157948 1.008897 -0.8979018 -0.4229576 -0.5127445 -0.9713652 0.1322615 -1.014282 -0.02027607 0.1008666 0.8916802 -0.003585879 -0.007226934 0.7560719 0.1678546 -0.1856401 -0.03540542 -0.748548 -0.3574836 -0.3342784 0.2574061 0.06757045 -0.2294939 -0.5915745 -0.01170266 0.1669346 -0.6462629 0.1836841 0.4816685 0.3544693 -0.04595575 -0.2308802 0.02306069 -0.05479326 -0.6481001 -0.49758 -0.1122478 -0.03856632 -0.1611141 -0.0684646 0.3680822 1.149656 0.3783222 0.4459598 0.5960541 0.2325628 0.302384 -0.0698323 -0.03464932 0.5174021 -0.1302982 0.5144786 0.1240273 0.1843821 0.1011793 0.1439133 -1.15799 -1.311209 -0.7051604 -1.329458 -0.2674859 -0.317487 -0.6481178 -0.7646181 -0.4867314 0.4034392 -0.4496417 0.04699537 -1.168906 0.3214144 0.08798359 -0.5192457 0.1109557 -0.04669354 0.4488969 0.687981 -0.1430509 0.1449311 0.2736508 -0.1675944 -0.4462816 0.1419981 -0.09818784 -0.9875653 -0.5928611 0.1461699 -0.6669605 -0.006670722 0.2761502 -0.1981811 -0.1009848 -0.02031553 0.2297101 -0.3834179 0.3089747 -0.1150059 -0.5764092 1.265269 0.2239159 0.07605776 -0.6045297 0.08902842 0.335127 0.1637281 0.363262 0.9350917 0.02791342 0.6374724 0.02819301 0.3035241 0.1155138 0.1608641 0.3226054 0.2284022 -0.6078833 -0.2326475 -0.5246022 -0.5463297 -0.632286 0.3940156 0.1563047 0.5909935 0.4266486 -0.6129261 -0.1185397 -1.45525 0.7788563 0.1249949 0.03729348 0.7858699 0.1577622 -0.6139951 -0.5807269 -0.2064075 -1.074279 -0.1858765 0.5737803 0.7012527 0.3201293 0.7245264 0.2237192 0.4747473 -0.2956819 0.09495328 0.2435065 1.373455 -0.01838542 0.6999604 0.1775667 -0.3640411 -0.7646874 0.1006779 -0.2086198 -0.7466243 0.2848636 -0.8003644 -0.1037362 -0.520215 
  0.2144144 0.4907951 -0.7352233 0.5245441 0.1436065 0.1190099 -1.21727 -0.6618516 -0.9487054 -1.661188 0.5854279 -0.813598 -0.4851483 -0.02927693 -0.1756943 0.4254141 0.6041458 0.6540837 0.2348675 -0.1433499 -0.3003266 -1.399231 -0.5789729 0.3438938 0.5346311 -0.6699026 -0.2776687 0.0666258 -0.4996574 -0.05673418 0.8527187 0.5789402 -0.4293844 0.7000285 -0.08782601 0.7741553 0.4114132 0.06067614 1.812202 0.03073121 0.2244769 -0.209704 0.8451454 -0.1637098 0.1911043 0.4542771 0.7239997 0.1231947 0.002323029 -0.3859238 -4.143184 -0.150058 0.1509968 -0.09753595 0.5508557 1.261738 0.1046463 0.3703009 0.09053344 0.469255 -0.2464985 0.6811903 -0.7590565 0.7730185 0.04227907 -0.2198714 0.2773969 0.05661802 0.04813205 0.09014565 -1.412849 0.445622 -0.7264329 -0.02538068 -0.6190916 -0.2311377 -1.753521 0.4366146 0.6489247 0.1373513 -0.4470629 0.3618517 -0.1545475 0.2026106 0.4554841 0.3702172 -1.550678 -0.09019567 0.6655587 1.459395 -0.7083566 -0.7672449 0.3133229 0.5375885 0.09180994 -0.5197729 0.1388899 -0.2144641 0.5286065 -0.4667667 -0.1182044 0.1601237 1.322829 1.083007 0.2812678 -0.3867854 0.5877054 -0.5268535 0.8015859 0.2169597 -0.1067725 -1.112548 0.1726242 0.04463893 0.5736249 0.06267132 -0.08055065 -0.4840598 0.7795582 -0.4542467 -1.37004 0.4178598 0.0241852 0.8501635 0.8447196 0.9656222 0.5880588 1.510563 0.6461868 0.06032929 -0.6883745 -0.9642807 -0.09693094 -0.1298158 -0.1630668 0.9118666 -1.597082 -0.4753784 -0.7269326 0.3135449 -0.7171427 0.1189312 -0.0578006 0.7168043 0.5377539 -0.04030427 0.6043712 -0.5434858 -0.5066912 -1.049855 -0.8701702 0.5256108 -0.8674663 0.375204 -0.586836 -0.2259318 -0.3904528 0.5569918 -1.454233 0.9400428 0.1708036 -0.6625903 -0.3680542 -0.5648659 -0.4105656 0.008315891 0.32459 0.2259975 -0.2916217 1.926134 -0.0715635 0.09910078 -0.2089832 -0.2311623 0.5040238 -0.3992327 0.671018 -0.4578421 -0.2058707 0.05123494 -0.1267397 0.1007083 -0.6320186 -0.1594521 0.39845 0.3575245 0.9964579 0.1780483 0.5049912 0.1259937 -0.3374968 0.9631518 0.1363766 -1.037441 -0.03211334 -0.3181552 -1.033301 0.3117258 0.3352446 0.1180376 0.6414173 0.09247305 0.4000845 -0.2868412 -0.2809519 -0.5690401 0.2774037 0.001066274 -0.8630424 0.5064607 0.1457258 -0.3087288 0.2310917 0.2672915 -0.8187111 -0.6694174 -0.5012777 -0.2015502 -0.235363 -0.6897144 0.7304587 0.02227523 0.2620064 -0.9793331 1.389816 0.6177899 0.5148398 -0.3413972 0.1376491 0.5028237 0.3473161 -0.5377184 0.4325825 0.9537578 0.5021027 0.925415 -0.002797483 0.4173412 -0.8332845 -0.1344762 0.8051168 -0.3819734 -0.07129944 -0.02046467 0.09343242 0.3169622 0.006163366 0.2966679 -0.3024396 -0.6519265 -0.7722024 -0.3632974 -0.7437441 0.5437601 0.8601965 -0.837739 
  1.387143 0.7651064 -0.7280988 -0.7190835 -0.06800642 0.7408527 -0.2227256 0.7940787 0.3056726 0.4438568 0.8990763 0.08105785 -0.09472319 0.2767938 0.5478927 0.6649498 -1.138669 0.8504307 0.156492 -0.2968177 0.3795471 -0.2334232 0.4512249 0.9228719 0.4615283 -0.006182274 -0.1967255 0.509854 0.7350453 0.2652265 0.3805926 0.4631816 0.9726666 -0.1473049 0.5568357 0.2334819 -0.8030205 -0.01739504 -0.398421 0.7588946 -0.1894978 0.01161982 1.146281 -0.1862777 0.06132067 -0.9416043 -0.2555792 -1.194598 0.4573407 0.4767707 -0.05325335 0.2581846 -0.9878587 -0.09824627 -0.06261668 -0.2841418 -0.003910631 -0.4382778 0.2113502 -0.5182314 0.4479306 -0.1762069 0.1948102 0.01934257 0.1118045 0.6462179 0.7139284 0.2244209 1.213756 -0.9717315 -0.1982111 0.6130772 -0.8019495 1.295254 -0.525131 -0.4768552 -0.1624419 0.08932324 0.1318059 -0.5298288 -0.7482095 -0.4538556 -0.1414389 -0.171324 0.02998165 -1.146309 0.8734488 -0.827483 -0.2290164 0.4909558 -0.3301725 -0.7657954 -0.3393193 0.08653427 -0.1326013 0.1196695 -0.3854483 -0.2662054 0.3480166 0.1638159 -0.04492422 0.879098 0.2104641 -0.3448096 -0.4775031 -1.684939 -0.5750728 0.8309438 0.05460929 0.370838 -0.4424387 -0.6763745 0.7517559 0.3848585 -0.1347577 -0.1142813 -0.4658439 0.6346455 -0.3745705 0.4896983 0.03221867 0.4930215 0.09780234 -0.3398739 0.7274523 -0.08818778 -1.361045 -0.2645946 0.4789599 0.1616662 -0.7211965 -0.7596948 0.7756981 0.4295459 0.2266466 -2.293866 0.2884433 0.3839706 1.919901 -0.5573393 -1.058937 -0.4320249 -0.08369191 0.5872623 0.3841972 -2.27666 -0.3369592 -0.2092769 0.4611053 0.7132767 0.3557346 0.6565542 -0.07599455 0.5358133 0.7902101 -0.1053183 -0.1576331 -1.011014 0.5613578 0.196761 -0.2492638 0.5712225 0.5486376 0.7019149 -0.5854408 0.4050972 0.3785793 0.1133237 0.4523565 -0.3227256 -2.825623 1.372918 1.090844 -0.1065717 0.03782076 0.04979126 1.541955 0.7062401 -0.1408506 0.1806048 -0.1085267 -0.1067491 -0.1749412 -0.434738 -0.8854826 0.2415542 -0.5006934 -0.8379945 -0.005195832 0.09239729 -1.01995 -0.4044334 -1.372826 0.1184157 -0.09164646 0.6911017 1.048177 -0.2029631 -0.1263847 0.06094345 -0.5654868 0.3389119 0.7669533 -0.8649421 -0.2191085 0.4308604 0.02501359 0.08770082 -1.158169 0.2560971 -0.03056984 -0.4974949 -0.1423879 -0.5204304 -0.4379315 0.3036386 0.2027409 0.422459 -0.4149384 0.1160208 -0.2297322 0.6577263 0.942776 -0.2085613 -0.4205838 0.1846336 -1.260015 -0.2623007 -0.9658671 -0.2978441 -0.4010145 -0.2378905 -0.02946399 -0.7713382 -0.72755 1.201926 0.4379593 0.03267991 -1.415245 -0.3365668 0.2420882 -0.8253197 -0.2878119 -0.02747123 0.4310877 -0.1748687 0.09088753 1.241672 0.4286195 -1.196423 -0.7534517 -0.4966685 1.209935 -0.9147928 -0.2846103 -0.07316115 
  -0.3094819 0.2942224 -0.6133938 -0.5640273 -0.5653349 0.305684 -0.4805881 0.02902127 -0.8211288 -0.4802656 -0.2039303 -0.1334658 -0.1693519 -0.3666517 0.1025071 -0.5193966 0.7711407 -0.1625442 -0.7812034 0.2794488 0.6911079 0.2780491 -0.9867561 -0.1438757 0.3996893 0.0628979 -0.4506829 0.4825612 0.8348237 -0.3824984 0.4727668 0.4781911 0.1641435 -0.01267642 0.08435949 0.04171729 -0.9236209 -0.2247528 -0.5222802 -0.0495108 1.134026 -0.05166946 0.1499588 1.263367 -0.752436 -0.2082359 0.2417641 -0.2308194 -0.6446766 0.2545601 -0.7373517 0.6130474 -0.1100543 0.2523471 0.5306807 0.2191029 0.8221097 0.5260271 -0.5176845 -0.5963123 0.2238594 0.1391611 0.2582072 -0.6167101 -0.5976727 -0.6411489 -0.376346 0.1115671 1.000715 0.4183607 0.3399345 -0.4645478 0.2285679 -0.4325909 -0.079268 -0.8222722 0.03941864 -0.8191779 0.3700165 0.6358252 -0.3266296 0.2360103 0.06851712 -0.09377413 -0.2359587 -0.1099047 0.0138516 0.2005383 -0.1817769 0.001015241 0.3094182 0.4284603 0.4755483 0.1579947 -0.02662058 -0.3916295 0.5272548 -0.6945733 -0.2179035 0.3397285 -0.01845277 0.03903541 -0.4639731 0.1771015 -0.7351092 -0.5220619 0.8600425 -0.3373196 0.4560359 -0.8082193 -0.1960867 -0.04207874 -0.4611467 -0.3734588 -0.4501385 -0.1873252 0.1444806 0.3595189 -0.2696464 -0.1813194 0.02765159 -0.1013838 -0.2270159 -0.4457258 0.1132487 -0.07391004 0.1197822 -0.4688839 -0.00350391 -0.1022232 -0.0589461 0.4857561 0.3879975 -0.576242 -0.6411154 -1.187707 0.04799611 0.1495005 -0.1182525 -0.8243724 0.2410067 0.5768784 0.6267233 -0.08154588 -0.04342165 0.08492702 0.1124875 0.5269201 0.02919195 -0.2518497 0.8681616 0.1014584 -0.3581461 -0.940438 0.4666229 0.06884293 -1.256707 0.2555285 -0.5318407 0.5738304 0.3272272 -0.4032743 0.5025529 -0.2608584 -0.2651837 0.2349822 -0.1582322 0.0311201 -0.05424693 0.2046396 -0.02732203 0.2950338 0.6668556 -0.3069767 -0.03493788 0.08101035 -0.01773973 0.690577 0.2124462 0.4524186 -0.6407554 0.9325005 0.1023658 0.3212799 -1.544211 0.6779467 0.6135699 0.03303505 -0.3830001 1.182976 -0.09563129 0.3901845 -0.3574947 -0.03360055 -0.2687505 0.4144934 -0.332361 0.1518203 -0.5885416 -0.1763166 0.5159705 0.4401393 0.521852 0.6389199 -0.8967883 0.3939204 0.3494273 0.0001024228 -0.7882532 -0.4013489 0.2378341 -0.4188454 -1.089851 -0.9483517 -0.2711431 -0.3949629 -0.04822708 0.651282 -0.01165251 -0.8631357 0.3166965 0.5780137 0.3720594 -0.08399371 0.3708284 -0.4084301 0.5537306 -0.2291892 0.09910077 0.03475812 0.745124 1.154128 0.3017835 -0.6496548 -0.2733802 -0.3383465 -0.4803609 -0.5956361 -0.2507363 0.05768377 -0.4750375 -0.001202237 0.04876204 0.4952285 -0.5599384 0.4389245 -0.5923567 0.2123411 -0.687856 -0.2483125 -0.07811269 -0.0775983 0.09627263 -0.3184075 -0.1613657 -0.4740538 
  0.4738036 -0.4643945 -0.6320598 0.3958584 -0.2510645 -0.815037 0.2394378 0.6693045 0.2465703 -0.2590986 0.2363014 0.05806991 -0.006691682 -0.2025639 0.3356982 -0.06615195 -0.241711 -0.384841 0.3841594 -0.2457433 0.3489599 0.2679078 -1.346608 -1.032315 0.5547098 0.04729399 -0.8206552 -0.2906572 -0.03370398 -0.4250051 0.3662944 0.03585176 0.9764085 -0.3932398 0.13434 0.6348706 -0.2483259 -0.3926686 -0.3820168 -0.146035 -0.2152189 0.07143191 0.09878463 0.3691224 -0.3765945 0.5095509 -0.1601793 0.4058153 0.5868055 0.5768389 0.3664952 0.004822904 0.6905341 -0.01403111 -0.6050243 -0.1966728 -0.2716249 0.2500295 -0.5255816 -0.8377064 0.6106073 0.0257684 -0.1486252 0.7928133 -1.40469 0.06079948 -0.7107642 0.07405505 0.1635834 -0.5473043 -0.05501146 0.2079036 -0.6003982 -0.07326184 -0.2980333 -0.458405 -0.08420406 -0.06095097 -0.6914128 -0.001077221 1.045272 0.4904295 0.4459209 -0.1415533 0.2114763 -0.7536449 -0.8010948 0.2522646 -0.1715942 0.1097915 0.1685466 -0.1665662 0.1424427 0.1596608 -0.7613801 -0.07225684 -0.3731474 -0.2628945 -0.1446358 -1.040246 -1.003542 -0.09557008 -0.01362601 0.1206216 0.1482789 -0.4101233 -0.6657238 0.5294275 0.6512893 -0.1957157 0.3109418 0.2160351 0.450245 -0.3646742 0.1918823 -0.5786749 -0.4898053 0.572512 0.2185117 -0.03896806 0.1034463 -0.4528651 -0.2102626 0.04571174 -0.6086361 -0.4749141 0.2923648 -1.342326 -0.6599244 0.1387088 -0.8626474 -0.2767164 -0.6970288 0.4332926 0.3388163 0.1155153 0.1911529 -0.1626947 0.749549 0.5560483 -0.5106243 -0.1054739 -0.603399 -0.02269651 0.3215069 -0.05889914 -0.3971542 -0.4449955 0.6562168 -0.1522442 0.3052679 -0.2000848 0.1155639 -0.1299441 0.2930153 0.2243907 -0.1477237 -0.3175949 -0.3375023 -0.8137195 -0.3151698 0.4307052 -0.3436344 -0.254587 -0.3660491 -0.0120922 0.7334676 0.7691161 -0.05938812 0.1637824 0.2208743 0.4724303 0.9647214 0.2972609 -0.5624588 0.1461043 0.02833633 0.2542697 0.3250202 -0.2733934 -0.2885825 0.4530167 -0.1802887 -0.06682047 -0.3307426 -0.5368244 -0.3425304 -0.2419313 0.04608528 0.6687614 -0.4563983 -0.002918178 -0.5978742 0.7225432 0.2705198 1.121095 -0.8255262 -0.1029109 -1.831703 -0.8718715 0.4983625 -0.3953489 0.7214774 -0.4365563 0.2181985 1.524238 0.5961233 -0.824656 -0.781359 -0.2225695 -0.3940088 1.050704 0.4310094 -1.033408 0.9674958 0.2606202 -0.3243077 0.4487403 0.2297257 0.1691578 0.8307539 -0.08008217 0.005885795 -1.964157 0.9615501 -0.9378952 0.2313167 0.04193703 0.8934401 0.03784177 -0.4869621 0.3112569 0.3745656 -0.02036646 0.3430064 -0.2706844 -0.4887377 -1.935022 0.136602 1.092833 -0.9642522 0.08413404 0.7278094 0.8250796 -1.519006 0.1513045 -0.4933706 0.4824942 -0.1832064 -0.2311843 -1.033311 -0.3339362 -0.572179 -0.2279708 -0.0395181 -0.1191652 
  1.042131 1.314731 -1.399922 0.4790572 0.1839807 -0.5140163 0.09617986 0.6458334 -0.01450497 -0.03794897 0.9943164 0.8184763 0.7255334 1.169854 0.5380247 0.254907 0.1125858 0.2311668 0.4145633 0.4816405 0.08310175 -0.4285356 -0.5433317 0.4418307 0.4967172 0.3233793 -0.5083634 -0.1992715 0.3757067 0.2309957 -0.6292675 0.1635078 -0.2580409 -0.7975448 -1.235018 0.7688703 -0.02910457 -0.3145921 0.4219491 -0.2493225 0.1902668 0.4333154 0.1911465 1.169168 -0.9462582 -0.2577042 -0.3709678 0.8145627 0.9536426 0.5660601 -0.1699632 0.8946301 -1.568359 -0.1273361 -0.2718021 1.090373 0.7215583 0.367038 -0.2516789 0.08769705 0.6867381 -1.025637 0.7431834 -0.3113766 -0.9267296 -0.229969 -0.204038 1.26617 -0.2052789 -0.7250285 -2.12483 -0.4149509 0.04700336 -0.3523602 -0.6376984 0.2652089 0.5461476 -0.9195968 -0.2145896 0.01438911 1.050327 0.468511 1.020807 1.018679 -0.3260567 -0.7036757 -1.405781 0.0564193 -0.4255135 0.4396686 0.02623348 -1.207965 -0.5509995 -0.3790487 -0.4743439 0.4192352 0.2647094 0.1199332 -0.2545362 0.04783342 -0.5031133 -1.179853 1.103632 -0.4813592 0.6410807 -0.6417038 -0.3250955 -1.183348 0.6530939 0.712404 -0.3868465 0.07095829 0.3042974 0.07783966 0.9085705 -0.2513267 0.633099 0.5451732 -0.4756162 0.7981445 0.4246073 -0.2796747 0.195835 -0.8518438 0.1319112 -1.354225 -0.3985574 -0.17632 0.08420935 -1.059538 -0.02611526 -0.2462309 0.3151506 -0.1792359 -0.3664423 0.3604777 -0.286503 0.3465196 1.313878 0.7073311 0.1427265 1.532342 -0.6616504 0.7445391 0.03206113 -0.1261981 -0.5091533 0.4466052 0.3914655 -0.8663961 -0.7595759 0.2932355 0.4912371 -0.554732 0.9494008 0.3340323 0.3641336 -0.7058578 0.6927279 -0.343352 0.136833 0.04535246 -0.6135256 0.340523 -0.6660106 -1.49176 -0.6287152 -0.09808081 -0.6258363 -0.2972874 0.900059 0.3246574 0.2081076 -0.8020991 -0.5197489 0.4714425 -1.349658 -0.8183922 0.5240143 0.7699965 0.6743764 -0.379011 -0.3191416 -0.1131469 0.4419811 -0.6026222 1.305774 -0.06121199 -0.2906282 -0.2490299 -0.1849799 0.8579326 -0.2093455 0.3832642 0.231447 1.161773 0.8022888 -0.5295471 -0.8585327 -0.2388254 0.01657768 -0.5148262 -0.6063467 0.8594022 0.3009305 0.2885949 -0.5389655 0.402584 0.8549147 0.3931397 1.109726 -0.3263417 0.02506492 0.8402629 0.4755271 -0.1663754 -0.5223075 -0.1539218 -0.281635 -0.1705026 -0.5822889 -0.008981429 -0.6907285 -0.6699634 1.209741 0.0007287655 0.6791908 -0.3805144 0.1373039 0.2802002 -0.7852345 0.6834346 0.3576127 -0.1912816 0.8410745 -1.024663 0.8702691 0.443784 -0.7488679 1.15411 0.4846708 0.779931 0.6101739 -0.476185 0.399675 -0.5861685 -0.6605228 0.2627451 0.1122773 0.01671614 -0.7505017 0.1274883 -1.235018 -0.6101591 -1.331401 1.032411 
  -0.337132 0.7784885 0.2646302 -0.6143127 -0.260953 0.281639 0.2194401 0.04338263 0.2945814 -0.1002959 0.1245311 -0.8426582 0.4993249 -0.7787656 0.3292139 -0.6222416 0.1939415 -0.698701 0.6673795 -0.7306392 0.3299266 0.4849272 0.01483032 -0.5539526 0.1168449 -0.03164956 -0.8443208 0.05285119 -0.3583376 -0.2091419 0.05830429 0.7683551 0.3317988 0.07533506 0.5583336 -0.6649695 -0.09812991 0.3423372 0.3316977 -0.05177748 -0.2954743 0.02609402 0.1075828 0.6263823 1.033391 0.5328469 0.3907311 -1.324141 -0.1741688 -0.6643091 -0.0464935 -0.1719429 0.07305993 -0.7255259 1.021268 0.3036401 0.4647475 -0.1145723 0.4514817 0.445054 -0.7382237 0.04857219 0.2016515 0.4909323 -0.2007876 0.1580601 0.8088889 -0.4168257 0.8655763 0.5770844 0.3695293 0.1588571 0.2398383 0.1563459 0.4760689 -0.4142759 0.1680808 0.9818752 -0.4218523 0.3101505 0.0113463 0.08369306 -0.04116571 0.7371573 -0.7389718 -1.063534 -0.1165753 -0.02873568 0.701524 0.4668583 0.164061 0.6128495 -0.5458246 0.652596 -0.2872977 -0.6317452 -0.7669423 0.09141304 -0.1804725 -0.9130564 -0.1375187 -0.05228847 -0.3589274 -0.2242044 -0.1605245 -0.2243471 0.4043603 0.3458105 1.217598 -1.057435 0.237551 -0.1555305 0.1595442 0.3128279 0.5387016 0.6537743 -0.008802489 1.105305 -0.4259068 -0.2372137 0.1469378 -0.4096698 -1.151312 0.2759794 -0.2836529 -0.285556 0.1259681 0.6355487 -0.6553173 -0.519249 -0.05379742 0.1126696 -0.02592321 0.3690215 0.4303472 -0.5283281 0.3281381 -0.2237187 -0.007519655 -0.1876151 -0.3441625 0.4464881 0.06604612 -0.09494963 0.685669 -0.4064382 -0.1810987 -0.4152483 0.122845 -0.1613743 0.5806646 0.2169478 0.4506262 -0.2805601 -0.8319043 0.2986542 -0.203365 0.400265 -0.8230918 0.6272487 0.5332791 -0.3846973 0.7395995 -0.8414223 0.7424285 0.5543245 0.09248979 0.7694004 0.6132301 -0.5294712 -0.1909154 0.1500234 0.04086768 -0.43516 0.3176533 0.2276886 -0.3142496 0.0484102 0.5677977 -0.6100167 -1.421649 0.1355685 -0.1653722 -0.4400419 -0.05006517 0.3986794 -1.458251 0.7431786 -0.3807949 -0.4235783 0.3442568 0.1135978 -0.4416403 0.9823957 0.1036757 0.25682 -0.7358893 -0.6428894 -0.08482588 -0.6109857 0.6074442 0.2027112 0.5054998 0.9343404 -0.9414146 1.063328 -0.666329 0.1225284 0.04535598 0.05534828 -0.77872 -1.334395 -0.01561596 -0.2210412 -0.2691681 0.02075165 -0.2411422 -0.4970132 0.01404973 0.6071761 0.4424248 0.07565578 0.3401369 -0.5078593 -0.07969292 0.3296103 0.7031041 -0.5539304 0.2216578 0.4809017 0.8772475 0.1322143 0.07060988 0.6117834 -0.4648318 -0.2228955 -1.048275 0.1429838 -0.2413927 0.2549338 0.3759842 -0.09027693 -0.1132945 -0.3859731 0.3053469 0.07277223 0.457997 0.1308215 0.7493875 -0.800192 -0.05417604 0.3785463 1.144413 -0.525543 0.1157369 0.1954225 
  -0.06053643 0.3107021 -0.1821267 -0.1809856 0.1913922 0.3946851 0.1950188 0.5995083 -0.3491041 1.101366 0.527661 -0.624415 -0.93723 -0.6441925 0.826358 0.4304487 -0.3198412 -0.2447368 -0.1430162 -0.5339049 0.05226231 -0.8430676 -0.5929078 0.2612072 0.1202585 -3.121242 -0.7148606 0.2840743 -0.07625195 -0.2363445 -0.2999823 0.3948406 0.5128697 0.2406508 -0.05236842 -0.722149 0.09573572 -0.4611951 0.2314155 0.705148 0.09685515 -0.3537012 -0.29842 -0.5821503 -0.1777807 -0.2978705 0.7792597 0.2814887 0.09580796 0.3794972 -0.04272894 0.160053 -0.3718983 -0.2713502 -0.2177879 -0.09114529 -0.9092825 0.1151358 0.002653188 -0.4596688 0.6277649 0.4316206 1.260936 0.3746612 -0.127084 -1.122425 -0.6199469 -1.174501 0.5876349 0.4577397 0.574847 0.7382605 -1.075225 -0.7109628 0.5222859 -0.2917738 0.2488165 0.08141179 0.3890408 0.4812953 0.366004 1.591237 -0.4467097 -0.3375663 -0.9316661 -0.02982125 0.1174366 -0.1566912 -1.193907 -0.5006898 0.3667178 0.617732 0.1410345 -0.06424295 0.827482 -0.2971631 0.7065609 -0.5502858 0.1478706 0.1521668 -0.08987462 0.2584998 0.2521316 -0.4069406 -0.01066682 0.1096486 0.03483868 0.5727645 -0.6266389 -0.4642866 0.2557913 -0.7063852 -0.02513865 -0.7179688 -0.3959086 0.02351559 -0.3029361 0.3704676 0.709439 -0.1585965 -0.6406006 0.2088795 -0.2599767 -0.1582323 0.8056269 0.1209772 -1.570053 0.328599 0.5946239 -0.2493277 0.5716116 -0.06426817 0.1126157 -0.101022 -0.726347 -0.6681293 0.2938443 0.5270146 0.2982306 0.004963978 -0.3003759 -0.2220214 -0.0225498 -0.03286216 0.3411742 -0.1840371 0.7680412 0.278069 0.5902925 0.6422332 -0.1482109 0.4588216 1.200458 0.4384947 -0.2677777 -0.7316875 0.1400237 -0.3396064 0.210025 -1.63262 -0.08347071 0.3653896 -0.007544858 0.7273102 0.2277362 -0.3791473 0.005835663 0.1287701 -0.1536306 0.3086682 -0.3822256 0.4329969 0.2107244 0.3039657 -0.1145294 -0.37038 0.7766414 0.2083824 -0.6638023 0.02040757 0.02608003 -0.7112859 -0.2278196 0.7893476 -0.1027581 -1.755137 -0.2180705 -0.2579206 0.2251604 -0.5748531 -0.2592892 -0.1455817 0.3757054 -0.1955122 -0.3168219 0.4275468 -0.1806985 -0.1652058 -0.1295358 -0.03701758 -0.8474111 -0.100271 0.08625769 0.01329572 1.03151 -0.1004 -0.9408938 -0.1140643 -1.395561 0.5237591 0.03294714 -0.2617966 0.4977394 -0.4830658 0.6996974 0.6532078 0.06828536 -0.4986296 0.2761201 -0.09259315 -1.251192 -0.1360077 -0.019539 -1.310224 -0.6675013 0.4577102 0.2477317 0.2558665 0.632704 -0.2821591 -0.5141086 -0.02426871 0.1462556 0.2801743 0.2451098 -0.07086637 0.1878651 0.4609784 0.5118254 0.4013896 -0.111524 0.1786222 0.04241937 -0.254444 -0.2340192 0.5405458 -2.465291 1.323094 0.05732816 0.2197033 -0.4082713 -0.7824808 -0.2822639 0.8424532 -0.5425354 0.6724123 
  1.041718 0.08761481 -0.4090442 0.5123288 0.2556967 0.1130739 0.08036324 -0.2277646 -1.37158 0.2932211 -0.7050893 -0.3296332 -0.287614 0.7797236 0.1141617 1.106243 -0.5269258 0.07154576 -0.8346761 0.1306239 0.507532 -0.3744546 0.2054446 -0.3323782 0.2689815 -1.017864 0.332154 0.2213468 -0.05345215 0.9706413 0.1912608 -1.104094 0.6431001 -0.5609701 0.7820535 0.8130659 -0.45396 -0.2872613 -0.1249226 0.05565873 0.6834329 0.472443 0.6627069 0.8458138 0.2193775 -0.9708005 1.059603 -0.7882327 -0.1985803 0.1993001 -0.1855063 1.071156 0.8254666 -0.3682963 -0.6616586 -1.044826 -0.059119 0.1704537 0.8521383 0.3594383 -0.4965512 -0.003448311 0.3244888 -0.1559467 -0.3561461 -1.846712 0.7456452 0.5530066 0.8423052 0.04013988 0.975027 -0.4249702 -0.5149702 0.05625519 0.6529785 -0.4157587 -0.6972675 0.3163632 0.1664089 -0.09369922 -0.2671653 1.105734 -0.5875196 -0.6517079 -0.1058911 -0.06438918 0.1621329 0.4775512 -0.1306239 -0.4629706 1.508148 -2.120399 0.1815472 -0.8946667 0.2444543 -0.8707323 -0.3577652 -0.1504238 0.5990419 0.09539745 -0.8206233 0.5505385 0.3939615 0.3144608 -0.4429689 0.6135711 0.8066201 -0.1265801 0.9783234 -0.1367238 0.3398075 0.1213488 0.9589463 0.9408838 0.2062051 0.5502344 0.5035521 0.1809014 -0.3626156 -0.5552084 0.9287896 0.5266557 0.5660161 -0.08881156 0.6067504 -0.2247457 0.6686524 0.4660037 0.06511378 -0.08649635 -0.1361517 -0.5175096 -0.1214741 1.20236 0.6579905 0.465327 1.192149 0.7359071 -1.423835 -0.5522984 -0.7261245 -0.5139388 0.6194899 -0.2053268 -0.6524218 0.1255361 0.03614118 -1.006427 0.5537504 -0.1405652 -1.274329 -0.7343946 0.2371773 0.5545333 0.2526108 0.7548195 -0.03511884 0.7073042 -0.2911297 -0.2690218 0.5376225 -0.2383204 0.8339128 -0.1387585 0.6558278 -0.6859999 -0.2402113 -0.2629705 -0.4593841 -0.370374 -0.06786653 -0.7783716 1.031178 0.06231133 0.1389995 -0.4774599 0.5454894 2.116056 0.5836052 -0.1166226 -0.4771897 -0.07349426 -0.05693165 0.4780337 0.08274207 0.6052435 -0.1878716 -0.5903704 -0.3230824 -0.3730884 -0.6764423 0.4586403 -0.8763833 -0.8878081 -0.05368854 -0.3500952 0.4800744 -0.4489205 0.2223925 0.3491183 -0.22212 -0.8592627 0.3955588 -0.7380277 0.1406005 -0.7004542 0.2980187 -0.09024609 -0.07676286 -0.08101884 0.1991951 0.4004014 0.6003081 -0.3193217 -0.04304942 -0.3243177 0.173369 0.3094036 -0.02724985 -1.485754 -0.2226097 -0.2588859 -0.4458357 0.1355399 0.2957208 -0.3723313 -1.153901 0.3564073 -1.47657 0.2428224 -0.6572201 0.1258491 0.7467787 -0.01081108 -0.3410418 -0.579267 -0.1461734 0.248355 0.2410235 0.6629907 -0.4868733 0.06236982 0.1942554 0.3366436 -0.1430442 0.3645634 0.3962701 -0.04766523 -0.005068612 0.8225424 -0.9595826 0.2152389 -0.5525462 0.4577721 0.3703635 0.3742056 
  -1.315822 -0.3003571 0.3808311 0.3580956 0.3503775 -0.5439363 1.625659 0.2959577 0.6247317 1.145821 -0.1075641 0.5058842 -0.889671 0.3003808 -0.4903917 0.8664832 0.04203033 -0.7345072 0.7479859 -0.08626415 0.3926901 -0.3103174 -0.7516702 1.27898 0.1300823 0.3793919 -0.09330858 -0.2241088 0.4738383 1.216316 -0.9784371 -0.9412719 -0.007246095 0.5038141 0.8410193 -1.845281 0.2941851 -0.2261953 -0.1507013 0.3757667 0.65834 -0.9179694 -1.332178 0.6253294 1.115727 -0.05431626 0.1425118 -0.02726488 -0.07927451 0.9798333 0.2279742 0.622275 -0.1524395 -0.7491063 -0.1619094 -1.05127 0.4457288 -0.3932278 0.6947954 0.3882462 -0.3506549 0.1112194 -0.5901019 0.2709024 -0.9880912 0.4292157 0.3173542 -1.002125 0.6900273 0.2186773 -1.084025 0.06822975 -0.897935 -0.03919085 0.5998432 -0.4157006 -0.1025101 0.4168642 -0.6411107 -0.2688033 -0.198032 -0.2601086 -1.130441 -0.1643056 -0.8202118 0.1073058 0.9121519 -0.5031987 0.1398437 -1.538597 0.3813763 0.5143577 0.8980302 -0.3834142 -0.7664318 0.004549184 -0.3403173 0.06989264 0.4151584 0.8754297 1.072008 -0.5187993 -1.204771 0.1167614 0.8173299 0.7149261 0.07495669 -0.09154361 -1.099929 -0.2398011 0.4295338 -0.3499748 0.5429125 -0.02227347 0.6968244 -0.5545129 0.6088966 0.7197582 0.2404506 -1.586202 -0.2502552 -0.2997963 -1.114677 -1.186805 -0.03430812 -0.02926491 0.2009 -0.2426033 -0.6274029 -0.6217687 0.2898534 0.1409833 -0.5193514 0.7529367 0.9276503 -0.03931607 0.3292071 0.1612294 -0.04461602 0.8126194 1.649058 -0.3340819 -0.4135158 0.5023041 -0.02294378 0.07765855 -0.2958151 -0.5121551 0.6552271 -0.02988782 -0.3252144 0.2697825 0.2175894 0.005790376 -0.4907488 0.6490958 0.5283899 0.2800791 0.6879658 0.2757571 0.2600677 0.003232912 0.3755872 -0.2379996 0.1138783 -0.4135533 -0.03887042 0.2794833 -0.3223862 0.07658303 -0.4433883 0.521447 0.07641086 0.9560121 -0.1383466 0.3589308 0.1815391 0.274122 0.06989837 0.346234 0.1811822 -0.1649406 -0.6148715 0.3509382 0.2122215 -1.300712 -0.3385348 -0.4278651 0.6161406 -0.1401397 0.380367 -1.260129 -0.2372871 0.653128 -0.08258251 0.2861672 0.03684205 -0.1789655 0.5013182 0.1347022 -0.4245402 0.4648759 0.2051674 0.65252 -0.159481 0.4212019 -1.123274 -0.3411379 0.3859053 0.3956884 -1.082792 -0.284292 0.8980042 -0.7091722 -0.1183007 -1.347744 -0.006221256 -1.187585 0.5238161 0.4006581 -0.2972881 -0.4200316 0.07061605 -0.4443575 0.09722 -0.1753632 0.62256 0.1610132 -0.9668112 -0.387367 -0.1864864 0.08328219 0.4295391 -0.2613964 1.224356 0.01769995 -1.285267 -0.2778359 -0.1227823 -0.6677754 1.02107 0.1451949 0.4359618 -0.2687953 -0.05059202 0.31737 -0.9035455 0.4647466 0.2719128 0.001724799 0.1706754 -1.138509 0.5968449 1.643125 0.09511007 0.7099322 
  0.09428274 0.3928309 0.7021122 0.4862066 0.05350751 -0.7555491 0.6765819 -0.4937365 0.2059937 0.3661614 0.04900081 -0.212765 -0.02774977 0.5841784 0.7420846 0.3963256 1.053886 -0.4396217 0.03436315 0.132982 -0.2664048 -1.194407 -0.118408 -0.532351 0.7593777 0.2533531 1.140526 0.6450933 -0.2187437 -0.6240591 -0.2609914 0.08418094 -0.05371792 1.132451 0.2324524 0.03013919 -0.1114665 0.4132966 0.316491 -1.093841 0.4688741 0.4320237 0.02196413 0.1543133 0.7112147 0.5706541 -0.157839 -0.01763857 -0.04322533 -0.002092897 -0.6246901 0.2955534 -0.07439727 0.07687808 0.02627032 -0.5154974 0.1829045 -0.1962239 -0.02726791 0.1358617 0.1805612 0.01521524 0.003896995 0.4655807 -0.5663614 0.09289106 -0.250648 0.8623024 -0.09017631 -0.1098325 -0.1907077 1.140207 0.08596963 -0.3942363 0.6537143 -0.6034328 0.4082187 -0.01957369 0.0150844 0.2427515 -0.4528309 1.173369 -0.0196761 -0.3284386 0.4019783 1.029141 0.504424 0.05268005 0.59833 -0.265122 -1.359503 -0.09670162 -1.058342 -0.8722165 -0.8942947 0.5307156 -0.4713745 -0.1866259 0.47019 -0.6967313 -0.5353494 -0.7231421 -0.3112282 0.61481 -0.2340593 0.3249263 -0.6718302 -0.02826759 0.3589454 -0.07697189 -0.645438 0.3885316 0.2862089 0.2062648 0.5497518 0.9237888 0.3292868 0.07132789 -0.7444813 0.2246988 0.5860602 0.1150502 0.29579 0.3846192 0.2696002 -0.4276445 0.6487585 -0.8731757 0.2884792 0.2357057 -0.2960854 -0.09010632 0.2148025 -0.6555844 0.2873047 -0.6089927 0.2793387 -0.4812072 -0.2325372 0.4042587 0.5444597 -0.2288875 0.4967068 -0.2136326 -0.4979184 -0.1997527 0.4042087 0.2437574 -0.02359751 0.1005187 -0.2897886 -0.253224 0.7138684 0.5164065 -0.9756592 0.7073773 1.122902 -0.09658099 -1.376458 0.3201986 0.1206099 -1.162474 0.8119855 0.3374193 0.007138774 0.3609613 0.1373828 0.6998841 0.2091563 0.09052342 0.4267422 1.039115 -0.2548366 -0.973384 -0.2498303 -0.1316097 -0.0461362 0.433021 0.3691889 0.06252874 0.9128538 0.2739985 -0.1521056 -0.9530779 -0.8723369 1.020842 -0.6143948 0.01496939 -0.1243854 0.01190002 0.1137424 -0.3534369 -0.2223543 -0.7685385 1.091195 0.6037295 -0.453315 0.489988 -0.6092745 -0.06231727 -0.04574374 -0.5882869 -0.6434776 -0.7908883 -0.3673623 0.7248238 0.03815445 -0.3294827 0.7905796 -0.0942707 -0.6994115 -0.5815915 0.09909843 -1.021422 -1.152049 -0.03872631 0.3263333 -0.33351 -0.2565235 -0.5906169 -0.8470018 -1.178106 -0.7542368 0.02203868 -0.07247467 0.02401477 -0.535493 0.1898712 -1.469321 0.208795 0.0199783 -0.2432311 0.2603742 -0.8571286 0.4278061 0.566649 -0.02804273 0.6832145 -0.04765986 -0.2351121 0.1574497 0.06073989 1.517563 0.6725503 0.2003346 -0.3074103 -0.3543084 1.138818 -0.7370356 0.8565475 0.1647688 -0.1909181 -0.0134858 0.9891761 0.6415657 -0.1051211 
  -0.2753215 -0.2995301 0.472286 -0.2185128 0.1466245 -0.3267626 -0.06903631 -0.7109074 -0.1230823 0.05833272 0.1939906 -0.6983598 0.6245694 -0.006419182 0.2330571 0.4836902 0.3958237 -0.5049746 0.008509685 -0.2624947 0.1389402 -0.332897 0.4029679 -0.215319 0.4036399 -0.06516918 -0.357298 0.4517439 0.715465 -0.04697034 0.6018031 0.8810183 0.07415466 -0.17857 0.7620987 0.04242912 0.05634288 -0.5840705 0.9492539 -0.1218993 -0.9210458 -0.1900902 0.3031278 -1.379354 0.2316895 0.399513 0.4690817 -1.152673 0.6927215 0.1496497 -0.4943238 0.4130118 0.2383399 0.2733258 -1.879372 -0.3632587 -1.32605 -0.3032902 -0.6523787 0.09970362 0.05059565 -0.04108279 0.5297985 0.4708296 0.07219236 -0.1333186 -0.1240223 1.045049 -0.342242 0.4714154 0.2140113 0.6729553 0.5260427 0.1614328 0.9464296 0.9784455 0.1320397 1.11118 0.2599681 0.5585635 -0.5667136 -0.5360339 -0.2138001 -0.3454347 -0.0268037 0.4144778 0.3987038 0.0965695 -0.08698723 -1.875098 0.3631919 0.0543441 -0.604835 0.4504631 -0.2198765 0.3452949 -1.602017 -0.2000376 1.013315 0.3690967 0.1519112 -0.4346721 0.05262738 0.3117685 0.8741401 0.139555 -0.2491811 0.3183921 -0.07344728 -1.349019 -0.5773652 -0.7370093 -0.3144191 -0.3174365 -0.3318488 0.5040938 0.5645592 0.4685924 0.8573896 0.02345345 0.0502851 0.3406734 0.4174536 -1.194623 -0.5064729 -1.860132 0.1845037 0.5579517 0.02350129 0.4911687 -1.346379 0.8209289 0.964424 0.1641723 1.017112 0.6560517 -0.6018967 -1.088457 -1.027223 0.3274191 -0.3659964 -0.008658943 0.5199836 0.7724838 -0.3597088 0.6578617 -0.04369124 -1.558669 0.3580408 -0.6701318 -0.8357455 0.3034456 0.6859366 -0.1318358 1.363055 -1.222351 0.01585952 0.07161137 -0.7027004 -0.006045186 -0.03318698 -0.116596 -0.02229611 0.3650116 0.5254108 0.4226763 -1.317812 -0.567296 -0.5902194 0.1686393 0.4139493 -1.033715 -0.04853459 0.4307981 0.2837356 0.7005618 1.14561 0.01408108 -0.528354 -0.8068338 1.38333 -0.5284019 0.5341164 -0.1733783 0.07923049 -0.02467039 -1.483877 1.063366 -0.3270063 1.072519 0.09097515 0.04333656 -0.3369686 0.5508255 -0.9981213 0.8514176 0.6030558 -0.04438356 -0.05669974 0.5194497 0.215377 0.008081161 -0.7371721 -0.1235011 -0.3491777 0.08327755 0.04868299 -0.2582831 0.2244038 0.5657423 -0.5107193 0.0009178444 -0.1126533 0.8518556 0.4298241 -0.5317776 -0.5766124 -0.009250691 -0.7991555 -0.3828723 0.3288085 -0.6729869 0.4757692 0.08395157 0.4596154 0.5355284 0.1410034 0.1821999 -0.9067985 0.332336 -0.05486223 0.6496717 0.5504124 -0.3354997 0.4864229 0.8160731 -0.1658172 0.0955662 0.3244515 -0.1618491 0.188061 0.2062591 -0.145503 0.4886675 0.1785615 -0.502483 0.4578602 0.8673649 0.1915187 -0.3963736 -0.7937947 -1.070098 -0.08958097 0.1954369 -0.45224 0.09133316 
  0.2506835 -0.09308776 0.3268279 -0.3667018 0.1173838 0.4317143 -1.781331 0.2249446 1.399567 0.5641407 0.1138584 -0.7894718 -0.1412962 0.8802019 -0.7186829 -0.06194506 -0.1938694 0.2264493 -1.615215 -0.1113172 -1.003177 1.056169 -0.4397828 0.3081516 -0.107878 0.5415854 -0.04504477 -0.7234861 0.8520802 -0.4035548 0.8667063 -0.5288472 1.408291 -0.2336413 -1.082018 0.7280248 0.7872334 -1.057006 -0.3559241 -0.3887454 -0.5593528 0.7900715 0.8936157 -0.6760162 -0.1928462 -0.6716318 0.2944708 -0.1208333 0.04152897 -0.1397422 0.4288433 1.726324 1.323471 0.5254975 -0.694339 -0.532904 -1.305468 0.3998238 1.091025 -0.8465016 0.1136777 0.1279007 -0.226602 -0.4096732 -0.1526806 0.3605432 -0.3289984 0.8777177 -0.6214694 0.2085682 -1.125304 -0.8605832 -0.272406 0.6150125 0.07103451 0.1557367 0.1624485 -0.4652597 0.2357373 -0.7910224 0.7481427 0.5197741 0.3214934 0.627032 -0.09394722 0.2806649 -1.845566 -0.2215755 -0.2371771 -0.995464 -0.6674903 -1.624335 0.03316617 1.933862 0.6173252 0.2248866 -0.03573741 -0.04569268 -0.7930908 0.920607 0.04339213 -0.3670697 -0.3845441 -0.1579921 0.9494464 -0.03897975 -0.5725726 0.6498702 1.48239 0.3194664 0.3710529 0.162925 0.7368324 -0.058848 -1.240329 0.1598684 -0.2567998 -1.171125 -0.2084246 0.6774818 -0.0991654 -0.584757 -0.1756986 -0.4944169 1.394802 1.041122 0.3689985 -1.036119 -0.3545301 0.8807796 0.2985876 -0.1528711 -1.160226 -0.168142 -0.1592844 -0.1924559 0.196408 -0.1401045 1.162513 -0.5069594 -0.9048198 0.5663366 0.2889382 -0.3642315 -0.3623629 0.5842093 0.31043 0.85656 0.6106513 -0.24454 0.1447395 -0.6715465 -0.326392 -0.3329587 0.5537256 -1.498573 0.9479904 -1.04869 0.3445032 0.571451 -0.02557752 -0.1264504 -0.4067999 -0.1284512 -0.6478122 -1.057849 -1.304464 -1.09051 -0.591642 0.8681973 0.4035867 -0.3312439 0.02540299 0.04715209 -0.5249534 0.6495036 -0.1258312 -0.1922208 -0.1664129 0.8385341 -0.04188637 1.115314 -0.08056924 1.03992 0.3325061 -0.8598671 -1.119226 -1.361615 0.7229594 -0.7758482 -0.8694054 0.2255229 -0.05562994 0.09786242 -1.358505 -0.75581 0.2371069 -0.143628 -1.330448 0.6727211 0.9977682 0.5858315 0.3858553 -0.8853177 -0.6913582 -1.254945 -1.458729 -0.9433128 0.7692626 0.005320529 -0.522498 -1.691921 -0.269711 -0.07256385 0.7205616 0.2008267 -0.06987856 -0.3512734 -2.203073 0.02395472 -0.7471057 -0.1768147 -0.02676937 -0.2217592 -0.06237981 0.2777995 -0.5134348 0.3110285 0.3261817 0.443675 -0.4319198 -0.7193701 0.1557996 -0.1205893 0.6491519 -0.1089386 -0.04753685 0.3188661 -0.1874134 -0.3436441 0.7733678 0.5494193 -0.6763933 0.01919302 0.5003732 1.263826 -0.6452897 -0.8958757 -0.4146199 -0.2957226 -1.390031 -0.06638158 0.04302869 -0.9098692 0.5944534 1.262822 
  0.1949251 0.5803791 -0.5000337 0.4357249 0.7234514 0.3422819 0.4868766 -0.3972966 0.3814225 0.4286309 0.5339957 -0.2506213 0.7268028 0.3597084 -0.3041926 0.2092165 1.081756 -0.6540486 -0.3957359 -0.6256555 -0.661403 0.2255973 -0.09764283 0.1432704 0.4410903 -0.6549185 0.1261418 -0.2095895 -0.3291396 0.5934026 -0.5580199 -0.4428999 -0.4868468 -1.779899 0.5526114 -0.3708028 0.3576673 -1.330086 1.357105 0.1627561 0.3564288 -0.1988692 1.462832 0.4236711 0.9550835 -0.02343928 -1.396892 0.4529469 0.6853042 -0.722338 0.3602586 0.1183634 -1.61555 -0.6943867 -0.214014 -1.05382 0.1737245 0.1414391 -0.8973231 -0.2722017 0.1995779 0.1543569 0.6112074 -0.3882095 0.213933 -0.2186432 0.3212014 0.6035287 0.03688623 0.6515213 0.2541282 0.1758332 -0.1772991 0.2743998 -0.2925625 0.4980205 -0.325315 -1.437442 0.4131673 -1.539817 0.5191817 0.3937439 -0.2056926 0.05326006 -0.4926771 0.5485303 0.1594181 0.8723485 -0.1746011 -0.1437769 -0.1997829 -0.1911177 0.1167343 0.9926928 -1.375896 0.08364112 -0.04765839 -0.1869794 -0.5515803 -0.1140528 -0.3976119 0.5561786 0.6952322 -0.6339289 0.120199 -0.3426698 -0.7483724 -0.3982312 -0.09766553 -0.4274051 -0.8171547 -0.4881403 -0.4213491 0.002928267 -0.1975928 0.08565436 -0.05505609 -0.7792079 0.2570237 0.4386083 -0.1241258 -0.277847 0.3211429 0.5324223 -0.04769079 -0.1095356 0.2399681 0.04877843 -2.227097 0.9899336 0.6731269 -0.1881174 -0.7558657 -1.152011 0.2674268 -0.1466762 0.07029323 -0.3484383 0.05711877 -1.348072 0.6457145 -0.4295751 0.5854512 -0.3812153 1.021625 1.748003 -0.1828644 0.2780727 -0.3778537 0.6377392 -0.474442 -0.04896489 -0.4242228 0.1859187 0.4706359 -0.4941501 0.1299287 -1.037126 0.119449 0.1287591 -1.082757 1.17905 0.9597762 0.6926372 1.605213 -0.01079263 0.4274959 -0.2930556 -0.6681467 1.342984 0.5034977 1.002625 0.08146986 0.2513451 0.4464132 0.8449012 0.9028268 0.6333982 0.1351661 0.1059896 0.2883721 0.2805194 0.4307259 -1.178431 -0.2867127 0.6175388 -0.07086026 0.02500377 0.3827364 0.1561905 -1.232218 0.7285556 0.5416408 -0.0725851 -0.7013065 -0.6548626 0.5326747 -0.7623438 -0.215957 -0.5302327 0.2257392 0.1173716 -0.1119398 1.175576 0.04482769 0.5835698 -0.1041812 -1.167193 -0.8673685 -0.04173115 -0.4878088 -0.2073938 -0.3532131 -0.4321 -0.1617619 0.3684198 -0.5705571 -0.4422282 -0.1328154 -0.5369532 0.5067635 -0.4783875 -0.3642794 -0.1392123 0.04735498 -1.038178 0.03863468 0.3478025 -0.4101055 0.8397365 -0.1288184 -0.335493 -0.3510553 -0.3499247 0.1549079 -0.4279541 -0.4773842 1.372767 -0.9655138 0.05976477 -0.3374301 -0.3241359 -0.4315734 -0.06361077 0.8186609 0.9081708 -0.1046724 1.252253 -0.02523434 0.7313073 0.04035668 0.2830109 -1.358331 -0.1474811 1.817822 -0.1119801 
  -0.2768098 -0.2711577 -0.0548368 -0.708649 0.2128567 -0.5667918 0.3791088 0.1211505 0.2697848 0.6668804 -0.03008026 0.3795302 -0.4993376 0.1634539 -0.8104 0.6946265 0.130684 -0.6755858 0.2277578 -1.076187 -0.4263227 0.2702799 0.4616697 0.01438695 0.2745165 -0.2851668 -0.293418 0.247696 0.04374541 0.1461349 -0.1760184 -0.4640772 -0.2952413 0.1324666 0.7189923 -0.7067774 -0.3422864 0.1378306 -0.3730983 0.07233725 -0.0399705 -0.3364503 -0.4008616 0.03003445 0.05007016 0.1307639 0.004171453 0.01679076 -0.1532126 -0.6367897 -0.4107127 0.2270579 -0.3973444 -1.200398 -0.3058237 0.157357 0.6062928 -0.1247744 -0.5726871 -0.0461068 -0.2337539 -0.4644539 0.2298747 -0.1751954 -0.1688382 -0.3214259 0.1801098 -0.2331274 0.3158221 -0.04797944 -0.5777479 -0.1576837 0.2696469 -0.7810777 -0.02545379 0.6382449 0.1615686 0.4974597 -0.08550707 -0.5043536 -0.3253106 -0.9453098 -0.8138725 -0.3855531 -0.2443124 -0.3924896 0.5373894 -0.55778 0.612819 0.03810788 0.1798776 0.9986103 0.2708799 -0.5962769 -0.01888739 0.09467245 0.1217322 0.2103409 -0.8719112 0.10606 0.02158457 -0.3013781 -0.644968 0.1309552 -0.03185524 0.6661055 -0.4596184 -1.331412 0.1538607 -0.4115387 0.000815123 -0.2449304 -0.6503562 -0.8169796 0.8906788 -0.187197 0.5294313 0.3193504 0.2554511 0.196976 -0.7610032 0.120587 0.8545871 0.468082 -0.2153078 -0.213707 0.07852942 0.6079671 0.4455942 0.4243299 0.3262677 0.1750234 0.3510846 -0.06131325 -0.02146064 -0.2259916 -0.1975561 -0.005528067 0.1905582 -0.1248674 -0.04979499 0.7435354 -0.4588127 -0.391054 -0.2069517 0.2977406 -0.3373737 0.5522491 -0.9121742 -0.1414536 -0.6524274 0.3213682 0.1132495 -0.7759508 0.2116258 0.399727 0.03627433 0.4265981 0.5814562 0.8697252 0.724564 -0.8485039 0.3549745 -0.06184702 0.2628555 0.1930641 0.3703849 -0.3974011 -0.9380156 0.2349789 -0.4738761 0.03259935 -0.3996418 -0.09443474 -0.1560829 0.00882497 0.289089 0.3674266 0.6061446 -0.02778901 0.2069005 0.3992859 -0.05514865 -0.7845063 1.050822 0.2873934 0.1664864 0.1149081 0.04879513 -0.1008231 -0.03880681 0.5242724 0.1438375 -0.5831357 0.2767337 -1.286624 0.168626 -0.05709922 1.431933 -0.04763286 -0.3631039 0.4111875 -0.9622681 0.3136632 -0.1594815 -0.569433 -0.1725024 -0.4805942 0.8768851 -0.2274261 -0.3309315 -0.07965463 0.7469698 0.0156065 0.01653825 -1.078322 0.4228039 0.3561034 -0.4483962 -0.4163867 -0.4484709 0.8434138 0.0337028 0.3402421 -0.2331137 -0.8716072 0.6567107 -0.5584573 -0.6244567 -0.6516895 0.6652024 0.1663793 0.8228207 0.4234843 -0.4279766 -0.4807588 0.4656878 0.03674939 0.5709524 -0.7082749 0.3988331 -0.1237044 -0.6980512 -0.03887165 0.1084652 0.3454463 0.4111573 -1.216716 0.6578167 0.00928839 -0.1610631 -0.09164777 0.5640121 -0.118353 0.4566027 0.1502287 
  0.03445926 0.7402011 -0.2887449 -0.06565689 0.2862709 -1.468904 -0.3671005 -0.6087851 1.561938 0.154214 0.4747329 0.4846484 0.8443663 -0.3284679 0.5451294 -0.1844848 0.2363674 0.2823784 1.009068 -0.5936072 -0.7025013 0.2417809 0.2617702 0.4155138 0.6066662 1.071517 0.6352426 -0.4210144 -0.2481359 0.5349059 0.4107656 -0.01053509 -0.1964634 -0.1472056 -0.007510171 -0.07869045 0.2509681 -0.4011345 -0.7350305 0.2840116 -0.6149996 0.3978671 0.2532046 0.4694428 -0.3752911 -0.4143103 0.2202126 -0.3586378 -0.9448958 0.3584376 -0.05698792 -0.728126 -0.3647491 -0.08399351 -0.1652505 -0.7019719 -0.04952729 1.18467 -0.8314308 0.680041 -0.7234617 -0.4511803 0.6057427 -0.03790503 -0.9883407 -0.4035862 -0.3574546 -0.1937903 -0.29634 -0.1474053 -0.2001557 0.5049714 -0.228895 -0.07417689 -0.9752389 0.09339297 0.8405914 0.3539389 -0.05370273 -0.2527417 0.1089575 -0.02105333 -0.2795141 -0.2881527 -0.004488015 -0.7258039 -2.412823 1.298517 -0.3725796 0.5490428 -0.8400552 -0.0116581 -1.400002 -0.2491188 -0.2046506 0.7704092 0.4016972 0.4309037 -0.2479532 -1.112333 0.7771002 0.09314287 0.3084642 0.5163779 0.2877691 0.004891602 -0.2557367 0.1320603 0.775929 -0.02350118 -0.3172187 -0.6224254 -0.4044611 -0.6379378 -0.3078702 1.427728 0.08804405 0.1480417 -0.7263778 0.4909007 0.6907499 0.1506455 -0.3319314 0.210685 0.05080856 -0.127587 -0.4037756 -0.1595767 -0.02528255 0.2793781 0.4470086 1.09 0.004001118 -0.03914682 0.08669989 -0.3918426 0.2966258 -0.215907 0.3752379 -0.07702809 0.4522115 -0.752848 -1.173142 -0.2185831 -0.2440149 -0.0185368 -0.4315799 0.0557371 -0.6292685 0.1979814 -0.3474247 0.3851528 -0.08322753 -0.1537513 -0.3192187 0.1585418 -0.3486135 -0.2473251 -0.1734407 0.3708139 0.3089529 0.7107281 0.6085334 0.3141595 -0.4251755 0.3965349 -0.6486986 0.1155428 -0.02690445 -0.4924376 0.169896 -0.1065035 0.9185368 -0.4493302 0.6058617 -0.3858425 0.3632112 -0.2648452 1.733567 -0.8907831 -0.2097824 0.2675168 1.037705 0.3018046 -0.1457389 0.0084258 -0.2416337 -1.056204 -0.3864938 -0.6069756 0.5156665 -0.3674332 0.9020456 0.3091394 0.01805877 0.08170454 -0.2689626 -0.8262102 0.6256014 -0.07205234 0.4916525 -0.07132805 -0.443502 -0.7474555 -0.2739916 0.3714802 -0.05856335 0.06630044 0.08772948 -0.2473655 0.2052972 -0.659108 -0.05082568 0.4658264 -1.607444 0.4027403 0.2382482 0.273087 -0.2225432 0.2949946 -0.7662523 0.01399909 -0.5700091 0.9537299 -0.34115 0.8479926 -0.5037514 -0.5349797 0.07698725 -0.5450533 0.4913407 0.336576 -0.3215333 -0.09638073 -0.08325317 -0.2618375 -0.4989111 -0.1119084 0.2359513 -1.222255 -0.1132638 -0.07326446 0.3643124 -0.4429755 0.03049318 -0.8190315 0.3480972 0.5389214 0.1728838 0.2994108 -0.2354387 0.5664544 0.8389412 0.156824 0.4471011 0.1343188 
  1.180371 0.2741663 0.7233322 1.596617 -0.571378 0.2059328 -0.4495347 0.6354675 -0.908083 0.1480067 1.106129 -0.2073778 -1.139935 -1.169759 -0.1315175 0.8129977 -0.1830251 -0.07906493 -0.9317321 -0.1085042 -0.4854373 -0.7088451 -0.1625625 0.2130104 -0.2679452 0.1106385 -0.9197573 1.21312 0.1648972 -0.2968281 0.5061192 -0.1069488 0.03345771 0.219231 -1.026668 -0.1061803 0.4147245 -0.930804 -0.406808 0.8044936 -0.6653111 0.9204509 -0.08357542 0.4403169 0.5413871 0.4008263 0.1605819 -0.8742223 0.08874085 -2.425392 0.2778254 0.1000771 -1.270111 -0.2171599 0.1307747 -0.2968947 -0.5495296 1.200329 0.0301042 -0.1471783 -0.5267978 0.7680505 0.3959401 -0.07357483 -1.279934 -0.7252856 0.04941323 -0.4948726 -0.2431013 0.3340396 0.8920842 -1.463003 -0.2623656 -0.5152739 0.5661983 -0.1514874 -1.250311 0.7726896 -0.64367 -0.1609096 0.4871392 -0.5481538 -0.1174678 0.1679525 -0.1887137 0.3271259 0.9030656 0.7433271 0.04841508 -0.4516191 -0.0920592 0.2239115 0.991793 -0.6737528 -0.4352822 -0.03997913 0.02461971 0.2501901 0.2032076 0.1321239 -0.3119399 0.5245297 -0.5946845 -0.3933555 0.3731954 0.02332656 1.410104 0.2911091 -0.6002228 -0.532891 -0.1822009 0.4166126 -0.7927624 0.9899628 -0.4750774 0.05552219 -0.5103762 0.1821881 -0.4876219 -1.333946 0.2515034 -0.3030507 0.5261739 0.309155 0.3242206 0.1171238 -0.1520051 -0.08348715 -0.1073143 -0.5471606 0.6738571 -0.09373797 -0.7111698 0.5682192 1.140176 -1.171225 -0.04366197 -0.6371765 -0.8284805 -1.405622 0.05389258 0.8954989 0.01664922 0.1103711 0.2944609 0.2240059 0.1585589 -0.716907 -0.003893506 0.5597431 -0.3994834 0.03680111 -0.10565 -0.8165354 -1.179854 -0.101108 -1.67284 -0.4486724 0.08603972 0.4569324 -0.4678178 -0.1672682 -0.5964934 -0.42594 -0.1324562 -0.02185515 0.1167841 0.3193094 -1.525835 1.056416 -1.24654 0.3153399 0.4425119 0.1281481 1.139725 0.009529606 0.1332507 0.108516 -0.05217992 -0.336747 0.7416558 -0.01325562 0.209619 0.267332 -0.3479017 -0.2904717 0.6147712 0.288162 0.5408967 0.6714314 0.652041 -0.04008284 0.2612751 -0.3746081 0.003587386 0.5000446 -0.659872 0.3210322 -0.5095826 -0.1431497 0.1111668 0.483592 0.5385147 0.2280522 -0.4163489 -0.3403521 0.06838097 0.2547646 0.184212 2.214808 -0.6336858 0.4304153 0.9898088 -0.7060735 0.6416536 -0.4048137 0.890651 -0.2836643 0.1949866 -0.3622869 -0.1183021 0.2716879 -0.1072166 0.18637 -0.4390077 -0.4833197 -0.6264753 0.0364918 0.04994514 -0.2102583 -0.03241884 0.4073914 -0.4146186 -0.268285 1.122857 0.8234594 1.149396 -0.8607137 0.7430361 -0.8816443 0.5052933 0.03558304 -0.3446351 -0.1996447 0.3879348 -1.318179 -0.5257791 0.8295687 0.7120144 -0.7175533 -0.3851109 -0.8597276 0.2188985 -0.5005222 -0.3228007 -0.3972674 
  -0.03530498 -0.2734349 -0.1991367 2.389476 0.3584214 -0.3185273 -1.886376 -0.06624431 0.339762 -0.2735412 -1.04754 -0.5070867 0.1331335 -0.3570874 0.2279638 -0.06082258 0.6820537 -0.5524968 1.479644 -0.006725135 -0.943187 -0.9012077 -1.491356 0.3021748 -0.631436 -1.588715 0.08631475 1.174551 0.1413059 0.1303892 -0.6254731 1.046381 -0.9194423 -0.3074675 -1.082414 -0.224457 0.2969421 -0.05817228 -0.08151742 0.087428 -0.1330633 -0.04973617 1.11811 0.05150693 0.1221164 -0.0682841 0.1788473 0.1205667 -0.3229588 0.1674911 1.241185 -0.07289481 0.6022394 -0.9887063 0.3189975 -0.1213662 -0.02656071 1.420014 -0.9551167 -0.5871644 -1.253707 0.2066676 -0.4283436 0.6592358 1.360028 -0.04162008 0.09712078 0.4815652 -0.6037883 -0.05254907 1.333602 -0.4252231 -0.6857389 1.332513 -0.248827 0.4279786 -0.04428423 -0.08668299 -0.9321296 0.4528244 -0.8985077 -0.2983286 -0.6274614 -0.1095151 -0.8995523 -0.2259416 -1.510491 0.7716241 0.3157306 0.9271399 -0.7233135 -0.6762833 -0.4367222 0.5455366 0.905238 0.1030875 0.2411538 0.286913 -0.5724353 0.2411811 -0.5396886 1.505116 -1.060148 0.419119 -0.7851536 -1.08465 0.203779 0.1471011 0.004046581 0.7806897 0.3101092 0.9505739 1.140766 -1.018025 0.8108744 0.50094 -0.3482471 -0.2839633 -0.6857409 0.8236971 -0.9615371 -0.5568464 -1.695243 -0.02023708 0.1757783 -0.6452143 0.8847473 0.1713212 -0.00469731 -0.9367261 -0.8324477 0.1700435 0.0641733 -0.2722896 0.2726476 -0.1743772 0.6439307 1.284531 0.03781082 0.2369642 -0.13484 -0.5610152 -0.01098079 0.7441755 -0.05824051 -0.3513382 -1.293109 -0.06458082 1.387784 -0.6387423 -0.4031776 -1.561363 -1.503103 -1.260609 0.3994124 0.06840497 0.995733 -0.05428644 -0.4831256 1.470706 0.8624661 0.6459776 0.7444911 -1.942097 -0.6575727 0.5257946 -0.2832056 -0.5611283 -0.9908304 2.633018 0.3816853 -0.3018412 -0.9239776 -0.159716 0.1243024 -0.560183 -0.260074 0.4412327 1.198401 -0.6112937 0.6977385 -0.01768015 -0.07309045 0.04310221 -0.1482024 1.380619 0.3279985 -0.1833058 0.01549231 0.4285376 0.6422628 -0.2251398 -1.222416 -0.2993695 -0.2040625 0.7724803 -0.961635 0.2229364 -0.07179174 1.002875 -1.222507 -0.1766554 -0.1826501 -0.9620413 -0.3835149 0.5661193 0.8952646 0.4672083 -1.688678 0.005075837 -2.006105 0.7026015 -0.5381978 -0.3937377 0.03951274 0.3221576 0.5154109 0.2683076 -1.104614 -0.3996879 -0.3638128 -0.4353596 1.024079 -0.2259335 0.2871475 0.2131893 0.08432811 -0.3154363 0.1321502 -0.300065 -0.2987607 -0.3032593 -0.2809302 -0.7788453 0.07303616 0.1723154 -0.5518658 -0.05238114 -1.065572 0.4628635 -0.5100102 0.1914047 1.145341 -0.1321806 0.06360017 0.5049656 0.9134328 -0.01616944 0.04802536 -0.7909334 -1.443604 -0.9507422 0.2695101 -0.4579212 -0.5072646 -0.4528043 
  -0.1698579 0.3552428 -1.294949 -0.9067569 -0.841491 0.1184312 0.4178115 0.02444384 -0.4936857 -2.181901 -0.3335615 0.4971991 -1.269001 0.7529627 -0.4347075 0.2945521 -0.06933859 0.2128695 -0.2955904 0.1924544 -0.9306421 0.05641492 0.3001591 -0.02581329 -0.7344741 0.2427662 -0.5941815 0.1471862 -0.7162555 -0.009242967 -1.180887 0.8109949 0.821793 -0.1677919 0.04837361 0.2287453 -0.1874771 0.5368299 0.3921264 0.08332673 0.5068891 0.6251044 0.0761952 0.002862431 -0.4103088 -0.7126535 -0.03945743 -0.04483641 0.009273701 -0.1778188 0.2084503 -0.1781819 -0.1669955 0.8031709 0.6782072 -0.59504 0.1242023 -0.5617678 -0.3361326 0.07773804 0.2566917 0.897247 0.1312654 -0.6647895 0.7574242 -0.1970015 0.5485868 -0.5538499 0.2507932 -0.9025263 0.1382611 0.7096925 -0.1370889 1.172104 -0.03969162 0.4259849 0.8035514 0.5326219 0.6189806 -0.2021082 0.1416267 -0.026506 -0.9891565 0.170032 0.9420666 0.318018 -0.7095999 0.3067759 1.105509 0.812969 -0.2227036 0.06099381 0.9035769 0.4550388 -0.04615547 0.5209451 0.3636746 -0.0360139 0.3411343 0.02636429 -0.3263924 0.1761985 -0.1536098 0.4106424 0.04801093 0.05630937 0.09540122 0.3437814 -0.1696936 -0.1200638 -0.832715 -0.1548056 0.4936492 0.2502759 1.459087 0.08971346 -0.01247435 -1.135888 0.009255959 -0.2433095 -0.8255355 0.5553348 -0.8566664 -0.5970094 -0.1729974 -0.2260169 -0.4830847 1.024154 0.04929123 -0.05769335 -0.07747121 -0.5869475 -0.4184127 0.0236938 0.5376593 -0.1262174 0.2329165 0.3320504 0.1602529 -0.3482631 -0.5202501 -0.1293945 -0.3322541 -0.3742034 0.7165954 0.320307 0.5016314 0.1577923 0.5982862 0.432098 -0.1369475 0.1594935 0.4900306 0.7983298 -0.2944731 -0.6152878 0.124305 0.5319247 -0.3422124 -0.8811553 -0.2618022 0.5139977 -0.4881518 0.5280246 0.3436452 0.3669021 -0.3145346 -0.6525251 -0.3590424 1.434647 -0.4477753 -0.02945396 0.1882349 0.2476977 -0.002826579 -0.01249654 0.8500674 -0.08337422 1.025389 -0.006337226 -0.2085488 -1.131382 0.3634434 0.2351885 -0.9073312 -0.8797116 -0.1992282 -0.559552 -0.1425908 -0.01582846 -0.3526929 0.3699543 0.6526431 -0.1987236 0.07172379 -0.6778671 0.03725276 0.2213565 0.501974 0.4739497 0.224429 1.017201 0.1182467 -0.1814309 0.1041329 0.2301524 0.2369231 0.8560674 -0.1258628 -0.1367615 -0.2471079 0.2586773 0.4376107 -0.1097476 -0.2063314 0.5135075 -0.1125632 -0.1733276 0.473008 -0.01057248 0.3375961 0.8289391 0.597036 0.1377825 -1.042552 -0.2681153 0.3782163 -0.8586062 -0.5125466 -0.4833109 0.5065687 -0.4477615 -0.2362869 1.330485 0.3701834 -0.1248562 -0.8172444 -0.638276 -0.3505726 -0.1111144 -0.6105547 -0.1672904 -1.602049 0.2101437 0.6293377 -0.2002964 -0.7350386 -0.7653164 1.086693 -0.008753327 0.6718819 -0.4647969 0.2809929 -0.6139086 0.4692335 -0.7361684 
  0.1274745 0.2279372 -0.9832962 -1.124025 -0.6845703 -0.436431 0.1316745 0.1770956 -0.6886404 0.0842047 1.176625 -1.0301 0.02428661 -0.5994762 0.1290743 1.054729 -0.4120041 0.2115616 0.1528189 0.8491906 0.1649123 0.512728 -0.2749346 -0.3294274 0.818767 0.2751163 0.7359336 -0.7432939 -1.074502 0.1591098 -0.8836239 -0.8390769 -0.6841932 0.6269943 0.250719 -0.4689263 -0.1393185 0.3592049 0.8691459 0.2514702 -0.4513785 0.04777957 -0.4582183 0.223004 -0.8720323 0.3591137 -0.3330735 0.00467066 -0.3492459 -0.4993896 -0.6006808 0.1217425 0.0230614 -1.203631 0.2371279 -0.9059322 0.3366857 -1.496777 -1.487007 -0.07498971 0.4101685 0.170242 -0.03306714 -0.2435739 -0.531526 -0.3389795 -0.4092571 0.1681748 0.7251788 -1.879835 -0.08132312 0.3855046 -1.338182 -0.2351597 -0.3317263 -0.6346335 0.5185773 1.288652 -0.3302884 0.1783452 -0.0500902 -0.5806012 -0.8390419 -0.0130718 0.9030902 -1.12682 1.006421 -0.8817158 -0.5743583 -0.4729494 0.1616717 -1.008872 0.9199782 -0.1433487 0.08993913 0.8521048 0.753327 0.4937378 -0.1115974 0.06746126 -0.2376678 -0.6098512 -0.5826066 -1.246809 -0.39503 1.161836 0.8387045 0.5050182 -0.1005324 -0.33864 -0.09805165 0.1256529 0.1894107 0.9485582 0.1372889 -0.03326283 0.5637064 -0.4071054 -0.6811599 -0.03961746 0.6726161 0.3131005 -0.3489824 0.8117823 -1.32893 -0.3642188 0.186324 -0.5165613 -0.6334255 0.5245545 1.082104 0.5066532 -0.1630065 0.937894 -0.5577176 -0.003352707 0.01054947 -0.2560268 -0.1536726 -0.4833055 -1.33122 -0.01271781 -0.1112301 -0.2348247 0.3152754 0.5098531 -1.039341 0.6538944 0.7146739 -0.2931937 0.0003427729 0.9737757 -0.6197736 -0.1104645 -0.2451352 0.3810245 0.7931228 0.5654554 0.8287908 0.2951646 0.7108976 0.4347002 -0.4343757 0.7515573 1.167125 0.871015 -0.2763943 0.7033066 0.6709377 -0.6167008 -1.071058 1.003152 0.7521098 -0.379444 -1.29735 0.1263125 0.2973156 -0.5311646 0.3796631 0.3138927 -0.7670369 -1.200342 0.652897 -0.3653163 -0.2882912 -0.09383473 0.4161769 -0.2217097 0.2181903 0.5512598 0.5255615 -0.4788123 0.07538484 -0.09306022 0.7911237 -0.2163827 0.4811172 -0.1236337 0.275994 -0.0711427 -0.4939986 0.0804492 -0.7096712 1.477964 -0.04719017 -0.265177 -0.7392359 -0.04312935 -0.3601486 -0.3549714 -1.61007 -0.01523343 0.6063465 -0.7750531 -0.4171134 -0.6165033 -2.022254 -0.2487888 -0.2282683 0.1454403 -0.6271426 -1.14828 -0.6052893 0.7661926 0.1637309 0.5492787 0.2887619 0.3622114 -0.8877686 0.03700295 -0.1496719 0.7706972 1.304109 0.1946745 0.2797826 -0.5202394 0.432955 -0.1303008 1.21993 0.5488306 0.4360663 0.1349857 0.8776176 -0.533439 -0.7695082 0.1640235 0.1757642 0.4240875 -0.01408193 0.5596659 0.5912998 1.082312 1.452609 1.070788 0.1046646 -0.1908709 
  0.4810224 -1.045679 -0.419969 0.6486035 -0.5515709 -0.1627451 1.1652 -0.373381 0.3272226 0.3040193 -0.8366137 -0.9465494 1.543779 -0.6151048 -0.0151541 -0.8958034 -1.026919 -0.6102954 0.5116892 -0.6170422 0.6011529 0.08210527 -0.2366309 -0.9897017 -0.3179283 -0.8533562 -0.8849285 0.3413645 -0.2023981 -0.7425104 0.526331 1.268536 -0.4648649 0.786232 0.8613749 -1.597843 0.5562193 -0.9348975 -0.8973182 0.08666216 -0.8060048 0.3307625 0.3566643 0.3556106 0.1316869 0.3282918 0.3021183 -0.5690081 -0.3580665 -0.9996172 0.03688408 0.5666694 -0.6541139 0.1054777 -0.7659781 0.2369461 -0.9581064 -0.1695457 -0.4846409 -0.794192 -0.05003029 -1.351468 0.978381 -1.325188 -0.4824011 0.06666144 -0.2385784 -0.2871064 0.09956782 0.1222553 -0.4042203 0.1094207 -0.5787424 -0.6901201 -0.6755216 -0.8611773 1.209477 -1.017373 -0.001860901 0.4546948 -0.1040656 0.2100106 -0.3010081 -0.547761 -0.5054544 -0.4756505 0.08228212 0.5729223 0.2363027 0.4100612 0.4047168 -0.2107842 -0.874195 -0.942906 -0.3088983 -0.7225045 1.801533 0.02826596 -1.146573 -0.7212175 -0.4810362 -0.9858057 0.6666028 -0.8047618 0.6971585 -0.3225202 -0.6075501 -0.5817639 -0.2633886 -0.4457422 -1.172332 1.231891 0.58689 0.6296304 0.2727571 -0.3491858 -0.4971171 0.9287833 -1.243458 0.7218053 1.161674 -2.202715 0.1588746 -0.1515091 -0.909585 0.4861702 0.6214144 0.4562142 0.09641677 -0.8098024 0.5982007 0.3003907 0.3356666 -0.451891 -0.06487717 -0.959825 0.3379002 0.235855 1.022486 0.9678401 0.08441485 -0.09255974 0.9979107 -1.074119 -0.9264805 -0.2141148 -0.2145783 1.403005 1.585153 -0.3584751 -0.7929639 -0.09057704 -0.3507036 0.8303882 -0.3278961 0.04737985 -0.8746207 1.404852 0.4271589 0.7154012 1.262552 -1.096868 0.4653547 -0.972941 0.7511055 -0.5210371 -0.2747049 0.5851092 -1.116299 0.195363 0.1958168 0.7740977 0.1224236 0.980405 -1.585083 -0.8810471 0.6238779 -0.3486941 0.5293764 0.5544592 0.8195247 -0.7847503 -1.598064 1.83508 -0.4818399 0.1023778 -0.4057184 0.07714558 -1.504854 0.554922 0.4344606 0.1218624 -0.6430634 0.3524127 0.1558501 -0.1048748 -1.70648 -0.04498984 0.6013667 -0.579583 0.9896445 1.253574 -0.9445457 0.828738 -0.335281 -0.08882765 -0.2649864 -1.365825 0.3500695 0.2369756 1.627038 0.1175494 -0.4118735 -1.625325 -0.09917802 0.1879336 0.5391787 1.04276 0.6899775 0.5166057 -0.08886799 -1.571318 -1.281145 -0.4567671 0.4012119 0.07213609 0.2163594 0.2879085 -0.08717737 0.901817 -0.2407622 0.9741059 -0.8313102 0.1855653 -1.3499 0.9328735 -0.6838912 -0.07471845 0.5632977 0.01764353 -2.148584 -1.133085 0.001684711 1.318509 -2.032506 -0.2568034 -0.1894475 0.5659778 1.791002 -0.5800956 -0.8373576 0.748928 -0.7959663 0.06651872 1.093759 0.1721878 
  0.1157673 0.7602324 -0.3921021 -0.8107035 -1.116472 -0.3463408 -0.7118068 -1.56825 -0.2220644 0.6245897 -0.2322389 -0.3672493 0.6244641 0.8284038 0.7188182 -0.8822365 0.1840252 -0.05972107 0.3530692 -0.3309478 -0.5853069 -0.2590733 -0.3580379 0.5904223 -0.2241228 0.1083237 -1.458465 1.01914 0.6414824 0.3674589 0.1601494 0.06709736 -0.6349684 -1.328747 0.6631594 0.217104 0.3804461 0.4955282 -0.3869449 -0.01017239 0.2746572 -0.04441071 0.5279177 0.5372539 0.2783534 0.9383957 0.6000901 -0.4270724 -1.386283 0.6666648 0.1770771 0.2434466 -0.4768486 0.2312324 -0.6177217 0.3436157 0.1470683 0.1146586 0.01627311 -1.421731 -0.5842632 -0.8657888 -0.7736622 -0.5624225 -0.7478693 0.7191475 -1.380497 0.2319871 -0.2267324 -0.01206459 -0.08331576 -0.3680971 -1.269446 -0.5662321 -0.1036899 0.9854727 0.05734879 -0.7409714 -1.30803 -0.8130765 0.8861768 0.55971 0.06238316 0.7683644 -0.1073855 0.116741 -0.8754014 0.6352024 0.03044796 0.2149813 0.06755488 -0.6972463 -0.5958463 0.2169596 0.1612116 -0.3267272 0.643465 1.21708 -0.5674734 0.1214764 -1.619445 0.8236396 0.8354301 0.1945511 0.4667436 0.1550776 0.2569604 0.1587959 -0.6612335 0.3407941 -0.413621 0.2658827 -0.5622683 -1.644588 0.5280799 0.5089784 0.3388886 0.1151718 0.4063292 -0.004772775 0.3169812 0.0277 -1.114385 0.7092614 0.7642776 -0.5245306 0.06282358 -0.9704154 -0.5022061 0.1384703 -0.4033569 1.374724 -0.6741038 -0.579272 -0.3364949 -0.1800708 -0.6560902 0.4137615 0.3994258 0.4925548 0.4204895 0.5959412 0.4176198 -0.9335893 0.2035025 -0.1521099 0.0811967 -1.221291 0.8018177 -0.3984605 0.02596484 -0.2590908 0.8876809 -0.5090809 0.2058248 0.2870998 -0.3744524 -0.7662307 -0.1706573 0.210729 -0.3826944 -0.01615236 -0.3846948 0.2930832 0.4721805 -0.579274 -0.6440033 -0.444701 -0.7610393 -0.560366 -0.1887686 -0.502014 0.4960169 -1.647119 -0.1844448 0.9847496 0.6485995 0.361275 -0.3739016 0.3326048 -1.0927 -0.6676539 -0.5557066 0.04801715 1.110752 -0.2994126 -0.8241112 -0.3671479 0.1423062 -0.3050811 -0.4794939 0.1772973 0.2126314 -0.07684996 0.06988808 2.237885 -0.1838689 -0.0531695 -1.265268 -0.3282628 -0.3452427 -0.3860576 1.287225 -0.4969417 -1.935332 0.229572 -0.6470717 1.343311 0.04604584 0.290922 0.07740699 -1.010701 -0.01530248 -0.5566944 0.4553787 -0.3844593 -1.027803 0.1262227 0.630759 0.02217334 0.4561347 -0.06105188 -0.1178697 -2.023159 0.6298956 0.1892879 -1.303949 0.3647964 1.165942 -1.029266 0.3372113 1.072536 -1.139266 -0.0709145 0.2517631 -1.121641 -1.404633 -0.8891619 0.4837249 0.9007886 -0.5658154 0.6282865 0.1227572 0.3108213 0.2513237 -0.1252798 -0.8409315 -0.04782693 -0.4554473 -0.5755245 0.2702888 -1.379145 -0.1372562 -0.3162176 -0.5904456 0.847755 
  0.02584222 0.3628032 0.09669201 -0.3746375 0.6573817 -0.4609652 0.1167658 -0.3819675 -0.694039 0.5888574 0.5053804 -0.4851823 1.316521 1.36147 0.2678049 -0.1060272 0.3261342 -1.016126 0.2540806 0.6594681 0.2721316 -0.1392614 0.8498914 0.5095809 0.1752654 0.1954195 -0.3038086 -1.563565 0.1282643 0.510052 0.2178213 0.8102623 0.2890229 0.425811 -0.162533 1.293426 -0.6936788 -1.272728 -0.4948304 0.1911555 -0.4077725 -0.1016072 0.1592959 -0.3694387 0.2097474 -0.149424 0.3127864 0.1305588 -0.7816084 -0.07539903 0.09845255 0.2056354 0.448462 0.7227972 -0.0943604 -0.09313377 -0.01033003 0.006437562 -0.07513186 0.6181729 -0.09594883 -0.6984445 -0.3778004 0.3397698 -0.3430335 0.3290121 -0.4742238 0.8766769 0.7071686 0.4251938 -0.2644774 -1.666997 0.2252864 -0.7834725 -0.2311114 -0.2197485 -1.759668 -1.661575 -0.960623 -0.2152857 0.3447659 0.3675862 -0.5062658 -1.165566 0.1800532 -0.1815024 -0.6918652 0.03315743 0.2074667 -0.1660034 -2.093603 0.2034214 0.5140515 -0.5471132 0.3807471 0.5971834 0.1882426 0.7172081 -0.4885798 0.2935984 0.0487767 0.8709933 0.3280306 0.8343442 -0.8589195 -0.6570184 -0.1300679 -0.2319993 -1.190065 0.2694683 -0.04127008 0.7262689 0.09337988 0.3295658 0.1189884 -2.258298 0.7991267 0.2523474 -0.03602381 -0.7169072 -0.1523808 -0.8515458 -0.392645 -0.08300585 -0.4036508 0.05852951 -0.7188288 -0.2004753 0.2747233 -0.5233315 1.069385 -0.6125557 -1.750437 0.5904908 -0.4146045 -0.7138153 -0.1152778 -0.03350645 0.7919914 -0.805094 0.22783 -0.1996719 1.355996 -0.2472556 0.4063429 -0.2600364 0.4732774 0.6947462 0.02483408 0.4574202 -0.147748 0.2290204 0.01120166 -0.7528231 -0.1917657 -0.5976197 -0.546744 -0.2698577 -0.08039366 0.5903769 -0.3568601 -0.360283 -0.3171677 0.4392328 -0.09825879 -0.5183801 0.4681172 -0.3826492 0.06448826 0.1981385 -0.1691593 0.8747284 0.5878017 0.6170245 -0.5783556 -0.1217296 -0.6835459 0.1747844 0.07767384 0.479181 -0.3196521 0.3254094 0.09829308 0.2133122 -0.3118243 0.4382909 0.4259751 0.1524285 0.3409598 0.2975547 0.2652737 -0.061278 -0.06247897 0.7846146 -0.7447078 0.2282743 -0.3843677 0.1980565 -0.6667531 -0.2765094 0.1156307 -0.5645893 0.1536257 0.02703983 0.343545 -0.5821599 0.2992614 -0.649127 0.5984607 0.1742263 0.3387066 0.7390184 -0.1897564 -0.08541048 0.3765609 -0.7989295 -0.5709387 0.2749837 0.1247934 -0.6587883 0.6309441 0.1211163 -0.04440479 0.6156898 0.09791109 -0.5775927 0.7317727 -0.5301232 -0.6106673 -0.3487151 -0.08582008 0.5698889 0.2543516 -0.07857043 0.3068659 -0.09179565 0.8052151 0.2924748 0.2418305 -0.3954367 -0.2702709 0.4113916 0.1079823 0.9161827 0.4550987 0.230987 -0.8915078 -0.3599481 -0.5696704 -0.07824068 0.6600447 0.8467534 -0.3113574 0.1264404 -0.2060255 -0.0842773 
  -0.3529164 0.04597279 0.1482583 0.019993 0.4193484 -0.9450407 -0.7104558 -0.3722838 -0.6470979 0.2834933 0.2005754 -0.2033106 0.2485034 -0.2074792 -0.4356685 0.8257994 0.5891048 0.4820028 0.1515082 -0.9634433 0.9655854 -0.5511134 0.7522735 -0.4596287 0.2406153 -0.4250484 0.7151781 -1.30164 -0.8183319 -0.08378786 0.1580415 -0.1856981 0.1704962 0.6923805 0.6934654 -0.5513785 -0.04384667 0.3524299 -0.1771044 -0.0004357136 -0.5655549 0.06746664 -0.534355 0.2619431 0.4654124 1.206979 -0.7886178 -0.23802 -0.267795 0.2679524 -0.08648656 0.398661 -0.1670941 0.7837582 -0.3005938 -0.8602843 0.2119261 -0.1805813 0.3346025 0.6197906 0.03843124 0.2489081 -0.6115078 -0.1436318 -0.2068416 -1.281264 0.1347019 0.166797 -0.6614038 -0.124541 -0.001194183 -0.4306268 -0.3648543 -0.01062709 0.4642453 -0.2869735 0.2444717 0.3260214 0.0937978 0.04745461 0.1370723 -0.2705556 0.206332 0.4063814 -0.2540789 0.5776387 0.01770583 -0.5283427 0.1573204 0.6016632 1.09326 -0.1145698 0.1143962 -0.08610707 0.6437345 -0.150114 1.584325 0.2349853 -0.7869917 0.07366806 -0.2013938 0.6489241 -0.09362625 0.1433866 -1.078163 -0.01846303 0.01864894 -0.6589818 -0.2051865 0.2763291 0.4553639 0.0606611 -0.698543 0.1462662 -0.0600693 0.3494404 -0.9976664 -0.785167 -0.1392381 1.394444 0.5531631 0.2223564 -1.225253 1.224462 -0.3395276 1.192164 -0.6213965 0.1912609 -0.6615703 0.4121615 -0.7301348 1.103086 0.4048353 -0.7749943 1.804165 -0.3985966 0.2424349 0.1668364 0.6395276 0.9372666 0.4107196 -0.108445 0.5368528 -0.1034871 -1.221683 -0.08549947 0.01432575 0.287489 -0.09459146 0.550531 0.09043755 -0.6195166 -0.7118496 1.002216 0.2791752 -1.601152 -0.09397249 0.04128144 1.061129 0.5840496 -0.5902399 -0.3546599 0.03638953 -0.09561382 0.6450454 0.5533998 0.7781049 -0.3508727 -0.6133162 0.3152441 1.068282 1.377505 -0.2547048 -0.7860794 0.6890562 -1.659455 0.5379239 0.0837138 -0.009340729 0.1085955 1.36539 0.8377081 0.3310255 1.33168 -0.2882164 -0.4064474 0.3625502 0.5429293 0.5246199 -0.302762 -1.311239 0.2946224 -2.020438 -0.8670939 -0.03524702 -0.5623249 0.4520895 -1.946894 -0.1305005 0.6903489 0.4182304 0.07972895 0.6130137 0.1314903 0.502869 0.7988592 1.324122 0.1734556 -0.6666065 -1.462228 -0.1065467 0.2134586 0.2048889 -0.5698884 -1.562604 -0.5711563 -0.5786549 -1.044062 -0.2882624 -0.1634225 0.2501727 0.04682299 -0.0914754 -0.5860916 -0.0872771 -0.1816356 1.551568 -0.1603209 -0.4381933 0.2440387 -1.304805 0.4980249 -0.9111848 -0.01748621 -0.4118922 0.5445753 0.4598005 -0.4686317 0.6205243 0.9029191 -0.6331357 -1.112697 -0.3679199 -0.5599754 -1.957825 -0.1209964 -0.3779386 0.4071213 1.408254 -0.2422078 0.1981213 -0.1482034 -0.8023682 0.1567504 -0.9774035 -0.2147531 
  -0.1385483 0.1028859 -0.4580862 -0.5663818 1.034825 0.1687553 0.4165185 0.05704565 -0.3809849 -0.6928207 0.2624913 0.2903785 0.2451529 -0.1897737 0.7547202 -1.874327 -0.9230719 -0.4393489 0.4178363 0.08930811 0.1014725 0.07574032 0.9219575 0.3575582 -1.222514 0.01298251 -0.4615857 -1.365081 0.2266685 0.3146588 0.5479969 -0.0272122 -0.4474026 0.3036044 0.7927835 0.7105049 0.001001134 -0.6863947 0.3139149 -0.7219534 0.3899329 -0.1702114 -0.2123608 -0.09058908 -0.4519755 0.4149994 -0.135475 -0.9812449 -0.2881827 0.1218611 0.21439 0.2602767 -0.03962313 -0.04507 0.4152768 0.1319978 -0.2504929 -0.375984 -0.1414478 0.621501 0.1133053 -0.6792648 -0.5357642 -0.623725 0.4745495 0.2313375 -0.5386518 -0.2048006 0.3916022 0.5075364 -0.5935494 0.5851724 0.5933658 0.06375069 -0.4794614 -0.08658636 0.07166681 0.07537979 -0.1864154 0.8210856 -0.503674 -0.9976169 -0.1633949 -0.1021115 -0.3078962 -0.3504857 -0.008034839 -0.005612109 -0.4053571 -0.6211499 -1.010956 1.241372 0.6799579 -0.3314334 0.6307865 -0.512747 -0.4286242 -0.3846379 -0.0261009 -0.001114547 0.02840677 -0.503022 -0.1242738 -0.0687712 0.4951995 0.2945035 -0.149994 0.1272297 0.490801 -0.5453386 -0.3220445 0.4535499 0.5093737 0.1732856 0.311727 0.1266386 0.08169881 0.1171246 -0.3001959 0.1365579 0.2635381 -0.370818 0.09873271 0.2950302 -0.6348746 0.1750129 0.09229631 -0.4182322 0.2714331 0.1344381 0.3957963 0.2088157 -0.6217445 -0.1098823 -0.02309548 0.3147016 -0.04493827 0.02199524 0.2436533 -0.05320931 0.3422285 -0.4539417 -0.4587393 1.268473 0.9448915 -0.03974832 -0.04243599 0.01282765 0.5074096 0.5044802 -0.5244842 0.97413 -0.1467649 -0.08079886 0.07888491 -0.8220912 0.6333679 -0.4420338 -0.6980644 0.8086625 0.2460511 0.1109319 0.6069129 0.2547463 -0.08174812 -0.4069677 0.9267314 -0.4058927 -0.5032928 -0.6813471 0.01220845 -0.5586469 0.4415043 0.657566 0.1678436 0.5961428 0.2464593 0.2439203 -0.0233443 -0.2203119 1.405935 0.5322012 0.372436 -0.1274269 0.4421774 -0.5543242 -0.3167161 -0.525034 0.04817817 -0.2487002 0.2146558 -0.03071065 0.5106878 -0.3504819 0.1254943 0.443121 0.5399885 0.8344778 -0.4639515 -0.2420472 -1.027242 0.1907656 0.02940433 -0.4968547 0.6007622 1.026796 0.9348744 -0.7519059 1.052828 0.1833332 -0.4188747 0.1737102 1.484507 0.125965 0.4410668 -0.3490422 0.9016654 -0.6933266 0.5597096 0.5592281 -0.497263 0.6298168 -0.4400755 -0.005209611 -0.1828725 -0.0569195 -0.5927462 0.6330618 -0.1625278 0.07430238 -0.5325581 -0.6194506 -1.5248 0.3924865 -0.9528626 0.5524836 1.6758 -1.759901 0.4209328 0.1636329 0.5845923 0.2445601 -0.4863913 -0.01053711 0.2411671 -2.17725 0.2313173 -0.6636295 0.7153048 -0.3363842 0.06164555 -0.2394561 -0.7189639 1.030192 0.1372851 0.09704196 
  -0.460382 0.2349679 0.2795058 0.6855907 0.06691167 -0.7491935 0.5241338 0.5434278 0.2767518 -0.1105243 1.013544 -0.5015745 0.2419984 0.6460868 0.2135659 -0.3441363 0.3786561 -0.4057481 -0.7796574 -0.8385319 -0.8521281 0.2127103 0.915282 -0.3766408 -0.4470653 -0.2203845 -0.01795685 0.6231688 0.2028662 -0.3941858 0.9257768 0.5586004 -0.5730008 -0.5550446 -0.6665944 -0.04798456 0.1882036 -0.1449453 -1.520984 -0.5877858 -0.09943135 -0.8159228 0.3641661 -0.6302949 -0.361277 -0.4232377 0.02781848 -0.4895121 -0.3950354 0.009881379 1.399936 0.4598225 -0.07531395 -0.03508658 0.2061737 0.3356376 0.149628 0.2632344 0.4555639 -0.2612653 0.1819088 0.8417159 1.454542 0.4284168 1.100758 -0.1190344 1.14121 -0.2610382 -0.1356463 -0.8248563 0.243486 -1.005136 0.4222918 0.2633792 0.3039357 0.582148 0.5308439 0.748356 -0.04310864 -0.01912787 0.4537597 0.3084301 0.5398547 -0.4784855 1.00396 0.379329 0.4601713 0.2325069 0.7152405 1.321825 0.6079476 0.05135185 1.101914 1.611543 0.7044551 -0.1951738 -0.3927906 -0.01504943 -1.56221 -0.9449775 -0.3723009 0.4787691 -0.01385783 0.2046579 -1.745578 -0.4044814 -0.3111254 0.41757 -0.1942434 0.09427569 -0.3064678 0.4613425 0.4531847 -0.1799489 -3.959823 -0.2860809 -0.02603127 0.325708 -1.207662 -0.5009014 0.05385099 0.5449759 -0.4119794 -0.3626753 -0.03486152 -0.2588965 -0.6532795 0.4093778 -0.2721364 -0.1791381 0.340289 -0.1664129 0.1269294 0.1990913 0.2263362 0.1494529 0.05134263 0.192225 -0.8437298 -0.2280156 0.2810333 0.1446706 -0.6945837 -0.4686734 -0.8150073 0.3265876 0.1410676 -0.1146211 0.2827509 0.5008971 -0.4384463 -0.2525924 1.304953 -0.01766012 -0.4085007 -0.7840948 -0.9119471 0.2033256 -0.1294973 -0.6512992 0.07815783 1.098888 0.2721796 -0.08699104 -0.1376295 0.5550865 -0.08287838 -0.3403355 0.2339234 -0.8183986 0.3568833 -1.010257 -0.2901442 -0.4097303 0.2189858 -0.07633591 0.01974565 0.6182158 0.293766 -0.2679332 0.6433357 0.1327702 -0.2642063 -0.3633154 -1.385813 -1.7855 -0.2666744 -0.1757922 -0.4581253 -0.2245981 -0.3621808 -0.8573309 0.3818933 0.2063013 -0.1859536 0.7820514 0.6118166 -0.2061027 -1.135725 0.2701563 0.06748041 -0.4358202 0.04277916 -0.4521293 -0.4123705 0.8591489 0.2119602 -0.2177556 0.7913852 -0.6739177 0.7599725 0.280144 0.02079497 -0.1680699 -0.1364747 -0.07798163 0.4203166 -1.192987 0.3810945 1.174726 -0.4456105 0.1244245 0.6336021 0.408338 -0.5249075 -2.170642 0.1911789 -0.3167925 -0.2953857 -0.2545008 -0.02342131 -1.422774 0.4979018 0.8547562 0.241745 0.1974869 0.7094652 -1.189765 0.2195319 0.3258881 -0.6290652 0.1595931 -0.1356667 0.06633252 0.602553 -0.03849567 0.7070535 0.6017574 1.096083 0.9536063 0.8482485 0.2249227 -0.4871124 -0.2071826 -0.3649056 -0.08962191 
  0.02196526 -0.4065785 0.9580013 -0.8096188 -0.6037196 0.7460139 -0.0789871 -0.116089 -1.109267 1.340198 -0.2007965 0.4702748 1.486973 0.9527183 0.302059 0.3416986 -0.2339782 -0.1639179 1.045936 -0.4505605 0.2641784 -2.301523 0.9610496 1.464235 0.08167969 0.0523941 -0.02104995 -0.1601913 -0.3480956 0.2926389 1.124928 -2.217685 -0.3083009 -0.1759378 0.7931992 -0.223381 2.590385 0.5970026 0.3626369 0.5728768 0.2356851 -0.06527679 -0.5031621 -0.3186105 -0.2444901 0.1270316 -0.866092 0.270345 -0.2678709 -0.4449393 0.2155204 0.005494637 -0.68927 -3.005255 0.07847527 0.622855 -0.9009371 0.4987801 0.06839118 0.5561614 -1.914472 0.2439584 -0.4209479 -2.386979 0.1000333 0.2545114 0.5727922 0.8628353 -0.5457021 0.7888831 -0.5677599 0.1803562 -0.6168864 0.4744273 -0.4042416 0.2422074 0.6961976 -0.1642117 -0.175541 0.05087204 0.03703362 0.04148158 0.3012608 0.05650664 0.03318243 -0.1024968 -0.3452527 0.6411151 0.5040768 -0.4016328 -0.7394347 -0.3731532 -0.05111391 -0.1008928 0.2358261 -0.04309557 0.4063289 0.247803 0.3782401 0.2511303 -0.8367198 -0.3320809 0.1435075 -0.09447704 -0.1979968 0.175336 0.5498407 0.0674136 0.6071173 -0.1797364 0.1845682 0.6066301 -0.2496237 0.04454796 0.4353365 0.8407691 -0.3077947 -0.8038359 -0.07729232 0.1561075 -0.1060083 -0.2470425 -0.05759093 0.1284539 -0.5224352 -0.2896452 -0.359911 -0.09401587 -0.1634475 -0.0004998163 -0.2620358 0.573106 -0.5589678 -0.4166561 0.6782575 -0.1595749 -0.09768214 0.3096541 0.3396985 0.5088283 -0.5569267 0.5821586 -0.3939423 0.7319556 -0.02044859 0.4604033 -0.157972 0.4219922 0.6602656 -0.8148556 -0.05426781 0.04501264 0.5947914 0.2109004 0.5678868 0.6964854 -0.09861908 0.09413489 -0.03187522 0.07740398 -0.2752163 0.2912929 0.381553 0.6026389 0.6242551 -0.4366807 0.4164929 0.02731411 0.5558941 -0.1720911 -0.03866304 -0.79689 -0.114477 -0.6925461 0.5261664 -0.3282011 -0.2579931 -0.2644973 0.1177232 -0.3340462 0.4188184 -0.219852 -0.7644656 0.1856104 0.767597 0.324484 -0.2980058 0.08336586 -0.6570132 -0.8802255 0.184733 0.3645424 1.042667 0.6954277 -0.861657 -0.9790555 0.2671002 -0.714495 0.4528844 0.9601154 0.1847144 0.03742884 -1.029289 0.4752397 0.4771875 -1.666547 -0.6606375 0.7991869 0.7781722 0.7087053 0.2095994 -1.061701 -0.4336337 1.384922 -0.102653 0.5484331 0.3381105 0.8079143 -0.8442634 0.3134604 -0.2818281 -0.9174063 -0.632381 1.383817 0.01809272 1.114202 0.4111311 0.7666913 -1.378656 -0.4582038 -0.1815725 -0.3304747 0.4075014 0.9899823 0.4847437 0.135882 -0.02369747 0.9996002 0.3289978 -0.1734878 0.02999637 -0.2833827 0.2938618 -1.75386 -0.01946606 -1.014023 0.8457001 0.02921364 0.6180416 -0.4604194 -0.3746921 0.5303828 -0.06835372 -0.1069934 0.7747906 1.182883 
  0.5008703 0.1352863 -0.02805406 0.8120023 -1.255836 0.5922796 0.2466691 -0.1716214 -0.6744195 1.219461 1.105904 -0.3004102 -0.9752305 0.02092809 -0.247634 -0.3185419 -0.9104422 0.09819838 -0.4148605 -0.08125338 -0.1241406 -0.5074292 -0.3082781 0.1250231 0.0702478 0.3732478 0.001321967 -0.02622594 -0.1511698 0.2311453 0.193196 0.0737951 0.001214856 0.7355819 0.1362234 0.4246922 0.5459673 0.3426374 -0.1825163 -0.2450639 0.05235295 -0.1521233 0.604259 0.3080523 0.1080846 -0.4042779 -0.3970489 -1.715265 0.233319 -1.603199 0.1322967 -0.04857666 -0.5334241 0.1672184 -0.6905552 0.9321501 -0.2124777 0.186992 0.5610607 0.592747 0.250717 0.5997844 -0.6102369 -0.007000113 0.2677902 -0.9006895 0.1818631 -0.2235553 0.4249176 -0.3317335 -0.5302199 0.7839785 -0.04918052 -0.8119896 -0.8153198 -1.018991 -1.100893 0.09884452 -0.2711587 0.04972202 -0.2193366 -0.9110692 0.08312836 0.7229568 -0.05022908 0.4151492 0.1892625 -0.3452713 0.2853682 0.14961 -0.588582 0.5821034 0.005121449 -0.1095141 0.3211668 0.2838366 0.4539329 -0.53113 -0.07605033 -0.3074723 -0.6595821 -0.9428208 -0.09807639 -0.1451243 0.1144006 -0.5948694 -0.6329829 0.1128284 -0.4584101 0.3414337 0.8085756 0.4656812 0.3256351 -0.4725175 0.02569085 -0.3224889 -0.7365952 0.4017217 0.4893642 -1.005196 0.1271383 0.2627312 -0.1418633 0.08453701 0.1292605 -0.217925 0.8078207 -0.2443545 0.5022296 -0.4375663 0.01494879 -0.7369711 -0.03067007 0.2417971 0.4739244 -0.8782558 0.1059075 -0.163574 0.2963378 0.6373852 0.3668533 0.1698874 0.04522344 -0.1324644 0.1822948 -0.08927523 -0.007589931 -0.0853482 -0.1595816 0.1176895 1.161662 -0.2565005 0.4636833 -0.5233885 0.1596847 -0.5764085 0.06821069 0.3886618 0.2743343 -0.2771509 0.6862474 0.4276572 -0.37547 -0.5649209 0.6959738 0.2966844 0.01591812 0.2527828 -0.03965927 1.078706 0.39485 0.4146545 0.6963126 -0.1837794 -0.4621764 0.4217668 0.3650956 -0.09518613 -0.2952924 -0.0002755343 0.1506069 -0.1914766 -0.9358519 0.169696 0.3750241 -0.4186965 0.08306803 -0.2856809 0.4690146 0.1947716 0.463449 -0.1246503 0.04058823 0.5113358 -0.5689443 -0.2483023 -0.03451587 -0.1842342 0.118052 0.5073506 -0.2224846 0.9315388 0.3751167 -0.1960834 -0.2457816 0.1875528 -0.09987655 0.1024814 -0.01608099 0.3370956 -0.1162502 0.03494121 0.3750074 -0.6918314 0.3613147 0.3034795 -0.2663097 -0.9103901 -0.12441 0.3017406 0.4591867 -0.146655 -0.420245 0.01727643 -0.5502629 0.4432616 0.06019598 0.004232472 0.8169211 -0.1559064 -0.3043697 0.225305 -0.01884463 -0.6152107 0.3313375 0.3072094 0.09403837 -0.4176243 0.4803716 -0.1435812 0.3736354 0.2738802 -0.9549431 -0.4457116 0.3855211 -0.4295988 -1.151838 0.6930618 0.6245801 0.08992065 0.2387933 -1.20781 -0.8388247 -0.1356756 0.09498388 -0.1654718 
  0.8374974 0.2144624 0.06753874 -0.895605 0.1139476 0.5540073 -0.1602295 0.3683966 -0.4205819 -0.7422976 0.2340976 0.4423156 1.069414 -0.276821 -0.05577404 -0.0160415 -1.118147 0.223416 0.2929451 0.2545334 0.3625034 0.1406443 0.3357444 -0.6061063 -0.3230807 0.3249075 0.6807354 -0.1134043 0.5119463 0.0970153 -0.3389933 0.4796628 -0.1035999 0.05403534 0.1767856 -0.5205249 0.1538699 0.3742592 -0.1061512 0.3769792 0.0601356 -0.009716835 0.4366814 0.2861272 -0.2262289 -0.5646089 -0.1457348 -0.1525477 0.3749335 0.2170787 -0.07872859 0.1246776 -0.2569075 -0.4385789 -1.509748 -0.8506778 0.3613316 -0.9247901 -0.4810195 0.3764835 0.2712759 -1.172405 -0.01609477 -1.71079 0.3656024 -0.2198087 0.6858176 -0.2997186 0.2327012 0.2939464 -0.1532872 0.1826084 0.3192268 -0.504874 -0.1988062 -0.9068781 0.5109356 0.7549546 0.4785889 -0.2509446 -0.2222389 -0.6669428 -1.3035 0.3338846 0.03242042 0.2415042 0.589781 0.005706486 -0.1141878 -0.3449318 0.1512626 0.06382304 -0.1029543 -0.4015035 1.107915 -0.03821082 0.2678868 -0.3729539 0.5689928 -0.03574562 -0.04754156 -0.4645662 -0.1427727 -0.05690239 0.4511305 -2.014895 -0.1684428 -0.08100735 0.3108342 0.5572856 0.3637602 -0.304155 0.002416895 0.5332709 -0.2230427 -0.5963573 -0.1779188 -0.3995347 -0.9552404 -0.005268499 -0.1363899 -1.508393 -0.5529042 -0.08713976 -0.05765898 -0.4898347 0.916587 -0.1352299 0.6341675 0.1168605 -0.2649569 -0.9228477 0.3042133 0.09983204 -0.171575 0.373216 0.3373556 0.4292074 0.7412314 0.3769857 1.005269 -0.04842805 0.3288094 -0.2125677 0.1341168 0.9049751 0.431018 0.279803 0.208247 -0.2474581 -0.1379419 1.168213 -1.374694 -0.1825957 0.03816101 0.1338188 -0.6604241 -0.3967893 0.2527564 0.5054598 -0.4838023 -0.01070382 0.1761478 0.660618 -0.424751 0.020435 -0.9042695 0.0615337 -0.2605282 0.1074159 0.3322154 -0.3385294 -0.2366252 -0.07415302 -0.9367293 0.0747853 -0.172698 -0.147638 0.3432641 0.297078 0.505278 -0.1597165 -1.49527 0.4208693 -0.7144808 0.8796229 -0.4161753 -0.9083354 -0.3113773 -0.7360232 0.2657343 0.5572829 0.004858179 0.6028521 0.02730608 0.8870606 -0.05951136 -0.619734 0.2530489 0.5738785 0.06826965 0.3459532 0.9558859 0.7816633 -0.6306073 0.008884588 -0.06589908 0.4015557 0.8613153 -0.01595105 -0.0773485 -0.296476 -0.6718173 -0.07706288 -0.593289 0.7798448 -0.428126 0.2303831 -0.03480818 0.3572899 -0.2151647 0.3146347 -1.216171 0.5241234 -0.497079 -0.07389512 -0.02685143 -0.7781249 -0.3131185 -0.02070992 0.673404 0.5693116 -0.4420258 -0.1639179 -0.3022805 -0.229033 -0.3359204 -0.3970701 0.1119768 -0.003949079 0.08165014 0.686888 -0.6220918 -0.02493209 -0.4857338 -0.3928469 0.1948231 -0.4300932 -0.3054072 -0.2010605 -0.008768129 -0.3021394 -0.2537056 0.5833398 0.399417 -1.314952 
  -0.6837958 -0.1553553 0.1498515 0.04018766 -0.1782538 0.2007288 0.1188528 -0.03668299 -0.5475942 -0.275096 0.1328485 0.3376702 0.2759222 0.646607 -0.0635333 -0.1612144 -0.1633728 0.3304175 -0.06547181 0.6432275 0.07188702 -0.09800497 -0.2255797 0.1744028 0.5037504 0.4074866 0.4199702 0.06269901 0.2143731 0.3335513 -0.5466177 0.322087 -0.502968 0.7184189 0.3459453 0.6995743 -0.8597949 -0.4397473 0.3704115 -0.2759236 0.2334604 -0.006658853 -0.3178655 0.42221 -0.3681516 -0.0149859 0.331823 0.2664066 0.02968023 0.1160628 0.2457146 -0.0656039 0.1666098 -0.4096595 0.3068187 -0.1643328 -0.4167584 -0.7164747 -0.9881576 -0.009924059 -1.431892 -0.03608816 0.02199963 -0.4474265 -0.704468 -0.0421028 -0.9287327 0.02431185 -2.468516 0.7739185 -0.2840582 -0.3122422 -0.4616871 0.2213232 -0.4379169 -0.2541784 -0.9243042 -0.6339742 0.1903569 -0.4180154 1.10346 0.5612973 0.3641774 -0.05314217 0.1928795 1.057338 0.5701149 0.3309485 0.6299909 0.6390983 0.6511015 0.4810769 0.0902733 0.5266736 -0.1574185 0.04023794 -0.6060818 0.4006256 -0.1636129 0.2006192 0.2360941 -0.6436864 -0.8237308 0.2092591 -0.3252072 -0.2077749 -0.1840506 -0.6436014 0.3147791 -0.2799481 -0.08687477 -0.614813 -0.7953386 0.2676584 -0.3166657 -0.2027179 0.5823953 -0.2336183 -0.002996554 1.175881 -0.2266875 -0.6763963 0.4276872 -0.3144652 -0.2000044 -0.05129784 0.765085 -0.006001448 -1.889379 -0.4502073 0.3155092 -0.02654493 -1.595653 -0.7235737 0.5865522 1.001645 -0.7572442 0.3983819 -0.8195935 -0.2247366 -0.4297831 0.1752645 0.9386178 0.6426344 -0.1699233 0.388894 -0.4368968 0.004314451 -0.5088797 -0.959846 -0.5347061 -1.781356 -0.7501283 0.1907519 -0.2800943 -0.01604797 -0.06385905 0.08913951 -0.2391263 1.221935 -0.4415548 0.09919836 -0.2134153 -0.3179523 0.2260738 -0.2571673 0.5056645 -0.8632804 -0.01525104 -0.2320758 -0.1462979 0.1038542 0.7122459 -0.3623221 0.02246675 0.4229718 0.08869064 -0.1327056 -0.5709223 0.1879714 0.08256044 -0.1122591 0.3142002 -0.6293185 0.5947742 -0.1971208 -0.193651 0.03650865 -0.1756534 0.5143977 -0.1051922 -0.4134398 0.06023877 0.1917027 -0.402748 0.1298277 0.08932625 -0.3881477 -1.055445 0.5428076 -0.558887 0.08264878 0.7733155 0.1510856 0.3333703 -0.2420244 -0.107461 0.09513647 0.4925781 -0.05741992 -0.7244322 -0.07597665 -0.6557083 0.7971301 0.09238113 -0.5590205 0.1213064 1.081908 0.151605 0.5478328 0.4609242 -0.05354201 -1.206289 0.5728698 1.394629 -0.09694143 -0.03301404 0.2907397 0.250342 0.283381 0.3594775 1.207249 1.175889 0.4815411 0.2512037 0.1756833 1.058889 -0.07696576 0.4098164 -0.5987477 0.2038121 -0.4000473 0.6520176 0.3674392 0.1118499 -1.410756 0.3813585 0.3466905 -1.334092 -1.058006 0.1981046 0.8792214 0.1720456 0.2807055 0.5611543 0.1470129 
  0.819211 -0.1809636 -0.2165338 0.2945482 0.06061473 -0.3444344 0.008928823 0.597779 -0.5130109 -0.1110995 -0.05034281 0.3370418 -0.5738135 0.02761493 -0.4254411 1.32359 -0.3733913 0.502308 -0.2806958 -0.3727223 -0.0876721 -0.4611829 0.1895988 0.8551935 -0.1985068 -0.1156732 0.7796007 0.1538853 0.2942809 0.2754301 -0.3699636 -1.520698 -0.1635857 0.7144035 -0.02329126 0.7348424 0.2624762 -0.1123875 -0.5309618 -0.1631678 0.5210332 -0.06333014 0.0611056 0.04649174 -0.02514474 -1.036843 0.4209868 -0.6087276 -0.09477355 -0.6215276 -0.2474064 0.368616 -0.402587 0.9044547 -0.1793655 0.2312592 -0.1325247 -0.2023302 -0.2426037 1.196645 0.06332237 0.2269197 0.6097944 0.7817214 -0.4473076 -0.9498535 -0.07421449 0.4596609 0.5572162 0.3889588 0.2915206 0.2862433 -0.2002874 -0.2431471 0.1376594 0.4162351 -0.8886466 -0.1003914 -0.05579313 -0.106467 -0.1838189 -0.3012527 0.322578 -1.949997 0.3218281 0.2646539 -0.3619202 -0.642227 -0.1714081 -0.286989 1.144831 -0.428311 -0.1360099 -0.3770944 -0.2460049 -0.3078004 0.2615329 0.2060261 -0.9670564 -0.4812706 0.1944043 -0.581235 -0.6527245 0.4084579 -0.8306749 -0.3805413 -0.06082489 -0.3338817 0.2650566 -1.568726 -0.5274236 0.4714241 0.7732269 0.02498524 0.07504152 -0.9246405 0.0848397 0.813539 -0.1304405 0.3132473 0.05944181 0.03504902 -0.1098705 -0.1735469 -0.09752633 0.3050594 0.178147 0.3841709 0.05540536 0.007656113 0.2477143 -0.3405331 -0.4038047 0.2428981 0.4342529 -0.5257127 -0.4697437 0.2855549 0.2534969 0.4976417 -0.2085247 0.6618622 -0.3120808 -0.8567572 0.2603638 0.3136377 -0.03321853 0.6050146 -0.1587954 -0.1135011 -0.3321793 0.1319028 -0.2851733 0.2603817 0.08564904 -0.5129347 0.3781655 0.6555332 0.5930337 -0.2704729 0.06388003 0.004527688 0.6678758 0.3255636 0.4245002 0.7162806 -0.9084657 -0.05050557 -0.1821016 0.00808362 0.02537802 0.5461946 0.4676537 -0.3479226 -0.1425509 0.07169613 -0.2333018 -0.02375158 0.211509 -0.1402838 0.2147319 -0.5050453 0.7123061 -0.2373045 -0.4405642 0.2067804 0.6670191 -0.0183222 -0.05055546 0.09422009 0.05211808 -0.04461436 0.1538498 -0.4162126 0.06370738 -0.5228435 0.1747788 0.08327873 0.283136 0.3815446 0.2752649 -0.3116239 -0.07270368 -1.358577 0.6974424 -0.6725765 -0.3323361 0.5533737 0.1396571 0.4231848 -0.4044935 1.158485 -0.3466595 0.2402744 0.2777089 -0.1099991 1.06556 -1.006381 0.2773922 -1.307437 -1.22557 -0.0802632 -0.7233261 0.5916204 -0.1925964 0.09342725 -0.9007987 -0.2754834 -1.166791 -0.01478542 -1.321339 0.04592866 0.5350568 0.037188 0.4893472 0.24732 -0.1612736 0.9265097 0.4086137 -0.2460359 0.05347958 -0.2289562 -0.4650194 1.14018 0.4495963 -0.8851836 0.5603939 0.04586472 -0.7625141 0.3914494 -0.196784 0.1488369 -1.084342 -0.2154292 0.6650621 0.2554296 
  0.4180734 0.6500267 0.8084404 -0.001632658 -0.8528302 0.3333088 0.300365 -0.1390531 -1.12696 0.2770417 -0.7135577 -1.266574 0.1641492 0.5127691 0.1633552 0.282332 -0.2749626 -0.864966 0.07591152 -0.1340285 -0.7495186 -1.480666 -0.3624075 -0.4383735 -0.5127714 -0.1979794 -0.07588312 0.3603247 0.12554 0.4198509 -0.304894 0.8082613 1.215826 -0.3307513 -1.521583 0.7684915 0.6252235 0.04520598 -2.746946 0.4204412 0.571982 -0.005230461 0.2846795 0.1703536 0.7922006 0.6460074 0.8741778 -0.1351277 -2.132287 0.4662961 0.5417163 -0.1893334 0.9909126 0.5020894 0.03541244 0.4883517 -0.7498391 0.8471374 0.06018784 -0.9355338 -0.1297144 0.3138613 -1.377818 -0.2692673 0.2464641 -0.3331939 -0.5136598 -0.140554 -0.5376928 1.249317 0.5225791 0.130101 1.286759 -0.1349062 -0.956013 -0.07796282 -0.3921818 -0.2286609 -0.3421464 -0.03429906 0.4095711 0.1521017 0.433809 -0.02490732 1.111235 0.5413534 -1.22744 0.9127513 0.4390178 0.1614151 -0.6771743 -0.296988 -0.0665483 0.1916262 0.1245044 -1.27457 -0.1548881 0.8903399 -0.4508039 0.8974162 0.6122134 0.1988993 -0.08798293 0.2207316 0.3678561 -0.938594 -0.2472845 -0.3982153 0.06691171 0.6285656 -0.1558087 0.05823134 0.4043993 0.6407418 -0.154137 0.1670889 -0.5410876 -0.2474905 0.1011667 0.4644065 -0.4286153 0.07803497 -0.5018065 0.02966315 0.143783 0.1136371 -0.1540627 -0.3151736 -0.2067414 0.6509784 0.04320537 0.6519063 -0.5966702 -0.2709115 -1.228739 -1.23238 -1.181234 0.8476349 0.264329 -0.9312501 0.5198063 -0.9697561 0.02671691 0.3436796 1.552116 0.3884738 -0.2212053 -0.1754035 -1.157465 0.5612967 -0.1018324 0.2433107 1.157664 -0.4132862 0.2466791 -0.5428849 -0.4837995 -0.08146526 -0.1194384 0.0781125 0.2577418 0.961877 -0.2834965 -0.003100012 0.5551347 0.3227553 0.3083107 -0.4457926 -0.005085397 0.1178688 -0.1616453 -0.08292799 -0.3515007 0.2359864 1.314198 0.5005534 0.3426209 -0.1162532 0.2057686 -0.09921774 -0.8063971 0.3640172 -0.515224 -0.7341749 0.1889692 0.9839953 -0.8965431 -0.2136266 -0.9258863 -0.14764 -1.135119 0.3536566 -0.9779459 0.07796764 -0.3014001 -0.2063959 -0.2846672 0.4786042 0.3001262 0.3460408 0.6302759 0.2292534 -0.9200295 -0.3629307 -0.1789659 0.2564451 -0.1608677 -0.2764741 0.1333104 -0.8034632 0.2413612 0.3013151 -0.4103772 0.8837638 0.8808584 -0.1029154 1.566841 -0.3026138 0.4415182 -0.6069705 -0.5410193 0.9496257 -0.4308515 1.029216 -0.2303565 -0.6720886 0.5626643 0.3330706 0.7905631 -0.8609191 0.3753036 0.7268283 -0.6992817 -0.4321977 -0.7518855 0.142762 -0.9417552 -0.8308601 0.9316622 0.09570859 0.3080674 -0.9868228 -0.7230617 -0.2678677 0.1116766 0.7876827 -0.5450608 -0.03647796 0.06580641 1.068688 0.925586 0.2654327 -0.0900515 -1.261512 0.4820754 0.468006 
  -1.006808 -0.1327274 0.2421022 -0.3915915 -1.047263 -0.07484106 -0.1711551 -0.4148884 0.0661861 0.04151553 -0.444971 0.4572733 -0.2257569 0.297083 1.182903 1.02197 -0.2773687 -0.05497216 1.237608 0.01360141 -0.08309913 0.9842622 1.177996 0.4251816 -1.218276 -0.2695428 0.3746922 0.2234505 0.5224062 -0.1933262 0.4564627 -0.5593449 -0.7477913 -0.5944334 0.0669045 0.4726241 -0.1726072 0.7510999 -0.3483573 0.6339696 -0.1700274 0.6284599 -0.1148373 0.6950768 -0.4063059 -0.224729 -0.07708912 -0.4665788 0.2463795 -0.5294009 2.369049 0.3988183 -0.0604362 -0.2618174 0.5666512 0.4337987 0.4972825 -0.1971207 0.4396076 0.0360986 -0.2792015 -0.02795173 -0.005209889 -0.7503208 0.170603 0.05454116 0.6985865 0.8188114 0.2069855 -0.7820921 -0.3072222 -0.6870296 -0.2259656 1.038128 -0.7985689 -0.02139247 -0.05626773 0.1698509 -0.4020705 -0.06858618 -0.1091358 -0.1404522 0.3235081 -0.2569956 -0.8753347 -0.08263893 0.3108483 -0.3111572 -0.3799898 -0.6152377 0.375409 -0.313932 0.1504446 -0.79691 0.6696375 -0.03341142 -0.3130844 0.4990556 -0.591633 0.1816623 -0.3076968 0.1369203 0.8949324 -0.8072361 -0.09227686 0.1894377 0.3322937 1.281164 0.6687718 0.04710493 -0.2754794 0.415524 -0.6257334 -0.05200804 0.4656191 0.02631913 0.9144634 -0.6044853 0.9158146 0.07768116 -0.8993067 -0.2171106 -0.1361255 -0.09333775 0.3647343 -0.7365175 -1.354485 0.4124939 -0.1528368 -0.8059959 -0.7149552 0.1771073 0.6134816 -0.5626789 -0.1783177 0.6977081 -0.03520268 0.1607264 -0.2265966 0.3376884 1.004057 0.8431289 0.4888987 0.7087659 -0.678695 -0.7146521 0.643127 0.09868778 0.1558644 0.2307979 -0.9392359 -0.05245538 0.6339716 0.09798393 -0.5055123 0.40315 0.2463051 -0.2648541 0.05951789 -0.4326416 -0.3159163 1.147372 -0.3701747 0.5693341 0.4448009 0.5115916 0.6974401 -0.7674542 -0.5836328 0.1566494 -0.3926286 -0.9986651 -0.6541327 0.7131805 -0.7158942 0.110961 -0.2635852 -0.7610247 0.8603606 0.4761976 -0.2933573 -0.4950684 -0.922758 -0.04510956 0.372248 -1.201438 -0.2671417 0.479401 -0.8060389 -2.037612 0.3518072 0.7235858 0.3593678 0.4027646 -0.554451 0.8562814 -1.21137 -0.3422796 0.0311994 0.1753075 -0.2147807 0.3929002 -0.1652191 0.6573414 -0.328499 -0.1048147 0.3744141 0.2753405 0.04313006 -0.2014848 1.648821 -0.01075396 -0.7123895 0.2915096 0.9060125 0.1906552 -0.8471188 -0.2919314 0.3823386 0.965573 -0.2646331 -0.432221 0.4923639 0.04357805 0.1053219 -1.2159 0.4615326 -1.049033 -0.3860117 -0.7436395 -0.6510684 0.05422785 -0.1583382 0.7082816 0.2791073 0.1568402 0.1790441 0.5136011 0.5425317 0.269215 -0.3755603 0.1483524 0.2875841 0.1366729 -0.3545017 -0.2498808 1.611051 -1.420134 0.4699945 0.8383926 -0.2273133 0.8452294 1.152029 -0.3208715 0.764452 0.2675094 
  -1.239533 0.4086171 -0.9013802 -0.190979 -1.449929 -0.8842431 1.028722 -0.2261398 1.163852 -0.3406935 0.3280444 0.3898399 -0.7850507 1.17284 1.010134 0.02010649 0.7550184 0.07633515 -0.01011362 0.03821733 0.7797647 -0.5206652 -0.4311122 0.117918 -0.3561155 0.3500172 0.186211 0.4013133 -0.2506904 0.332748 0.8128983 0.556909 0.4712751 0.3051582 -0.0162603 1.143984 -1.02338 0.09186095 0.5947081 0.1961222 0.968532 0.1524199 -0.3898595 0.7343813 0.5603676 -0.3155002 0.5497099 -0.04433358 0.3148661 0.4196948 -0.01903463 0.9391428 -0.9772888 1.323574 -0.1991273 0.4604266 0.356001 -0.2970197 -1.533183 0.4559364 0.9618242 -0.2127811 -0.3055601 0.7165732 0.09192847 0.8797448 0.116004 -0.4683314 0.03426893 -0.623819 0.03128722 0.04768712 0.2187939 0.01258903 0.3420787 -0.6016524 -0.5612611 0.3963748 -0.8745849 0.2889329 0.4686174 -0.4728286 0.01011617 0.3838463 0.2142423 -0.9709429 0.2691567 -1.287657 -0.7126662 -0.1513398 0.1208478 0.02991016 -0.5781437 -0.5929427 -0.07479825 0.3451703 -0.4518792 -0.06850312 -0.2780715 0.3788708 -0.1420333 0.3350855 0.2417383 -0.1434604 -0.8301443 0.02561148 0.2845158 0.04174585 -0.05176291 -1.193978 -0.384948 -0.4488495 -0.2396151 0.08204398 0.4679374 -1.100646 0.7032071 -0.4029133 -0.04677158 -0.2398382 0.1652943 0.5791427 0.2921523 0.1519304 0.6917653 -1.607306 0.2164151 -0.6097978 -0.6734728 -0.6599752 0.3259788 -0.4900652 0.7323807 0.6410956 -2.026398 0.05593034 0.02185491 -1.034323 0.9009783 0.5058417 0.8532383 -0.5850266 1.083382 1.297946 -0.3106112 -0.3585939 -0.1875923 -1.77652 -0.09734914 -0.07001537 -0.2872611 -0.7225037 -0.09100276 0.5400382 -1.450043 -0.4354123 -0.295922 0.02103397 0.1416733 0.7551577 0.6329261 0.2137044 0.4362792 -0.3590837 -0.08260162 -0.4869349 -0.371731 0.4162859 -1.328725 -0.7410799 0.3343493 -2.39522 -0.7832801 -0.1989068 -0.2787296 0.1022291 0.3572697 -0.5006149 0.5051269 0.7506929 0.5053699 -0.310026 -0.004132065 -0.3861193 -0.07580649 0.1578984 -1.665598 0.3927574 -0.3793128 -0.002461337 -0.832354 0.1411777 0.7600169 0.59527 0.06659181 0.20625 -0.07887658 0.6243125 0.1230449 -0.2102406 -0.3589773 -0.1385174 -0.1602926 1.797687 -0.2886185 0.4062458 -1.088362 0.02229729 -1.66011 0.7147617 0.01632905 0.6138785 -0.02726865 0.4149789 0.1602657 0.4970193 -1.789684 0.06071977 0.7464646 -0.2585115 -0.5211803 0.2724004 0.5724906 -0.3457072 0.007280707 0.8711323 -2.028508 0.4366053 0.06071733 0.3060766 0.4196087 -0.2112912 0.104619 0.1607703 0.4939027 1.100669 0.2701703 0.1293215 0.2874011 -0.7584068 -0.04871421 1.449193 -0.0603386 1.293855 0.4273224 -0.1069718 1.529143 1.057527 -0.22058 0.4251759 0.7204306 0.2559505 1.023418 0.4023891 -0.6687418 0.3868015 
  -0.3281214 0.5969561 0.3218442 -0.3077239 0.5514475 0.9883325 -0.3033909 0.7789108 0.03614314 -0.0591457 0.4221627 0.150753 -0.5203841 0.6003395 0.8892061 0.9605275 0.2866806 0.939336 0.5847217 -0.3293895 0.8497367 1.238982 -0.495109 0.7874041 0.682699 -0.2627211 0.5604272 0.002461709 0.547429 -0.3430831 -0.7255525 0.2715909 0.5545809 0.9413206 0.4294074 -0.4183965 0.2596656 0.9944483 -0.1175499 -0.3295148 0.7694017 0.5666523 -0.5263209 1.7159 -1.539117 -0.0546944 0.497275 0.2438633 0.9658042 -0.2358073 -0.5448353 -0.3781547 -0.6640325 -1.290016 0.4206593 -1.823347 -0.505057 -0.01664795 -0.4128476 -0.7116681 0.2536088 0.4836995 -0.2410848 -0.5645917 -0.6345405 -0.2316771 0.02471892 -0.3823996 -0.590167 0.1437237 -1.543376 0.3092165 -0.2515883 -0.2693091 -0.3856449 -0.4727834 -0.2542515 -0.1362284 0.2961943 0.1066418 -0.5280727 -0.009013872 -0.4838235 -0.0550211 -0.296646 -0.2965245 0.0439733 0.2889849 1.121279 -0.1934944 0.873634 0.158468 0.6431957 0.1104975 0.90986 0.5630543 0.6566973 0.1043859 -0.5913971 0.7361994 0.9318643 -0.4780171 -0.5662503 0.1861689 -0.7466549 0.7076712 -0.05222026 -0.706599 0.7518625 -0.1429037 1.034752 -0.3749126 -0.3561663 -1.033933 0.08963886 -0.5107912 -0.0675948 0.9747165 -0.2732269 -0.3213362 -0.6872261 -0.1829958 0.08007738 0.5148831 -1.503076 -0.3480201 -1.025998 -0.9500436 -1.18712 0.3496072 2.031087 0.1365992 -0.56027 0.6986073 0.9162761 0.404605 0.00866111 0.0647992 -1.322366 0.1364076 -0.07950628 -0.6543241 -1.448293 0.3497028 0.8264688 0.7751232 -0.4451878 0.5098263 0.2522271 -0.4880828 -0.1762145 -0.1743328 1.01658 -0.2042542 -0.8750561 0.06096172 0.3749404 0.3337788 0.3931195 0.5001385 0.5892186 -0.01705705 -0.6859039 0.08341098 -0.2791827 -0.8678802 -0.2218962 -0.9543113 -0.2506495 0.5686023 -0.06759323 0.2280392 0.2926571 -0.4044625 -0.53326 0.8091995 0.8614037 -0.2193356 -0.4841719 -0.3615962 -0.06992029 -0.3140593 -0.2341276 -0.556082 -0.2201164 -0.3788909 -0.008950074 -0.5137292 0.9660609 0.08319023 0.9897612 -1.015672 -0.1252867 -0.09169497 -0.1368267 0.2501751 0.2475996 -0.2599303 0.1054889 0.8951686 0.2952074 0.14757 0.01301298 0.5634266 0.6236292 0.3261192 -0.6671299 0.2207766 0.1236691 0.1547359 0.1312785 -0.1775549 0.6900124 0.2892803 -0.4509341 -0.2643973 -0.09685564 -0.777177 0.2911574 0.4757927 -1.48596 0.2802907 0.04543331 -0.2378569 -0.1663893 0.1192847 0.05834461 -0.1503295 -0.2381692 0.396699 0.05564531 0.1175513 -0.3037213 0.3669543 0.3397754 -0.3309516 0.130522 -0.01016883 0.01459405 -0.2982417 -0.5228927 0.07303866 -0.5495098 -0.7942002 0.3344492 -0.002825441 -0.1783116 -0.1705818 0.2921769 -0.06712056 -0.6903822 0.5988402 0.2210146 0.1205203 -0.7774948 0.3235442 
  -0.2373092 0.2897304 0.6215118 -0.1785066 -0.1937884 -0.6809835 -0.5177731 1.24701 -0.2355313 0.2213148 0.4162529 0.3273718 0.3987253 0.3280457 0.4534889 1.183647 0.7136701 0.2402515 -0.1525121 -1.085617 -0.4165881 0.06130067 0.2509826 0.2452987 0.6475952 -0.7210466 0.4434506 1.270071 -0.479128 0.2045227 -0.3293289 0.05468375 -0.4568422 0.8652846 -1.248516 0.2570265 -0.1096069 -0.6529891 0.7371004 -0.05900754 0.1055284 -0.5374734 -0.3189379 0.7500096 0.5510517 0.3723592 -0.646312 -0.3149705 -1.240719 -0.02392522 1.616166 -0.7014179 1.122425 -0.6609 0.8941022 0.7232481 -0.1237816 -0.2061296 -1.743215 -0.7708408 -1.288263 -0.1201275 -0.5336162 0.2386799 -0.7406744 0.4703491 -0.2858483 0.2473818 -1.455338 -0.4777463 0.7098916 -0.4082271 0.6791342 -0.6130797 -0.5197571 -0.215952 0.4234288 0.964798 -0.20115 0.5226533 -1.260793 -0.2581057 -0.2360138 -0.5803043 0.708914 -0.3131671 -0.3156152 -0.7927717 0.8093697 0.6821347 -0.827616 0.4020411 0.4239994 -1.529396 -0.1661472 -0.9021779 0.9559948 0.4979226 -0.4875565 0.5915864 -0.4611976 1.271212 -0.6133497 0.2257196 -0.1095493 0.5338452 -0.179441 -1.232442 0.613778 -0.8028624 0.4891835 0.9499373 0.3159277 -0.1155275 -0.1007436 -0.1814047 -0.1140286 0.966398 0.8008772 1.268954 0.9300221 -1.2222 -0.883373 -0.2588335 0.04748073 0.3563421 0.5449296 -0.4145906 0.4854594 0.4799941 -1.389868 0.06194535 0.9994494 -0.9997498 0.6782351 0.4625036 -0.9267325 0.6640928 -0.9963654 -0.6836509 0.3815632 -0.2831651 -6.943052e-06 1.023186 0.4793931 -0.5967871 0.07560366 0.3865361 1.479346 0.7901862 -0.951138 -0.233514 -1.029182 -0.9622147 0.9088907 -0.3161433 0.4836974 -0.07832719 -0.7099984 0.9102768 -0.292144 -0.9089481 -0.06766603 -0.2457212 0.6635966 0.2474845 -0.1239294 0.01893838 -0.1870875 1.45098 0.4147045 -0.09306888 -0.1819077 0.3918072 -1.180676 -0.06550822 -0.5765916 0.1561882 -0.4059634 -0.1207134 0.3820072 -0.5908737 0.4612474 -0.1030251 0.4787753 0.5457124 -0.360177 -1.202047 -0.2910479 0.03851241 0.2509817 -1.4169 -0.5776299 -0.0284099 -0.1142878 0.8353993 0.1620476 -1.306371 -0.7585081 0.2164373 -1.123392 -0.3769155 0.3561212 -0.4318703 0.2277458 0.7970409 -1.237588 -0.4434938 -1.346929 -0.3477868 0.6194504 0.7144457 -0.6606959 -0.2275113 0.2588812 0.3781745 0.958424 0.4937733 0.8583644 -0.02904146 0.50665 -0.5297433 -0.2365877 0.4443347 0.207559 -0.4976527 0.6521115 0.07707207 0.07398891 0.2221188 -1.269584 -0.153579 0.1750001 0.3510818 -0.6026999 0.7907813 0.1569263 0.02260834 1.762499 0.3641371 -1.503404 -0.4038368 -1.390915 0.3921213 -0.06511126 -1.032321 -0.4718466 0.9643826 -1.054219 -0.1096319 1.345495 0.3593533 -0.7969427 -1.256391 -1.202406 0.7439208 
  -0.7618679 -1.008501 0.3792532 -0.2178323 -0.2927322 0.4986057 -0.519805 1.023188 -0.4999693 -1.19173 -0.6110784 0.3026566 0.3238011 1.146409 0.1997144 -0.4275141 0.3272295 0.5548322 0.2414183 -0.1279501 0.8984962 0.7343047 0.7096996 0.223123 -0.8700208 0.9388534 -0.3152453 0.6985149 -0.02144396 0.5236347 0.3522134 -1.029073 -0.6363471 -0.2618382 -0.05646005 -0.09383637 0.6479212 0.6137605 0.1493133 0.8472264 -0.1594601 0.5191829 0.3898123 0.5375762 -0.5440443 -1.305109 0.1342091 -0.1203056 0.8494384 -0.3651498 0.4702095 0.4066385 -0.5703934 0.1947026 -0.08612236 0.05254048 0.4918847 -0.2715688 0.2340674 -0.1166197 -0.3317135 -0.1989883 -0.2374203 -0.3583586 0.1946584 0.2420577 0.6849493 0.8496614 -0.3182874 -0.6248425 -0.1322857 -1.424434 -0.2521842 0.4729652 0.3979036 -0.5988294 0.06751093 -0.8951643 -0.3499097 -0.5903423 0.6058939 -1.090947 -0.7466975 -0.4458125 -0.4339042 0.06423876 0.8823646 0.4776121 0.1230864 -0.3696956 0.3986851 -0.952527 -0.2244604 -0.2559781 -0.2497302 -0.3530118 -0.09447684 0.04587466 -0.1280941 0.5087318 -0.4782932 0.2802012 -0.06830276 0.07573442 -0.7058429 0.2253577 1.158453 0.3145138 0.05371743 0.6766642 0.162092 -0.3237606 -0.2182629 -0.5374444 -0.8146757 0.00888821 -0.2616651 -0.6548669 0.2966784 -0.1023657 0.1506454 0.3391903 -0.3215121 -0.02308798 0.1693506 0.0993365 -0.08489066 -0.6286602 0.7216325 -0.09505238 -0.1369789 0.9701363 -0.397713 -0.6079946 -0.4056893 -1.133255 -0.1891601 -0.02289336 -1.490306 -0.1627942 -0.04825605 -0.447455 0.198882 0.4155264 0.1358531 0.2721919 0.05588029 -0.04176159 -0.009958505 -0.2334433 -1.145166 0.4567855 -0.6276602 0.6417503 -0.02632046 0.7753482 -0.4245308 -0.5883173 -0.9999358 1.367039 -0.6489362 -0.1867338 -0.2521544 -0.4735581 0.4288651 -0.7436745 -0.3149109 0.8351576 -0.3831064 0.7371041 -0.5902653 -0.2037157 0.2471249 -0.1049371 0.6055858 -0.1137981 -0.02404269 -0.6073472 -0.1203114 0.3257094 -1.067088 0.1945459 0.1465323 -0.1843512 0.7108306 0.2589175 -0.1479716 -0.24454 0.02312995 0.7163529 0.3612746 -0.2606237 0.01294987 -0.3235286 0.8327661 0.890529 -0.4258501 -0.6755642 -1.052486 -0.2953088 0.1206652 0.62113 -0.2707959 -0.006836239 0.4270506 0.4100106 0.08404044 0.579688 0.1965227 0.5642974 -0.01386037 0.2024989 -0.7002373 0.5147673 0.4290902 -0.5085968 0.8050552 -0.05503925 0.07894022 0.347514 0.2963313 -0.5267546 0.5042773 0.2527543 0.4980881 -0.08427419 -0.6196062 0.4352457 0.155304 -0.08807668 0.3752884 0.5896835 -1.065689 -0.01575491 0.1093762 -0.6593491 -0.135877 -0.4025191 -0.2498028 0.1112531 0.4406433 -0.1018199 1.349346 0.05831168 -0.2990886 0.04154872 0.4750882 -0.2500884 -0.9506521 -1.226852 -0.3784185 -0.09228432 0.5023646 0.4503058 0.6107398 0.555113 
  -0.2742307 -0.5987315 -1.590296 -1.492613 -0.5638644 -1.568279 -1.254178 -0.1730437 -0.09667561 0.7190469 -0.2631471 1.111704 -0.5343177 1.240486 0.3478828 0.8236461 -1.305967 -0.1777796 0.433271 0.930653 0.4742365 0.6872953 -0.4617805 1.065423 -0.3247029 1.547314 -1.06841 0.496144 -0.8537868 -0.1782355 -1.22357 -0.5914647 0.0850151 -1.209445 -0.2458899 1.109165 -0.06751614 -0.01581539 0.1473474 0.1408499 -0.4616374 0.1835241 0.5932584 0.5297678 -0.1642824 -0.3834167 -0.8048258 0.3717822 0.1748054 0.5977597 -1.070827 0.1216954 -0.3293975 0.8805206 -0.3863105 0.5039598 0.36791 0.3917326 -0.6019908 -0.1161862 0.4272819 0.5512305 -0.7398819 -0.1123577 -1.072978 0.4128354 -0.6658178 0.3090043 -0.1175654 0.05558755 -0.8631186 -1.516938 -0.9962603 -2.755888 -1.441388 1.515851 0.1791419 -0.6523461 -0.9301597 0.1672864 -0.9482362 -0.2246326 -0.1905655 0.4105252 -1.27293 0.298551 -2.109272 0.02386695 1.139052 0.6154988 -0.564101 -2.099588 -0.7404146 -0.5287493 -1.479532 0.0923795 0.4208047 0.8525336 -0.02548755 0.7997241 -0.59007 0.4349709 0.6677516 -0.9482279 0.1003508 -1.187468 0.2834543 -0.5311684 0.7223843 -0.292721 -0.4033461 0.6294971 -0.09225337 0.09560902 1.891276 0.2157494 -0.3947943 -0.8517669 1.10955 0.4037996 0.3739685 -0.4592946 1.176616 0.5562319 0.4160305 -0.927184 -0.007492764 -0.1165808 -0.0749128 -0.2912681 -0.7462153 1.14589 0.6495935 -1.167204 -0.7168292 0.2211414 -0.961957 -0.7828508 0.9645237 -0.6357561 -0.1175143 1.708443 0.03181146 1.505089 0.3719568 0.1524377 -0.2211425 -0.2025125 0.7383071 -0.5289819 0.06941655 0.4665743 -0.04232737 -0.08654023 0.8263101 1.587653 0.9472038 -1.047446 1.384115 1.272646 0.1528326 -0.331689 0.1983467 1.420503 0.5287288 -0.6875556 0.3464091 -0.0364693 0.5877888 -1.418305 0.5201381 1.010574 -0.1834455 0.4522397 -0.5604254 -0.7494799 -0.4388064 -0.6078827 1.885679 -0.06471216 0.2384127 -1.178455 -0.9999395 0.696101 0.5494349 -0.2261072 -0.1470031 0.2242814 -2.017102 1.08062 -1.175722 1.210191 1.589005 0.4793296 -0.4814712 0.1605534 -0.8987296 0.2037809 0.7762755 -0.002411706 0.7908473 -0.9589487 -1.354978 1.434051 1.600589 0.1488836 -0.1218091 -0.07962734 -0.04392705 0.06360243 -1.322276 0.6719027 -0.1111372 0.5429376 -0.3150671 0.6462888 0.4652154 1.796282 0.2018927 -0.960943 0.2135668 1.435689 0.3593417 -0.2411509 1.383062 0.1249315 1.095947 -1.322451 -1.618279 -0.8810599 -0.8866109 -0.0113714 0.1933046 1.368687 0.4508258 0.6888899 0.9563476 0.1156264 -0.2979479 -0.1688037 -1.241776 1.140958 -0.5122395 -0.006270604 -0.9653844 0.9408327 -1.074895 -0.4451456 0.5254325 -0.596662 0.06128876 -0.3260509 -1.995567 -1.14932 -1.403436 1.660727 
  -0.459372 0.3062462 0.3061517 -0.1622843 0.6453046 -1.059536 0.09053002 -0.02603537 -0.3600847 0.5241687 0.4233819 0.03532797 -0.4982183 0.8555776 0.6732861 0.1231468 0.0414761 -0.2570319 0.3860053 -0.1542579 0.03046275 0.3099214 0.614355 0.3742447 0.7692052 0.08112008 -0.55325 -0.8449036 0.2593618 0.7409856 0.02009357 -0.01347407 -0.3195431 0.2873007 -0.6500391 -0.05510116 -0.3640377 -0.2758207 0.1993434 -0.02502545 1.2993 0.1214828 -0.2109314 0.01259549 -1.212771 -0.4749237 -0.324458 0.1546183 -0.2453206 0.5380182 -0.0781996 -0.9555904 -0.1405225 0.6694508 -0.526153 -0.01476578 0.4078367 -0.1885529 -0.1834841 0.8830062 0.1245881 -1.895818 -0.5646739 0.7083157 0.5341577 0.408349 0.1393513 0.6879098 0.1910225 -0.3712816 0.3901284 -0.2040238 -0.3857935 -0.1960698 -0.4149059 -0.4085115 -0.2092226 -0.5153694 0.270397 0.3428809 0.3089379 0.2104505 -0.2976134 -4.13178 0.08999345 0.1483756 -1.488157 -0.5339016 -0.2357371 -0.4154553 -0.4717402 -0.5515795 0.1114213 -0.06806757 -0.936671 -0.2668534 0.3065783 0.3797311 -0.5186825 -0.3310001 -0.4689447 -0.2386858 -0.8310866 0.4303304 -0.3719012 0.4840377 0.1956148 -0.1498184 -0.3000717 -0.605463 -0.2782699 -0.1330894 -0.06959312 0.2177815 -0.5547921 1.424414 -0.3291366 -0.3160125 -0.7341554 -0.664827 -0.002685638 -0.07960439 0.4384987 0.1900062 -0.3695244 -0.08673915 0.3182044 -0.6402564 -0.3616165 0.3508318 -0.757816 -0.0238536 0.1225728 0.2978134 0.2906475 -1.067433 -0.3162339 -0.7431592 0.1900057 0.5817569 0.741107 -0.9254144 -0.3059476 0.7661719 -0.1992721 0.07317337 -0.2616741 1.077402 0.3144314 -1.119367 -0.5138692 -0.06570021 -0.2339285 -0.1393193 0.7080331 -0.4346316 1.335505 0.5560538 0.2089717 0.1993477 -0.9639081 0.3771785 0.2289352 0.7023242 -0.274193 1.062717 -0.328964 0.1008504 0.1026054 -0.4471098 0.473247 -0.1804291 0.6812832 -0.7570474 0.3362829 -1.059717 -0.7098721 0.02434894 0.9157616 3.136949 0.2215537 -0.5225926 0.5674033 -0.2161963 -0.4170555 0.9279408 -0.1671591 0.1181018 0.4429712 -0.01990851 0.9897537 -0.5523099 0.2144158 -0.05974795 0.3846847 -0.1664031 -0.1164568 -0.3637358 -0.1297892 0.7532284 -0.7009094 -0.2994729 0.2205949 0.1990808 0.1907658 0.6290926 -0.8361708 0.421486 -0.03533641 -0.06492922 0.3866466 0.7932883 0.3339969 -0.7364624 0.4944144 0.687556 -0.1180279 -0.1220504 1.58463 -1.122866 -0.6937725 0.5209885 0.5590875 -0.4272611 0.5532131 -0.616174 0.3316585 -0.5416351 0.3328224 -0.3895512 1.431664 0.5080053 0.4303818 0.01149864 -0.3460275 -0.01647699 -0.6752524 0.1038193 -0.1557902 0.2392851 -0.1740501 -0.3548861 -0.001634375 -0.5445256 -0.2830991 -0.1481031 0.4084386 0.2742476 0.8442857 -0.226972 0.5294626 0.06965733 0.0928121 -0.4526742 0.1482678 0.5902961 
  -1.113137 -0.9012241 -0.3211928 1.238069 -0.5379885 0.4406708 0.5893651 -1.045145 0.4109294 -0.2507351 -0.4184968 0.2491294 0.6840007 0.1188309 -0.5143453 0.07601814 -0.03782608 1.718813 0.4511051 -0.7178583 0.4494382 -0.28606 -0.9815474 -0.9209142 0.858829 -1.177326 -0.6172897 0.3634308 -0.9357473 0.0082779 1.316358 -1.011381 -0.5252696 -0.1183353 0.1843505 -0.242892 -0.4015678 -0.1238148 -0.4867718 -0.6479743 0.5620034 0.1625167 -0.6585599 0.6972199 -0.326673 -0.5751595 0.009126994 0.6811811 -0.3619722 0.7668645 -0.01853051 0.2638959 0.5906284 -0.4342291 -0.7297213 0.9755597 -0.1557712 0.3024254 -0.1231171 0.09483656 -0.2963923 0.9062315 -0.4182693 -0.03839273 -0.1988222 0.8017883 -0.03922266 0.2592304 0.497071 0.6693051 -0.3844035 1.305947 0.5865778 0.5615045 0.5907266 1.246907 -0.5095766 0.06906985 0.7778321 -0.4782761 0.332068 0.5548238 -0.3052105 0.05570054 1.134373 -0.03397742 0.5594087 -0.540327 0.672972 1.685699 -0.04800669 0.03046911 -0.4954551 -0.5045747 0.1051915 0.3197846 -0.02251757 0.7863442 0.1643989 -0.2725293 -0.5621126 -1.452368 -0.1160829 -0.8869923 -0.1687535 0.3972534 0.1152624 -0.4760639 0.05260804 0.115975 0.2385529 0.77358 0.008950766 -0.666995 0.1904855 -0.2048478 -1.374879 -0.104557 0.1966193 0.2956658 -0.3534834 0.1909382 -0.7533348 -0.7484201 -0.2649874 0.6655428 -0.8417336 -0.1109764 -0.01533418 0.3422554 -0.4040074 0.861346 -0.8606136 -1.108165 0.05631022 -0.009206826 -0.8982813 -0.1211434 0.04960891 0.7004693 0.7977549 0.7459882 -0.6319047 0.840571 -1.00601 -0.2961108 -0.2516607 -0.005919594 -0.3523089 0.4213811 0.6910264 0.3754482 -0.3949709 -0.289048 0.3963548 -0.1016443 -0.3484047 -0.02886928 -0.2072702 0.1406806 1.209579 0.1167651 -0.1331618 -0.3144289 1.569822 -0.9912754 0.1585596 0.1590737 0.5847446 1.060225 -0.6599451 -0.7810696 0.5462132 -0.9007725 -0.01679493 -0.3414541 0.2932881 0.53846 -0.2965194 -0.2043277 -0.8292282 0.1449009 -0.2543412 0.2347936 -0.02108257 -1.293806 0.2425814 0.8281233 0.5321493 -0.07606433 0.6659441 -0.5413774 0.1533874 -0.6453719 -0.2462154 -0.7084659 -0.3327819 0.1506602 0.1094665 -0.1060733 0.3644437 -0.2023056 -0.6178221 0.7889047 -0.1345884 -0.05740185 1.147145 -0.3259136 0.07251014 1.65135 0.1084624 -1.08357 0.2454462 0.369253 0.543391 0.1835825 -0.3331812 0.8468168 -0.7551506 -0.8068391 -0.3348391 0.0668557 -0.01032539 -0.5290099 -1.866921 -1.00058 -0.6126919 -0.03439787 0.9441671 0.6125088 -0.3245409 -1.887752 0.02443521 -0.1571489 -0.2533766 -0.1128214 0.1024201 0.9753786 0.06279391 -0.113389 0.3027624 1.270734 -0.2229181 0.006865725 -0.4435705 -0.2680008 0.6739761 -0.814413 0.208387 0.742685 -0.2110263 0.5178075 -1.242713 0.8058312 -0.199287 -0.346079 
  0.7865902 -0.7140503 0.6776741 0.2810644 0.4897575 0.2440563 0.2033613 0.7883354 -0.8469209 0.1324343 0.7034391 0.3717247 0.1647866 -0.07868951 -0.5197968 0.4114791 -1.011203 0.2779706 0.2361255 -0.2596827 -0.3301261 0.3890371 -0.4707189 -0.4045447 -0.05661007 0.197989 -0.3619637 0.2777317 0.8134764 -0.7027431 -0.4321087 0.2756513 0.8336609 0.4999352 -0.3218639 -0.5153821 0.3650234 0.3292524 -0.2422243 0.4156008 -0.349821 0.8473498 1.348625 0.2385103 0.9650848 1.517182 0.4011403 -1.391764 -0.07670584 -0.05969418 0.2062655 0.1098264 0.2167739 -0.3863938 0.09142318 -0.9899483 0.03442298 -0.5806286 -0.3421341 -0.2129596 -0.8307009 -0.1170623 -0.3846754 -1.326732 -0.3085727 0.1446499 -0.2370327 0.02417321 0.129931 -0.6855563 -0.3901799 0.7394043 -0.1341665 -0.3373243 0.8126298 -0.2569478 -0.9632966 0.3120247 0.3503928 -0.1245207 0.8306564 -0.8396369 -0.1485972 -0.4294043 0.6395001 0.1300159 0.6270856 0.4546312 0.3863798 -0.06209116 -0.7545133 -0.3218937 1.029959 -0.536851 -0.2739566 -0.1883731 -1.543956 0.05596112 -0.6645125 0.09180953 -1.033858 -0.7569526 0.2607896 -0.7129844 -0.9264044 -0.4837666 0.4814581 -0.292303 0.6294385 -0.1276297 -0.6183929 0.5551274 -0.3266218 0.01911237 -0.8975353 0.1555961 -0.2607892 0.7034845 -0.7611474 0.2038316 -0.2463518 0.2990853 1.046425 -0.3428764 -0.1788764 -0.01205152 1.460938 0.519125 -1.009546 -0.02240353 0.3234261 -0.2839653 0.3303334 0.5170097 1.099614 -0.6366313 1.330954 -0.05229881 -0.08570451 0.9416963 -0.2240507 0.5838855 -0.7812178 -0.837096 0.6697862 1.425027 0.1623323 0.4726449 -0.6786845 -0.6517701 0.3266818 0.01906116 -0.7194608 0.01660342 -0.5059544 -0.8555121 -1.240205 -0.4087367 -0.4224811 0.6015248 0.4484465 -0.1084508 -0.1293299 -0.4355011 -0.3939397 0.2335589 0.3933206 0.1791387 0.05962189 0.8242491 -0.2121774 -0.6187022 -0.4998959 0.8393698 0.1429918 0.4587874 -0.8145298 0.687368 -0.6032351 -0.1721046 -0.5486571 -0.2596601 -0.5051804 -0.973366 -0.1742794 -0.03881324 0.5860403 0.3839904 -0.372499 0.7858129 0.584782 0.4857456 -0.3917725 -0.2487034 -0.9209105 0.3722292 -0.4654393 0.003017918 -0.8514824 0.06496967 0.3041565 -0.1398108 0.9010956 0.1342199 -0.8097381 0.1163614 0.7788467 -0.6933616 -0.4446543 -0.1021791 -0.2446568 0.3678115 0.6980389 0.05821644 -0.4545382 0.01574728 -0.5328215 -0.1067494 0.3163137 0.2700629 -0.4581922 -0.2239632 0.2804438 -0.1122034 -0.04004488 0.6443999 -0.2112972 0.6358027 -0.5479569 0.8433859 -0.1017374 0.7269577 -0.9236611 0.2535591 0.7224706 0.3865316 0.8008589 -0.3166732 -0.2568445 0.4377991 -0.7513537 -0.4702251 -0.6283994 -1.458933 -0.3956683 -0.1689501 -1.176987 0.5417675 -0.4838861 -0.07217053 -0.7498923 -0.02567512 0.9579922 -0.5614309 -0.1057568 -1.653297 
  -0.5470945 1.111469 -0.5529632 0.9189232 -0.9529325 -0.6186038 0.505628 -1.440211 1.055626 0.3076285 0.4278285 0.6742821 0.9984087 -0.09695829 0.4656679 -0.1457339 0.4496599 -0.645965 2.980636 -0.08630096 -1.041375 0.4378465 0.008702344 0.7060413 1.521083 0.8268129 0.198668 -1.361927 -0.4653323 0.4066365 -1.014455 0.384277 -0.8706135 -0.6482139 -1.056898 0.1146123 0.8909905 0.0878849 -0.4403753 0.5672163 -0.2121936 0.7537442 -0.3829231 0.169095 1.160488 -0.3069565 0.5411773 0.08809829 0.7884101 1.586213 -0.1673033 -0.7286622 -0.04021087 0.1664995 0.4341801 0.2108616 -0.5508119 -0.6600865 -0.3639687 0.5918897 1.068586 -0.06348788 0.05087449 0.2626557 0.05550091 0.1251591 -0.6878914 -1.517275 0.4295272 -0.1669475 -1.657952 0.4799675 -0.03237621 1.280989 0.05105538 0.7387592 -0.0634027 -0.2375935 0.2014424 -1.080617 0.354465 0.319956 -1.962335 0.5668603 -0.3999089 -1.465082 -0.8661503 -0.4387108 -0.2721885 -0.9945058 -0.4628367 0.232565 -0.6944446 -1.13073 -0.254619 0.4980716 -1.032328 0.1389695 0.562779 0.06174297 0.4363455 -0.9683084 0.5862829 -2.049202 1.064597 0.4405109 0.6625561 -1.133889 0.3537706 -0.07551296 -0.3015754 -0.612819 -0.9696511 -0.8506104 0.3889138 0.8538799 0.3768415 0.0836771 -1.348924 -0.5451399 0.8366984 0.1533374 -0.5565346 0.1328927 -0.8769664 1.063862 -1.52641 -0.4084238 0.6008466 -0.9623666 -0.8470845 0.4228304 0.5502869 0.319816 -0.01200982 0.6557732 0.2776448 -2.745623 -0.4414559 -0.3760056 1.195004 -0.7000183 -0.4657921 0.4626742 0.2883568 -1.464618 0.6313218 0.05555245 1.021497 0.06913693 -0.6331146 0.9883401 0.08270584 1.001156 -0.3432909 -0.08953861 0.2883735 0.2792606 0.1273066 -0.9083228 0.1913041 0.4585204 0.3960245 0.173767 -0.03842127 -0.1689088 0.02620197 -0.3800716 -0.01785909 0.4732059 -1.560993 -0.5579764 -1.370037 0.03219225 0.968567 -0.8178461 0.3612846 -0.2114184 -0.03783537 -0.6531158 -0.851437 -0.5075976 -0.2286639 0.3543149 0.5869061 -0.3005225 -0.2334038 -0.3270627 -0.6139506 -1.945 -0.04231175 0.2379014 0.4663321 -0.7359413 0.8845462 -0.1181242 0.1482933 -0.6211672 -0.6245561 -0.08606077 -0.2172941 0.3404875 0.4978346 -0.3623158 0.1643812 0.9084674 0.6334153 -0.06757161 0.2670999 0.4298235 -0.1208011 0.2424787 -0.08184389 -0.7675031 0.6966458 0.668256 0.06470418 0.6302899 -0.1818328 0.8948937 0.2341724 0.1023122 -1.634863 1.300552 0.3139215 0.730799 -0.1541669 -0.01918485 -0.7930162 0.4727569 -0.2225903 -0.3197615 0.5459087 -0.5614278 0.2599726 0.04714725 -0.2368771 0.2422635 -0.005938287 0.3031301 0.9487637 -0.179602 1.266867 0.7885681 -0.2749717 -0.6388715 -0.8317398 -0.4377105 0.3431834 -0.4313581 0.1623975 -0.4048954 0.07562472 1.311926 0.900654 0.1177564 
  -0.5358251 0.4585186 -0.06940209 0.6740835 -0.1626009 -0.4179498 0.6456816 -0.2157738 -0.4655058 -0.5015509 0.01438422 -0.8756189 -0.7527862 -0.04336749 -1.729041 -0.2117807 -0.1710358 0.6665919 -0.8774494 -0.1487042 -0.05083985 -1.214349 1.084525 -0.08347513 -0.09038948 -0.8013173 -0.3254868 -0.6717408 1.209049 0.8503798 -0.3302163 1.257347 0.8780242 -1.98856 0.2113923 -0.2135598 -0.2787444 -1.354785 -1.090892 -1.174621 0.08805815 -0.251396 0.2667925 -0.734283 0.7537426 0.3808308 -0.9973425 -0.1794357 -0.7648296 0.2361985 0.780461 -0.05611157 0.1220012 -0.1172372 0.2054106 1.114547 -0.3071568 1.076831 1.293032 -0.5208566 0.03560898 0.3801124 -0.3830657 -0.1315687 0.6604743 -0.990013 1.608009 0.02585504 0.3049656 0.05802552 0.6537002 1.026832 1.731784 0.5549496 0.7009699 0.5601417 0.4984941 0.5377921 0.01533909 -0.7274489 0.2953116 0.04130799 0.2810384 0.01277217 1.380326 0.4132552 -0.6135817 -0.01343674 1.50697 0.5441525 -0.8132382 -0.9571964 0.1865431 0.08166382 0.4528392 -0.3793129 0.7261298 0.4641792 -1.224678 0.3790063 -0.6606287 0.05624997 0.2386388 0.2275313 0.05251238 -0.289483 -0.3139655 -0.3625877 1.359591 -1.355694 -0.4122165 -0.1952235 0.7029454 0.2562774 -0.134114 0.3431916 -0.0831181 -0.1434543 0.105871 0.3212869 0.3408881 0.08218255 0.5126616 -0.447067 0.2189651 -0.6457864 -0.5339307 -0.8014899 0.7624604 0.2305367 0.6165996 -0.290582 -0.8099757 -0.8726959 0.1595025 -1.333159 -0.7652731 0.1515932 0.9463832 -1.818461 0.5078715 -0.9133422 0.07059022 -0.2131755 0.5151147 -0.3904553 0.1877577 -0.5649924 -2.281548 -0.008866556 0.6866678 0.140708 -0.3307613 -0.256377 -0.2409189 0.346705 -1.825203 -0.1257804 0.155233 -0.3784929 -0.3958386 0.1780909 -1.006884 0.4975421 -1.161609 0.1239107 0.8925753 -0.8707857 0.08849424 0.5481592 -0.809005 -0.1275997 0.5987024 -0.2616508 -0.2928181 0.8627238 -0.1374072 0.3164819 -0.01200601 -0.1755845 -0.02319783 0.9876246 0.2419532 0.5795186 0.886667 0.4452542 -0.8268777 1.046741 1.093156 0.6740538 -1.66803 1.178548 -1.264643 -0.5184921 -1.612967 0.3186722 -0.08817355 0.1079976 0.4009817 0.9012874 -0.2369674 -0.2461822 0.1323892 0.02004285 -0.6730526 -0.6220391 0.6275882 -1.116056 0.6728967 -0.1249608 0.3721421 -1.587133 -0.7129089 0.7588251 0.560708 -0.8116003 1.212086 0.7039899 0.8417898 -0.7160985 -0.4746481 -0.6301233 0.6823221 -0.4257583 -1.141367 -1.284915 0.4376743 0.7968583 0.2748175 0.01637646 0.246629 -0.3519613 -0.4376043 -0.7543099 -1.257765 1.50045 -0.1183303 0.07342488 -0.553623 -0.06385773 0.8181261 -0.1978787 -0.6976033 0.1043426 0.2792241 0.3241181 -0.2097937 -0.6231114 0.7707518 1.483188 0.06327897 0.4673577 0.3396006 -0.5175794 0.9222314 -0.2594977 
  -0.3336832 -0.3481602 0.6303636 0.9484271 0.08016995 0.5036377 0.2219568 0.9864199 0.5057364 -0.1476916 -1.486535 -0.3588741 0.07535589 0.009511961 -1.072731 0.1463131 -0.1179723 1.458978 0.2969588 -0.2065947 -0.03629295 0.6130666 -0.6612107 -0.4677799 0.1712201 -1.05111 -1.343879 0.9599786 -0.6059152 0.5087492 -0.381272 -0.3294486 -0.04226031 -0.1618909 0.8400083 0.1207121 -0.6665059 -1.47824 0.4479586 -0.2184077 -0.1688776 0.8434708 -0.9062458 -0.6902382 1.316764 -0.8950856 0.6488158 0.04619002 0.07775428 -0.2449394 -0.4234685 0.2714545 -0.9883829 0.2441753 -0.7459422 0.4310443 -0.4557728 -1.164561 -0.1696966 0.1469851 -0.6940038 0.8224697 0.1714776 -0.475464 0.1191211 1.488892 -0.7724721 0.9075531 -0.2255211 -0.601252 -1.021288 1.276726 0.9451154 -0.9136848 0.5147071 0.8007394 0.2232883 -0.7305906 0.1941014 0.02172379 -0.1645402 0.002678911 0.008711923 -0.01879323 0.6091553 0.1167534 0.8255238 0.5408593 1.197497 0.01431572 0.3852082 0.1910071 -0.1485729 -0.07829657 -0.4007294 -0.3540175 -0.4591546 0.401317 -0.07111835 -0.3966458 -0.6224002 -0.367354 -0.4123173 0.3863383 0.1403791 -0.3356929 0.7252535 -0.275055 -0.0687148 0.02103364 0.8094587 0.4040457 0.2977142 -0.1578998 -0.01004352 -0.1469809 -0.06142214 -0.2695703 -0.3907246 0.2951318 0.4689261 0.1779742 -0.5042825 0.1011503 0.1196593 0.4238043 1.068377 0.05736212 1.239355 -0.04977264 -0.4788462 -1.443409 -0.2290072 -0.6346951 -0.3743494 -0.6188648 -0.6118647 0.3174928 0.0757743 -0.4542417 0.422253 -0.6170729 -0.04223031 -0.2311782 -0.5354844 0.4204065 0.1429115 -0.06537347 0.2202814 -0.7672241 0.2698082 -0.7140315 -0.7085105 -0.4799275 -0.4713725 -0.6059249 -0.341221 0.7331176 -0.2228517 0.397687 0.105739 -0.4560837 -0.2083551 0.140287 -0.9877247 0.08684856 -0.881577 0.5188717 0.4049521 0.1989512 -1.190805 -0.3989415 0.6363189 0.2601929 -0.244965 0.4791227 -1.360683 0.3263488 -0.1603378 -0.0366242 -0.3215808 0.04803722 1.203458 0.4100476 1.363274 0.4879325 0.6782615 -0.3282146 0.5103241 1.16705 -0.7977197 -0.6204605 0.1415434 0.6819764 -0.4570762 -0.8221446 0.02441947 -1.025363 1.005265 -0.6653681 -0.2975354 0.05500623 0.8511512 0.2545439 -0.4314742 0.8901867 0.1210221 -0.1389666 0.3297221 1.053416 0.2535582 -0.8638631 0.01586024 0.2210035 0.6426285 0.7465284 -0.3958473 -0.2253954 0.3474388 0.005855108 -0.4620793 -0.5467928 0.7734118 0.7331121 0.4317544 0.2712845 -1.563352 0.1497952 0.2727409 1.227546 0.144605 -1.880523 0.1929319 0.3532874 -0.9954737 -0.247028 0.4867474 0.7619265 -0.5705723 0.1136842 0.6822015 2.321024 -0.4656593 -0.1351026 -0.408045 -0.2520591 -1.077937 0.04150693 0.5951197 0.7039605 0.0623975 -0.4077143 -0.4106389 0.3551997 0.7498002 -0.6514241 
  0.9726762 0.599297 -0.0601541 1.214149 0.1447441 0.8982896 -0.521121 -0.5756138 -0.3466031 0.3468298 0.08502312 -0.2914293 -0.241629 0.2410133 -0.8026647 0.5094664 -2.28917 0.3151545 0.106702 -0.4838784 -0.8729749 -0.388838 0.225624 0.4734339 -0.1538592 -0.3213481 -0.3496945 -0.7371296 0.6962337 0.7335913 0.6665918 -0.5743588 -0.6743847 -0.09844638 0.632066 -0.2816088 0.008423279 -0.5943971 0.2629875 0.0009332458 0.3540135 -0.06924375 0.3330372 -1.114643 0.6150755 0.8379843 -0.04859827 0.3889314 -0.2728974 0.2570013 1.12165 0.6271492 -0.3042777 -0.5919625 -1.617683 -0.03976638 -0.4587313 0.04024193 -0.3328326 -0.4706502 -0.4057847 -0.3466702 -0.7478652 -1.064103 0.6364365 0.4040981 -0.4184982 -1.146807 0.282057 0.5824378 -1.395687 0.1944079 -0.4522584 -1.738302 -0.09457027 -0.5076684 -0.07931079 0.185192 0.3635881 -1.364159 -0.2227969 0.6196582 -0.4359687 -0.260033 -0.2698815 0.1789144 -0.2972775 0.1276817 -0.8764609 -0.3309608 0.2472656 0.328069 -0.1938675 0.3008001 1.564171 -0.126325 -0.6798217 -0.6974713 -0.4414712 -0.856119 -0.01615584 0.4859027 0.5304087 -0.2411241 0.3814618 0.2439712 -0.1448865 0.7889739 0.4180833 -0.9334387 -0.7198633 0.1900954 0.6525102 -0.3418593 -0.1125093 -0.8710414 -0.5719607 0.9635665 -1.018681 0.1136561 1.322009 -0.1523228 -0.2832795 0.4660347 -1.698356 -0.2799972 0.09137949 1.54945 -0.2972098 0.1284485 0.1164696 -0.04921729 -0.09702158 0.158305 -1.365083 -0.0178405 -0.2912547 -0.1908249 -0.240909 0.575482 0.6490101 0.1448651 0.05223062 0.2884972 0.1776434 -0.490881 0.4120045 -0.5046437 -0.1329 -1.490427 0.2910276 0.4204173 -0.3642627 0.09840187 -0.1083802 0.2559041 -0.00350479 0.3308686 0.8599975 0.6979486 0.7793604 -0.3131704 1.703297 -0.9969992 1.105448 -0.4630658 0.640651 -1.624777 0.9272344 0.2104599 -0.08586883 -0.4274053 -1.325668 0.1143789 -0.6042683 0.4996133 0.3732269 0.2602674 -0.6639085 0.7419711 0.4248004 -0.002197014 0.3154559 0.2670642 -0.7403454 0.6196455 0.4068917 -0.09220117 0.09568123 0.2806516 -0.2241087 -0.3426421 0.2060317 -1.13189 -0.5975852 0.5795338 -0.1596594 0.3888129 -0.002670625 0.2966211 0.2731739 0.5432978 0.531647 -0.1921132 -0.1111132 -0.4168552 1.201969 -0.09518898 -0.3289048 -0.4789264 -0.2408284 0.3251258 0.6092387 0.3276851 -0.07924196 -0.6605988 0.2675535 -1.370504 -0.4998397 -0.3945902 -0.8781691 -0.761349 -0.1384928 0.1786452 -0.08904908 -0.2887308 -2.027339 -0.09240676 -0.9447786 -0.3339967 -0.6843708 0.7344232 -1.981231 -0.07314295 -0.1706495 0.5697532 0.592777 0.4010179 0.3382321 0.8776178 0.5314634 -0.08260526 -0.8504936 -0.1086273 0.5852567 -0.8270869 -0.6981367 -0.2726139 0.2379013 0.3213025 0.7612624 0.07839199 0.3745319 -0.4449602 0.3202195 -0.334066 
  0.03489623 -0.5721555 0.2249221 0.495381 -0.03183125 0.4302839 1.146083 0.7774395 -0.2967064 -1.083869 0.8208418 -1.442873 -0.05897393 -0.6001487 -0.01799004 -0.7430169 -0.01584978 -0.5726714 -0.009348584 -1.150795 0.5350612 -0.3227163 -0.2991403 -1.514299 0.4797401 -0.3331488 0.3828884 0.837651 -0.03858554 -0.3962384 -0.5427685 0.2550153 -0.2841185 -0.7626901 0.2852665 -0.1237014 0.3577923 -0.1283007 0.8142762 0.1400532 0.3861186 0.3988429 0.6198383 -0.566689 0.135797 0.3406594 -0.3794649 0.1424652 0.1647464 0.05696412 -0.0215826 0.2107555 -0.9680327 0.07861783 -0.1093487 0.4480858 -0.9005554 0.4363607 0.7594312 -1.247852 -0.6652371 0.7094961 0.6672602 0.448302 -0.3058892 -0.0882038 -0.1859598 0.134116 0.2253563 -0.03421523 1.522534 0.125539 -0.07374369 -0.005236214 -0.2670106 0.4228404 0.5618092 -0.6271555 0.0233549 0.06313294 0.484373 -0.09465756 0.08875365 -0.04515107 0.1870532 0.7833489 -0.08748443 0.4751527 0.373062 -0.03136512 0.4244827 -0.1795166 0.2988032 0.464383 -0.1835116 -0.258155 -0.6364558 -0.2551701 0.4268907 -0.16047 0.3932954 -0.3932169 0.2416304 0.1119523 0.4979026 -0.7670619 0.6295842 0.7305812 0.08986107 -0.2472591 0.9868795 -0.439404 -0.2209144 0.3449773 -0.1618062 -0.3156778 0.3066679 -0.3231812 0.06232508 -0.06516586 0.2486418 0.0779797 -0.1451097 -0.5210333 -0.01676179 -1.37447 0.2595292 0.1639091 -1.455897 0.3805152 -0.1732595 -0.6651836 -1.163237 -1.129795 -0.1649724 0.02760107 0.5387996 -0.04475439 -0.7811645 1.241577 0.1281879 0.4562666 0.1480992 0.7125384 0.4795268 1.170545 0.2475402 0.03096017 -0.2865256 -0.721828 0.3956483 -0.0712193 -0.2596047 -0.2468325 -0.2724602 0.2436817 0.1125745 1.061675 0.111011 0.3205119 -0.1734363 -0.2864249 0.360604 0.5529817 -0.2577794 -0.2743519 0.2698214 -1.092445 -0.3111749 -0.0006411419 0.2436936 0.1735057 -0.3914919 0.3871082 0.6444497 0.5431486 -0.9871373 0.6041173 -0.1333652 0.3858918 -1.339014 0.01067253 -0.2975156 0.5453557 0.4273646 -0.1634208 -2.26423 0.09060598 0.3474018 -0.4512772 -0.2136514 0.2327454 -0.2962287 0.4906891 -0.04483862 0.003960991 0.08919135 -0.1631139 0.3519297 0.5396962 -0.371528 -0.3935252 -0.0448653 0.5868515 0.4526294 0.6319796 -0.2839963 -1.019832 1.181221 -0.4158107 0.2333998 0.1584222 0.7347296 0.9804716 -0.172246 -0.2748794 -0.3340714 -0.2449761 -0.322053 0.03648175 0.02398927 -0.9821815 -0.1894162 -0.08869583 -0.4313066 -0.7174731 0.5075629 -0.1730323 -0.6185439 0.8409305 0.5067068 1.001584 0.5443798 -0.4350375 0.7219808 -0.6597486 -0.9326212 0.4469777 -0.3635319 0.5900621 0.6758534 -0.6239796 -0.3185374 -0.5251529 0.4303828 -0.1373341 -0.1795605 0.8307676 0.3365816 0.463533 0.04744834 -0.4873883 0.008816088 -0.1478577 0.2799359 0.06280327 
  -0.03639554 0.4129942 0.4151231 1.076339 -0.1820967 -0.6521994 0.453932 -0.02930314 -0.0163158 0.1471015 0.2036091 1.394659 0.5937628 0.9574892 -0.3672968 0.8905503 -0.1346985 0.6990138 -0.1820764 -0.07743075 -0.5074079 0.177233 0.7816741 0.7742144 0.4525511 -1.459888 0.404121 0.1154813 -0.346033 0.6225355 0.1660219 -1.072968 -0.8817728 -0.9309879 -0.202445 -0.04114056 -0.3219581 0.4237539 0.6918134 0.09785369 0.1831087 -0.4937966 0.300798 1.095038 0.2243584 -0.1050748 0.3938785 0.5699537 0.8316141 -0.03127792 1.244987 -0.8055327 0.4223877 -0.5316581 -0.08312765 0.7069688 0.9284741 0.304211 0.5888305 0.654713 0.05450553 -1.010188 -0.6462046 -0.1407068 -0.4661363 0.6748539 0.9697331 0.06530549 -0.2442963 0.7131461 -0.06555659 0.3134681 0.8110485 0.6594437 -0.7783593 -0.8494813 -0.6365454 0.3179082 0.2822097 0.4879372 0.5966244 -0.1523838 0.3964621 0.363072 -0.1918064 -0.07506163 0.4243695 0.1541547 -0.3651623 -0.567071 -0.45424 -0.184448 -0.5009668 -0.1132497 0.3348946 0.5131554 -0.5215026 1.184292 -0.2585585 -0.02549489 -0.2486143 1.200461 0.8173329 -0.2817839 0.5795067 -0.2405311 0.4004236 -0.4663277 0.9613466 0.5028194 0.1373128 -0.4783409 0.3280365 -0.1536991 -1.216671 0.075137 -0.123587 0.2980826 -0.2223901 -0.4018403 0.3820517 0.210369 0.1868618 -0.0330617 -0.234999 0.003227745 -0.8637522 -0.06007078 1.157586 -0.08401166 -0.4240744 0.3557055 0.4814274 -0.9019188 -0.04762354 -0.3967795 -0.4267081 -0.4613494 0.7572021 0.06317867 0.01692593 0.5613497 -0.7210853 1.366168 -0.4399819 -0.5878494 -0.172613 -0.5985239 0.5080119 -0.4913679 -0.2335206 -0.1718936 -0.52179 0.6545605 0.116798 0.9594249 -0.1108352 -0.389084 0.2467101 0.5712698 0.3350509 -0.1286822 0.1245265 -1.07648 0.2196039 -0.04797786 0.9859443 0.6260774 -0.9915673 0.1261838 -0.474096 0.9163773 0.2373388 -1.594737 -0.3653582 0.4185922 0.09804522 0.01187948 -0.4896291 -0.2075534 0.4461561 0.7633445 0.6628125 -1.428337 0.6156 0.5286448 0.4087641 -0.2323562 -0.2900712 0.3740133 0.09581227 0.3682468 0.2873303 -1.048854 0.9118329 0.5267355 0.2796401 0.3632247 0.05344917 0.261323 0.6207353 0.0206799 -0.9222647 0.05287638 0.2179858 0.6164833 0.5048774 -0.1893211 0.1381831 0.4179737 0.4338454 -0.1024995 0.4524115 0.6483265 1.220579 0.1722642 0.5986282 -0.399553 -0.8126564 0.6141237 -0.7835369 -0.6282402 0.7463189 0.4597561 -0.329939 0.06017687 0.02735323 -0.159163 0.2377198 0.08121932 -0.7231337 0.2974679 0.2641869 -0.6466969 0.2266666 0.142871 0.4385068 -0.0631134 0.3776637 -1.965564 0.006945573 0.7371077 -0.566259 -0.6517777 0.1663746 -0.2687272 -0.271259 -0.3071865 0.3064987 0.3924329 0.4361564 0.552992 0.1217938 -0.2000498 -0.03070015 0.3053633 
  0.6575638 0.2002033 -0.6790294 1.56107 -1.193758 1.210229 0.7064673 0.6560874 -0.3493362 1.127076 0.6140695 -0.3887837 -0.4456243 -0.08148005 0.4878088 -1.119479 0.0008541851 -0.3505012 -0.6374499 -0.2393287 0.4287518 -0.8286394 -0.3245144 0.06937099 -0.2698119 -0.5781035 -0.960139 0.2373417 0.440364 0.8157483 -0.5308624 -0.7089477 0.7681062 0.2129331 0.8818795 -0.2370519 -0.310827 -1.354849 -0.2517977 0.282299 -0.6407635 -0.9411554 0.9112918 0.9194168 0.4453067 -0.5447161 0.632664 0.2299957 0.2293743 0.01021959 -0.2061946 -0.4713384 0.3728805 0.6216045 -0.2368554 -0.9265195 -0.2426502 0.1493115 0.2916283 -0.5127466 -0.7587543 0.2167056 0.5451535 0.46455 0.08900397 -0.1049986 -0.0215257 0.634729 0.117035 -0.5529975 0.3529035 -0.7025336 -0.591359 -0.299654 0.3008412 -0.9994954 -0.3662526 -0.1723504 -0.2538636 -0.2692256 0.1773713 0.5892235 -0.8223281 -1.783677 -0.5188277 -0.328125 0.3500477 0.4228711 -0.0651333 -0.08217618 0.2641275 -2.106169 0.4294182 -0.3232149 0.1917795 -1.079239 -0.01910154 -0.7400543 0.5933459 0.6562638 -0.1818777 1.175925 -0.4322101 0.7988174 -0.176466 -0.06474909 -0.3022969 -0.07444918 0.7097073 0.5736251 0.2758428 0.07213731 -0.4208084 -0.5586762 0.8014823 0.6497532 0.4440059 -0.2891247 -0.5368317 -0.5856718 0.33526 0.5593673 0.242215 0.157099 0.09359119 -0.08756825 0.639234 0.421606 -0.2901253 -0.199254 -0.1819514 0.180514 0.2673024 0.275745 0.5848591 0.2496141 0.9128617 -0.03821047 -1.061105 0.4064522 0.3288745 -0.8584017 0.02667412 0.1754365 -0.3875699 -0.3921067 -0.131846 -0.1482281 -0.109019 0.4831644 -0.08470243 0.4323604 0.2767791 -0.01180099 -0.2154164 0.6683776 -0.03435789 0.2786253 0.6601219 0.4380186 -0.1686841 -0.3391473 -0.251496 -0.7248657 0.3837851 -0.3346241 0.4007473 -0.2231346 0.02222067 -0.7072576 0.3041462 -0.002589512 0.6555982 -0.5395885 -0.4739133 -1.261563 0.3194437 0.147955 -0.0441426 0.826914 0.9610587 0.1440689 0.2629257 0.7739968 -0.4072494 -0.9347503 -0.210785 -0.1923384 0.5412048 0.2015581 -0.2784317 -0.03760443 -0.6348599 0.2597569 -0.3513681 0.3837205 0.5364711 0.4209826 0.1765796 -0.05245052 -0.03126176 0.2265707 -0.4407867 0.2218496 0.009873123 0.9198076 0.5278464 0.3096601 -0.02571303 -1.102221 -0.3796879 -0.3504978 0.8928329 0.07598867 0.3415813 -0.3360238 0.4658283 0.4464206 0.9749385 -0.08374859 0.302714 0.3182982 -0.2507689 -0.5698478 0.7162125 0.521772 0.3891338 -0.0737983 -1.09002 0.1711455 -0.1778544 -0.5205732 -1.088944 -0.024079 -0.2609897 0.4171885 0.5474104 -0.7583753 0.6733156 -0.04744273 0.5735004 1.53669 -0.1825412 -0.9208775 0.1670315 -0.001994384 0.2915661 0.9716763 1.196026 -0.5539256 -0.3483716 -0.5485466 -0.05250601 0.3557793 -0.782131 0.2030427 
  -0.0467553 0.5668584 -0.1628009 -0.3764685 -0.1118503 -0.4830211 -0.2755528 -0.2596813 0.1687384 -0.7556285 1.935914 -0.1828272 0.4663664 -0.5851311 -0.5436035 0.9625648 0.9124103 -1.185727 0.009614341 0.8235791 -0.4468716 0.2589312 -0.5455138 0.4475221 -1.31099 1.311212 0.7397753 -0.11062 0.3323378 -1.402272 -0.5371981 0.274148 0.4814645 -0.04944003 -0.2619874 -0.7335265 0.3877901 0.9137506 0.4652854 -0.286803 -0.2106161 0.5235779 0.2810405 -0.7383163 -0.3494459 0.6505166 -0.08610033 0.8444459 0.119421 0.5211663 0.05852067 0.1672434 -0.8887224 -0.2468318 0.576043 0.05921698 -0.5494505 -0.5437086 0.2627281 0.1000163 0.3743791 -0.4875079 0.5704196 -0.8175965 0.335882 0.1759984 0.6151055 -0.5538862 -0.4178119 -0.2123105 -1.304886 -0.4114687 0.327314 0.1305158 0.372975 1.354558 0.1380782 0.3839866 0.1862694 0.5013916 -0.563603 0.06609553 0.08945553 -0.07291582 -0.6194627 0.03010384 -0.4736014 0.8879088 -0.9230533 0.328115 0.09802726 1.082101 -0.10526 0.3229511 1.139016 1.013836 0.3887243 0.8647079 -0.7894218 0.2643423 0.6551586 -0.5594341 -0.2926353 0.02877447 0.3998238 0.6472346 0.997214 -0.851934 -0.125052 -0.8401076 -1.539259 -0.1128192 0.640734 0.5026287 0.1003953 0.5602289 0.2682032 0.7407079 -0.6392832 -1.027589 1.11416 0.2255539 0.2833259 -0.8723708 0.09157538 0.1967702 -0.6990778 -0.5287195 0.3502283 0.1142188 -0.1029778 -0.2746114 0.2894187 0.1327496 0.0313077 -0.6694967 0.0002800461 -0.4816774 -1.402395 -1.376581 1.391879 0.01507391 0.1891091 0.3124156 -0.3989277 0.3580299 0.8735741 -0.02727112 0.3698334 -0.5543839 -0.06069831 0.4274329 0.3809206 -0.1293991 -0.5674589 0.4843384 -0.7419044 -0.6337003 -0.4619321 -0.5907809 -0.6795338 0.2764615 0.3568651 -0.2861722 -0.6041287 -0.9523123 -0.2719182 -0.8787813 -0.09305846 0.05768703 -0.7491933 -0.6391637 -0.8243984 0.9328264 -0.1360698 0.1656708 0.4042912 0.4735438 0.3661008 0.2167542 0.5419428 -0.1176318 -0.1895658 0.6459953 -0.05140283 -0.02729287 -0.08667333 0.7062117 -0.8685988 -0.8406201 0.03958361 0.4975716 -0.3345318 -0.3797322 -1.629748 -0.6654424 0.5113929 -0.1245296 -0.6893248 0.1158614 0.6693076 0.513421 0.02962485 0.1400939 -0.09441674 -0.6656005 -0.5377219 -0.1474379 0.2977194 -0.06794134 -0.1952429 0.2553613 -0.5414072 0.03243016 1.349898 0.6540084 -0.3248707 -0.2227619 0.3442565 -0.1112263 0.2224885 -0.5986451 -0.3125659 0.3934863 0.003815674 0.1241781 0.3940527 0.1518832 -0.6530159 0.01694007 1.275507 -0.2069897 0.7245603 -0.1140222 0.1300978 -0.01040882 -0.1521954 0.3833043 -0.5326573 0.8733274 0.8579946 -2.326474 0.1249325 0.09194202 0.690879 0.1898224 -0.04442539 -0.07356997 -0.9346206 0.1719573 -0.2003661 -0.4161509 0.4481347 -0.7705847 -0.2960904 -0.1938522 
  0.3920907 0.2658625 0.007032205 -0.8469177 0.40519 0.3828844 0.233103 0.02213923 -0.1228859 0.7348259 -0.01670549 0.5291311 1.157957 0.1643139 -0.4342511 0.5400012 0.4276353 1.39028 -0.02786458 -0.355545 -0.9608725 0.9948844 -0.7915428 0.2448954 -0.6032014 -1.17187 0.8662984 -0.4147666 0.3582305 0.6641256 -0.2761869 -0.5190486 0.1121208 -0.9122387 -1.234194 -1.257284 -0.194493 0.3904432 0.4195355 0.3368053 0.3114973 -0.8467896 0.09213115 -0.931769 0.01158085 0.2765884 -0.4494961 -1.001858 0.3972924 -0.07520647 0.1857338 -0.5489771 -0.5921651 -0.3755279 0.4823697 0.6275341 0.1613395 0.2745987 -1.240118 -0.1966085 -0.4544185 -0.1255712 -0.6446413 0.2494853 -0.3796375 0.5133914 -0.4708425 -0.01673091 0.05842086 0.5103951 0.3565196 0.9339969 0.575232 -0.2171257 0.7037218 1.048168 -0.435276 1.284852 0.5489116 -0.4101212 0.7152864 0.4089797 -0.01803351 -0.3673232 0.4925873 0.5082465 0.6045538 0.6319607 0.2229546 0.4051343 0.3316898 -0.4670932 0.39399 0.2709851 0.2027629 0.3035337 -0.9106274 0.4167934 -0.2908322 0.7869481 -0.7362826 -0.4881589 0.08662774 -0.3853714 -0.7959987 -0.3288275 -0.3127584 0.2492902 -0.3914336 -0.3430094 0.09460044 -1.406146 -0.2081698 -1.498168 0.03776718 0.259537 -0.4388878 0.516985 0.1411445 0.2314969 0.1959475 0.5734023 0.01845689 -1.227251 -0.2941249 -0.2908184 0.7404079 -0.1678287 -0.04356273 0.4661515 0.2304279 0.09532228 0.5693422 -0.5996866 0.08122922 -0.8925981 0.7464203 -0.4209717 0.6189249 0.2792627 -0.477109 0.3878494 0.0942633 -0.4005621 -0.6184469 0.7581258 0.07900561 0.1563834 -0.6319057 -0.5078862 -0.9426359 -0.6557633 -0.8799271 0.2850431 -0.4431362 0.1619505 -0.8602847 -0.4742768 0.3442917 0.6191736 -0.3201703 0.3496523 0.09922426 -0.08419438 -0.5900276 0.346663 -0.2798983 0.1903572 -0.01686016 -0.7729837 -1.105504 -0.9649981 -0.3735292 0.0452682 0.5283511 0.09611069 0.5045089 1.014128 0.01151224 -0.2337584 0.1490746 -0.6021303 -0.5243295 0.937946 -0.4319692 -0.3376169 -0.6900974 0.1280912 -0.007338907 -0.1539485 0.1974168 0.4979638 -0.4034775 -0.4457341 -0.1790751 0.2250751 -0.1249866 -0.02376986 0.08088814 0.685275 0.003316504 -0.0417707 0.6467654 -0.5902476 0.2259101 0.1318478 0.2283981 0.1866354 0.02566615 -0.06456519 -0.9445203 -0.6299967 -0.23113 -0.5776911 0.5119626 0.772135 0.5584174 -0.3371564 -0.2376029 0.4044935 -0.4819567 -0.2654533 0.07480614 0.3058136 -0.2595817 0.5657811 -0.205744 0.6526718 -0.7814704 0.349139 -0.249608 0.3697216 -0.3527189 0.2764565 0.5883378 -0.2341135 0.3826032 0.4938107 -0.7787015 -0.05838282 0.8812259 -0.06742234 -0.4569869 0.2002738 -0.01776468 -1.26384 -0.4565609 0.592057 0.3080697 -0.05377672 -0.1441554 -1.000197 0.4158563 0.5112513 0.382167 -0.3637653 
  0.0401605 -0.1399137 0.4700592 1.149951 1.226333 -0.5738665 -0.2980294 1.031617 0.6624387 -0.6915038 0.405557 -0.8204144 0.1174962 -0.8628908 0.5185537 0.08762649 -0.1306487 -0.4699702 1.422588 -0.08602469 -0.5037737 -0.05310467 1.092565 0.01281264 -0.824164 -0.3057579 0.9050688 -0.539901 0.4520706 -0.5073901 -1.313062 0.4282589 -0.6314797 -0.4156063 -0.92453 -0.7783468 0.9186897 -0.1431072 -0.7059408 0.4557455 0.0892216 0.765977 -0.1839022 0.03130945 0.3161577 0.1193366 1.133973 -0.1894169 -0.2446596 -0.391652 1.624978 -0.195682 0.1249914 -0.8748438 -0.701797 0.5075422 -0.4308141 -0.3331307 0.2792238 -0.7132417 0.3160211 0.6867672 0.9588447 -0.2084418 -0.240714 -0.4168689 -0.00695303 0.3171807 0.3858076 -0.6632774 1.498913 0.2844506 -1.082211 1.75571 0.2421249 0.1522818 0.3265912 0.6049886 -0.540638 0.1550831 0.183775 0.04328786 -0.6869296 -0.4118788 0.08201977 -1.455679 -2.015098 0.2969907 0.115065 -0.2380909 -0.06555731 0.4446242 -0.7985969 -0.2840254 1.841319 0.3165891 0.152866 -0.8514758 -0.00428736 -1.033064 -0.7617738 -0.03255588 -0.2174576 -0.3373422 -0.2483531 -0.3628271 0.8193107 0.6673535 -0.6363516 -0.2194752 -0.5131672 0.6322953 -0.4549365 -0.09548294 0.1114583 -0.4401953 -0.2896945 -1.143838 -0.2704838 -0.05955387 -1.014949 -0.5796998 -0.7054424 -0.07160636 0.1158923 0.6566228 -0.02518748 -0.3576394 0.3473265 0.1357883 -0.2996277 0.5371561 -0.4183291 -0.03884213 -0.1672701 -0.1513793 0.1823195 -0.3666306 -0.35138 0.1650283 0.5906963 -1.122178 -0.860297 0.7133349 0.01373486 -0.3333256 1.62997 0.1543095 0.8015873 0.01032979 -1.229708 -0.1465443 0.181613 -1.202364 -0.4239571 -0.527108 0.5608718 0.1161144 -0.04230037 -0.0458516 0.6994092 0.9741451 -0.2101452 -0.6687165 -0.239849 0.577141 -1.434341 -0.2579663 -1.458461 2.091813 -0.7624786 -0.7444481 -0.7684321 -0.5703269 -0.02037465 -0.06835753 0.6772247 0.03119979 -0.3412352 -0.03952874 0.3344173 -0.7077016 0.7174218 -0.2722678 0.2898951 -0.009192555 -0.02783266 -0.8784024 0.6273703 -1.775614 0.4079522 -0.1394296 -0.910033 -1.205973 -0.3114924 1.557036 -0.04735722 -0.05679341 -0.02221894 0.5352706 -1.181641 0.5918317 0.004453419 -0.2687292 -0.7777725 0.3600378 -0.3274162 -0.3361965 -0.07268606 -0.1142825 -1.233271 0.2951522 0.2407166 0.08769155 -0.02968504 0.6298751 -1.754443 0.01756117 -0.5812159 0.7606937 -1.116304 -0.02301832 0.4175337 1.9237 -0.7658467 -0.3536794 0.0379192 -0.7644845 0.08411116 0.4589129 0.02873236 -0.02007911 1.008705 -0.5204752 0.3372975 -0.7238675 0.536497 -0.6016737 -0.1915137 0.05443024 0.07704672 -0.1326129 2.206793 -0.01607337 -0.005152176 -0.02555232 1.279643 -0.7051359 1.152365 0.6533558 0.280647 -0.3905487 0.799642 0.5266889 0.3393922 -1.594552 
  -0.4496101 0.2087541 -1.237564 0.1182263 -0.5977376 -0.7562752 -1.060871 0.596988 -0.2436479 -0.09918264 -0.157698 0.2076848 -1.116386 0.7490477 -0.03571072 0.1051713 0.5097461 -0.6087191 -0.6199245 0.02568838 0.643434 -0.469047 0.144078 -0.1341125 -0.6307473 0.941153 1.073993 0.855168 0.7268013 0.7444295 0.00314721 -0.8475394 -0.04586967 -0.5573493 0.3206108 0.3504342 -0.2461442 0.9744483 0.2782647 -0.2719372 -0.6814883 0.170494 0.03964921 -0.1604276 1.124502 -0.4064838 0.5167547 -0.7817602 -0.7421096 -0.4187067 0.6620743 1.098112 -0.5862404 0.028427 -0.5019884 -0.3940775 0.3013431 -0.7297133 0.248914 -0.7555179 0.7989908 -1.342927 0.4633369 0.3978198 0.6625355 -0.8348992 -0.4742174 0.6834784 0.2243337 -1.246984 0.1986801 0.3928719 -1.520434 -0.7059027 0.5931342 0.3077449 0.3249426 -0.1024925 -0.4420688 0.1222752 -0.2571367 0.1999234 -0.1229323 2.464548 -0.07074048 -1.262808 -0.5710559 0.2885506 0.3999169 0.3188531 2.228888 -0.1040091 -0.5413074 0.40486 -0.1296793 -0.6989982 0.3164053 0.08023316 0.4744744 -0.4005323 -0.5499114 -0.1483314 0.01555112 -0.1865822 0.1223508 0.5093229 0.4547151 -0.140185 0.8455498 -0.1211328 -0.03710049 0.9618768 0.6307609 0.1385342 -0.4896994 1.373246 0.4198855 0.5452391 -0.172909 0.5195588 1.129905 -0.8865913 0.6826586 -0.1016965 -0.6469971 0.2837182 -0.4200173 -1.186812 -0.1151248 -0.634289 -0.5614859 0.445447 0.3800893 -0.04804504 0.1933934 -0.2783762 0.1531028 -0.5057787 0.1615036 -0.1140951 -0.7886644 -0.4859033 0.2102643 -0.0012852 0.6072346 0.3530959 0.0833807 0.1902819 0.1848968 0.1553884 -0.3522914 -0.3172593 0.6387515 0.2242529 0.9965829 -0.1682543 0.07182156 0.585753 -0.4163693 -0.02469928 0.2019891 0.1415542 0.1934382 -0.01155097 -0.03974317 -0.6725038 0.1679911 -0.4708286 -0.4758835 -0.1569282 0.07235723 0.295099 0.0006654089 -0.4903295 0.01931227 -0.002986663 -0.5420433 0.1438173 -0.2535549 -1.850609 -0.1021415 0.4942809 -0.3302882 -0.3534003 -0.01922582 0.5850373 0.1761691 -0.4905166 0.4352995 -0.0263594 -0.1518586 -0.1422295 0.3955618 0.63805 0.438542 -0.3973704 -0.7384458 0.05772683 0.004939607 0.6396912 -1.66012 -0.2392447 -0.2940888 -0.5664059 -0.06303106 0.5624167 -0.6196818 0.6682631 0.2887799 -1.087464 0.4493354 -0.1420275 0.5117062 -0.5141553 -0.5824655 0.3343182 -0.7318862 0.4412892 0.3494978 0.390543 0.5901287 -0.1590133 0.2113265 -0.5955522 -0.03000092 -0.5064788 0.2031385 -0.5313165 0.3494773 -0.02643611 0.5822774 0.05435555 -0.7011713 0.1017163 -0.3041521 0.8198336 0.008761246 -0.1247358 0.6520699 -0.5694849 -0.3684529 -0.1930015 0.09507356 1.272404 -0.1290781 -1.854877 -0.01221549 -0.04090675 0.625603 0.01272242 -0.4382004 -0.4911713 -0.1027975 1.158388 0.3011315 -0.3975852 
  -0.3100857 -0.3261846 -1.030006 -1.55743 1.02068 0.6728289 -1.111362 -0.3944349 0.609585 0.3674786 -0.06101196 -0.7045338 0.8780873 0.5653493 1.249806 0.6038814 0.008418983 -0.4510511 -0.4532552 -0.2660947 -0.6335789 0.1314792 -0.8697005 -0.6320493 -0.7168466 -0.0589123 -0.8128416 -0.5947061 -0.9128125 0.008753427 0.2602773 -0.08786518 0.9817219 -0.9076157 -0.3000077 0.8347909 -0.9393511 -0.03663486 -0.4501666 -0.3601403 -1.27047 0.04473738 0.0604145 0.5017998 1.17725 -0.4197673 0.8148513 0.01291088 0.4762491 -0.4268864 -0.1206583 0.5627488 0.147022 -1.252628 -0.179215 -0.0442525 0.2791616 0.1431555 -0.8890637 0.4628242 -0.08102486 0.1465832 0.4578253 -1.277029 -1.285626 0.5884988 0.2721917 -0.4058515 -0.1586562 0.3382537 0.2050573 -0.05992314 0.4034303 0.08560492 -0.2454329 0.4798639 -0.4222648 1.204922 -0.1314769 0.2887287 0.6718038 0.2497076 -0.2977466 -0.4662839 -1.114174 0.1874248 -0.3453787 -0.4550269 1.598193 -0.5978972 0.4609393 0.3525665 0.784319 0.7205516 -0.6463959 -0.8480267 0.8483515 -0.5776256 -0.06211791 -1.458199 -0.4147857 -0.2962648 -1.293432 0.003085813 0.3882514 -0.1177994 -0.1999725 0.1461766 1.360776 0.3062047 -1.426582 -0.45275 -0.3793614 0.5738739 0.3926802 0.4207365 0.1347376 -1.316494 -0.1043157 0.09254477 -0.4241975 -0.3766905 -0.3697285 0.4966899 -0.6548358 0.0637031 -0.9219034 -0.01988297 -0.7421091 0.3990828 0.1868491 1.011045 -0.6906985 -0.06489409 0.5662934 -1.074384 -0.7192007 -0.7099615 0.2552073 -0.2738309 0.4719969 0.3115068 1.447632 0.4201288 0.8673961 0.2454435 -0.1583731 -1.220132 -0.1410895 0.1607136 0.4071082 0.3365836 0.635353 0.1182378 -0.5812809 -0.4156508 0.710391 -1.112127 -0.3972251 -0.03563789 0.9719159 -0.3343646 -0.03206507 0.6363202 0.6283114 0.3260447 0.0616047 0.01540803 0.1809746 0.6760811 0.4297169 0.2717451 -0.4803399 1.082477 -0.01689743 -0.3931712 0.9186099 0.2982676 0.2613136 0.3040388 -0.6750626 -0.1485218 0.05648395 0.8270286 -0.718138 0.08915944 -1.521864 0.06880213 0.7105434 0.3136263 0.4599033 0.2460441 0.1109834 -0.187946 -0.7872737 -0.2243527 0.1606381 0.9610574 -0.5034496 -0.4312674 0.1936962 0.4940318 -0.2170891 1.404982 -1.168145 0.04107294 0.4300682 -2.174153 -0.05375259 0.2890201 -0.2973794 -1.100647 1.513124 0.2466591 -0.2726961 0.5549194 0.575817 -0.3435964 -0.7086433 0.2524107 -0.1194361 -0.152132 0.08892395 -0.6429918 -0.6000816 -0.5337821 -0.8364502 0.6311727 1.323694 0.3596442 -0.853958 -0.6732054 -0.6141974 0.4085999 -0.3808461 -0.9719064 1.248993 -0.06660116 0.887409 0.8041863 1.112537 0.433929 -0.6848288 -0.9447345 1.21996 0.6787663 1.088276 -1.285998 0.6964882 -1.813385 0.5142054 -1.626613 -0.5097392 -0.67849 -0.3130133 -0.10347 
  -0.4687828 0.6407811 0.04576128 -0.1271784 -0.02801834 -0.9810314 -0.2329555 -0.1669973 -0.4167548 0.3340452 1.069616 -0.7883643 -0.5291416 -0.2275719 0.8384844 -0.08050865 0.8229536 1.035438 -0.4861422 -0.006238536 0.569436 -0.2602049 0.30746 -0.2517505 -0.3517015 -0.2945843 0.07649353 -0.4829039 -0.02152087 1.226153 -0.06581792 0.0733813 0.2572325 0.9086919 -0.002299611 0.2583603 0.5288043 -0.2726585 0.2025082 -0.4954172 0.5178398 0.6456329 0.954136 -0.01810005 0.459843 0.1179724 0.3994605 0.4878279 0.451453 0.9330871 -0.1475676 -0.4369072 0.3625928 -0.1153202 -0.6682661 0.3834223 0.3354453 -0.6097456 0.05187139 -0.105153 1.132394 -1.216885 -0.3730755 -0.2091372 -0.568324 0.4627571 0.3319453 0.2441805 0.8795301 -0.3127752 0.03672309 0.1507141 0.506091 -0.3661596 -0.007009316 -0.7155301 -0.2084852 0.1007045 -0.4354944 0.2606489 0.975143 0.8261727 0.3152161 0.2310818 -1.264574 -0.1281591 -0.6145623 -0.1209903 0.4591829 0.7890573 -0.7698464 0.2970451 -0.4538063 0.728143 -0.5580112 -0.3735387 -0.3339171 0.6632786 0.5808203 -0.06273658 -0.4500059 0.2836165 0.5309156 0.7607722 0.3259926 0.003035557 0.1939366 0.01098986 0.05836507 -0.1771866 -0.4570662 -0.6045052 -0.1546915 0.3388356 -0.2831697 -0.5790625 0.2335105 -0.6411903 0.4476394 0.6466759 -0.4826816 0.1169583 0.3680857 0.1771669 -0.6570998 0.5308066 -0.8914198 -0.5011852 -1.275616 -0.06995114 0.3654853 0.03832445 -0.7566858 0.1104929 -1.919915 0.07591498 -1.132366 0.3237185 0.8901979 0.6454881 -0.3866176 0.04175171 -0.01249381 0.4046518 -0.3615201 0.1934054 -0.1179711 -0.4631207 -0.08801619 0.5399698 0.4303599 -0.9688485 0.3690957 1.187412 0.2595124 0.6804196 0.1751214 0.3482946 0.03837045 0.3163169 -0.2660626 0.05409314 -0.01137241 0.0508562 1.413361 -1.823868 0.08961418 0.2035478 -0.08103036 -0.362938 1.37901 1.17135 0.6416647 -0.03395511 -0.6314476 0.456358 0.5472439 -0.6078897 0.2032063 -0.01333271 -0.4193988 -0.1519754 0.1140734 -0.2732745 0.3825465 -0.08890375 -0.03717087 0.287337 0.30077 -0.3821349 -0.0744516 1.113441 0.1458362 0.1114738 -0.3788382 -1.084619 0.5152679 -0.1270929 0.8125132 -0.7200205 -0.5622132 0.3874954 -0.3011594 0.1841517 0.0570687 0.1247057 0.956216 -0.1843184 0.4216279 0.0157842 -0.7168035 -0.2423853 -0.04203531 0.1459959 0.3233872 0.7582737 -0.8221564 -0.8418865 0.378502 -0.1801163 0.03009851 0.03247713 0.1033926 -0.4407735 -1.317678 0.3324193 -1.658219 -0.501812 1.218792 -0.2833567 0.2322261 0.6368425 0.6531483 0.3841232 1.171023 -0.2534083 0.1771995 0.1631027 0.08811218 -0.01434477 0.855814 1.072704 -0.5155775 0.02527601 -0.1338339 -1.198869 -0.618538 0.2587928 0.2968303 -0.02935215 0.1867199 -0.3661378 -0.0790716 0.415866 1.261971 -0.2377572 
  0.3819152 -0.07882724 -0.2847363 -0.5848241 0.1291547 -0.3858535 0.3121704 -0.03232411 -0.8740714 0.9017879 -0.5234025 -0.2032072 -0.0950388 0.1887383 0.9744509 -0.0240497 0.4497257 0.02691244 -1.64227 -0.1878845 -0.3562416 0.345194 -0.9153763 -0.3357193 0.7457262 0.3593197 -0.4107055 -0.09707718 0.2150691 -0.3382543 1.003989 0.4895669 -0.06987195 -0.5361071 -0.3870632 -0.03451604 0.03490502 0.4624667 0.6184231 0.1827834 -0.1309076 0.2821746 -0.05635536 0.3687698 -0.1399416 0.1445311 0.06840177 -0.1189452 0.5193225 -0.3684182 -0.7033443 0.06797643 -0.4877049 -0.5219687 0.5366512 -0.1153305 0.436785 0.246395 -0.7198982 -0.06582768 0.6118413 -1.467914 -0.3912316 -0.006324036 -0.04901291 -0.6021844 0.03505022 0.8047569 -0.2828887 0.3159047 0.2554959 -0.45747 0.2474019 0.409167 -0.2566299 -1.233309 -0.04534447 0.9596768 -0.2800539 -0.4370842 0.09278066 0.6141305 -0.774287 -0.09336783 -0.2501987 -0.004577525 -0.1330805 0.01777048 0.3010922 -0.3006325 0.6249439 -0.2125377 -0.5721906 0.3899016 -0.3249842 0.1581747 -0.2881557 0.2622269 -0.6208063 0.3117423 -0.948069 -0.1560308 -0.2675774 -0.1216525 0.2239512 0.5308574 0.4387533 -0.1799199 0.8761846 -0.1617738 -0.1124046 -0.1500638 0.6935635 0.1092938 -0.1655645 -0.3335928 0.1803374 -0.06250048 0.5121837 -0.05176879 -0.727854 0.3117853 -0.05554199 -0.2955515 0.0917677 0.2897981 0.2399012 -0.3044731 0.3045509 0.46635 0.2657422 0.2058382 -0.09844489 0.2197107 0.2292811 0.3461716 0.8983436 0.2410939 0.502432 0.2702104 0.8513345 0.2099557 0.734724 0.6346996 0.1544688 -0.08449461 0.01017219 0.0136577 0.5689665 0.2842603 0.03988876 1.14456 0.7966796 0.5912154 -0.2697282 -0.6039115 -0.04858295 0.01913125 0.4097967 0.2567974 0.293546 0.2807602 -0.6601401 0.7362047 -0.5334538 -0.9999359 -0.761574 -0.5079554 0.1559297 -0.2118693 0.4430223 -0.8808034 -0.6413916 0.4960504 -0.4632785 -0.1302576 0.5437262 0.1949358 -0.08969184 0.04399142 -0.7574302 -0.5152441 0.04595141 0.4393804 0.4866662 -0.7682285 -0.2684465 0.866243 -0.3759173 0.1147595 0.7694236 -0.005416806 -0.2454741 0.8905213 -2.033881 -2.308185 0.7911733 -1.493252 -0.8880265 -0.1224303 0.8373761 -0.1747511 -0.1169131 0.7794569 0.06921457 -0.6899186 0.2575459 0.1304474 0.1808854 -0.7410445 -0.506366 -0.09852957 0.3782006 0.2691015 1.089067 1.0152 -0.4958987 2.086459 0.7402186 0.1157277 0.2911337 -0.4966093 -0.03411815 -0.1028231 -0.4283851 -0.6596791 0.1021683 0.5510851 -0.3908823 -0.8687016 0.8453295 -0.2600224 0.3985052 0.7525923 -1.310906 0.2997575 0.1478504 0.4058441 0.2374733 -0.07597253 -0.6810293 -0.07259529 -0.1180767 0.1999538 -0.7347013 0.9657301 -0.5120519 0.397333 1.300442 1.140672 0.05607835 -0.3211603 -0.5802705 0.5653071 -0.7041095 -0.738412 
  1.403923 0.09483118 -0.01799517 0.5905182 0.1302095 -0.2798326 -0.3960997 -0.4766162 0.2691163 -0.2146705 -0.005153197 0.05235991 0.3241239 0.3029208 -0.9652616 -0.3551066 0.350566 0.2653045 0.3806047 0.3358047 -0.2317576 -0.218152 -0.07207209 -0.8145895 0.9283359 -0.5530797 0.1157483 0.2765453 -0.07278845 -0.361097 -0.2530567 0.2376659 -0.009123923 0.02583339 -0.004981866 -0.3148929 -0.4763796 0.1243044 -0.06898233 -0.01091847 0.155534 0.2584659 -0.1257815 0.2424456 0.3317258 -0.5806575 0.3020577 0.03894332 -0.5192668 0.873601 -0.3381126 0.02172085 0.5440573 0.2279015 0.1264678 0.5137359 -0.2077146 0.4061621 0.4059959 -0.07703579 -0.5374807 0.09806307 -0.7897405 0.006853043 0.3578803 -0.8133467 -0.2567657 0.2096219 -0.8036057 0.03168327 -0.2735495 -0.3634049 -0.2251729 -0.2985427 -0.4192275 -0.3665053 -0.6504816 -0.1611547 0.3953385 -0.1157211 -0.7547512 0.5371105 0.1112678 -0.08452328 0.3502774 0.1091195 0.1658218 0.2208463 -0.2654824 -1.094098 0.3906825 0.3199725 0.05881704 0.4619424 0.6394814 -0.01315574 0.05008802 -0.1854264 0.1416436 -0.1941372 0.2642451 -0.2494359 -0.03201675 -1.163961 0.8579768 -0.5606467 -0.08276797 0.1801873 0.7148633 0.1951945 0.1251375 0.2010399 -0.4704257 1.052415 0.1281829 -0.1801982 0.0599916 0.09098784 -0.08003194 1.475826 0.03497965 0.3200729 -0.6150334 0.06915266 0.6639725 -0.48736 -0.1889532 -0.2818216 1.335662 -0.06365796 0.2391173 0.8589953 -0.5399781 -0.1354942 0.06113711 1.058488 -0.344048 0.5097742 0.1990782 0.2700621 0.6996765 -0.1203896 0.002231088 0.2770087 -1.228878 -0.450917 0.5430568 0.1904566 -0.903914 -0.3684113 0.02083434 0.512856 0.626286 -3.021388 -0.3344056 -0.02168903 -0.1638003 -0.08544921 1.392692 0.567669 -0.7750981 -0.07732003 0.9799891 0.4141444 -0.1669782 0.181222 -0.5289105 -1.086055 -0.1209397 -0.920561 -0.5132256 0.1340622 -0.3741142 0.09489394 -0.08595908 0.08807919 -0.3908141 -0.3485227 -0.3955386 0.05425331 0.1227662 0.2117552 -2.023916 0.2992769 0.728515 0.5036747 -0.1089447 -1.160754 -0.06176102 0.09511048 -0.1509505 -0.3037678 -1.925913 -0.5064699 -0.08107811 0.08086406 -0.2820016 -0.07957665 -0.4961376 -0.08323574 -0.9846302 0.1548144 0.7472369 -0.1850127 -0.1053645 0.2521196 -1.110299 0.09191713 0.1626032 -0.0593845 -0.3590019 0.2780138 -0.1045623 0.8182083 0.7297307 -1.176203 0.1181465 1.093241 -0.1421898 -0.1069099 -0.08088932 -0.1998649 -1.369617 0.2655728 0.01958419 1.081573 0.5765346 -0.357214 0.9365482 -0.2524294 -0.02616519 0.8009936 -0.06426271 -1.286988 -0.1782009 -0.6393487 0.7026637 -0.07628042 0.09860254 -0.02196041 1.145069 0.6567348 0.2479407 -0.2404112 0.1929779 -0.001879709 1.979636 0.2049184 -0.7543198 0.7650483 -0.1967901 0.7835932 0.2903655 -1.331855 0.1541176 -0.3589036 
  -0.08713273 -0.07684278 -1.104844 1.009938 0.8748143 -1.453881 -0.3004817 -0.2148283 0.6567574 0.1634735 0.8551827 -0.3565476 0.5701771 -1.461061 0.9906563 -0.1459254 0.1245462 0.07315159 0.5044902 0.9413333 -0.7135209 0.1355065 -0.3659296 0.2885445 0.2053019 -0.2841625 0.5598221 0.4410026 0.1055195 -0.7265409 -1.628312 -0.6192046 0.7727864 0.3016649 0.2528665 -0.2775676 -0.6299232 -0.1777524 0.1793629 0.5449829 0.1102098 0.7747983 0.1325158 0.9289046 -0.5639265 -0.386585 0.7083498 0.2550479 0.1494306 0.123027 0.3698644 -0.05141897 0.9369992 0.9755327 0.05203443 -0.2090142 0.4483004 1.117099 -0.09655362 0.3891686 -0.6216117 0.2602053 1.013721 0.4652011 0.2523564 -0.921108 -0.170957 1.495785 -0.8564637 0.13286 -0.3041766 -0.256929 -0.7620052 0.1319494 -0.4791822 0.5593048 0.3352483 -0.2790313 -1.018317 0.6618087 -0.1277876 -0.4614322 0.2757076 0.9914379 0.03609776 -0.7371659 -1.368568 0.4385044 -1.57223 0.634529 -0.4355249 -0.8914686 -0.6376259 0.4545268 -0.9236755 1.494822 0.9040078 0.7060791 0.8431709 -0.7681579 0.4590707 -0.05534808 -0.6425459 -0.1595323 -0.7977254 0.1957097 -0.5375385 0.0369298 0.1518207 -0.1743939 -0.1028327 0.2522479 0.02606542 0.428 -0.8543848 -0.1928867 -0.2165456 1.450548 0.7217013 0.08803285 1.522723 0.4242087 -0.3792561 -0.1086629 1.052106 -0.6154363 0.6919352 0.1199864 -0.3241603 -1.275113 -0.5429139 0.7821806 0.1663458 -0.03128252 0.4029643 -0.3585183 0.1907291 0.5073748 0.6603789 -0.2227708 -0.7262379 0.3943215 0.3712174 0.407366 -0.8701205 -0.6765346 -0.4909293 0.218199 0.6137283 0.6255924 1.104129 -0.02251722 -0.3111974 -0.9698451 0.09113185 -0.02849339 -0.585896 -0.880187 1.07185 0.2294748 0.5807621 0.06623621 1.038156 0.0457125 0.1938742 0.03294128 0.09776655 0.4230213 -0.3628639 -0.4963347 0.1723594 0.1158604 0.6120525 0.4016533 -0.6328202 -0.7793812 0.07316076 -0.414801 0.2982101 0.1635735 0.1561814 0.0501832 0.8229761 -0.2329246 -1.377635 -0.5043418 -0.3036321 -0.9335274 -0.336459 0.06507542 -0.4827651 -0.8288723 -0.6338333 0.6602554 -0.02999009 0.576931 0.8938231 0.6409447 -1.532405 -0.4455993 0.1306612 -1.0964 -0.1149601 0.1994915 0.7073209 0.8815776 -0.04404148 -0.137733 -0.5323122 0.1309841 0.9363215 -0.2108536 -0.9346358 -0.1808971 0.3716729 0.6260502 0.3110288 -0.07292877 1.229141 0.0253929 -0.5350402 -0.4988377 0.5987539 0.3613278 0.1036592 0.1011943 0.4723487 0.6802688 -0.05120777 0.6036254 0.9519008 -0.1464974 1.14236 -0.4899409 0.2465183 0.28016 -0.03888127 0.07326572 0.6495295 0.01594975 -0.8438757 -0.03833564 0.3142932 -0.3281922 0.1858284 0.298778 0.6589388 0.05413828 0.05747876 -0.6405541 0.5309446 0.3785158 -0.2182928 0.075445 -0.9593543 0.007807953 
  0.147434 -0.07735731 0.1821161 1.374802 0.1633048 -0.2877242 -0.4351037 0.3302727 0.7369789 0.2453359 0.418913 -0.206427 -0.06475341 -0.365243 0.1028665 1.257606 -0.4282848 1.878836 0.4249643 -0.01677547 0.285458 0.409587 -0.03334277 -0.2197237 -0.1914837 0.0290562 0.01674483 -0.5620366 0.05207325 0.07073257 0.6317286 -0.05083204 -0.6688885 1.335532 -1.018685 -0.08599214 -0.1071555 0.1446564 0.06230269 0.2661776 0.004323961 0.2710423 -0.002010712 -0.1742801 0.82277 0.5716653 -1.23515 -0.6787811 0.1683272 -0.000807307 -0.06445742 -0.1180919 0.5389526 -0.5169122 0.6137573 0.06859346 0.510415 0.2606869 0.06622003 -0.1963478 0.3426776 -0.2212081 -0.9812034 1.147911 -0.8507124 0.7895733 -0.6923988 0.1709307 -0.2688661 0.5634176 -0.547438 0.4074035 -1.281608 0.1016343 0.3356257 -0.73646 0.5995958 -0.1595322 -0.4898807 0.2025054 0.508061 0.2517727 1.61393 0.3595341 0.7354672 -0.7692851 -1.378675 0.6043492 -0.07870735 0.6027994 -1.442259 -1.204443 -0.367568 -0.7637377 -0.02118308 0.6175633 0.8874587 0.4607501 0.03461431 0.5040866 -0.1259564 -1.290598 0.1566803 -0.5214082 -0.4681948 0.6988583 0.0766833 0.9099549 0.7167389 -0.2561398 -0.1595336 0.7476644 -0.3979594 -0.0481099 0.4205599 -0.2674926 -0.1622945 -0.7323532 -1.32412 0.05779636 0.4107819 -1.46609 1.030303 0.1017839 -0.844366 0.03842217 0.3329864 -0.8580756 -1.225379 -0.09936624 -0.5172051 0.08984111 0.1362301 -0.2639096 0.1166903 -0.104263 0.2303662 0.2958684 0.9930726 0.4566651 -0.6642108 -0.01845009 -0.097846 -0.5252841 -1.318633 0.2152603 -1.665958 -0.08938429 0.060751 -0.4563114 -0.1829511 -0.520565 0.3411631 -1.173697 -0.3878947 0.5233787 0.017991 -0.7499169 0.4288062 -0.936435 -0.09643564 -0.01613804 0.2513596 -0.1113233 -0.3973607 -0.12973 -0.3814691 -0.02528101 0.8410347 -0.9082949 0.3792118 -0.03845839 0.0803536 -0.4813875 0.2237849 -0.1339747 -0.3550059 -0.1481479 0.3442357 0.09593514 0.6631281 0.2233316 -1.277311 0.6875026 0.241442 0.5905517 0.03101136 0.5266451 -0.6143885 -0.5578552 0.3326124 -1.096913 1.073927 0.9996968 0.7333286 0.4555077 -0.7360296 -0.2208548 0.3515637 0.3880628 -0.2233759 -1.010614 0.03925211 0.06133766 1.137178 -0.7045314 0.2434371 -1.307395 -0.5953677 0.5278161 0.2942254 0.6542774 -0.6314669 -0.6170897 -0.1737426 1.495135 -0.7425839 1.199729 -0.421849 -0.5228229 -0.1995915 -1.539879 -1.248464 -1.316656 0.4788911 0.5578431 -0.5861094 0.384197 0.3271515 -1.19605 0.02825122 -0.298179 -0.2597969 -0.0605024 -0.1811199 0.9384106 0.1989315 0.4555489 -0.5657685 0.1703793 1.243153 0.4587661 1.771263 -0.3960524 -2.140996 0.06885979 -0.6948715 1.196152 -0.1265586 0.3365284 0.5296153 -0.2772503 -0.8959275 -0.04497362 0.2053283 1.479256 
  1.007814 0.04742072 -1.704333 0.3156483 -0.3021837 -0.1938157 -0.9225435 -0.1252416 -0.5030277 -0.299293 0.1928838 0.08067255 0.808572 -0.1470301 0.8582868 0.2299362 0.4354445 -0.1442961 0.2575637 0.09562121 -0.940151 0.2921493 -0.4540781 -0.5290052 -0.5174069 -1.148145 0.1495681 0.6950859 -0.537146 0.03879159 -0.6501722 -0.2447264 -0.02982217 -0.660104 -0.1894862 -0.5715259 0.3188914 0.3140296 -0.2121218 -0.6755128 -0.3922904 0.1356047 1.427586 -1.332016 -0.2385263 -0.2209392 -0.9438775 -0.06126592 -0.6187001 0.4110862 0.1347074 -0.547638 -0.4422385 0.1925619 0.6313925 0.6822481 -0.2638334 1.418872 -0.9283107 0.2050286 -0.4088959 0.8673162 -0.909632 0.6291665 0.5490955 -0.6066827 0.2207664 0.661849 0.4032742 -0.3249843 0.9594448 -0.1485934 0.3617713 -0.8180652 -0.594649 -0.2417272 -0.5777007 -0.9079735 -0.02607749 -0.6316022 -0.8808618 -0.01306943 0.1127571 0.2055888 1.823039 0.1783521 -1.148914 0.5432523 1.765909 0.8547078 -0.7481032 -1.135582 0.04242631 -0.1230855 0.2452501 -0.6025702 0.07151367 -0.7695963 0.2233168 0.1819882 -0.8916003 -0.2789357 0.4630617 1.412451 -0.7834061 -0.2782922 -0.1947959 0.09607135 0.8761411 -0.09602284 0.4219357 0.1732993 1.460344 -0.8688577 -0.2812591 -0.02790667 -0.7873693 -0.2885857 0.4681857 -0.1508171 0.1654357 0.1217354 -0.3976031 -0.2266944 0.3141539 -0.3362974 0.1746554 0.1713089 0.8351461 1.8428 -0.2505842 -0.9982666 -0.06601924 -0.8159163 -0.3177282 0.01068226 -0.5816146 0.3749991 0.6284186 -1.923077 0.1810581 0.02373527 -0.1952471 -0.2091623 1.92613 -0.4127007 0.7221488 0.1279092 -0.72949 0.3514764 0.03300207 0.1609905 -0.8602334 0.5857548 0.1552408 0.3145622 -0.510596 -0.7137787 -0.01949426 -0.2914247 -1.029893 -0.5817033 -0.4784983 0.3951989 0.1110513 0.07347456 0.9152966 -0.7466945 0.2630546 0.4686458 -0.5131019 0.1381535 -0.1304976 0.233222 -0.3850128 -0.4935127 -0.3463306 0.181657 0.121261 0.01128156 -0.3222652 0.1921706 -0.3496156 0.4643977 0.0974845 -0.05760107 0.1080661 -0.1688733 -0.6628276 0.6590301 -0.02348788 1.39944 -0.01937264 -1.073409 -0.1921511 -0.02498497 -1.00729 -0.3386563 -0.2065726 0.1223696 0.8420414 -0.1922609 -0.4380191 -0.1848935 -0.8386959 0.102541 1.033115 0.4126498 -1.014911 -0.1641437 -0.05647583 -0.8549315 -0.1598261 0.4654424 0.5766203 -0.4873091 1.280238 1.334418 -0.6632279 -0.2607138 -0.4635868 0.6480797 0.07275185 0.4441249 -0.1369333 -0.05546575 0.3885843 -0.004489071 0.07942257 1.11269 -0.2538282 -0.5419629 -0.5139157 0.2075734 -0.0333123 -0.1665573 -0.3284574 -0.2774905 0.03647467 0.07983539 -0.2086601 -0.3476309 -0.8273675 0.2700458 0.2903639 -0.3912984 0.019018 0.2035478 0.7953627 0.7771391 0.4438409 0.01631836 0.06590072 -0.782894 -0.2565773 0.07080571 
  -0.06598983 1.928148 0.3616316 0.08270422 -0.4181944 0.01711106 0.4615712 0.8184371 0.6506774 0.4908016 1.089736 -0.86054 -0.5017588 0.05096732 -0.8173308 -0.5668478 -0.3974212 -0.3766521 -1.054931 -0.5883949 -0.2039671 0.1003441 -0.228334 0.6410646 0.2374695 0.8268815 0.5333308 -0.239221 -0.8692318 0.05748232 0.5376001 0.1017294 -0.24318 1.020798 -0.01333939 -0.2786827 0.6421018 -0.4967643 -0.1460375 -0.07780753 0.2577792 -0.2688393 0.6521983 -0.143799 -0.2005245 0.3465173 -0.1287491 -0.772452 -0.02720292 1.13911 0.202633 -0.9598948 0.3083925 -0.2031899 -0.7290722 -0.9114902 0.5082454 0.4029078 -0.4622184 -0.1505316 -0.2016473 0.1335973 0.07203701 0.2069832 -0.9544727 0.3059027 -0.400869 -0.5531347 0.2825286 -0.8318091 0.6650684 0.9462138 -0.772368 -0.1039754 -0.5270966 -0.1486089 0.05454582 -0.08939852 0.242529 -0.01289993 -0.01804488 0.5207143 0.04789051 -0.2779877 -0.1717725 0.2022272 -0.6179708 0.06300616 -1.031792 -0.4882683 -0.004061534 -0.04066743 -1.017939 0.1988751 0.3460579 -0.3571055 -0.6383851 -0.1965077 0.2880511 -0.42786 0.4044833 -0.1486467 -0.1863918 0.03307801 0.1340144 -0.1035413 -0.3534201 -0.1267766 0.2813815 0.04393694 0.8356062 -0.366825 -0.0007417969 -0.1548036 -0.2944669 -0.2560409 -0.1325168 -0.1621549 -1.120942 0.7308794 -0.01588617 0.3749535 -0.06677816 -0.2594392 0.4439969 0.8229941 0.03262702 -0.1364434 -0.9205781 0.6134815 -0.34171 -0.1455123 -0.123896 0.8639157 0.141363 0.1761137 0.6350754 -0.2039399 0.08291135 0.3669867 0.006485253 -0.6844769 -0.7454049 -0.5686882 0.07348937 0.4766826 0.3358496 0.5725834 -0.0577506 0.1965433 0.1727921 -0.5313553 -0.5855026 -1.480573 -0.00891159 0.2305803 0.271041 0.1886156 -0.2559371 0.3317973 -0.2078139 0.668552 0.5674811 0.03062835 -0.199933 -0.0905468 -0.3008161 0.2420671 -0.3274294 -0.460961 0.4751829 -0.3894245 -0.654983 0.1186517 -1.120554 0.2932371 -1.044783 0.5897478 -0.1752032 -0.6187907 -0.08419988 0.1623912 0.04933085 -0.2950202 -0.5665575 0.2372706 0.4615003 -0.2219684 -0.3550135 0.2639725 -0.8126489 -0.06672915 -0.782447 0.9810559 -0.9045476 -0.3463551 -0.04483926 -0.68905 -0.3468179 1.17079 0.03772132 0.7208924 0.6365769 -0.563427 0.5455563 -0.1446178 -0.02782033 -0.02344827 -0.1068003 -0.5177838 -0.372158 -0.1419892 -0.4413322 -0.653721 -0.5409318 1.067889 0.2927774 -0.01126296 -0.3008724 0.3855394 0.1612063 -0.2821094 -0.7135881 -0.9008932 -0.4805712 0.9290404 -0.3061351 -0.5513847 0.1946381 -0.3300315 -0.2643279 0.2520356 0.3058398 -0.7301277 0.8502779 -0.5195653 -1.230708 -1.124226 0.07932905 0.338485 -0.5548171 0.292955 -0.3882298 -0.2574632 0.4058343 -0.4997198 -0.6457468 1.599136 0.08169091 0.2234827 -0.2782456 0.6177051 0.1548643 0.08116622 0.1127802 -0.5798513 
  -0.0897777 -0.7119948 -0.1400206 -0.02996022 -0.04986432 0.7493883 -0.9672244 -0.8058547 -0.4799458 0.2751892 -0.563332 -0.1822967 0.4029206 0.1581641 0.3802123 -0.04085217 0.1831221 0.8174081 -0.5500439 0.5757394 0.1408958 -0.08515951 -0.5887297 0.04629802 0.3138895 -0.698742 -0.07049271 0.9546577 -0.04105267 -0.05324879 -1.013298 -0.6118408 0.6210566 -0.4671436 0.1467563 0.4850425 -0.2226307 0.03848128 -0.876332 -0.4708064 -0.1129868 0.2172429 -0.6008613 0.07271859 0.3914745 -0.4230154 0.1281661 0.8609629 -1.292157 -0.164719 0.2469309 -0.465077 -0.6422732 0.07000309 0.276219 0.5674767 -0.2692518 -0.2878951 0.115642 0.09920733 -0.05232128 -0.2461027 -0.4008249 0.08443192 0.5615839 -0.4633633 0.2610192 -0.2796008 0.03941939 0.6163995 0.5901257 -0.785269 -0.07309773 -0.1899938 0.02804289 0.5468512 -0.4449626 -1.36417 -0.4900826 -1.491548 0.325966 -0.006296572 -0.4392209 0.1457207 -0.2752306 -1.235209 0.5715798 -0.5055668 0.5094613 0.9584367 -0.519541 -0.2415956 0.3374792 -0.8465492 -0.06417629 -0.143145 0.1859436 0.321897 0.4365021 -0.2408012 -0.1946412 0.3684205 -0.9524196 0.3216941 -0.4835801 0.9938354 0.7093204 -0.3330743 -0.138 0.5918421 0.3206819 -0.1016876 0.04677903 -0.8422021 0.003218942 0.02102993 0.0957279 0.6474388 0.7371718 -0.3512951 0.115797 -0.309458 0.3213159 0.01775724 0.3968648 0.9252596 -0.4261748 0.1355334 0.309964 -0.09714931 0.2299351 0.7923096 -0.1705964 -1.577849 -1.169055 -0.4697908 -0.49553 0.2541482 -1.000152 0.4584625 1.070207 0.2400368 0.3689529 1.413492 0.5077536 -0.4705829 -0.2625374 0.0737456 0.3726656 0.2276132 -0.6176215 0.7942255 0.06912149 -0.9392419 0.2225759 -0.3504069 -0.9921053 0.1814821 0.5440521 0.2165348 -0.1859279 0.6724924 -0.3428862 -0.8974946 0.9754371 -0.2196332 1.045441 0.2080467 -0.124441 -0.488005 0.7271186 0.5324107 -0.7199091 -0.3239899 0.1049543 -0.02397262 0.1685478 -0.007753507 0.6246046 -0.1334234 -0.2329296 -1.319636 -0.4455123 -0.2570422 0.2229286 -0.5886955 -0.4533235 -0.2469241 -0.4253259 -0.8763238 1.00919 -0.173266 0.6754052 -0.3417717 0.4158649 0.8183671 0.02056419 1.032327 0.1731157 0.0401606 -0.3432166 -0.3142884 0.8779068 1.29756 0.2249816 0.04711447 -0.4473349 0.1237789 1.169282 0.8998252 0.323781 0.5952405 0.2043229 0.114825 1.389454 -0.1162625 1.581247 0.3720273 0.6456558 -1.383967 -0.782169 -0.8228229 0.268604 0.1966599 -0.225908 0.4249395 0.5598872 -0.1580183 1.254827 0.7197033 -0.08729774 -0.9624028 -0.9959891 0.5927815 -0.6187786 0.02223121 0.04036169 0.6965063 -0.3796253 -0.1349398 0.40648 0.9671375 -0.1267862 0.27357 1.177567 0.8710267 0.3257071 -0.4616869 0.4220992 -1.042613 0.1873819 -0.005934981 0.5928727 -0.02909677 -0.182106 0.08321971 
  0.4256859 -0.9069087 -1.294302 1.057429 0.03559709 -0.4367341 -0.7279094 0.407497 -0.8796868 0.09599689 0.7210644 -0.8740518 0.4725703 0.2356349 0.9107171 0.02021168 0.1895402 -0.04961235 -0.09834417 0.02339568 -0.4933562 0.4649037 -0.5616866 -0.2397722 -1.09151 0.2205204 -0.2451813 0.2547495 -1.641302 -0.4455142 0.6054389 -0.03131781 0.06770077 1.085124 0.1807577 0.2791332 0.3826698 0.3318273 -0.7052878 -0.4485123 -0.3501306 -1.246986 0.9690074 -0.6285502 -0.4956086 -0.0929887 -0.8729854 -0.02978561 -0.4182172 -0.1658768 -0.1037866 -0.2063183 0.05484501 0.0720966 0.0110188 0.7205539 0.2367959 0.5131629 0.05342995 0.2192844 -0.4084358 -0.5752516 0.7279012 0.7543133 0.5040677 0.590959 -0.4337111 0.7640933 0.4910908 -0.008305484 0.1223487 -0.8291271 -0.1199346 0.518808 -0.02260902 -0.1002909 0.5325748 -0.9384735 -0.2464627 -0.5238771 -1.892053 0.5772675 -0.5837085 0.1861084 -0.2993177 0.6834968 -0.1876926 -0.5152705 1.598761 -0.2866542 -0.227053 -0.948121 0.7684737 0.05503509 -0.5284474 -0.7458047 -0.324046 -1.014492 1.126941 -0.6372904 -0.8958507 0.1332792 0.47869 0.005036259 -0.492454 -0.2738813 0.2160536 0.5905706 -0.2273043 0.7451295 -0.1845058 -0.2503349 -0.0584479 -0.542495 0.4383382 0.567475 -0.6795381 -0.569479 0.5048019 0.5114545 -0.3607895 0.1886877 -0.5563708 -0.463957 -0.1316072 0.2769903 0.3444099 0.5840269 0.3231106 0.7193342 -1.350656 0.1851422 -0.5558752 -0.7485024 -0.215487 -0.1943668 -0.6544499 -0.627611 0.6860545 0.2091285 0.7386941 0.04324226 1.475682 0.378159 0.5486996 -0.1395351 0.3183057 -0.2349377 -0.6781142 -0.8398753 -1.123872 0.1024259 0.4414404 -0.829204 -0.04351977 0.5926689 0.2478376 -0.1957825 -0.6329482 0.5773157 0.2043209 0.1163972 -0.05197639 -0.0692045 -0.1833104 0.1410393 -0.1810699 -0.6220536 -0.837647 -0.05377572 0.7851819 1.045711 0.04116601 0.3454493 -0.4860245 -0.6471519 0.02115381 0.1040101 0.5103321 0.06706094 0.9976301 0.5071575 -0.5585774 0.5480199 -0.8730477 -0.1492509 0.3577152 0.5248407 -0.6150213 0.3755667 -0.5901836 0.3897743 -0.6892799 -0.3416826 -0.5889655 -0.4644925 -0.1712978 -0.45424 -0.2277842 -1.307278 0.2683762 -0.1583176 -0.6785871 -1.581688 -0.5336004 0.0415835 0.8506556 -0.3044269 0.3196399 -0.1864005 -0.8027458 -0.4004141 -0.2071557 0.2484748 -0.07316044 -0.8546742 -0.2829282 0.07245649 -0.5691656 0.2598943 0.4881321 -0.1155358 0.4001712 0.3523593 -0.2333619 0.0484731 -1.115488 0.2397092 -0.9164069 -0.004160643 0.08655506 -0.7084534 0.7785292 0.6455992 0.0134841 -0.5370749 0.3408681 0.3706158 -1.260032 0.2772851 0.2951492 0.04264501 -0.5438998 0.01076176 0.400448 0.09900706 0.003974691 -0.09500428 0.2312252 0.05981856 -1.106383 0.06913298 -0.04112084 -0.7157488 1.001447 -0.9763271 ]
 [ 1.036114 -0.5704546 0.4716318 -0.6705356 0.3414409 -0.1192567 0.3657324 -0.5305372 -0.5078868 0.3181632 0.1067266 0.1843101 0.06210437 -0.02599958 0.4009443 0.5740196 0.01689405 -0.3232562 -0.1846295 0.1457454 0.250082 0.1276562 -0.1321075 0.004410783 0.469701 0.1420711 0.540915 -0.4212747 -0.0273164 0.2230304 -0.03183609 0.2014676 -0.134502 0.168853 0.05849208 0.2424437 -0.09187958 0.475006 0.6755895 0.1504375 0.1834324 -0.965871 0.09852133 0.2027241 0.282533 0.2552758 0.5386609 -0.1543732 -0.3596976 -0.5429531 0.3212943 -1.779155 0.5398743 -0.5718526 0.03329258 0.243091 -0.7085012 -1.070799 0.5669805 0.8587189 0.3523137 -0.245896 1.022571 -0.1210306 0.7068832 -0.471012 0.6448792 0.1989196 0.2542097 0.7570822 0.1110818 -0.2854982 0.5269733 -0.5783865 1.326411 0.1140433 0.3128778 -0.03560233 0.5673553 -0.2024615 -0.546282 0.05816774 0.4084733 0.4844021 0.4377581 0.5788334 1.40884 0.02431124 0.8668456 0.1133917 -0.05055461 0.5219049 0.4331954 0.2190205 0.5809265 0.8829221 0.7485716 0.8560762 -0.6071277 0.1993517 0.6054037 0.1283964 -0.2235077 0.2141609 1.075361 -0.2790395 2.249441 0.6612913 0.1211453 0.668538 0.9469548 -0.02521122 0.05049631 0.6655159 0.6308567 0.3529328 -2.515193 0.8553238 0.6067205 0.3449123 -0.1351744 1.168399 -0.09022124 -0.2896844 1.151397 -0.4926006 0.6369776 0.01176324 -0.1978714 -1.057262 -0.4682914 0.7490757 0.5413382 -0.2044412 -0.2823897 -0.6815916 0.5784907 0.4948188 0.5913644 0.6679194 1.873135 1.739372 -0.449445 0.4658787 0.8248693 0.2155126 -0.1192393 0.4646199 0.8198849 -0.06720091 0.3927028 -0.4963524 0.5899194 0.1344649 0.9968411 0.3068482 -0.175338 0.4745951 0.8910198 0.2353562 0.1458685 -0.3554564 0.8949743 1.419578 -0.4923612 0.7836141 -0.4673636 0.9176314 0.07726093 -0.2220551 -0.2665128 -0.07607252 0.8788125 -0.2505166 -0.1672949 -0.3814666 0.5620515 -0.09230348 -0.1321072 0.2996972 -0.03979614 0.3454956 -0.7200987 0.9097985 0.1030823 -0.2740001 -0.2364327 0.6749902 0.6410921 0.2310658 -0.6833801 0.153947 0.401029 0.32705 0.2076395 0.07126603 0.06104172 0.7594748 0.7980844 -0.8150764 -0.7459839 0.6094038 -0.4119713 -0.2335685 -0.426863 -0.3097162 1.198896 0.06141958 0.5377338 0.09322981 0.3964753 0.6684423 0.2099928 0.217375 0.9198282 1.396545 0.08174553 0.2304024 -0.1627139 -0.004453997 -0.8953838 0.01141232 0.6768522 0.3922491 0.3715171 0.260801 -0.4108741 -0.2017861 -0.2663989 0.2449273 0.07866285 0.3438647 -0.04418913 -0.08119652 0.5100402 -0.06799555 0.2363467 -0.06972653 0.9764642 -0.2764607 -1.636834 -0.4092458 0.172772 0.4843636 0.2089051 0.06618388 0.5996273 -0.6862721 -0.3761374 0.3402234 -0.8743719 -0.05189426 0.614508 0.9073684 -0.4393813 1.185473 ]
<!EndOfComponent> 
<ParametricRelu> 256 256 
<AlphaLearnRateCoef> 0 <BetaLearnRateCoef> 0 
 [ 1 1 1 1 1 1 1 1 1 1 1 1 1 1 1 1 1 1 1 1 1 1 1 1 1 1 1 1 1 1 1 1 1 1 1 1 1 1 1 1 1 1 1 1 1 1 1 1 1 1 1 1 1 1 1 1 1 1 1 1 1 1 1 1 1 1 1 1 1 1 1 1 1 1 1 1 1 1 1 1 1 1 1 1 1 1 1 1 1 1 1 1 1 1 1 1 1 1 1 1 1 1 1 1 1 1 1 1 1 1 1 1 1 1 1 1 1 1 1 1 1 1 1 1 1 1 1 1 1 1 1 1 1 1 1 1 1 1 1 1 1 1 1 1 1 1 1 1 1 1 1 1 1 1 1 1 1 1 1 1 1 1 1 1 1 1 1 1 1 1 1 1 1 1 1 1 1 1 1 1 1 1 1 1 1 1 1 1 1 1 1 1 1 1 1 1 1 1 1 1 1 1 1 1 1 1 1 1 1 1 1 1 1 1 1 1 1 1 1 1 1 1 1 1 1 1 1 1 1 1 1 1 1 1 1 1 1 1 1 1 1 1 1 1 1 1 1 1 1 1 1 1 1 1 1 1 ]
 [ 0 0 0 0 0 0 0 0 0 0 0 0 0 0 0 0 0 0 0 0 0 0 0 0 0 0 0 0 0 0 0 0 0 0 0 0 0 0 0 0 0 0 0 0 0 0 0 0 0 0 0 0 0 0 0 0 0 0 0 0 0 0 0 0 0 0 0 0 0 0 0 0 0 0 0 0 0 0 0 0 0 0 0 0 0 0 0 0 0 0 0 0 0 0 0 0 0 0 0 0 0 0 0 0 0 0 0 0 0 0 0 0 0 0 0 0 0 0 0 0 0 0 0 0 0 0 0 0 0 0 0 0 0 0 0 0 0 0 0 0 0 0 0 0 0 0 0 0 0 0 0 0 0 0 0 0 0 0 0 0 0 0 0 0 0 0 0 0 0 0 0 0 0 0 0 0 0 0 0 0 0 0 0 0 0 0 0 0 0 0 0 0 0 0 0 0 0 0 0 0 0 0 0 0 0 0 0 0 0 0 0 0 0 0 0 0 0 0 0 0 0 0 0 0 0 0 0 0 0 0 0 0 0 0 0 0 0 0 0 0 0 0 0 0 0 0 0 0 0 0 0 0 0 0 0 0 ]
<!EndOfComponent> 
<AffineTransform> 256 256 
<LearnRateCoef> 1 <BiasLearnRateCoef> 1 <MaxNorm> 0 
 [
  0.009660251 0.1201873 -0.02878681 -0.1878128 -0.1119764 -0.04708461 -0.2251989 -0.3708613 -0.08952863 0.2017647 0.1215671 -0.1108609 0.05165886 0.1093982 0.3318821 -0.1547299 0.1826191 -0.228772 -0.1658507 -0.1705659 -0.2895264 -0.05127249 0.0235052 -0.1609102 0.1719286 0.6674705 0.06942848 0.01185989 -0.1281354 0.01569937 -0.1064516 0.2212406 -0.3253897 -0.1761495 -0.01171967 -0.2149467 0.2556855 -0.138299 0.3075874 0.1058971 0.08140911 -0.03400054 -0.01140523 -0.3585654 -0.004677674 -0.1905543 0.1746492 -0.03270542 0.009730215 -0.05281901 -0.1998384 -0.2428226 -0.04164816 -0.1614695 0.09284071 -0.5899268 -0.06265149 -0.1806444 0.1006572 -0.07439996 0.1565367 -0.05892469 0.1408939 -0.0008989654 0.2302501 -0.1876561 -0.06384756 0.02457221 0.0100575 -0.6395664 0.007328342 -0.01311076 0.4196744 -0.2764261 0.1227369 0.08981574 -0.09902598 -0.1022643 0.1273219 -0.07252419 -0.1928633 0.1208418 -0.01761629 -0.04434729 0.293853 0.2689386 -0.3246244 0.3058052 -0.277018 0.09443287 -0.201759 0.07420549 -0.04416868 0.3967454 0.05362457 0.09238955 -0.117557 0.07454472 -0.02918522 0.3472286 -0.0723885 -0.09768403 0.09585244 -0.1955614 -0.057827 -0.3708049 0.7444534 0.1825228 -2.315084e-05 0.2571332 0.09605175 -0.1701262 -0.266573 -0.4844217 -0.2081213 0.3759912 -0.1884889 -0.1549428 0.001806458 -0.006509158 -0.203116 -0.1497227 0.1831293 0.09653545 -0.8014204 -0.06243424 0.5968248 0.4189043 0.002792507 0.3277442 0.1365952 -0.1169773 -0.1311871 0.2649514 -0.2691329 0.03918656 -0.1866508 0.1328745 0.1552564 -0.02223824 -0.07594195 -0.2190744 -0.07694882 -0.06061286 -0.0419162 -0.1437904 0.126645 -0.1329394 -0.2846679 0.1814169 -0.03761976 0.1195341 -0.02520672 -0.1165268 0.06702387 0.2660839 0.1181787 -0.006856228 -0.2081992 0.2919207 -0.2551416 0.2088453 -0.3077995 -0.1378725 -0.1338789 0.07916299 0.03170563 0.1009341 -0.06533197 -0.1303287 0.2161235 -0.2806655 -0.1857688 0.2917116 0.3179562 -0.5540767 -0.1700893 -0.0535771 0.05011519 -0.03758402 -0.005239843 0.4167188 -0.231078 0.2455167 0.2236788 -0.05905312 0.1188278 0.1106516 -0.0468029 -0.5573627 -0.1339372 -0.1880377 0.1464109 0.01497398 0.02358425 -0.1100812 0.1653547 0.08803548 0.05590001 -0.3070094 0.07937863 -0.150699 0.1448431 0.007832431 0.4604394 -0.01514751 -0.1770774 -0.03882057 0.01592516 -0.1687282 -0.2173595 -0.2490603 -0.03171841 -0.1767586 0.1517181 0.1057886 -0.2560676 -0.1032912 -0.01978979 0.01448699 -0.3505644 0.1086091 -0.00891638 -0.1095553 -0.1316388 -0.1065154 -0.3226518 0.1081779 0.09932433 -0.05708937 0.1576152 0.1256155 0.1649556 -0.1919074 0.3350637 -0.4793827 -0.1038554 0.3158524 0.1981157 -1.092327 0.1314836 -0.07579078 -0.102845 -0.2635393 -0.09072284 0.1537009 -0.1506332 -0.1827448 0.06485914 0.03130068 -0.04437193 0.4281107 0.1701293 0.04234341 -0.2831628 0.1245948 
  -0.03325095 0.4057133 -0.4618272 0.08201127 0.1116063 0.06697213 0.1721929 -0.3926452 0.06820977 -0.09923925 0.1550416 -0.1863722 0.1435576 -0.06141414 0.1406565 -0.03520733 0.03931413 0.256637 -0.06577076 0.2329609 -0.2069158 0.1858468 -0.06143907 0.3260085 0.06435712 -0.0496094 0.06343753 -0.109446 -0.06179367 0.01570663 -0.09320245 0.2534455 -0.2953139 -0.3082593 0.30565 0.1168391 0.02476503 0.1390593 0.1872404 0.1672793 -0.07197955 -0.1280643 0.3009959 -0.1951542 -0.07181893 -0.0959678 -0.01737292 -0.04411315 -0.2517718 0.1392681 0.2197797 0.2601058 -0.01072035 0.4166597 0.1103727 -0.3970957 0.1884884 0.08369999 0.01958157 0.04385346 -0.0943646 0.03930883 0.141133 -0.04450725 -0.2688499 0.1430539 -0.004294385 -0.3133062 -0.2699887 -0.1890752 -0.2379449 0.1175137 0.1762338 -0.3605857 0.01985373 -0.3206417 -0.03356447 0.4127203 0.2795693 -0.1872978 0.2684482 -0.1419909 0.1015224 0.1518843 0.03159513 -0.1256155 -0.4021331 -0.0677406 -0.2098505 0.069459 0.04210323 -0.01806065 -0.06599202 -0.1369576 0.06588398 0.04299641 -0.2075795 -0.3690452 -0.06327145 -0.2166323 0.05275008 0.4621528 0.2372333 -0.2540801 -0.04014981 0.1115425 -0.0274745 -0.01093733 0.8529888 -0.008651903 -0.1377797 -0.2396868 -0.2542848 -0.09119875 0.03772496 -0.03941773 0.1140181 0.0887408 0.06699307 -0.3273855 0.2207768 0.1019279 -0.2615996 0.1304325 -0.06752435 0.139524 -0.5336586 0.03940748 0.1468599 0.03353132 0.175083 0.06241938 -0.003958243 -0.3653617 -0.1589855 0.1955262 0.296752 -0.0595625 -0.1362941 -0.3464252 0.1255503 -0.009411614 -0.1090789 -0.1144928 0.08618861 -0.02099398 0.0542248 0.009895111 0.01522818 -0.05298247 -0.001204316 -0.02844075 0.3392386 -0.0304853 0.1574785 -0.1480156 -0.04367847 -0.2007377 0.1201672 0.1658583 -0.2143772 -0.7684134 -0.0730913 -0.3117907 0.3821444 0.06851035 -0.007225168 0.2096613 0.05722138 0.1411576 0.3601554 -0.4352094 -0.1097055 0.08873633 -0.2655973 -0.1141514 -0.05156223 -0.1358833 0.1031887 0.2758712 -0.03261825 -0.4323271 -0.06240696 0.1621416 0.2954346 0.01008607 -0.09324272 0.03846892 -0.1261882 0.3243166 0.2420518 -0.1708046 -0.1791216 0.01582848 0.06170003 0.01082822 -0.04951064 0.10527 -0.2982285 0.08071095 0.0042774 -0.05845363 0.1046858 0.08496044 0.03526739 -0.1137 -0.2289724 0.1731794 -0.2108622 -0.1817479 0.3063957 -0.1386381 -0.1003363 -0.401965 -0.07221243 -0.03081479 0.5544356 -0.2185669 -0.1197959 -0.1137853 0.1673616 0.09048781 0.2069679 -0.007955112 -0.2089233 0.5131466 -0.02603053 -0.179721 -0.1249172 0.1735919 -0.3609218 -0.1909595 0.06593234 0.1821037 -0.03398765 -0.2602016 0.2291267 -0.1231725 -0.01452475 0.07281072 -0.3597925 0.08346575 0.04119718 0.0737248 -0.1010103 -0.06526121 -0.1817587 -0.1825914 0.080037 -0.2150994 -0.1215756 -0.1754314 -0.1221664 0.1865293 0.2856317 -0.2540446 
  -0.00754647 -0.02108087 -0.00848705 -0.4410001 0.04924653 -0.3250413 0.1715749 0.1056623 -0.2296598 0.07065676 0.07270352 -0.07337336 0.1833045 0.03656422 -0.1296279 0.005938431 0.03439686 -0.2186162 0.1053224 0.2790596 -0.006418861 0.200588 0.02584642 -0.04027983 0.2249255 0.03152038 -0.07714933 -0.1014786 -0.0220419 0.2735469 0.1724018 0.1101693 0.1009419 0.495866 0.2503529 -0.03212813 0.1004433 0.03635249 0.2299446 0.1191875 -0.002742071 0.1078706 -0.2645006 -0.1806424 -0.5403427 0.06510225 -0.1625277 0.2747134 -0.2427302 0.2722835 -0.04331946 -0.2761251 -0.1588496 0.09501931 0.1360871 0.1774939 0.2038786 -0.2029168 0.06520355 -0.0774041 0.03602774 -0.06606179 0.1421598 0.07610877 -0.02572338 0.03523025 0.3857147 0.09698287 -0.1026928 -0.120995 0.06047799 0.1171818 -0.08679609 -0.2893292 0.211923 0.0613829 0.02338528 -0.08936314 -0.08217686 0.09437948 0.02405388 -0.2577725 0.1962225 0.2875185 0.2248164 -0.1784646 -0.474293 -0.2007135 0.05020323 -0.1022502 0.03164427 -0.07537475 0.01880831 0.08850513 -0.09273089 -0.649209 0.0253293 -1.79086 0.08843038 0.02587661 0.05085931 -0.31893 -0.4779696 0.01615809 -0.1180895 -0.01658484 -0.3033749 -0.01756958 0.05137598 -0.007676892 -0.1772043 -0.002902067 0.1212006 0.03183741 0.09192142 -0.1102842 0.2975752 0.00755151 -0.13425 0.09528886 -0.1543624 -0.1763836 -0.08569881 0.398174 -0.09846071 0.3476823 0.1946441 0.09295152 0.04227092 0.44845 0.1325363 -0.1023904 -0.1497483 0.08490083 0.03826854 -0.08090821 0.03093712 -0.09578649 -0.02099617 -0.1388832 -0.0508928 0.2397137 0.2293843 -0.1945657 0.03912116 -0.03039631 -0.05372782 -0.001295447 0.06334563 0.0424197 0.1876742 0.105937 -0.08383346 0.121749 -0.1943791 0.1268142 -0.004489336 -0.1409367 0.236186 -0.1279403 0.08712684 -0.4527047 -0.1651609 0.08847677 -0.001632006 -0.1249457 -0.04002231 0.07969438 -0.1596354 0.183135 -0.03906846 0.1032484 -0.03885659 -0.3182104 -0.1037292 0.06856853 0.02519695 0.06911897 -0.05160901 0.01884268 0.09904666 -0.6312428 0.1341469 -0.08501086 -0.238357 -0.05074117 -0.2055877 0.2475732 0.3512007 -0.1918627 -0.2297394 0.1219942 -0.570666 0.2135084 -0.04486942 1.093564 0.006779166 0.07159396 0.21122 -0.1832495 0.05456795 0.2554834 -0.05263355 0.3855122 0.1780087 0.04510715 -0.1991543 -0.02794485 0.180823 0.03020251 -0.2369354 0.2810101 -0.06188956 0.1725186 -0.2260503 0.1265699 0.1845673 0.08899252 0.1240569 -1.646174 0.1109016 -0.06019051 0.1006371 -0.09420427 0.03567129 -0.3753663 -0.1919655 0.2039488 0.05909831 -0.1730386 -0.1327315 0.3739756 -0.1703734 -0.01787342 0.06618733 -0.08047509 -0.3770485 0.0289537 0.1840693 0.1613189 -0.1732989 0.04220587 0.02886943 -0.04709059 0.1468208 -0.1286006 0.01873667 0.07913383 0.3556229 -0.09755649 -0.1515425 -0.03342687 -0.4894849 0.01541032 -0.2176477 -0.07561503 
  0.1810532 0.05171557 -0.2505277 0.07119509 -0.3283026 -0.3095928 0.005710501 0.0971406 0.064357 0.03399042 -0.2520255 -0.2028588 -0.006205126 -0.06726976 0.06331069 -0.1476576 -0.0319475 -0.09827369 0.3141534 -0.1761334 0.1932358 0.1911276 0.4709451 -0.03707051 0.1031186 -0.2612866 -0.2775885 0.01002512 0.2324893 0.002129239 0.07096294 -0.2172491 0.2163916 0.3428366 0.1063841 0.326584 0.5663851 0.8451715 -0.0587105 0.09533744 -0.4664795 0.007021179 0.03500319 -0.2301863 -0.1657937 -0.02967674 0.1940805 -0.1513352 0.1486748 -0.5523414 -0.03103231 -0.005122261 -0.1392823 -0.1821781 -0.1546048 0.2067689 0.1000158 -0.009503598 0.1510054 -0.07574368 0.3636646 0.1488827 0.06855082 -0.08839118 -0.1910131 -0.005843665 0.01786888 -0.1950456 0.04662287 -0.1651307 -0.2729186 0.2113575 0.4121539 0.1919717 -0.004461403 -0.2943291 0.2468133 0.01686952 -0.08887804 0.169993 -0.2199346 -0.2921324 -0.00950402 -0.2954867 -0.195301 0.2393567 -0.1930607 -0.2022563 0.4251961 0.1058198 -0.1628671 -0.3614346 -0.1849426 -0.2948225 -0.1164273 -0.2520203 0.08791129 0.168044 0.01947684 -0.09127335 0.175991 0.4051544 -0.02711501 0.06984736 -0.07238558 0.01813948 -0.2734859 0.05044371 0.1907428 0.1253846 -0.01151681 0.2753763 0.1801059 0.05091021 -0.4884987 -0.07411074 -0.05613449 0.04955501 -0.291734 0.1487409 -0.1750613 -0.08835274 -0.1332274 -0.04341984 -0.4059952 -0.1063696 -0.203068 0.03729359 0.01273668 0.3486186 0.2284785 -0.0490208 -0.1199212 -0.3444366 -0.4558622 0.05898462 0.1170646 0.0616194 -0.07665595 -0.2076786 0.2651313 -0.3254392 -0.1347444 0.02230015 0.1412363 -0.1633457 -0.1532704 -0.07747368 0.0540733 -0.002690341 0.2633717 0.01400164 -0.3982685 -0.07626422 0.1993677 0.109565 -0.04687129 0.06737391 -0.1597747 0.01458603 -0.04751976 -0.5582855 0.2189984 0.2043925 -0.1385944 0.08700209 0.2051456 -0.1255647 -0.09316006 -0.06102311 -0.2017007 -0.1253036 -0.004038631 -0.1041087 0.1189917 0.1155584 -0.1887502 -0.01285 0.1518737 -0.00499708 -0.01129491 -0.250825 -0.1863362 0.1120836 -0.1912437 0.1780542 0.06828969 -0.3642489 0.212475 0.02157841 -0.1956249 0.1266664 -0.168973 0.4018817 -0.0392595 0.01320191 0.0270757 -0.2396491 0.02259731 -0.3666037 0.04048429 0.311845 -0.3228008 0.03515512 -0.2943524 -0.01687476 0.06115728 0.1160536 0.08056453 -0.2035026 -0.2062793 0.008811572 0.06806438 0.189866 -0.2456254 0.02368676 -0.2610953 0.02808207 -0.3343165 -0.1701511 0.1205746 0.1152507 0.06029429 -0.05357049 0.1238369 0.003094397 -0.1597551 -0.1943296 0.1036858 0.2197819 -0.1553937 -0.1598974 -0.03496392 -0.6418225 -0.1358361 0.3899303 -0.1697976 0.1241911 -0.2338447 -0.08904804 0.06220626 0.2169413 -0.01205903 0.2072684 0.06321331 -0.0126167 0.03285309 0.01741273 -0.4343097 0.1409428 -0.2389039 0.2241789 0.3413652 0.2603166 -0.0707337 0.2020236 
  -0.2414005 0.1456385 0.08833905 -0.1972999 0.07650065 -0.2931763 -0.1459519 -0.08872109 -0.2471425 0.1865162 0.1454472 -0.081619 0.2803775 -0.1108758 -0.1824546 0.04818553 0.005893697 0.06345161 -0.02123921 -0.130786 -0.1418222 0.05957132 0.03519562 -0.08003687 -0.03996444 -0.4018271 -0.07489842 -0.06653251 0.001647486 -0.0164881 -0.01170126 0.09690073 0.1148349 -0.1182061 0.1145135 0.2595304 0.3961192 0.03694646 0.07426869 0.6766255 0.1987251 -0.2286484 -0.2692116 0.02930114 -0.9593776 0.2613721 0.09467653 0.4371357 0.03476577 0.1496365 -0.2511469 -0.2326494 -0.07118358 -0.2262649 -0.1781732 -0.7274922 -0.01767562 0.1509853 0.1484084 0.05123865 0.217152 -0.08899081 -0.01077267 0.06701826 0.3229432 -0.01915994 0.281551 -0.1559581 -0.1716848 -0.2040372 -0.02137301 0.03468585 -0.1243747 0.04051626 -0.126953 -0.01573776 -0.07450467 0.1163497 -0.4645616 -0.1594433 -0.4614231 0.07041352 0.03568425 -0.008860148 0.1171541 0.3012938 -0.5081986 0.2220833 0.08045472 -0.01586684 -0.05289178 -0.02010772 0.1411069 -0.1255064 0.3827276 -1.517362 0.02365039 0.497775 0.005371198 0.4383525 -0.0346729 -0.5467436 -0.491291 0.05294226 0.09416454 -0.6046129 -0.1299203 -0.05121421 0.08771776 0.04941921 0.1161603 0.0226147 -0.2722113 0.02639421 0.04355006 -0.4585915 0.009845993 -0.103089 0.14891 0.01851573 0.1849052 0.08742138 -0.00683802 -0.1624283 -0.1759037 0.07434618 0.02682275 0.03088853 0.01176886 0.2853681 -0.1131099 0.1805043 0.0299821 0.1328001 0.0176733 -0.3370114 -0.5894544 0.00904804 0.01629576 -0.04649237 -0.06027633 -0.2143698 0.2057815 -0.06562955 -0.01065106 -0.1991234 -0.1636113 0.09622071 -0.04982069 0.01269021 -0.07967819 0.2052736 0.1061023 -0.1425052 -0.2683507 0.04085115 0.1603551 -0.09532454 -0.3793758 0.01726725 0.01369253 -0.4185831 -0.1401731 0.02837921 0.06312032 0.03393146 0.07711519 -0.1814149 0.2182402 0.2458372 0.2520308 0.1566706 -0.01861986 0.3451304 -0.256559 0.3449528 0.08943993 0.009133968 -0.1056607 0.04244854 -0.246057 -0.04269348 -0.08744051 0.05234227 -0.004338427 0.1237351 -0.4614586 0.2820033 0.1540704 -0.2663486 -0.245029 -0.03259891 -0.9765074 0.01226075 -0.1137416 0.3284248 0.0893484 -0.0684077 0.2034963 -0.1104525 -0.1080728 -0.1497732 -0.06406578 -0.1834031 0.4142328 -0.09012902 -0.04179145 0.1524576 -0.1455155 0.2252027 0.09515738 0.2343779 -0.2608877 -0.1437134 0.1003741 -0.1051536 0.3430527 -0.03753174 -0.1529632 -0.4200441 -0.2419588 -0.3418899 -0.4444419 0.1709737 0.0277083 -0.03852484 -0.198228 0.05307982 0.1301905 -0.8218766 0.05681401 -0.1816331 0.006084968 -0.05017525 0.3556465 0.2342501 -0.3412462 0.01400296 -0.001955249 -0.237662 -0.4719726 0.152806 -0.01313365 -0.08004777 0.3488934 -0.003457153 0.147669 0.003683989 0.1232906 -0.8902661 -0.2921727 0.2294429 0.3251672 0.08857571 -0.4198351 -0.4341926 
  -0.1878615 -0.2389123 -0.06380595 0.2221442 0.01564246 -0.2342719 0.1776056 0.7610776 0.2176817 -0.6247115 -0.1735203 0.1771376 -0.08579566 -0.2833283 0.1551754 -0.1639165 -0.1747998 0.4875829 -0.1700681 -0.08116654 0.003735284 -0.06521057 -0.1771143 -0.292628 0.03365053 -0.2736125 -0.3001518 -0.1120516 -0.0979459 0.05269507 0.04407382 0.01314665 0.009991191 -0.5066054 -0.1570019 -0.2035664 -0.6862764 -0.1686139 0.1709748 -0.6482642 -0.8864188 0.1462204 -0.1586111 -0.01095716 0.01549644 -0.1233255 -0.283482 -0.2989747 -0.3912666 0.1539061 0.1233341 0.08817565 -0.1229038 0.178264 -0.07488821 -0.007187088 0.1140566 -0.2801045 -0.08708333 0.3818247 -0.3276238 0.1989407 -0.08137422 -0.1230192 0.8581026 0.2189934 -0.121348 -0.1158673 0.0171869 0.05103922 0.2082679 0.4185806 -0.2047345 0.7911229 0.3199734 0.08619467 0.1759945 -0.529551 -0.152465 -0.05940516 0.4815886 -0.140476 -0.04994037 0.6718315 0.162859 -0.3442263 -0.02265913 -0.3320647 -0.5257235 -0.2784918 0.155727 0.07507931 0.1427813 -0.3677331 0.02085959 0.3118832 -0.009343538 -0.1350814 0.1118511 0.2092516 0.06907682 -0.4791723 -0.1288179 -0.2522141 0.02410867 0.1425359 0.002717358 -0.2545816 -0.2047771 -0.6342589 0.02266455 -0.1853929 -0.3003993 0.1073186 0.1071455 0.07070016 -0.08419185 0.1123803 -0.1459798 -0.1777508 0.4426586 0.2852645 0.09357779 0.1916259 -0.2939196 0.1157096 0.1748598 -0.7922772 0.05880902 -0.1773966 0.1401648 0.02307935 0.3673784 -0.2331802 0.1966377 0.02764543 0.109357 0.1403545 -0.08118823 -0.2609328 -0.3067798 -0.4164639 -0.02772149 0.1687586 0.2299301 0.190749 -0.2846311 0.1569182 -0.1852427 -0.1766063 0.3602614 -0.6532744 0.5311468 0.4664764 -0.21882 -0.1526935 -0.1191856 -0.570304 -0.005281085 -0.2817774 0.08947612 -0.5213583 0.09777849 0.3811421 0.0841456 -0.05873442 0.205076 0.004657917 -0.1133789 0.07419233 -0.1799774 0.1004317 -0.2804243 -0.06793811 0.1088342 -0.0257589 0.07472073 0.2643726 0.2271484 0.5809931 0.1219236 -0.3486492 -0.06435284 0.1599457 -0.5807862 -0.2556176 0.1227458 0.3105944 0.006948648 0.2437138 -0.1487507 -0.1554661 -0.09095831 0.07331716 0.3924736 -0.2581311 -0.2244299 -0.198782 0.1406193 0.7596772 -0.4974527 -0.03044575 -0.1782952 0.2774733 0.2748609 -0.1920231 -0.2285191 0.02606583 -0.4211174 -0.2365397 0.1055372 -0.1412954 -0.134171 0.5296006 0.05610561 -0.01271756 -0.2135651 0.08527441 -0.1861334 -0.1219675 -0.2312899 -0.08044475 0.08409104 -0.2568494 -0.2426405 -0.09465979 0.1136969 0.1396997 -0.002390144 -0.05984789 -0.2760579 0.2178975 -1.18611 -0.5127828 -0.3237119 -0.417157 0.02330347 0.05380074 -0.2307027 0.07086182 -0.5778278 -0.2690377 -0.08896588 -0.03342837 0.9491294 -1.59866 -0.01329409 0.374162 0.624544 -0.1706462 -0.4303345 -0.2280941 0.0003800786 0.1169351 0.006410092 0.1879272 
  0.1006736 0.03940316 -0.2690931 -0.2448725 -0.0181929 -0.2052706 0.2059567 -0.1663815 0.1763538 -0.4194869 -0.2135047 0.3016137 -0.2869294 -0.2579361 0.1837015 -1.17305 0.006705297 0.1239788 -0.2522221 -0.5329544 0.1481512 0.2188757 -0.1515524 -0.0329854 -0.2034884 -0.04479215 0.3235361 0.01800427 -0.09775398 0.2650932 -0.6874134 0.003331705 0.1567248 -0.1391618 -0.3214954 0.2569354 0.175681 -0.02016937 0.1171294 -0.3112577 0.08077805 0.3087266 0.1991338 0.1191758 -0.09393639 -0.1188987 -0.65362 0.03317296 -0.0983649 -0.03758962 -0.5983505 -0.2911115 -0.2674758 0.2977683 -0.4600329 -0.06212669 -0.4951188 0.2493127 -0.1941218 -0.3286752 -0.1725611 -0.03615704 0.3892809 -0.1341375 -0.2180246 -0.1957047 0.2504999 0.3642178 -0.01582077 0.6624346 -0.07566984 -0.07365172 -0.08434413 -0.08569969 -0.3104351 -0.2031459 0.2425355 -0.1910457 0.2538416 -0.1873767 -0.2551621 -0.02604258 -0.1866069 0.3318154 -0.1790096 -0.1965894 0.2089615 0.08667258 -0.3018398 -0.2748396 0.08426695 0.2520128 -0.1512087 0.03665483 0.151165 0.3339225 0.1164612 0.2847564 -0.1147369 -0.2031239 0.03968868 -0.2743596 -0.0462406 -0.3237398 0.04219053 0.01879708 -0.006102092 -0.00279119 0.15664 -0.1957278 -0.4534015 0.09644636 0.05725571 0.02248387 0.05831104 0.147079 0.3501033 0.04348942 -0.2348463 -0.06053662 -0.0174831 -0.0540306 -0.08156034 0.05837415 -0.1957641 -0.387835 0.2791352 -0.2431104 0.05333125 -0.3823639 -0.1791337 -0.1773124 0.01464631 -0.2446212 -0.007377658 0.2505499 -0.1520851 0.06963431 -0.002541762 -0.3328984 -0.2408068 0.7769191 0.08693501 -0.3971451 -0.04439477 0.3888487 -0.0557474 -0.07222137 -0.2069463 -0.4050807 -0.06116211 -0.3457002 -0.002766942 -0.3557566 -0.5185925 -0.01296639 -0.4858121 -0.02000527 -0.2427503 -0.2223624 -0.2928948 0.549529 0.3210406 0.2120926 -0.1704807 0.1908693 -0.3775726 0.1484942 -0.235598 -0.6134091 -0.1552708 -0.0295419 -0.6409052 -0.3126038 -0.06913771 0.05541744 -0.3018231 -0.4077204 -0.3485805 -0.4492605 0.07755888 -0.04858863 -0.3183894 0.6389676 0.1254728 0.01823531 -0.2408376 0.2562132 -0.1056747 -0.2773295 0.02849011 -0.06937273 0.1666158 0.08666693 0.2458151 -0.001302735 -0.1723897 -0.3395347 0.5710014 0.3747765 -0.09551983 -0.2516039 -0.100755 -0.3920082 0.09689225 -0.1372252 0.03831784 -0.03255653 -0.3990015 -0.1028064 -0.08628435 -0.8297159 0.2674083 -0.1222502 0.5617307 0.006921634 -0.09142958 0.3550221 0.2688981 0.03979336 0.3405288 -0.0009115142 -0.4593641 -0.03900968 0.01260258 -0.008535285 -0.1112304 -0.02332285 -0.3441953 0.3341071 0.2322413 -0.4072368 0.2498434 -0.3323957 0.01953252 -0.06459353 -0.271517 -0.09452989 -0.08672041 0.287898 0.250986 -0.2171924 -0.1778762 0.1816402 -0.6518495 0.2527283 -0.2006516 0.04952036 0.1174238 -0.2296309 0.4333618 0.353761 0.07989996 0.4167943 0.4143563 -0.5740922 
  -0.2335124 0.03293968 -0.04925819 0.1007277 -0.1286557 0.0956113 -0.2080337 -0.2286938 -0.0297172 -0.339826 -0.07285524 -0.1329236 0.01541332 0.2899579 -0.5007596 -0.1369454 -0.2474618 -0.1638549 0.008038178 -0.09256975 0.1800822 0.1079477 0.4466155 -0.1415057 0.06735492 0.1483628 -0.04094806 -0.1387336 -0.1811152 -0.1039904 -0.1897968 -0.1556864 -0.03354638 0.08003079 0.1017888 0.0278323 0.08221742 0.1576565 0.03255042 0.3666308 0.3618204 0.2206395 0.06827413 0.02960902 0.08145376 -0.001568943 0.0995065 0.05604149 0.08238334 -0.005259143 -0.09037215 0.03278376 0.8938448 0.01326293 0.01185651 -0.002116403 -0.05632905 0.034408 -0.1013994 0.07092897 -0.08534921 -0.1893352 0.0930706 0.05358702 0.05338683 -0.1317363 0.2358854 -0.2272282 0.05748621 -0.6590729 -0.04533274 0.07672191 -0.009501895 -0.0990616 -0.4297455 0.007700194 -0.09248339 0.1140975 -0.188802 0.2401918 0.06372733 -0.1338541 -0.01377792 0.1597719 -0.3487626 0.1635675 0.008874115 -0.03538699 -0.2478499 0.02044107 0.04168076 0.1708431 0.0861937 0.1036461 0.1006071 0.07048587 0.009308644 -0.03335058 0.0815149 0.04011402 -0.06140686 -0.05400273 -0.2210523 -0.1049867 -0.02316291 0.1020804 -0.1616984 -0.2631603 0.07748251 0.377481 0.2707044 -0.08983094 -0.1815574 0.217201 -0.04681336 -0.1163108 0.5216623 -0.08152002 -0.07986441 0.03170801 0.08794332 -0.01703218 0.01322079 0.05559434 0.2960154 -0.0350921 -0.2182553 0.04206133 0.4408997 -0.2831265 -0.1194313 0.06511777 -0.02967723 0.1826435 -0.3517941 -0.2989881 0.08173452 0.02048669 0.5692183 -0.08583633 0.2167791 -0.3910492 0.07154524 -0.005879064 -0.2745692 0.09600729 0.146061 -0.1269497 0.03415258 -0.2305019 0.05022542 -0.08002907 -0.2527844 0.3996733 0.2876081 0.07186897 -0.2288576 -0.05282854 0.2456251 -0.2120263 -0.4305455 -0.4039316 0.1204418 -0.0231764 0.1452369 -0.01063982 -0.08344354 0.2724217 0.0680128 -0.2966378 -0.02880904 0.01682679 -0.01899018 0.01754087 -0.04804235 0.01653477 0.2930019 0.04020651 -0.01499084 0.07166743 0.06060915 0.1359521 0.444716 0.1230098 0.09232633 0.211592 0.009366489 0.09331711 -0.1643269 -0.1564337 -0.196475 0.001320782 0.06574965 0.3592384 0.142405 0.08079753 -0.09156972 -0.1113382 -0.03244667 0.1661764 -0.3228656 -0.06409959 0.1334099 0.03568892 -0.1458682 0.08697341 -0.08717114 0.1175402 0.1884495 0.3045294 0.09651275 -0.108436 0.04452604 -0.1599524 -0.2515334 -0.06858334 -0.1623796 0.07911745 0.01885845 0.0115176 -0.04315545 0.007738835 -0.09521244 -0.05826489 -0.2981454 0.04649596 -0.05538574 0.09534049 0.08206712 0.1202095 0.03602038 -0.03935474 0.1567232 -0.2050369 -0.07099441 0.0866685 0.002932264 0.01399573 -0.03951388 -0.08464728 0.07202809 -0.2368338 0.2008982 0.05425045 -0.127731 -0.08982913 -0.08513637 -0.05328779 -0.02547127 0.1063822 -0.02168444 0.07762432 0.01438189 0.007939387 0.03729313 0.154669 
  -0.01261717 0.1545652 -0.04217206 0.184929 0.02694576 0.1963719 -0.01807257 -0.006799928 0.01715778 -0.1041705 -0.1014061 0.4690671 -0.07791058 0.1518161 -0.4543638 0.08798157 0.2137536 0.4027262 0.01019632 0.1579185 0.4847156 0.253231 0.3040743 0.07225135 0.261174 0.2909123 0.02649329 0.05847429 -0.03831296 -0.09912868 0.07033842 0.1805324 0.1788826 -0.3248077 -0.1602428 0.03694303 -0.2993367 -0.1963486 0.0236638 -0.004540873 0.1200642 0.09052207 0.09025414 -0.2755291 -0.01196624 -0.04330112 -0.18853 0.3313535 0.03554513 -0.02123158 -1.009395 0.1802442 -0.3820121 -0.06061806 -0.004764143 0.1308068 0.05880564 0.1054187 0.05171638 0.005757765 0.04042061 0.4015388 0.02980938 0.1469219 -0.0005333909 -0.07831422 0.1268936 -0.2164021 -0.1667567 -0.01974741 -0.2259746 -0.02373203 -0.08809235 -0.1328638 -0.1163404 0.0137397 0.1143489 -0.1457813 -0.2134721 -0.3459023 0.1162453 0.1093232 -0.02769703 -0.3257732 0.02107003 -0.2088076 0.6349384 -0.1056954 0.3054564 -0.3258398 -0.02973059 -0.2117366 0.2380167 0.04805513 0.03641062 -0.1263013 -0.002035557 0.1930272 -0.06437998 -0.08398298 -0.2569967 0.1957358 -0.1159745 0.08021517 0.05741711 0.04085144 -0.1837064 -0.1306799 0.09783468 -0.2729755 0.1829685 -0.3760697 -0.1221715 -0.06751176 -0.1598691 0.04840802 0.4343003 -0.558714 0.1573224 0.08686462 -0.03244125 -0.06817546 -0.08726503 0.301675 0.2621477 0.03306634 -0.2222174 0.01093477 0.4493274 -0.1115292 -0.007198 -0.1768086 -0.2794603 -0.1073882 0.3166742 -0.03958892 -0.08129288 0.001103326 -0.1246315 -0.2261731 -0.1088749 -0.4165719 -0.3637597 0.09504347 0.1474326 0.0728597 0.3529195 -0.01035375 0.03517922 0.089737 0.149134 -0.1979026 0.07240684 -0.04241045 -0.02104256 0.06592993 -0.007590768 0.217349 -0.1731234 -0.178215 0.08468522 -0.2375813 -0.1655706 -0.08705241 0.313309 0.0605089 -0.00433462 0.007618071 -0.09755655 0.06549517 0.06765249 -0.06123978 -0.02526155 0.04839012 -0.06022616 0.2108074 0.005580203 0.1909208 0.2021169 -0.05800091 -0.04468904 0.04781115 0.09682321 0.4766174 0.2387754 0.6919114 -0.1428165 0.03385035 0.3689538 0.1396524 -0.113325 -0.008893553 -0.1625597 0.492533 -0.06046579 0.05644444 -0.001487652 -0.1618891 -0.1493441 -0.006226278 0.3663281 0.003082621 -0.008768355 -0.309271 -0.4430599 -0.2264491 -0.0369642 -0.007644773 0.1667105 -0.3562827 0.2435335 0.1565191 -0.01259936 -0.1712402 -0.4045747 -0.1832941 -0.04409901 0.1208729 -0.1403542 -0.02414971 0.09229556 -0.1003876 0.1377806 -0.0616331 -0.4519482 -0.04286498 -0.1341885 0.2436293 -0.2187363 0.3471904 0.1318523 -0.03599854 -0.4384339 0.009909761 -0.0872348 -0.1601615 0.2944995 -0.004187793 -0.0921059 -0.01302435 -0.05179451 0.4506608 -0.07278648 0.03121142 -0.01720565 -0.4118869 0.1001983 0.09878505 -0.2746881 0.06029825 -0.2413659 0.08952636 -0.04514559 -0.1730546 0.07763697 0.06364339 
  -0.04992959 0.214988 0.07386898 0.1448179 0.07620216 -0.1838658 0.09596673 -0.3942378 -0.06701871 -0.04557519 -0.1307468 0.4067727 0.1289347 0.02276413 -0.3615701 -0.1972952 -0.1636527 -0.3025528 0.03503746 -0.119532 0.07200202 -0.01843295 -0.4840374 0.05626515 0.2237667 0.1375843 -0.382762 -0.1232944 -0.2591781 0.01671052 0.02729808 -0.05673611 -0.3396636 -0.1984008 0.2613226 0.09217952 -0.1758395 -0.3891774 0.6075158 0.2313709 -0.0562351 -0.1771595 -0.0187913 -0.08753845 -0.05162368 0.06584455 -0.1885799 0.0004876461 0.004223388 0.2100583 -0.2280671 -0.325594 -0.336422 -0.274013 -0.3027884 0.06782905 -0.1460795 -0.2373134 -0.2432392 -0.199069 0.1166964 -0.2009611 -0.3453149 0.1868803 0.04731542 -0.105628 -0.02362302 -0.02617048 -0.09802891 -0.428354 -0.08699775 -0.007234279 0.1016011 -0.3356761 0.4188166 0.1600023 0.02329541 -0.5372643 -0.1312844 -0.02986694 -0.3343101 -0.07070095 0.07516202 -0.3093483 0.2160768 -0.1931559 -0.2568042 -0.2462787 -0.04371857 -0.1866738 -0.05686107 -0.006464733 0.2233343 0.09921482 0.1607711 -0.05394708 -0.3552849 0.4175245 -0.04859476 0.1848112 0.5988179 -0.07394864 0.0775817 -0.03120973 -0.3146352 -0.03113478 -0.01613056 -0.09173702 0.1452196 -0.6506438 -0.1668739 0.02532278 0.1075407 -0.06149104 0.02895135 -0.07458103 -0.02996172 -0.1339865 -0.0702543 0.1384268 -0.01523813 -0.07654557 0.1285696 -0.2146553 -0.1794814 -0.1187816 -0.3433191 0.1312764 -0.2081506 -0.3844522 -0.06999072 -0.1455888 0.02761457 0.08774448 0.04545897 0.07135274 -0.1890383 -0.1131106 0.05077576 -0.06763174 0.009714006 -0.3467096 -0.07670461 -0.162165 -0.01454059 -0.06453747 -0.2603617 0.06582253 -0.1019341 -0.09087598 0.02373118 -0.4690221 -0.6554777 0.0158237 0.1305762 -0.1060187 -0.05484223 -0.09235277 -0.07286286 -0.1532455 -0.09620936 -0.3668847 0.0231625 0.07099911 0.2196914 0.1576045 -0.07604748 -0.01105635 -0.1093982 -0.0254266 0.07028589 0.1813983 0.0272383 -0.2055257 0.2137473 -0.02728829 0.02640087 -0.1397964 0.07194171 -0.04886699 0.1322262 -0.2272489 -0.06492274 -0.233187 0.5977101 -1.229799 0.070933 0.1202906 0.1269784 0.1108169 0.05234826 -0.0203915 -0.04706573 1.00609 0.04246116 -0.03695235 -0.04140067 0.2703952 0.1201512 -0.1901827 0.08235957 -0.108245 -0.115171 0.03982307 0.04435276 0.04930963 -0.2804505 0.06408694 -0.007099598 -0.1311087 0.2585606 0.2399128 0.1245364 0.1749977 -0.003200353 0.119047 0.2305681 0.1911904 0.2121598 0.1898337 0.4645285 0.03331975 0.08471521 0.1114137 0.005450791 0.1360589 -0.0777481 0.052177 0.1710151 0.1123638 -0.1324924 -0.2827783 -0.5300896 0.1411918 0.2607623 0.09787724 -0.2248733 -0.1325196 -0.1432623 -0.07049428 -0.09475552 0.2652431 0.007238467 -0.1004451 -0.2330209 -0.05105321 0.229888 -0.07133537 -0.08250844 0.1881039 -0.4408299 -0.2823485 -0.01058586 0.05464818 -0.1706634 0.002345172 
  -0.07864135 0.1685032 0.2747938 -0.02852896 -0.1427267 0.2562347 -0.09737849 -0.6490793 0.09007389 0.1429147 0.057183 -0.03148326 0.2587306 -0.2317681 -0.3565182 0.2003247 -0.4761328 -0.2313451 0.07962321 0.1066289 -0.05524869 0.05321799 0.02681268 -0.07135124 -0.3765953 -0.27916 0.4078688 -0.2687266 0.9318546 -0.1658651 0.005143684 -0.008516031 0.6049891 -0.05226368 -0.07583673 -0.2828593 -0.5989562 -0.1976624 -0.5685708 0.2872275 0.5132106 -0.1548158 -0.0386822 -0.1745332 0.1841712 -0.1381358 0.08011902 -0.09765624 -0.0460635 -0.5318373 -0.04187904 0.1504262 -0.2352869 0.2141032 -0.7346895 -0.2752208 -0.1870983 0.09468628 0.3686066 -0.3573022 -0.04188083 -0.09804235 -0.03843779 -0.1816886 -0.08336293 -0.7260616 0.1417115 -0.7768025 -0.09890165 -0.1271794 -0.06520286 -0.01017902 0.3298346 -0.319099 -0.4403988 -0.09199408 -0.05366424 0.1199437 -0.2749703 -0.1173653 0.2278061 0.6972991 -0.2403462 -0.04932941 -0.2179598 -0.105427 -0.3441187 -0.8763295 0.660162 -0.09821676 -0.3344418 -0.2884734 0.4468849 -0.1040531 -0.04040784 -0.02174001 0.3941605 -0.2319815 0.1274603 -0.048585 0.03967442 -0.0817658 -0.09484693 -0.4541152 0.0534642 0.3260059 0.003967079 -0.3130484 0.6845335 -0.160472 0.06722882 0.06468345 -0.4849819 -0.05506559 -0.4334642 -0.1233901 0.7206459 0.1438014 0.02842578 0.2729519 0.1618919 -0.1052436 -0.578785 -0.07732853 0.08900259 -0.2110141 0.1820908 -0.01866737 -0.5066696 0.07231878 -0.1007952 -0.00778043 0.2589405 -0.2078426 0.02847063 -0.1050075 -0.09436309 0.1186042 0.1569993 -0.1291014 -0.1181199 0.1122937 0.3836552 -0.3404954 -0.5441536 -0.1273434 -0.2145304 0.07993224 0.006918422 -0.1863614 -0.1484154 0.001937156 0.1195393 -0.2464693 -0.2590407 0.3951584 -0.09687188 -0.07027705 -0.1379068 -0.04478381 -0.168621 -0.01156937 -0.1129073 -0.2519265 -0.1351823 0.2280487 -0.09090017 -0.07681115 -0.03448617 -0.2643845 0.1161857 -0.257628 -0.02165356 0.2080906 0.05906132 0.1482189 -0.7349906 0.1563981 -0.026937 -0.262518 0.02852602 -0.1019068 0.3305968 -0.1557295 0.420904 0.09300198 -0.4345055 -0.5551 -0.01900368 -0.4729974 -0.193701 -0.1214767 0.06601082 -0.1853703 0.02462239 0.1295129 -0.08034722 0.5968583 0.0134338 -0.3887914 0.2434244 0.158265 -0.2694742 0.1412974 -0.08413894 0.09805291 0.01468538 0.2532049 -0.1731023 0.05258989 -0.4524789 -0.05345891 -0.08270559 -0.2272032 -0.2236393 0.06616713 0.2540696 0.1416284 -0.1784823 -0.04273687 -0.2730213 0.09997959 -0.2417362 -0.01659657 0.05753442 -0.08579486 0.1252851 -0.1107325 0.0935121 0.1266167 0.01916426 -0.2014627 0.3243439 -0.1046732 -0.09078162 -0.2734638 -0.06893502 0.03675532 -0.2135094 0.157263 0.2235307 -0.3581171 0.1438901 0.4296125 -0.05973615 0.4343833 -0.3442766 -0.04644589 -0.5535365 -0.2166417 -0.2137999 0.2168934 0.1586318 0.05856249 0.05673693 -0.08163536 
  -0.2260948 -0.0007881395 0.06441525 0.2668915 0.1460019 0.05666835 0.07242428 0.4668354 -0.1151284 -0.1958067 0.1745137 0.6271501 0.009890549 0.2597587 0.310182 0.3111604 -0.07902999 -0.0954819 0.4767972 0.1406301 0.2418168 -0.3255041 0.1607152 0.06786479 0.07074826 -0.03793985 0.07753217 0.110447 0.02852282 0.08844422 0.2225932 -0.02503912 0.0272761 0.6029118 0.3687891 -0.1447875 -0.6607957 0.2302802 -0.1323791 -0.05912889 0.07850215 -0.2800991 -0.2270808 0.03683018 0.09712871 0.2679573 0.2367639 0.4755428 -0.4486791 0.1602625 -0.1698416 0.5316305 -0.01184013 0.06964752 -0.0520567 -0.5938427 0.05790827 0.02123029 -0.2896537 0.1462628 -0.03243834 -0.2994306 -0.2434488 0.1031035 0.07217648 -0.01661349 -0.2016729 -0.4621452 0.05693488 0.7729283 0.2533383 -0.06285866 0.05251369 0.7317163 -0.08828307 0.05433005 -0.06797615 -0.1162972 0.1856494 0.0634511 0.4101617 0.2550987 0.2324391 -0.1971873 -0.1332983 0.6811377 -0.107983 0.006890421 -0.2317562 0.1762274 -0.1687898 -0.3236627 0.132044 -0.2738651 -0.5363227 -0.004346546 -0.07090017 -0.1373862 0.108907 -0.4558381 -0.3115756 0.6594937 -0.2999791 -0.5307956 0.3242951 -0.06333369 0.1357643 -0.2003375 0.07841585 -0.1997181 0.1920546 -0.193897 0.6076948 -0.1017758 -0.04455601 0.07785302 -0.1787596 0.06373277 0.12801 0.1200691 0.08006193 0.7925732 -0.07316004 -0.08832707 -0.1957406 -0.3326162 0.2192167 -0.06653915 -0.1234235 0.02126801 0.090665 -0.05717409 -0.1317892 -0.04592747 -0.02991888 -0.2465143 0.395918 -0.2758639 -0.1275428 -0.2989261 0.02377927 0.107762 0.2398943 -0.4855695 -0.06866373 0.05423883 -0.1154792 -0.6649063 0.1516749 -0.501639 0.180159 -0.1781465 -0.4385522 0.1579106 -0.3117909 0.3927704 0.6418526 0.6645113 -0.3661293 -0.5219919 0.0449452 -0.244786 0.8342873 -0.08580472 -0.06363349 -0.09335073 -0.2344213 0.2686481 0.1571407 0.2143769 -0.01102134 0.01823926 0.01110379 -0.2431441 0.0888138 0.417864 -0.1914379 0.9703879 0.3917938 -0.000846119 0.152317 -0.2406814 -0.05733746 -0.119997 -0.1933541 -0.1702424 -0.1566745 0.1679971 -0.2691427 -0.2290822 -0.5194493 -0.2783262 0.1607382 0.007818121 -0.3259694 -0.09723816 -0.04777714 0.007798166 1.063373 -0.06815531 -0.06086926 -0.1550724 -0.176271 -0.176571 -0.1564724 0.1713119 0.1193293 -0.212417 0.126938 0.4431622 0.1613355 1.250441 0.2701031 -0.1607156 0.3725814 -0.2586874 -0.2781874 -0.1080339 -0.08989317 0.02399586 -0.07146174 -0.1811783 0.1606655 -0.1383251 -0.1881973 -0.1529277 -0.1849576 0.1140206 -0.1147206 0.3117858 -0.8414382 -0.5276863 -0.05854014 0.8007285 -0.2978311 0.7714606 0.229164 -0.2906547 0.1103423 0.1814929 0.3944442 -0.1747523 0.1954222 -0.3294412 0.4066395 0.06379695 -0.2028409 -0.3017365 -0.1039208 0.02041312 -0.39759 0.2962614 -0.2216246 0.4774446 -0.4976147 0.2200148 
  -0.04992262 -0.2669528 -0.01316475 0.003689819 0.157455 -0.03654161 0.08755327 -0.3577818 -0.1614289 0.3470947 -0.1275386 0.3471475 -0.09161526 -0.1383525 -0.1940462 0.3030427 0.175848 -0.179424 0.1107137 0.06315238 -0.006976481 -0.1028133 -0.2162118 -0.1031758 0.0882692 -0.1211675 -0.1167764 -0.04120689 0.006130566 -0.1027807 0.1247636 -0.3833761 -0.069823 -0.1265341 0.05971999 0.1221309 -0.2920555 0.2046567 0.4323565 -0.1217607 0.07874581 -0.4967177 0.0006821504 0.2542598 0.1637407 0.03182716 0.1942699 -0.1484792 -0.1574954 -0.08393463 0.2390861 0.03835765 -0.247019 -0.2701646 0.1741276 0.1154646 -0.1296625 0.02864393 -0.01605598 -0.1713546 -0.03463995 0.09188645 -0.09381038 0.07448918 0.09172162 0.3542852 -0.1710546 0.2366079 0.04455198 0.02115085 -0.1431957 0.05178742 -0.2269094 0.003078392 0.1192757 0.01963937 -0.04933533 0.02600065 -0.1719434 -0.2701918 0.09649092 -0.1628406 -0.2191761 -0.1417617 0.1139424 0.01971538 -0.1911577 -0.02301132 0.03512453 -0.1228051 0.7397338 -0.0502672 0.2434122 -0.0295561 -0.05254585 0.2102572 -0.2816801 0.1307578 -0.1853067 0.004643967 0.1883002 -0.2196635 -0.1544772 0.001108203 -0.02706671 0.1076794 -0.3440585 0.001344587 -0.01085951 0.1947213 0.1804687 -0.03785432 -0.02033656 0.101473 -0.4328931 -0.3444911 -0.3376107 -0.003722059 0.08574317 0.1532383 0.03638948 -0.08207586 1.368387 -0.150452 -0.1032831 0.0004813349 -0.2262345 0.1419954 -0.03760167 -0.02179853 0.05618542 -0.028473 -0.3582332 -0.1975823 -0.1010508 0.04488539 0.01380696 -0.05107354 -0.006397015 -0.2627429 -0.05317484 0.1801034 -0.2428552 0.4030942 0.240471 0.1838546 -0.004822968 0.07734357 -0.10004 0.02017287 -0.01557524 0.5322792 0.4776119 0.09252214 -0.1773877 -0.1150425 0.1417848 -0.3165137 -0.04453671 0.07374313 -0.3115956 -0.1920331 -0.1929581 0.007111242 0.9501745 -0.002310407 -0.2025902 -0.008071327 -0.1289599 -0.08582275 -0.05430212 0.01074645 0.0008387869 0.06396702 0.1676234 0.10432 0.1979054 -0.0147493 -0.1178172 -0.8216686 -0.10039 0.001693645 -0.09865648 -0.1389599 -0.6175698 -0.03399393 0.07917337 -0.08268849 -0.2193448 -0.0751148 0.04597156 0.1772947 0.04359329 -0.09582216 0.1868533 -0.05977252 -0.09041286 0.1893301 0.2557748 -0.07964631 -0.05257076 -0.0389782 0.1210685 0.1336291 0.1596015 0.04634497 0.07005589 -0.1794522 0.09797282 -0.4193558 -0.3685657 -0.1927423 0.07115799 0.10584 -0.2499423 -0.04596405 -0.1454022 0.002725499 0.1500931 0.1147116 0.2870379 -0.1597719 0.009472121 0.06939887 0.251303 -0.007753216 -0.2078579 -0.2838651 0.1427034 -0.1995937 -0.0896239 -0.01130385 0.4411522 -0.4049263 0.001688158 0.0303543 -0.1001659 -0.3755222 -0.01967738 0.09924652 0.1088637 -0.1098569 -0.4571885 -0.02425241 -0.01266586 0.2174633 -0.001994199 -0.1248438 -0.2139639 0.04574232 -0.2984636 -0.1745601 -0.07704252 -0.06046169 0.05825205 -0.1096658 
  -0.1506799 -0.2000584 0.464003 -0.1266955 -0.2399319 0.216344 0.9451744 0.04496747 -0.1598329 0.03576089 0.197331 0.3827899 -0.1217778 -0.1381202 0.03827895 0.4695598 -0.3041241 0.01347812 -0.06751479 -0.1287189 -0.1668491 0.08055257 0.1570011 0.02970885 0.2053702 -0.1277129 -0.2617378 0.2112016 -0.4333001 0.2123509 -0.4811513 0.05378104 -0.2032921 -0.09140052 0.1537716 -0.1779991 0.02285128 0.1037196 -0.02249957 -0.1853911 0.1795539 -0.2576643 -0.1183992 -0.2198861 0.2681745 0.1567315 0.02080856 0.1638195 -0.03329177 -0.6033471 0.1991182 0.131072 -0.272836 0.1764728 -0.3635986 0.3137881 0.1141765 0.2127864 -0.141252 0.4152314 -0.04054508 0.0534422 -0.01266367 0.03352616 -0.4816397 -0.1409439 0.3190631 0.02461522 0.003841655 0.2302376 0.1785564 0.003437373 -0.2801251 -0.4222077 0.1567292 -0.1267651 -0.1876909 0.2378853 -0.07418901 -0.07058595 -0.07548892 -0.1021872 -0.1315527 -0.2746747 -0.422414 0.007066519 0.1308775 -0.03333693 -0.1920684 0.04980825 -0.1053711 -0.1159446 0.2203925 0.2176656 -0.2687431 -0.1210321 -0.19333 -0.1719147 -0.2915845 -0.3354394 -0.2826352 0.2852544 0.03896083 0.06123009 -0.1493826 0.2394624 0.006781499 -0.3725645 -0.1301603 -0.0246002 -0.2678079 -0.1969476 -0.01144526 0.2300253 0.03247569 0.1300181 0.09684838 0.03575136 0.1541002 0.2842441 0.1020417 -0.2857565 -0.1000999 0.1089257 0.1920902 0.2487848 -0.2288424 -0.340715 -0.2559865 0.2226719 -0.1094988 0.05679614 -0.02067845 -0.02953047 -0.2263055 -0.3800946 -0.3700881 -0.07784355 -0.1074205 0.03565578 -0.3603647 -0.4084328 -0.02681451 -0.1268596 -0.0972833 0.007006546 -0.3671716 0.1384912 -0.2110972 0.2152858 -0.03206927 0.2652299 -0.1431394 0.2618425 0.1912571 -0.1543226 -0.2682107 -0.1470247 -0.2582363 -0.003457807 0.07797126 -0.1644908 0.1052254 -0.3656516 -0.1762554 0.2763908 -0.07186637 0.09713001 0.1876254 -0.03650854 -0.3675921 0.01004457 0.09795195 -0.1383386 -0.1066335 0.04198277 -0.01430159 -0.2090079 0.3425874 -0.2579682 -0.2891622 -0.07597144 0.2071903 -0.1463013 -0.1241504 -0.04516476 -0.06016709 -0.05633093 0.1532881 -0.2975991 0.02580202 0.1411359 -0.02202463 0.1382469 0.04166847 0.05926079 -0.1446973 -0.03006488 -0.1928938 -0.09985053 0.06311344 -0.3647619 -0.4185866 0.3378435 -0.4412448 -0.4957662 0.3074365 0.1600095 -0.1444693 0.1419928 0.01426671 -0.2707107 0.05234057 -0.06637075 -0.07148325 0.144399 -0.287003 -0.1585317 -0.3835564 -0.06044454 -0.2025316 -0.2784201 0.1343322 0.2202911 -0.09777208 -0.008834407 -0.09138612 0.003444186 -0.06752417 -0.01283319 0.04215874 -0.04048857 -0.2295369 0.08184101 -0.1543851 -0.1118376 0.01439037 0.06537743 -0.3032439 -0.2883295 0.04862381 0.09298038 0.2585237 0.1436701 -0.2040115 -0.277272 0.5158669 -0.08018915 -0.9622899 -0.01947937 -0.1032392 -0.06471171 0.03767293 0.05339641 -0.07879776 -0.06993672 
  0.1876107 -0.2855392 0.1154277 0.0006299916 -0.01070584 0.2735426 -0.2281799 -0.07945095 -0.1511541 -0.1363534 0.0584427 -0.1225287 -0.3401829 0.2655816 -0.08041541 0.1223116 0.200926 0.1187278 -0.3959732 -0.3178606 0.1007128 0.3159588 0.2829005 -0.1912792 -0.1302639 0.04231868 0.08407827 -0.08728776 0.08560421 0.1959354 0.2285528 -0.1840319 0.1654121 0.0005654242 0.2122946 0.1033441 -0.3716167 0.2441993 0.07224613 -0.06087958 0.1474144 0.1340412 -0.1714284 0.1617258 0.4801997 0.2550193 -0.04784641 -0.3423051 0.2088113 -0.003124538 -0.3248692 0.05747272 0.0006514696 0.0586215 -0.0802074 -0.3573282 0.09762432 -0.06265954 -0.4106179 0.1288586 0.1359756 -0.04580889 0.04726364 0.1713056 -0.1175888 -0.1410145 0.06537219 0.2446623 -0.1462278 -0.1147281 0.2150333 -0.103553 0.005806272 -0.08816529 -0.1501912 -0.009716698 -0.0617124 0.08469877 0.1706281 -0.09444381 -0.3979872 0.2414611 -0.1747105 0.1311322 0.1442364 0.2477695 0.08359363 -0.1429023 -0.1691201 0.2438495 -0.0043166 0.1695277 0.4767142 0.01732013 0.1606316 0.1712024 0.1178254 -0.08408909 -0.1300939 -0.2374869 0.07440926 -0.1314866 0.5617707 -0.2835703 0.05920596 -0.1149855 0.6740872 -0.2031359 -0.1175801 0.1446522 -0.1629933 0.1566509 -0.3929802 -0.06407715 -0.05425095 0.1926323 0.4167688 -0.01718317 0.1351753 -0.2780467 -0.08011696 -0.1543666 0.05043076 0.049209 0.1130308 -0.09206017 -0.005317196 0.1354999 0.025847 0.1941428 -0.07357659 0.1209526 -0.0492468 -0.08962815 0.004623824 -0.07824329 -0.1225836 0.100861 -0.1639381 -0.03506712 0.1647668 -0.594253 0.1622874 -0.1513591 -0.08500057 0.08165494 0.112689 -0.2061213 -0.1805566 0.0781045 0.3721637 -0.01709332 -0.09038052 0.2417141 -0.1674866 0.3580193 -0.1149492 -0.001875293 -0.5451106 0.1003889 -0.2012047 -0.2538072 0.05848182 0.1467359 0.1680472 0.3568119 0.0791235 0.1338971 0.1437275 0.077814 0.2485795 0.1615248 -0.2194059 0.2420864 0.04636584 0.06976645 -0.06314384 -0.1818395 -0.3818744 0.1269375 -0.1214346 -0.2559365 0.2794116 -0.1204521 -0.1653347 0.2844858 -0.3484975 0.1635666 0.09097344 -0.1475194 0.1776767 -0.1100668 -0.2619674 0.01971214 0.1368964 0.006581657 -0.1647672 0.1032969 -0.263468 0.04820758 -0.06338806 0.2023033 0.1475305 0.1202861 0.368834 -0.0654616 -0.03926807 -0.1530083 0.09570333 -0.2587279 0.07538135 0.2779861 -0.394253 0.2407387 0.1719089 0.3819129 0.07348922 0.0007706957 0.1613882 -0.2088316 0.174281 -0.1189713 -0.301074 0.2242355 0.1024249 -0.1334708 -0.2634355 -0.07640395 -0.2325072 0.1316568 -0.1745759 -0.105125 0.06939239 0.3235048 -0.09094224 -0.3183944 0.09575681 -0.03155563 0.1482713 -0.3073979 0.04783669 0.02138075 0.1997298 0.1764327 -0.1015462 -0.006490338 0.1306248 0.1027637 0.1516795 -0.04599823 0.2813366 0.5611233 -0.1681718 -0.05227038 -0.1075694 0.07523184 
  -0.1698517 0.05046319 0.2383807 0.1636981 -0.6359074 0.1718529 -0.2554776 0.2615131 0.02299793 0.03132096 -0.07486691 -0.4784012 0.2212881 0.2025882 0.3334344 -0.01007363 0.03238819 -0.02298391 0.01419527 0.3581865 0.08102246 -0.01706762 0.1761925 -0.01044543 -0.1484116 0.03364294 -0.1326326 -0.4435332 0.1593122 -0.1699076 -0.004559362 -0.2392699 0.1735233 -0.4344756 0.1923286 0.1037648 0.2459816 -0.04366372 -0.2676498 -0.1882824 -0.4165974 -0.09495218 0.06027301 -0.2340537 -0.2741778 -0.1737701 -0.04391114 -0.3992694 0.03413349 0.1762521 -0.0551775 -0.1957312 -0.1709145 0.1300679 -0.3176475 -0.2294174 -0.02503284 -0.01706908 -0.09192111 0.05180523 -0.3791396 -0.06296441 -0.3355249 0.01196701 -0.2945179 0.3178771 0.1299037 0.02570549 -0.1138775 0.2201601 -0.4452164 0.05319319 0.01894434 0.4346693 -0.04738965 0.2398592 -0.1862841 -0.2233522 -0.06388211 -0.06476259 -0.1259738 -0.06055456 -0.2575597 0.2832507 0.2102325 -0.1149068 -0.3057639 -0.1556956 0.08771461 0.003015081 0.6160473 -0.02466776 0.1299888 0.3521762 -0.09299169 0.03357935 -0.3609507 -0.07036851 0.232505 0.0587404 0.6732465 -0.1627274 0.1339226 0.2819648 -0.02878869 -0.1034476 -0.01485614 0.1488998 0.01273779 0.1636363 0.1243261 -0.03003813 0.07558086 -0.2120599 -0.6330075 -0.2964369 0.4961143 -0.00692143 -0.03816448 -0.2257667 0.04691419 -0.1436827 0.01847549 -0.07532229 0.06015572 0.1038998 0.1972176 -0.20376 -0.2181283 -0.36426 0.02286717 0.1831951 0.5330266 0.09954912 0.212008 -0.1247053 -0.05503469 -0.1208319 -0.04781328 0.5326273 0.006997856 -0.05391552 -0.3528889 0.04389342 0.05214657 -0.04827774 -0.2521122 0.04546767 -0.05368664 0.1769408 -0.128216 0.3046612 -0.5918455 0.04952822 0.2359234 -0.02532886 0.2240493 0.5642077 -0.1637291 0.07798429 -0.4574184 -0.4151328 0.07926451 0.2173712 -0.4878692 -0.1009324 -0.1987895 -0.1126314 0.1401705 0.0923807 -0.04082784 -0.1175551 -0.08794218 -0.1196553 0.2378554 -0.2176072 -0.5113919 -0.01625786 -0.1192658 -0.09372821 -0.07310195 -0.2156471 0.281444 0.4426478 -0.412421 -0.001828027 0.1518027 -0.05331684 -0.262174 0.07709363 -0.1649222 -0.2288616 -0.03669787 0.01011099 0.003716934 -0.04048395 -0.1928755 0.03324769 0.2785241 0.1355709 0.1168858 0.02827028 -0.2545676 -0.2038542 -0.3102789 -0.1726421 0.1149727 0.1342514 -0.03825706 0.0236536 0.1143362 0.2142066 0.01397071 -0.0350948 -0.005869167 0.04584707 -0.2917043 0.06068908 0.1036064 -0.03489365 0.1149629 -0.06994186 0.2721477 0.01539052 0.002855509 -0.02096007 0.2436194 -0.2305698 -0.08262366 -0.3545862 -0.01861485 -0.222342 -0.2984053 -0.3429959 0.02882009 0.3192869 0.488861 -0.8792321 0.1864342 -0.2571199 0.2009257 -0.06293046 0.03686903 0.05901143 0.1358562 -0.1862028 -0.2338833 0.5238413 0.2908628 -0.02967603 0.05626864 0.02674763 0.007857681 0.1299991 -0.1255502 0.3454161 
  0.3141065 0.2116759 0.451286 0.2687677 -0.5447011 -0.6411761 -0.1065204 0.0004340136 -0.2537358 -0.6693045 -0.3269081 0.04724381 -0.2800736 -0.04758457 -0.1486766 -0.6799152 -0.2754415 -0.1456175 -0.07197219 -0.6291649 -0.2800695 -0.3864331 -0.2212851 -0.08573873 0.04411718 -0.1544691 0.2732062 1.040274 -0.1598078 0.2341891 -0.2564618 -0.3270402 0.2142257 -0.1506043 0.08034769 0.06024963 -0.4129544 0.2125301 0.05434984 0.008447883 -0.0489615 0.1313286 0.02564891 -0.3029886 -0.1217785 0.03422608 0.1107271 0.2858644 -0.2059893 -0.2656909 0.01431558 0.03933664 -0.09515429 -0.1411607 -0.4350003 0.01384726 -0.2792399 -0.1219735 -0.006607626 -0.1452077 0.1586147 0.361078 -0.142717 -0.1161969 -0.3463048 0.1567754 0.2881275 0.3062344 -0.01855201 0.007969101 -0.02551502 -0.3425679 -0.1771092 1.085369 -0.003137251 -0.2695761 -0.208599 -0.3687049 -0.723507 -0.3011492 -0.1837186 0.2843169 -0.3736848 -0.6406066 -0.1354146 -1.160009 -0.7990917 0.2736539 0.09017599 0.00640867 -0.1952276 -0.488042 0.005564149 -0.08143107 0.2249198 -0.1611604 -0.3877441 -0.5086152 -0.007115457 -0.1721064 -0.05799679 -0.3977418 0.04451861 -0.04607755 -0.4823771 -0.01273689 -0.5848514 0.1629965 -0.03473733 -0.2843262 -0.01297894 -0.4169718 -0.3118496 -0.2953275 -0.005974493 -0.1387855 0.6328654 -0.3153518 -0.5911036 0.07338771 -0.1630695 0.19283 -0.1008438 -0.6252356 -1.022293 0.5341441 0.30733 -0.2519877 0.07446864 0.01793264 -0.1629357 -0.1124153 -0.2790583 0.2011851 -0.5046509 -0.3820041 0.2530552 -0.2869788 -0.002453506 -0.3448988 -0.275346 1.08188 -0.1460065 -0.4154785 -0.1000856 0.355879 0.05490563 -0.3564563 0.5585904 -0.5037839 -0.7008137 -0.06330635 -0.2784497 0.2730004 0.07129637 -0.4425998 -0.2138986 -0.8635634 0.04123792 -0.2008615 -0.1118408 0.2155892 -0.1220752 -0.0303057 -0.0979408 -0.4832836 -0.0489842 -0.003692606 -0.08181679 0.06070618 -0.04132224 0.07956159 -1.078532 -0.003255094 -0.1215914 0.3021484 -0.3614934 0.3699066 -0.1689327 -0.03333192 -0.3537154 2.281754 -0.09450446 -0.04617038 -0.3522243 0.2605001 -0.0171616 0.1369004 -0.1031127 -0.6684388 -0.01106567 -0.275477 0.08452694 0.3058289 0.2300322 -0.3630567 0.1433031 -0.03893991 -1.084276 -0.1176894 -0.008495849 0.025954 0.01787815 0.3520491 -0.5390389 -0.1307863 0.1635448 -0.09896681 0.1000027 -0.02306049 -0.1594428 0.3506041 -0.1695119 0.4384715 0.04636153 -0.6766198 0.733865 -0.1034546 0.109352 -0.3431848 0.2327812 -0.07898035 -0.2265098 0.306614 -0.2354194 0.3862443 0.1363405 -0.005554901 -0.01637654 -0.2236958 -0.2901185 -0.00156752 0.1139058 -0.2853167 -0.3024825 0.2969305 0.3496942 -0.005629115 0.06049256 0.09964967 -0.5805573 0.01208329 -0.5637245 0.2605267 0.3605279 0.2869948 -0.04783199 -0.1350482 -0.06417286 -0.3324041 -0.4545957 0.8874971 -0.03305629 0.2741334 -0.04968718 -0.2101049 
  -0.03973756 -0.06008201 0.1329564 -0.03482729 0.1096156 0.1816922 0.1052118 -0.01638716 -0.0929976 0.2116472 0.04266711 0.5084361 -0.1871373 0.05324613 0.2282106 -0.201626 0.03607393 -0.09108521 -0.1246329 0.1788912 -0.2055569 0.1897358 -0.1510084 0.07485961 0.06823873 -0.1673528 -0.1161634 -0.004618506 0.08793375 0.1267659 -0.2135734 -0.1720657 0.09084047 -0.1356115 0.02759927 0.1897456 0.01303044 0.01446907 -0.18317 0.133596 -0.1484648 -0.08951572 0.1309207 -0.3106435 -0.07173526 0.005520403 0.2157227 -0.009481446 0.05451944 -0.1310603 -0.1669572 -0.059274 0.1683368 -0.6102685 -0.3044106 0.1833922 0.2422037 -0.03985184 0.0118242 0.1915998 -0.1320576 -0.09306902 -0.1402371 -0.09918204 -0.1767125 0.1271951 -0.02831894 0.05063103 -0.1358885 0.05707738 0.3328188 -0.1249101 -0.1930477 -0.1359684 -0.02912172 -0.341099 0.2342133 -0.1100093 -0.1668788 -0.7702119 0.3381481 0.03869704 -0.04893089 -0.2093814 0.08840945 0.2325701 -0.113457 0.04413033 -0.1583968 0.009647021 -0.05384085 0.02100187 0.06944842 0.2697479 -0.1995587 -0.0861938 0.04592597 0.2239138 0.1066152 0.132411 0.3555489 -0.3249458 -0.3264423 -0.1585762 -0.07265873 0.08203517 -0.06262273 -0.01699012 0.1926087 0.2309154 -0.02049655 0.2644086 -0.1389913 0.01876985 -0.2471958 0.04329665 0.2315123 0.4253431 -0.01315696 -0.01222933 0.01702649 0.2804984 -0.06872445 -0.09688088 0.0868095 -0.004814677 0.168443 0.2217156 0.1879932 -0.1325392 -0.07410233 0.1580946 0.02172753 -0.1534633 -0.144495 0.03635404 -0.2894339 0.5481572 0.08030282 -0.03642617 -0.04853002 0.02814801 -0.3570686 0.04539778 -0.06529922 -0.1057126 0.1101746 -0.1597555 -0.3566484 -0.1345473 0.09568702 0.1069957 -0.2019524 -0.1739677 0.1054136 -0.07837679 -0.2874404 -0.1747809 -0.1704949 0.3792259 0.7709423 -0.4888155 -0.1340195 0.3555406 -0.03127039 0.08010449 0.0483826 0.1664115 0.0499153 0.0234298 -0.09500643 -0.2059497 -0.1155755 0.05801723 -0.08324891 -0.01782632 -0.05316124 -0.1513871 -0.02189712 0.2699744 -0.06609809 -0.2916279 -0.01921353 0.3508809 -0.2885451 -0.1107532 -0.1528277 -0.1341206 0.5477003 -0.15519 -0.05966107 0.2380787 -0.1701418 0.02121566 0.1818875 0.07779823 -0.1129387 0.2101263 0.116161 0.1163437 -0.1992477 0.1864011 0.1509014 -0.1233266 0.04426544 -0.181458 -0.05292139 -0.05695007 -0.1549723 -0.0138273 -0.0155871 -0.2476727 0.04496519 -0.1526163 -0.2241753 0.03516625 -0.3175685 -0.07098555 -0.1163846 0.04140778 0.1510638 -0.06472787 0.06422076 0.1032303 0.171665 -0.1250305 -0.1797653 0.7461778 0.07255505 -0.3231775 -0.08488132 0.01353144 -0.1584758 -0.1165976 -0.600366 -0.0438751 -0.4462265 -0.02264859 0.04681861 -0.1336958 -0.1391686 0.09689501 0.07307564 0.08703085 -0.09558906 -0.2852387 0.04384429 0.2297211 -0.1965067 0.0903335 0.07878729 -0.1931389 0.1289506 0.05794248 0.1984118 -0.06676377 
  0.03539247 -0.03651037 0.09082667 0.02524531 -0.01159634 -0.809943 0.001941879 -0.2325086 0.4137782 0.2475284 -0.1998223 0.01378313 -0.1750622 0.5714727 -0.1000823 -0.006331728 0.02819192 -0.1583084 -0.1815836 0.1476287 0.2394609 0.01916829 0.04427962 0.1692804 0.3564451 0.113508 0.1339526 -0.1378786 0.09750865 0.8523793 -0.0870702 -0.05856084 -0.01022822 -0.7762477 -0.2112047 -0.05738545 -0.1145187 -0.2880594 -0.08982221 -0.02391871 -0.1528381 0.7508658 -0.01167033 -0.2239072 -0.1391666 -0.08778547 0.1281584 -0.06134937 -0.02984667 0.1078543 0.1902364 0.08903746 -0.1707483 0.01765549 -0.1624825 0.08904786 0.429443 0.1562409 -0.1547219 0.035476 -0.07113317 -0.1120378 0.06720674 0.07910632 -0.3039336 -0.1164094 -0.2367429 -0.05901138 0.1041865 0.01892529 -0.0005744751 -0.07906662 -0.1570552 -0.2867168 -0.2824306 0.02616289 -0.03782793 0.08200076 -0.0248159 0.1504631 0.00565148 0.1008624 0.01697372 -0.09204046 -0.1750691 0.1887938 -0.3925157 -0.07860135 -0.1446871 0.03283934 -0.05661293 0.05638941 -0.1076215 0.01253428 0.21649 -0.2644072 -0.01652148 0.2463806 0.2772784 -0.06896713 -0.2396635 -0.1778223 -0.1355161 -0.1477564 -0.4865757 0.07762103 -0.2554005 -0.1588074 0.1011599 -0.1045184 -0.4272681 0.007848291 0.1446927 -0.1044489 0.09607786 0.02450118 0.1113792 0.09723862 0.1944541 0.02217885 -0.004171593 -0.2622789 -0.007619391 0.05883538 -0.1797948 0.1240524 0.03188507 0.1237986 -0.1330813 0.3872813 0.2985312 -0.202925 0.03898944 0.09002253 0.178405 0.345584 -0.1348789 -0.1451384 -0.0429186 -0.1253679 -0.3704406 -0.3640412 -0.7488449 0.1121091 0.08298583 -0.08169934 -0.08892552 0.0969988 -0.128751 0.3791319 0.09194134 0.1376199 -0.3639405 0.05911194 0.01766346 -0.43779 0.024721 -0.05849331 0.39999 -0.1194047 0.08046614 0.1310492 -0.2631884 -0.02565933 0.03390219 0.1104546 -0.2036234 -0.0761984 0.2682765 -0.06064219 0.08293246 0.3530518 -0.1511833 -0.05652075 -0.04572433 -0.2777169 -0.006677729 0.1418719 -0.02279415 -0.08286713 0.2696204 1.179341 -0.18667 0.2331876 -0.2301218 0.03693739 0.04412215 0.1050757 -0.2185315 0.1078427 -0.009427673 -0.06103536 0.3865403 -0.07976983 -0.2959614 0.01604373 0.06435208 0.160165 0.1421571 -0.1206938 0.5542089 0.1100436 -0.08344133 0.00717352 -0.3596962 0.06951772 0.005278167 -0.03918559 -0.04960979 -0.02665236 0.03167237 -0.243061 0.2294374 0.4348626 0.1179307 -0.09942591 0.03220982 0.1317587 -0.0786625 0.4785285 -0.3124189 -0.5384126 -0.1269343 -0.02318441 -0.01391283 -0.02523932 -0.3325463 -0.2263521 -0.01931233 0.1367231 -0.01374737 -0.1307776 -0.0557553 0.1902038 0.08584374 -0.1883705 -0.03109354 -0.2822514 0.3080074 0.3054379 0.01970497 -0.1309194 -0.1209397 0.2618626 0.08949514 -0.01134892 -0.1150679 0.0008826904 -0.2021781 0.07868911 0.2694544 0.5747982 -0.2196195 0.1644001 -0.03118587 0.1145575 
  0.06034935 -0.2612909 -0.04999325 -0.2148759 -0.0291849 0.1450583 0.07537117 -0.6556871 -0.2096081 -0.0507264 0.1593305 -0.3961969 -0.361705 0.1213224 -0.1488158 0.1587562 -0.007469082 0.519893 -0.1793597 0.09999623 -0.02311697 -0.2057598 0.09586651 -0.1183413 0.1509934 -0.3371571 0.02240751 0.1803097 -0.1710264 0.1438892 0.119469 -0.2898705 -0.01139507 0.07534088 0.06193281 -0.1411211 0.01242033 -0.6866114 0.06594016 -0.03434137 -0.2646976 0.004992319 -0.271874 0.0208468 -0.3297071 -0.01148858 -0.1185696 0.4962051 -0.30372 0.1983937 -0.3919632 0.168191 0.005308443 0.1827903 0.1021175 -0.3837537 0.162368 0.2825234 -0.2692395 0.133765 -0.4840223 -0.003460184 -0.3749004 -0.08865819 -0.1210552 -0.2196165 -0.1818878 0.3526788 -0.1078704 -0.4924987 0.3307032 -0.03763111 -0.4187815 -0.4877893 -0.1355863 0.3188955 -0.3065296 -0.01345107 -0.1403176 -0.2604655 0.07024504 -0.01842672 0.145959 0.4446037 0.3469046 -0.148049 0.003003592 1.123772 -0.006297491 -0.1113879 -0.5042818 0.1229825 -0.005857824 -0.09920676 0.2195927 -0.6138286 -0.002117139 0.07032051 0.1144395 0.4325275 -0.1318737 0.04052971 -0.7913986 -0.3894188 -0.04634932 1.048272 -0.3056433 -0.8454889 0.3861981 -0.1353632 -0.05023045 -0.03948342 -0.2609839 0.2162191 0.6935737 -0.1588521 -0.3952611 -0.2929415 0.05678688 0.01399326 0.02287528 0.001453979 -0.182379 -0.06841878 -0.3061363 -0.002846442 -0.03853657 0.1109993 0.08224828 0.3048578 -0.07311978 0.07647986 0.07079758 -0.2988266 0.0313984 -0.2446594 -0.1919637 -0.3058913 -0.2073472 -0.2029122 0.05884773 -0.01927612 -0.02099552 0.08744702 0.3239299 0.1094299 0.2557588 -0.008716184 -0.1370855 -0.6926761 0.03354789 0.2273135 -0.2122649 -0.008964769 -0.09323749 -0.2956357 0.06592116 -0.1988236 -0.5683913 -0.07998772 -0.4934624 -0.1203007 -0.1053085 0.0489968 -0.220763 0.02690475 -0.2310504 -0.435133 0.1478974 -0.3475629 0.2351025 0.04239149 -0.1063723 -0.2964441 -0.4388621 0.1707417 0.2706472 0.1013421 -0.3225308 -0.3153389 -0.1459795 -0.4580009 -0.3342018 -0.205112 0.1641304 0.3357767 -0.2028256 0.16129 0.1498024 -0.06358988 0.5020392 0.002346377 -0.3844864 -0.1608358 0.002057597 -0.06306846 0.4784284 0.1723664 0.08306917 -0.362099 -0.1854344 -0.131831 0.07614319 -0.1178453 0.2360076 0.2018718 0.07824551 0.1335376 0.01019644 0.1975513 -0.07755642 0.1261046 -0.1791253 0.1016013 0.08735386 0.2131626 -0.151474 -0.02785324 0.0006711083 0.121051 -0.007105386 -0.03730689 -0.5049024 -0.4203425 0.05899572 -0.4029711 -0.3289686 -0.4380625 0.182963 -0.17273 -0.131973 -0.1050702 -0.1642118 -0.325072 0.2899206 0.02280798 -0.5146442 -0.4885289 -0.2156059 0.007221458 -0.3515539 0.0004965776 -0.08503477 0.3435744 -0.196366 -0.1200872 -0.2049765 0.2276203 0.4654746 -0.1223259 -0.05555583 0.5585016 0.07837377 -0.0004914584 -0.05032727 -0.3541708 
  0.04595206 -0.1487612 -0.07736503 -0.1658946 -0.2286308 -0.368204 0.1770537 -0.3216875 -0.5197027 1.020877 0.8346946 -0.5524849 0.07020547 0.08859471 -0.5460048 0.2327565 0.1422058 -0.4029382 -0.2264773 0.09940919 -0.2383353 -0.09199917 -0.01219299 0.03156529 -0.400872 0.08413683 0.02771619 0.02375498 0.1260129 0.01985317 0.1889878 -0.1820454 0.1321715 0.2730054 0.2935456 0.01136598 0.04650621 -0.1811926 -0.9575866 -0.1138583 -0.3834481 0.09827612 0.04650388 -0.1526269 -0.01492421 -0.09454832 -0.3526076 0.2283444 -0.5947271 -0.007876094 0.1629199 -0.3211651 0.4705824 -0.008469837 -0.1262957 -0.12056 -0.3517669 -0.02286644 0.3123213 -0.3493539 -0.1502414 0.05352786 0.1147979 -0.02741898 0.06076504 -0.1504645 -0.4431264 -0.5605088 -0.06732403 -0.2981911 -0.01554412 -0.3429794 0.08270591 -0.1831283 -0.8907217 -0.07575896 0.2767922 -0.235555 0.1428176 0.2496343 -0.08873245 0.1395165 0.1272006 0.1016289 0.09502144 0.04462753 -0.4115002 0.03216803 0.002919832 -0.3981031 0.05540998 0.05417906 -0.1323532 0.0464779 -0.421849 0.08338628 0.02335024 0.1041192 0.3208752 -0.04160996 0.1054448 -0.2040487 0.5535139 -0.06109059 -0.0521577 0.11877 0.06188233 -0.06962527 0.2293853 0.2430277 0.2217581 -0.1845088 -0.03388529 -0.1882937 -0.2192789 -0.05388162 -0.2280432 0.4687216 0.1792823 -0.087784 -0.1749468 -0.1108331 0.1705577 0.0611174 -0.3076165 0.02078976 -0.1139287 0.4885526 -0.1026031 -0.3056436 -0.05662703 0.4009172 0.1111619 0.05207103 -0.2331906 -0.1622691 0.1138719 -0.06147561 0.1950608 -0.03642138 -0.03290666 -0.07695311 -0.03771795 0.02626118 0.2374324 -0.06951596 -0.1167212 -0.03930036 -0.1052202 -0.1987956 0.2361137 0.1344863 -0.1782226 -0.148223 -0.3118832 -0.01677188 0.1871557 -0.05049461 -0.1901667 0.0541444 0.09842829 -0.8122959 -0.01528459 0.0856102 0.03785069 0.2077309 0.07777638 -0.01395946 0.3309095 0.1047189 0.01010525 -0.2987319 -0.07071814 0.1110011 0.2103476 -0.001075407 0.02956968 -0.02715069 -0.03449218 0.05712317 -0.0318597 -0.3483522 -0.2218423 -0.1343954 0.1890049 -0.2406468 -0.02833977 0.06783047 0.1350705 0.02617733 -0.3419046 0.08259767 -0.04278465 -0.1990766 0.2446106 -0.2549589 -0.1174325 0.3649644 0.1419522 -0.2712687 -0.3483655 -0.001162511 0.1327705 -0.09505724 -0.2664386 0.2347546 -0.2552607 -0.1812808 -0.00197044 -0.4143341 -0.364309 0.117958 -0.0210571 0.04987183 0.1122808 -0.07071412 -0.3248422 0.1101581 0.4592379 -0.04630734 -0.02460911 -0.1733551 0.3314435 -0.05192111 -0.2505618 0.06162511 -0.4006678 -0.3956494 -0.07514742 -0.1004362 0.07552613 -0.1313789 -0.5768031 -0.1190946 0.2928146 0.1061405 -0.2574387 0.1387958 -0.3452045 -0.0397158 -0.1043287 -0.2114387 0.1800867 0.1386437 0.05439969 -0.4389094 0.008240828 0.2117943 -0.3865302 -0.03917483 0.06959588 0.1382446 0.03573042 -0.1023147 -0.1101957 -0.0551291 
  0.03904516 0.3631486 -0.3165641 0.08141349 0.374404 -0.08725543 0.2881307 0.6455976 0.02474891 -0.01323978 0.06837718 -0.1063039 -0.195839 0.02643839 0.1318782 0.06825902 -0.25008 -0.2542235 -0.1128426 0.2264588 -0.05878568 0.000784528 0.2279489 -0.1106239 -0.210219 -0.1677294 -0.3893394 0.109127 0.7893798 0.1115351 -0.02877928 -0.3290857 -0.2022142 -0.2299631 0.1374988 0.06318159 -0.296925 -0.1159332 0.1719032 0.004390738 -0.03573192 -0.145507 0.2411553 -0.08805223 -0.08548256 -0.04192442 0.1559093 -0.1765832 0.07174118 -0.0300892 0.006404475 0.07486428 -0.2451172 -0.1956062 0.2380983 -0.07503018 -0.01155074 0.2042193 0.1474488 0.04745314 -0.00658398 -0.01683356 -0.1476534 0.02852601 -0.4333286 -0.449734 0.09516896 -0.033873 0.005645501 -0.1749139 0.03976069 -0.2668355 -0.2710504 0.06236871 -0.1737702 -0.153327 0.01239562 0.2031681 0.1207348 0.003273497 -0.2726622 0.04844728 -0.1238878 -0.1806784 0.1397712 -0.008526436 -0.3977562 0.1853908 -0.3073984 0.1600401 -0.09160183 -0.1155416 -0.05116857 0.07017789 -0.07127655 0.2907984 0.1880272 -0.3020743 -0.07052428 0.01137411 0.1367453 -0.3115709 0.4682652 -0.2924158 0.04172277 0.1548606 -0.08442159 -0.1688447 -0.3179603 -0.04894515 0.06199132 0.07732408 -0.1663994 -0.1534099 -0.01810479 0.01718891 -0.02144019 -0.1787853 -0.1096983 0.1520476 -0.0792453 0.07470613 -0.2489989 -0.02296384 -0.2273254 -0.1056594 0.2241467 0.6364039 0.0101143 0.06267959 -0.07543013 0.07404847 -0.06137476 0.7922733 0.2342726 -0.1611721 -0.3090445 0.08681769 -0.1908398 -0.279871 0.04274065 -0.1070417 0.2074732 -0.2590581 -0.009599363 0.300857 -0.272666 -0.01042505 -0.005820287 0.05476541 0.0394118 -0.05092196 -0.3706554 -0.001652502 0.04248831 0.04273611 0.08223541 -0.07530471 -0.1281469 -0.1840075 -0.2190561 -0.02360577 0.5844525 -0.0007189704 -0.3029127 -0.03194937 -0.01085846 -0.07933044 -0.03447989 -0.4439736 0.1550603 0.09724078 0.01085626 -0.001256614 0.08474871 -0.7054506 -0.1115914 -0.1653855 0.1508589 -0.08000427 -0.2104853 -0.3281516 0.1467676 0.05818979 -0.01800386 0.06734172 -0.1824041 0.1582141 -0.1031003 -0.1900951 0.3430052 0.05004972 -0.2875591 0.0921414 0.01444518 0.0557575 0.2902518 -0.009920776 0.08281702 -0.290807 0.01530287 -0.2423908 -0.3371629 -0.05989937 -0.1348246 0.04493966 0.168207 -0.2994507 -0.1264173 -0.2203883 -0.2099396 0.4316469 0.09187093 -0.2016948 -0.3352059 -0.1729736 -0.1296882 0.04169251 -0.03911779 0.1523663 -0.1242203 0.0233174 -0.157723 0.00892443 0.04149556 -0.3676521 0.1027553 0.1656062 -0.07891427 -0.1072128 -0.108202 -0.248258 -0.3283399 -0.002519155 -0.3383885 0.1228778 0.480824 -0.05829453 0.1973654 -0.005331251 0.1551443 -0.03119884 0.08730565 -0.2861122 -0.3037342 -0.1995398 -0.05224818 -0.1754709 0.2686857 -0.05814656 0.1166903 0.1983647 -0.3094719 0.1846463 -0.1142232 0.02372039 
  -0.05039852 0.1127338 -0.005273862 0.1565877 0.02227348 -0.2097558 -0.3428074 -0.06479464 -0.06397427 0.02197059 0.3054305 0.1719834 -0.05848817 -0.09048744 0.3955355 -0.2408144 0.5230262 -0.1610588 0.01164827 0.2384239 -0.07795312 -0.001166005 0.01798222 0.05802329 -0.3484518 -0.1902148 0.1305626 -0.03212535 -0.0192497 -0.2043062 -0.2762025 0.01886223 -0.116324 -0.001976724 -0.2804627 0.1439601 -0.2291812 -0.03647847 -0.1789298 -0.2437485 -0.05668987 -0.328952 0.1636938 0.246984 0.1111427 -0.06418518 -0.05887744 -0.1200004 -0.01720723 0.1100333 -0.05603838 -0.05354957 -0.01208975 0.2000689 0.232105 0.001199832 -0.124784 0.2803657 0.1443918 0.1961201 0.2257951 -0.1766387 -0.1586959 -0.1316447 0.0820585 -0.1941097 -0.07788717 -0.2896813 0.06011954 -0.162243 -0.1924251 -0.1985122 0.09924282 0.006861301 0.1864937 -0.3375444 -0.07336504 -0.08848112 -0.2892787 -0.08494227 -0.3413125 -0.05809971 0.6097341 0.07539421 0.4755615 0.1100559 0.005894183 -0.08376858 -0.3485383 -0.01571868 0.02946669 0.06677933 0.3325207 -0.00339931 -0.2611267 -0.05296833 -0.0859578 -0.1390527 0.024872 0.2492533 0.1099409 -0.07175025 -0.06569046 0.01958524 0.1036993 0.06035974 -0.1426145 0.01206683 -0.1036887 0.2659434 -0.1866286 -0.2492365 -0.3778055 0.1447172 0.03358334 -0.234887 -0.05418165 -0.398507 -0.02732918 -0.02139185 -0.1813196 0.4439783 -0.004064824 -0.126997 -0.04521129 0.07566752 -0.165445 -0.01149218 -0.2192237 -0.01366093 -0.1876871 0.0228764 0.2098319 -0.2006402 0.04946411 -0.1250216 -0.05538377 -0.3672521 0.06694268 -0.2701442 -0.03075683 0.3314682 0.001507681 -0.1430259 0.1758741 -0.03573021 -0.3418374 -0.0005562699 0.1550983 0.02590584 -0.1469399 0.05989188 0.06065863 -0.3545574 0.2226829 0.1512965 -0.05187192 -0.08466668 -0.01895037 -0.1868098 0.06063557 -0.3763019 -0.03722256 0.2767973 -0.1542985 -0.05229925 0.2029734 -0.1742241 0.06814051 0.1339771 -0.1175541 0.2287019 0.064844 -0.2432101 -0.107015 -0.1016333 -0.03262364 0.1556175 0.1860554 0.06869894 -0.2494574 -0.2378175 -0.01742368 -0.08203551 -0.04430738 -0.1777544 -0.3265324 -0.2498187 -0.032839 -0.05684821 -0.07978985 0.05827521 0.01734857 0.06433796 0.1277763 0.04167061 -0.02212715 -0.01962904 0.3081297 -0.03902835 -0.1246653 -0.2679171 -0.1580425 0.2206092 0.1061151 0.07382001 0.175625 -0.198841 -0.3941653 0.1800614 0.04149359 -0.04616169 -0.1413982 0.1243387 -0.01829603 -0.08406553 0.09446052 -0.08500167 0.3386736 -0.05862922 0.1784044 0.03761995 -0.2376133 0.4550309 -0.1776455 -0.4020602 0.1620178 -0.1239517 -0.1151989 -0.2359573 -0.06314077 -0.1059679 -0.03967934 0.2845481 -0.1804703 0.1794465 0.2181321 -0.04071297 -0.2724157 0.05303048 0.215002 0.036451 -0.0607854 0.1867682 -0.3262138 -0.08699979 0.2186347 0.2086957 0.1557512 0.2328347 -0.03489624 -0.1447335 -0.2993963 -0.02144096 -0.04933876 -0.1697732 
  0.1056143 0.000720729 0.2941316 -0.08166333 0.1138742 -0.5544337 0.3002402 -0.276035 0.1996702 -0.04128757 0.08671368 0.09144786 0.2291504 -0.04233511 0.1238564 -0.08155265 0.02441287 -1.109369 0.01529239 -0.1738762 -0.1966083 -0.3327839 -0.2557172 -0.3174512 -0.5379101 -0.4345123 -0.3378524 -0.1871862 -0.2083919 0.3340639 0.1286486 -0.1756414 0.03735582 -0.6634514 0.4253754 0.276037 -0.6175497 0.05623746 0.2291221 0.220073 0.3675081 -0.1990006 0.1606616 -0.2869744 -0.3036425 0.2059406 -0.03335074 0.008722318 -0.1180684 0.3903696 0.1659136 8.054206e-05 0.2165835 -0.263788 -0.1508448 0.5860403 -0.07548095 0.06266215 -0.004441242 -0.006327015 0.2786417 0.3027819 -0.05763504 -0.0165588 0.6437647 -0.07031126 -0.2511671 -0.2301231 0.04863136 -0.3450275 0.2475864 0.2429199 -0.4410643 -0.3741527 -0.05425382 -0.05496895 0.1002829 0.5335193 -0.2917973 -0.1052456 0.6500462 -0.6194077 0.1657543 0.3060265 -0.09356769 0.0303634 -0.09638939 -0.05868045 -0.4174905 -0.1174692 -0.0255727 0.1842013 0.4090255 0.05565305 0.1587574 0.2771873 -0.04348543 0.02771015 -0.06367859 0.2535806 0.1171384 -0.1765564 0.08265369 -0.06696245 0.8207294 -0.02405993 -0.2215884 0.01403791 0.09529374 0.1245365 -0.2497504 0.5506061 0.08560228 0.1434905 0.1888021 -0.03381058 -0.4206266 -0.1981574 0.002639579 0.1375012 -0.1418163 0.02240865 -0.1658012 -0.2380652 -0.5057162 0.04365077 -0.4658594 0.4576522 -0.2537558 0.7809895 -0.1450545 -0.3361993 0.2834449 -0.1108233 0.01911263 0.1003742 0.5139409 0.435378 -0.09792409 0.04223931 0.3399684 0.06751607 0.2101364 -0.3380022 -0.5073734 -0.09309552 -0.08691297 0.127597 -0.1938332 -0.0178138 0.1580888 0.2231676 0.1500168 -0.6461254 -0.6201373 -0.01362112 0.4934305 0.179542 0.2006366 0.2243414 -0.1924679 -0.2008848 0.07688288 -0.318823 -0.08073168 -0.2623645 0.1006317 -0.07575325 -0.03276626 -0.3466617 0.1975051 0.3368995 0.07109454 0.2004602 0.09291968 -0.1907012 0.1706591 -0.1751476 -0.1073832 0.223427 0.1050267 0.2358275 0.2400734 -0.1189111 0.04264208 -0.4973858 0.1996263 0.1624302 -0.2131225 -0.7374165 -0.01420407 -0.2063477 -0.001650381 0.1042623 0.1173782 0.05193929 0.07954624 0.2836135 0.4456825 0.543776 0.2046838 0.03743738 0.1358735 -0.06859716 -0.3138817 -0.02922278 0.09110472 -0.2457118 -0.0712575 -0.1616776 -0.07796372 -0.05827606 -0.2389466 0.374786 -0.3692387 0.3105746 0.40034 -0.03570363 0.04700763 -0.1104931 0.03368561 -0.1698419 -0.05515232 0.03560634 -0.07252037 -0.1223208 -0.01549522 0.01956683 -0.00348252 0.2317112 -0.7211076 0.1589366 -0.02160139 0.1349224 0.1676118 0.2718943 -0.5174916 0.06935922 -0.6658078 0.9145377 -0.3193862 0.1747929 -0.2954952 -0.142627 -0.0689044 -0.04036244 -0.05062003 -0.3270727 0.03246147 -0.2777433 0.1576733 -0.1304914 -0.2347854 0.3437898 -0.005261825 -0.1287251 
  -0.1308114 0.05801617 -0.3510497 0.3365328 -0.09945569 -0.1180397 0.373604 0.309081 0.1252064 -0.2134373 0.185762 -0.7306469 -0.09620389 0.1713432 -0.2423658 0.05578077 -0.3544871 -0.3128643 -0.02971947 -0.5094067 0.08783364 0.2298575 -0.6702434 0.5365071 0.2845511 0.2729146 -0.6881374 0.01653761 0.01274799 -0.1019411 -0.2322171 -0.1092198 -0.2207099 0.1525112 0.1122435 -0.0004239857 0.03375566 -0.3037047 0.05236816 0.1168294 -0.368802 -0.117682 0.2515883 -0.136978 -0.1151852 0.1185059 -0.09225678 0.5699189 -0.04541106 0.9026172 0.1506091 0.2695862 0.03730604 -0.01667161 -0.2484854 -0.1999964 -0.02232513 0.04763049 -0.4841515 -0.4294812 -0.0801967 -0.1272649 -0.08269824 -0.1375331 -0.3101413 0.1657811 0.1603753 0.1191911 0.166753 0.04477336 -0.1296311 0.034153 0.09059595 -0.1322438 -0.08486072 -0.29747 -0.3159652 0.4421518 0.1818645 0.00155223 -0.1910367 0.129105 -0.03080545 0.928241 -0.1921736 0.120095 -0.4885048 -0.4937935 -0.1479657 -0.21879 -0.09797671 0.1056065 -0.02230392 -0.2332353 -0.0163306 0.2051209 -0.2141142 0.2712531 -0.2800363 0.1676027 -0.276329 -0.03166009 -0.5832373 0.3092244 0.02401353 -0.2652752 -0.3536807 0.06115022 0.1058531 -0.2857893 -0.02022229 -0.00150241 -0.1265588 0.2288801 -0.04524514 0.3118668 0.06112817 -0.1004079 -0.188153 0.3650642 -0.1457428 0.09984812 0.7196703 -0.2187551 -0.5549909 0.03028768 0.2212202 0.265997 0.003239336 -0.6750498 0.09256717 0.1326039 -0.2014645 -0.1860361 -0.06667578 -0.1174005 -0.0740504 -0.4599819 -0.1950279 0.5016415 -0.1258676 -0.3317881 -0.1590321 -0.04160985 0.06284957 0.03416071 0.1265578 -0.02869969 -0.008035572 0.194814 -0.05363387 -0.007286672 -0.7360352 -0.2170521 -0.2755651 0.05488845 -0.2101793 -0.1739206 -0.203141 0.07016003 -0.06441001 -0.3502642 -0.1153699 0.2591643 0.1442983 0.02057834 0.1008011 -0.009446745 -0.1295823 -0.6111517 0.01124709 -0.1143134 -0.1251262 0.06147167 0.290313 0.2607375 -0.1664099 0.01186695 -0.08728403 -0.1010915 -0.08219853 -0.8230103 0.006568065 0.7867642 -0.4636176 0.2215639 -0.09771399 0.09118336 0.1137668 -0.2427472 -0.2895043 0.04010284 0.1428948 -0.2644988 -0.02091284 -0.01703226 0.04624942 -0.1630736 -0.0165455 -0.1783177 -0.0439638 0.1240879 0.06644459 0.976058 -0.1784656 -0.01167757 -0.154296 0.1401338 -0.01272438 -0.214264 0.2548769 -0.1672482 0.1973338 -0.1151475 -0.2148581 0.2307074 -0.6168761 -0.3130426 0.004469675 0.3075974 0.1311621 -0.1423127 -0.05287009 0.1294965 0.113238 -0.05917526 -0.08303753 0.1895643 -0.1263125 -0.3206528 0.0739283 -0.2235968 -0.1473195 -0.1087871 -0.2166533 0.03301581 -0.1905371 -0.732932 0.08246588 -0.1145398 -0.06570806 -0.0990117 0.07027854 0.253022 0.08391743 -0.3531815 0.04331148 0.1892429 0.2544031 -0.06620593 -0.08228069 -0.1291968 -0.4580348 -0.1472949 0.1145688 0.03518425 
  0.05133109 0.2221839 0.1320744 -0.06225799 -0.1186314 -0.6183013 0.1580344 -0.03924104 0.3839752 0.1331627 0.2319025 0.03481831 0.005795416 -0.2715539 -0.0238453 -0.3986346 -0.1807788 -0.09447297 -0.03823743 0.4472899 0.1459599 -0.4934023 0.6914989 -0.7121233 -0.2564934 -0.03922343 -0.4136699 0.1451244 -0.1534578 -0.04265751 -0.4079557 0.1529626 -0.1968501 0.6697601 0.1399513 -0.1887381 -0.1003126 0.1421287 0.2290319 0.02811005 -0.320528 -0.3550046 0.08249058 -0.4381341 0.2117032 0.2396584 -0.1372142 0.2092164 -0.2853081 0.1871579 -0.6387222 -0.08320577 -0.2642975 -0.04955689 -0.3761495 -0.1427791 -0.1111341 -0.1464396 -0.00824985 0.1058767 0.05349905 -0.283344 -0.4632244 0.1228523 0.1237889 -0.05753104 -0.5315606 -1.61767 -0.2010202 0.07434921 0.1584142 -0.3137831 -0.0886396 -0.319117 0.2783868 0.1942562 0.2245374 0.005330447 -0.6092246 0.01616423 0.3195903 -0.1430499 -0.4861231 0.4264759 0.621483 -0.2211538 0.4158572 0.04191357 -0.3537797 0.08140518 0.1679471 -0.6749561 -0.1056456 0.2072603 -0.1506537 -0.1477182 -0.1013853 0.3389142 -0.2714041 0.0594729 -0.02144946 0.351602 0.2955321 -0.1054902 -0.1959488 0.06410863 -0.3363498 -0.1165698 0.1527882 -0.4434661 -0.9641222 0.1619478 0.2918513 -0.6699632 0.06722666 0.038155 -0.09652799 -0.3686226 -0.3405424 0.1875744 -0.179171 0.1655288 0.03316856 -0.5531996 0.2423559 0.2272962 0.1927733 -0.1523278 -0.09361179 0.3416331 2.396134 -0.1360209 -0.2701904 -0.0171661 -0.0569277 -0.3012984 -0.4927692 0.3233454 0.02093891 -0.02649498 0.2413965 -0.4600184 0.5398354 0.5612249 0.4784226 -0.4102516 -0.3030936 -0.1493224 -0.06027906 0.08285333 -0.4641667 1.180275 -0.2438359 -0.8270776 -0.8110374 -0.09132525 0.4222591 -0.09230673 -0.1058442 -0.08396389 0.3203437 -1.154585 -0.4662229 -0.1595519 -0.01743131 -0.4086663 -0.1101509 -0.2981771 0.02021533 0.08771054 0.2354395 -0.1018958 -1.229867 -0.1643105 0.07624061 0.05139541 -0.1983428 0.002160514 0.02432166 0.02719265 -0.3549237 -0.06562967 0.3135739 -0.1130106 -0.1165786 0.09957219 -0.03650826 -0.1301527 -0.2597376 0.4648071 0.4135615 -0.2251496 -0.2012616 0.2170416 -0.02777459 0.1835556 0.1747527 0.1984143 -0.5810413 -0.2477894 0.1780182 -0.1587435 -0.2576704 -0.1998194 -0.1681646 0.415492 0.1733853 -0.1704141 0.01743495 -0.02188318 -0.293734 -0.09112313 0.2864826 -0.2346833 -0.5532649 1.119074 -0.03218166 -0.06955773 -0.2429715 0.1261094 -0.02068392 -0.5568402 -0.3080125 0.2887778 0.2249003 -0.1510078 -0.4013346 -0.08338384 -0.09069799 -0.009223945 -0.7463752 0.229044 -0.1386838 0.08016554 0.4810539 -0.13087 0.1725985 0.1501852 0.1633429 -0.08314542 0.1795531 0.04709323 -0.09144238 -0.08425327 -0.3152833 -0.03557725 0.03332081 -0.09254915 0.05183133 -0.173009 -0.2936802 0.3180054 -0.1596123 0.3608508 0.07908086 0.1772324 
  -0.1754141 -0.07179062 0.3844433 -0.09765107 -0.2188323 -0.07864746 0.8225515 -0.1690473 0.09214433 0.1482062 0.1607985 0.2160957 -0.05432863 0.148699 -0.1719748 0.1009966 -0.12374 -0.5147728 -0.1341136 -0.08966344 0.03911468 0.1733695 0.2313289 0.4536844 0.3424074 0.1396332 -0.1693601 -0.08812745 0.3200804 -0.1248242 -0.1335267 -0.2876775 0.476284 -0.003094477 0.181022 -0.07936357 0.03374489 -0.2502764 -0.03928373 -0.01224687 -0.4110345 -0.2900821 0.03592576 -0.3572723 -0.2885424 0.1976334 0.08036318 0.09909353 -0.1153557 0.0511427 0.0176535 -0.1606006 -0.1961063 -0.03026731 0.1072076 0.1860114 -0.1303787 -0.1210473 0.1055266 -0.2486404 0.0517906 -0.1632242 -0.1018978 -0.3913893 -0.05432407 -0.1395175 0.008966475 -0.05937692 0.463249 0.2954377 0.09983718 0.1908726 -0.1924227 -0.2015726 -0.1805981 -0.6230766 -0.3937068 -0.05933526 -0.007434369 -0.1256195 -0.2681133 0.2218443 -0.1751865 0.3239683 0.0343394 0.2737486 -0.2017118 0.01214178 -0.111362 0.04861707 -0.1016819 0.05032089 0.1645043 -0.1248071 -0.4600554 0.06212259 0.3406532 0.1341915 -0.1061058 0.06530014 0.2472175 -0.3436252 -0.07723854 0.1163493 -0.1386706 -0.1235883 -0.08136897 0.05186639 0.1525936 -0.2188141 -0.0007284541 -0.08812831 -0.02055636 -0.004366813 0.07442014 -0.2228812 -0.07875651 0.06903895 -0.1043149 -0.06642346 -0.1096127 -0.2125645 -0.3599803 -0.03613601 -0.563493 -0.01650611 -0.03983141 -0.1924554 0.4641332 -0.4762277 0.0646114 -0.230395 0.4190712 0.2641275 0.02155494 -0.004506388 0.09198132 -0.003290249 -0.05123983 0.03049265 -0.2111294 -0.4692547 -0.1772853 -0.1650459 -0.1076827 -0.1806831 0.2968768 0.07204783 0.2032059 0.01485686 0.03635179 0.2061281 -0.4116249 -0.01993242 0.05959725 0.3223026 -0.06154502 0.07824908 -0.1171381 0.02627956 0.002579741 -0.411454 -0.1030597 -0.0992002 0.004620481 0.04783479 0.005835381 0.154536 -0.2320125 -0.08120619 0.1792018 0.01328825 0.08967248 -0.0910508 0.06932046 -0.01758927 0.0361496 0.04038894 0.03864349 0.03488381 -0.05574316 0.07258935 -0.07251978 0.1035199 -0.1687481 -0.1468208 -0.2443106 0.01275769 -0.09306615 -0.4359079 -0.1756471 -0.1733651 0.02308421 -0.04514339 0.03082804 0.02222063 0.1848127 0.005453638 0.03049248 -0.1183869 0.2275867 -0.0478853 0.1187963 0.1153535 -0.2398217 -0.02453459 -0.2392936 0.1252923 -0.0002851784 -0.1605573 -0.002609119 -0.1139145 -0.0008277578 -0.07495824 0.376092 -0.09470519 0.05670744 0.2149413 -0.4058381 -0.01573051 -0.08051511 -0.1460276 -0.07993184 0.05285028 0.04822458 0.06779213 -0.08806992 -0.004249953 -0.01023395 0.2701753 0.4020366 -0.141673 -0.1672979 -0.1032698 -0.1185526 -0.0272531 0.2300506 0.5215747 0.5179992 0.1239957 -0.04808507 0.1008196 -0.1754872 0.04903529 -0.05413304 0.1209322 0.03709078 -0.08417799 0.01437909 0.01873226 0.0251505 -0.03849848 -0.2278228 -0.07489724 -0.07641765 -0.01301875 
  -0.1181677 0.2392606 -0.2684777 0.06172989 -0.4885552 0.1175235 -0.09718427 0.12912 -0.05234586 -0.07713397 -0.2872394 -0.02695479 -0.2371154 0.2805179 -0.01087101 0.02023656 -0.001187714 0.03494168 0.1323987 0.02198462 -0.0522565 0.1882042 -0.08527249 -0.01816106 -0.01575756 -0.2069896 0.05503157 -0.1559423 0.4454318 -0.1440975 0.05559761 0.1005789 0.4151762 -0.1206883 0.2866582 -0.2601773 -0.07432258 -0.2243049 0.2086478 -0.09916919 -0.1425969 -0.1919629 0.2987856 -0.3571562 0.07157273 0.2407884 -0.01603015 0.3214843 0.0003988778 -0.3030107 -0.0469753 0.1450674 -0.1190262 0.0795756 -0.3122755 -0.1024307 0.03544797 -0.1383692 -0.03815356 0.1910029 0.1173911 -0.03420607 -0.5338755 -0.03394508 -0.1104346 -0.3351745 -0.04009097 0.08173523 0.1546327 -0.08094946 -0.1167468 0.03131416 0.2305817 -0.4295137 0.1960213 0.236144 -0.1853692 -0.4515747 0.1775579 0.1224103 -0.2044524 0.1335871 0.604573 -0.3864959 -0.1168782 -0.09752823 0.0353127 0.1008751 -0.1068958 0.09793616 0.06219118 0.06865797 0.1479075 0.01975384 0.3181965 -0.1531019 -0.1111022 0.1649252 -0.02946805 -0.05926691 -0.1157326 -0.229064 -0.109183 0.04690119 -0.02350853 -0.1543108 -0.1427931 -0.005560406 -0.185887 -0.1810677 -0.2960787 -0.1985098 -0.03360943 0.05505496 -0.06570726 0.1607431 0.497561 -0.03636474 -0.03872587 0.0951084 0.2056719 -0.2123619 0.1349422 -0.1470191 0.0923683 -0.06628228 -0.542304 -0.1778881 -0.08898187 -0.09404299 -0.169164 -0.2696886 0.1289558 0.03020545 -0.2112232 0.1005201 -0.04228985 0.01338937 0.08669171 -0.4482813 0.01926085 -0.1010458 -0.0785071 -0.1906654 0.01720515 0.1195769 0.1486615 0.05905974 -0.08892745 0.1382125 -0.2597244 -0.3818284 -0.2571802 0.335014 0.08703523 0.004291221 -0.09609309 -0.1716487 0.1615326 -0.08818129 -0.01632878 -0.08178189 0.03727954 0.04813201 0.02985574 0.05480791 -0.008950274 0.1218255 -0.06320181 0.1095988 -0.1408603 0.0111549 0.1172598 0.02509166 0.1217053 -0.1836029 0.2087228 -0.09423519 -0.06348582 -0.04545481 -0.1668009 -0.1176754 -0.01940534 0.1046025 0.1641705 -0.09158167 0.02112674 -0.3308657 -0.06673265 0.08067867 -0.1152835 -0.008564718 0.234126 0.1912678 0.01748389 -0.02504782 0.3419228 0.03745668 0.04028991 0.1542361 0.146788 0.07432723 -0.3767365 0.4902851 -0.1331883 -0.1250567 0.1144058 -0.5441231 -0.01283341 -0.03449215 0.07738501 -0.437764 0.2792593 -0.1175334 -0.3927354 0.1041782 -0.04236298 0.1189061 0.7641741 -0.03730504 -0.07688603 0.2675712 0.05108884 -0.1471066 0.2874823 0.0037616 0.09059685 -0.2176239 0.09649229 -0.04699428 0.278952 0.01689051 0.0845675 0.1656695 -0.02271533 -0.3643428 -0.1030368 -0.1424325 -0.2001749 0.3083386 -0.09429327 0.1126613 0.2520797 0.1196989 -0.01438217 0.1261502 0.2403715 0.188217 -1.022957 0.2125954 -0.2033451 -0.3068541 -0.1842245 -0.2657845 -0.168936 0.05826924 
  0.1741313 -0.1795697 0.2580049 0.1448292 0.1771631 0.05237546 0.1725896 0.2779918 -0.2806967 0.2351146 -0.259559 -0.3663511 -0.05729121 -0.5954961 0.7781157 0.1294842 -0.1752121 0.05934651 -0.05684755 -0.0876969 0.1057024 -0.1014926 -0.1272078 0.1576866 -0.02218854 -0.1361015 -0.06302261 0.004290064 -0.03474806 -0.2350505 0.2319519 -0.09385117 -0.1138918 -0.1375373 0.07823228 -0.308585 -0.2425584 0.06844547 -0.02045058 0.01222766 0.7418039 -0.3341658 -0.1577504 -0.4376479 0.3891631 0.08316127 -0.3776812 -0.1475986 -0.01944687 -0.1212501 0.004985916 0.3045198 0.3802613 -0.2510724 -0.2824616 0.1416003 0.08619281 -0.2800002 0.2460133 -0.2352181 0.0508337 0.1792255 0.01412911 -0.07197702 0.1622374 -0.1243453 0.2570413 -0.143582 -0.3014017 0.2740561 -0.06512708 0.2551072 -0.1580808 0.0200562 -0.06235638 -0.2548292 0.05972175 -0.03826951 0.01819208 0.09580281 0.7043196 -0.1057729 -0.1066726 -0.532273 -0.7157985 -0.2189139 0.05580641 -0.1436336 0.2399337 -0.1956692 0.1292938 0.39437 0.7415711 -0.1058785 0.02128665 -0.1017225 0.1260163 -0.01411346 -0.3188229 -0.01712228 -0.6773755 -0.1768861 -0.08418266 -0.01763353 0.4059213 0.05440392 0.2509921 -0.01055643 -0.5967348 0.122649 0.1184765 0.6271337 -0.0351714 0.1777704 0.1966788 0.02402684 -0.1396019 0.05949812 0.2251773 -0.03078627 0.1589108 0.1203163 -0.05555809 -0.05833432 -0.3249571 0.07338108 -0.2688353 -0.2928078 0.007546616 -0.469438 -0.00356732 0.136257 -0.2236255 -0.1106638 -0.08937065 0.1996412 -0.1636912 0.119602 0.1802537 -0.01988358 -0.06193182 -0.1417254 -0.3200257 0.2319868 0.02345362 -0.2822407 0.4482953 -0.06414764 -0.09043371 -0.352946 0.3156343 0.2697439 -0.1644886 0.01396415 -0.2078 -0.4432218 0.06994284 -0.1764657 -0.2210527 -0.01990547 0.1607711 -0.5870475 -0.1147829 -0.08995899 -0.06379724 -0.009109683 -0.03909898 0.1390824 -0.3356497 -0.08257622 -0.04166081 0.1388813 0.1637222 0.02451888 0.09138376 0.1428209 0.045559 -0.1642124 -0.1357871 -0.2261342 -0.04925174 0.09786443 0.06738824 -0.334753 -0.1185686 0.4400682 -0.1527409 -0.1504581 0.5672741 -0.2368609 -0.1345744 -0.2949384 0.04019266 -0.05359441 -0.0416995 0.1183518 -0.11633 0.05286213 -0.6908104 0.2345739 1.261501 -0.1957133 1.036801 -0.3025261 0.335209 -0.006599865 0.1037147 -0.1078053 -0.2218927 -0.3303373 -0.1716776 -0.2075994 0.02252555 0.04415629 -0.1300299 -0.1862535 0.2580502 -0.5267118 0.03536173 -0.02727815 0.009382172 0.2203452 -0.2028216 -0.1464165 -0.03169979 0.04420065 0.06036339 0.112499 -0.1343269 -0.1974756 -0.0366529 -0.1770121 0.3460985 -0.06256272 -0.3982687 0.1628568 0.2754481 0.0501593 -0.1123015 0.1817408 -0.0632066 -0.6686196 -0.2171085 0.005802806 -0.06110974 0.3206162 -0.2153585 -0.02719311 -0.2575808 -0.03395351 -0.06881011 0.06673849 -0.2608117 0.04332276 0.4425459 0.09650438 
  -0.2298891 0.1503312 0.2237109 0.06547008 0.3912622 0.2900441 0.1982382 0.06811291 0.1876539 -0.08062834 -0.2289593 0.2665445 -0.1192902 -0.1684419 0.1539444 -0.06207827 0.004606658 -0.190912 0.06666175 -0.1728042 -0.07864814 0.03914634 -0.8163229 0.01430782 0.0930384 0.2759157 -0.306137 -0.3657581 -0.2212061 0.005439492 -0.2612178 -0.101177 -0.03092837 -0.356232 0.1324796 0.6414682 0.1357388 -0.0930572 -0.1629158 -0.2541757 0.618597 0.1653227 0.008768692 0.01470052 -0.01617864 0.0532021 0.02722896 0.2898097 -0.1632955 -0.0407965 -0.1345099 0.01800882 -0.3895918 0.02810576 -0.1224078 -0.002436576 0.1664713 -0.08228683 0.001462079 0.7282177 0.0338895 -0.07630933 0.04339853 -0.1234593 -0.09221066 0.07101481 0.02397603 -0.04223246 -0.1594007 -0.4893972 0.1266967 0.02003706 0.08153388 -0.4144963 0.01430973 0.2527862 0.1328043 0.2288075 -0.01598094 -0.275099 0.04703072 0.1195911 0.1275456 -0.1829458 -0.2673642 0.1012986 0.1318604 -0.239221 -0.2022508 -0.03625369 -0.3241678 -0.1884502 0.07823233 0.179275 0.09603964 -0.01656737 -0.5631207 0.04268383 -0.05573649 -0.001441362 -0.1209279 -0.2710219 -0.1293225 -0.1484254 0.2071984 -0.03674266 -0.0485881 -0.1008378 0.1332316 -0.2259308 -0.3185128 0.4489637 -0.2416556 -0.06257246 0.2559052 0.1654391 -0.4550481 -0.8922234 -0.132955 0.03203649 0.09931344 0.08486866 -0.0211585 -0.0863503 0.03625255 -0.1865101 0.6438651 -0.0485437 -0.6824046 0.04471883 0.04173775 -0.01365169 0.1518766 0.1280451 0.08862037 0.03562533 0.009152889 -0.562721 -0.02397502 0.01648006 0.02629029 -0.03312719 -0.1526122 -0.1018089 -0.07947579 -0.003623983 0.08101546 0.1081277 -0.2282649 -0.1409824 -0.002938572 0.007128983 -0.9713081 0.2575755 0.2346953 0.137221 -0.4817489 0.2544561 -0.09642971 0.05430998 0.04009518 -0.05987228 -0.2021373 0.06337836 0.08307157 0.1205523 -0.09970188 0.2663397 0.01872798 0.2127591 -0.09678452 -0.1090553 0.2071483 0.08328467 -0.04116276 -0.01107476 -0.1603622 -0.1091489 -0.04126094 -0.3392055 -0.06335981 0.01223039 -0.01006336 -0.2399994 0.9599944 0.07493795 -0.08503747 -0.003429281 0.2536665 0.1433142 -0.1499473 -0.01272868 -0.04254539 0.8880117 0.2901371 0.0261898 -0.1082473 -0.3675608 0.04531211 -0.3820966 -0.09225997 0.3058015 -0.04581208 0.05964093 -0.1285065 0.06344619 0.0627906 0.01257549 0.07030146 0.1706613 -0.06138204 0.4914808 -0.0403811 -0.0573518 -0.04379415 -0.1471865 0.35988 0.02423532 0.1034679 -0.2182192 0.07458645 0.01051829 0.07076783 -0.06077456 -0.7613459 0.1306613 0.02011511 0.001007326 -0.04236228 -0.4687232 0.1134078 -0.2206666 -0.9382799 0.1590432 0.007992291 0.02087162 -0.02289623 -0.01081483 0.1598338 -0.01572792 -0.07111032 -0.3813956 -0.1481884 -0.06633385 -0.0719827 0.05020685 -0.1871986 -0.02646615 -0.03985137 0.01111806 0.1065067 0.1180341 -0.1154003 0.2261159 0.03819854 -0.03967121 
  0.0605019 0.128968 -0.2402831 -0.1459806 -0.1258142 -0.2230614 -0.001582526 -0.2079206 -0.0524437 -0.3378038 -0.2375936 0.1432985 -0.05911225 0.01079457 0.07926114 -0.6077212 -0.279477 -0.2121234 -0.004567405 -0.5179906 -0.1264817 -0.04962606 0.6739184 -0.1175447 -0.2469479 0.09632122 -0.1115822 0.1096356 0.3130121 0.1930746 -0.04653952 0.1083575 -0.08559275 0.2215599 0.2898223 -0.3655321 -0.2719201 -0.2407211 -0.06442611 -0.08531055 0.1289886 0.3406005 0.2940954 0.3040052 -0.06714534 -0.08993972 0.1854495 -0.1322923 0.05698149 0.1184446 -0.1613211 -0.06510548 -0.09549879 0.1359093 -0.0369034 0.009376004 0.0671131 0.09966566 0.09625319 0.133524 -0.07839731 0.1007139 -0.08320302 0.05676163 0.03340274 -0.140314 -0.04645706 0.02980782 0.0401735 -0.1791649 -0.08772274 -0.01062224 -0.07458203 0.1062562 -0.2573307 0.1496179 -0.1950785 0.07419102 0.2892909 0.1032172 -0.145066 0.2636571 0.1091167 0.473714 -0.1295394 0.3035788 -0.1624555 -0.05908911 0.3537674 0.1635295 -0.06347433 -0.0677665 0.03993839 0.03251002 -0.04903062 0.09434807 -0.06120785 0.02481866 -0.1749903 -0.09309201 -0.1995412 -0.09795695 -0.04249075 0.01594316 0.1623558 0.02848833 -0.1961229 0.212722 0.01858009 0.1678539 -0.1697781 0.09965062 0.1623488 0.2165409 -0.08776679 -0.06343701 -0.08135415 0.1070218 -0.2782773 0.05562485 -0.03856416 -0.0018871 0.01997031 -0.003873738 -0.1784229 0.1064404 0.1340909 -0.01253234 0.4491155 0.01941919 0.05939899 0.03145271 0.4781848 -0.4018806 0.06757118 0.1277268 -0.06679758 -0.06227919 -0.0383219 -0.1017733 -0.1229111 -0.4314154 -0.006993502 -0.2843415 -0.3064576 -0.1928472 0.3160956 0.1554772 0.3219378 0.02691799 -0.2090558 -0.120713 0.0825481 -0.1263964 0.05267171 -0.4445319 0.2334361 -0.4027045 0.1041904 -0.08658295 -1.050457 -0.5014653 0.09379717 -0.2019325 0.09236729 -0.01389382 -0.02702123 -0.09923416 -0.1220632 -0.2001559 -0.02489782 -0.1814568 -0.01002648 0.1728098 -0.07675618 0.06891494 0.1630279 -0.1690678 0.03834262 0.03812071 0.1484812 0.1742694 -0.1203601 0.2985922 0.401684 0.698297 0.01678355 0.1547711 0.3819208 0.2039746 0.180394 0.02014831 0.2638052 -0.01729874 0.3030746 0.04965464 0.7016264 -0.07457095 -0.06868935 0.1210439 -0.2670025 -0.04677534 0.1916922 0.1602897 -0.06813055 -0.2600883 -0.04467992 -0.03084733 -0.01794812 0.01557331 -0.1660535 0.1937182 -0.05761081 -0.07631513 0.184357 0.06234182 0.562633 -0.1333662 -0.02722864 0.04186667 -0.1047236 -0.1387938 0.04250653 -0.007432469 0.2651412 -0.004166156 -0.02433926 -0.1649146 0.115521 0.1495926 0.1942699 0.07592655 -0.01514604 -0.3392409 -0.1929559 0.09659998 -0.1822517 0.1194175 0.01361316 -0.0810829 0.1830558 0.005076932 -0.04103347 0.008085486 0.07311604 -0.02238091 0.1327635 -0.2712962 0.194818 -0.003031731 0.04714658 0.1402535 -0.04516571 0.1492434 0.189507 -0.2406778 
  -0.003102929 0.04994484 -0.1369664 0.1414043 -0.02180071 -0.2144497 -0.3147124 0.3967151 0.04546624 -0.1240272 -0.1007788 0.02708145 0.06354176 -0.1788945 -0.05604282 0.1093651 -0.1738497 -0.4472104 -0.03814806 0.06487215 0.1850787 -0.0155243 -0.08481605 0.07499658 0.01581129 -0.1045813 0.1453355 -0.1981471 -0.3458416 -0.0213384 0.01226243 -0.05599179 -0.1958273 -0.2831914 0.2479422 -0.03676113 0.3736088 -0.05069709 0.0952209 0.2024943 -0.157534 0.03987518 0.3235557 0.08397868 0.3382826 -0.1104764 0.2964045 -0.06187229 -0.1273984 -0.005154795 -0.07910017 0.0108693 0.01901348 -0.2683321 -0.03234033 0.0003723934 -0.06081141 -0.08513844 0.03730284 -0.02104259 0.2926981 0.007013783 -0.3200426 -0.4355377 -0.2058809 -0.1710257 -0.07713453 0.03581223 -0.1997674 -0.3074551 0.004517082 -0.328867 0.102231 0.531388 0.01744649 -0.02640187 0.00903141 0.142867 0.339846 0.00905783 0.1976231 0.2519447 -0.1031015 -0.04994331 0.2313194 0.1554059 0.09926198 -0.1472028 -0.2758677 -0.04770733 -0.2079785 0.3157681 -0.03233373 0.1921568 0.02988574 -0.122831 -0.1694107 -0.3306562 0.03289725 -0.167928 -0.04799283 0.5679064 -0.1154352 0.1297359 -0.2105244 0.07791673 -0.1653197 -0.1189637 0.2561199 -0.1310121 -0.2043635 -0.1726948 -0.3624819 0.1283612 0.01768395 -0.1673034 -0.1117765 0.3642591 -0.2476073 -0.4251513 -0.4277921 0.1509419 -0.5387626 0.08213515 -0.4020314 0.134922 -0.5514067 -0.09404756 0.02743132 0.6586712 0.1059338 -0.01340359 0.1549559 -0.2552323 0.2182743 -0.1198258 0.05180421 -0.0291509 -0.01095482 -0.4239866 -0.03421209 0.06075898 -0.1789638 -0.0691899 0.1315002 0.06168999 0.1514578 -0.00529582 -0.2440707 0.07719769 -0.2040609 0.1289905 -0.006918876 0.4621904 0.07088233 -0.3300113 0.0658737 -0.0224177 0.1987118 -0.1068593 -0.1360451 -0.3263816 0.1464646 0.1504175 -0.141231 -0.02097188 0.2980166 0.26125 -0.07895356 -0.3126896 0.6102638 -0.3852453 -0.1582856 0.1280777 -0.2950593 0.2146289 0.2713731 -0.0548553 -0.07331885 -0.1563892 -0.0836062 0.3093495 -0.1389301 0.1138738 0.1457425 0.006864749 -0.01615657 -0.0137534 0.1921801 0.3385491 -0.2840417 -0.1012043 -0.2362498 0.09158078 -0.2678652 0.008353093 -0.3770001 0.1961464 -0.05513712 -0.01003883 0.1247478 -0.03082408 0.1242694 0.02636344 -0.265022 0.015128 -0.2097 0.07156095 0.1649878 -0.1222782 0.1687429 0.09929176 0.06352392 -0.3997734 -0.1141014 0.1419041 0.1287867 0.13322 0.1849684 0.05383017 -0.03943278 0.3657303 0.2659867 0.1476883 0.01732712 0.3373591 -0.112639 -0.2477569 0.02363806 0.7173733 0.1753277 0.4158077 0.1568106 -0.06277937 0.03497558 -0.01749354 -0.7069342 -0.1931401 0.119536 -0.3597349 -0.2054672 -0.07810572 -0.09404977 0.0780036 -0.213978 0.03517122 0.02158265 0.116766 0.2221545 0.1624624 -0.05320194 0.1523793 0.2148321 0.1377385 0.01144367 0.2867568 
  0.008940155 0.3834791 -0.1704385 -0.06255638 0.1701996 0.07613224 0.06732781 0.009255879 0.4915761 0.3158496 0.0436317 0.1286833 0.6460715 0.05741606 -0.02240548 -0.3198842 0.04936509 0.1572237 -0.1156435 0.1245967 0.1925569 0.04798981 -0.02679783 -0.1700003 -0.2021013 -0.4394357 0.2886092 -0.00621811 -0.2892237 -0.08174891 -0.002739062 0.07591805 -0.2453994 -0.05961755 -0.02683352 0.1162161 -0.4134735 -0.1004778 -0.08215962 0.02017003 0.09179179 -0.5151563 -0.4044661 0.1094793 0.02495809 0.1552061 0.6894141 -0.05123366 0.3253258 0.07582327 0.05607267 0.2027363 0.01419868 -0.001496092 -0.2568428 -0.02783851 0.1520088 0.1478225 0.1788514 -0.1238405 0.5410094 -0.1180974 -0.1095907 0.02268364 -0.2170134 0.09407094 -0.006385875 -0.3848768 -0.2979057 0.07561745 -0.0793887 0.07189658 -0.1023845 -0.3977247 -0.1177023 0.1517724 -0.08645889 -0.06026801 -0.4648269 0.02088554 0.08191913 0.59979 0.1167794 -0.3555859 0.2560572 -0.2251344 -0.198292 -0.07549518 0.03059812 0.08926213 -0.3185803 0.1338336 0.3096831 -0.1928173 -0.06282405 0.118984 -0.1437278 -0.1254119 0.01308841 -0.1430679 0.1024618 -0.3489067 -0.2713697 -0.1445729 -0.05045344 -0.09640248 -0.07351334 0.3511785 -0.101235 -0.1541632 0.01495107 -0.04148308 -0.1471642 0.2467725 0.07301957 -0.1854577 -0.0973794 0.04348064 -0.02420928 -0.07463668 -0.1589562 -0.0265754 0.09236304 -0.3594186 0.01710541 -0.1509966 0.1640577 0.2364559 -0.08169851 -0.2127146 0.09375504 -0.05364842 -0.0863113 -0.1758783 -0.1168607 0.1578354 -0.1338409 -0.1409496 0.1042073 -0.1245617 -0.2991862 -0.07179067 -0.1078964 -0.2108093 -0.08254398 -0.1449606 -0.1178853 0.1332665 -0.2701522 0.01817449 -0.1639903 0.09022518 0.06282328 0.1942385 0.1696324 -0.1255245 0.2554277 -0.05479166 0.01834129 0.1140559 0.3279189 -0.1362593 0.2305272 0.1139702 0.003406741 0.005935355 -0.5089176 -0.09346257 -0.05419006 0.1568544 0.6257297 0.0359118 0.02406843 0.8251116 -0.2583317 -0.2403958 -0.09724347 0.02639085 0.06086036 -0.164663 -0.6009491 -0.1849347 0.2809071 -0.1897005 -0.005859572 0.06672502 0.06842259 0.142482 0.1643725 -0.2844785 -0.06239894 0.2232495 -0.5500954 -0.1635085 -0.1120612 0.07156976 0.04568314 -0.1509547 0.3891671 0.1417699 0.0952417 0.7818753 -0.1179607 0.2654971 0.3610331 0.1257311 -0.1110999 0.2084333 -0.3667551 -0.01214405 -0.5455211 0.0037672 0.1430877 0.01772023 -0.1569932 0.08781087 -0.0798301 0.0199753 0.2052681 0.09556044 -0.002569471 -0.3890044 -0.539645 -0.5472199 -0.05515977 0.017791 -0.1386719 -0.06911668 0.1107159 -0.4554757 -0.2774685 -0.159393 0.2074645 -0.1307649 -0.3326934 -0.07779348 0.1421328 0.06092989 0.197319 0.008481486 -0.2645252 -0.06334917 0.2608082 0.1662251 0.2778438 0.1297067 0.0373469 0.2363781 0.2687215 -0.6868194 -0.08460777 -0.08271822 -0.2114679 -0.1118832 -0.2661289 -0.09556003 
  0.2172378 0.03335681 0.04408794 -0.7686154 -0.1070266 0.1560584 -0.1609608 -0.1735865 -0.2553515 0.2861472 0.1768591 0.3678575 0.06120816 0.1736846 0.4541277 0.04644418 0.1723136 -0.1812832 -0.1672345 0.001509722 0.0760549 0.3382447 0.1292232 -0.560784 0.1757813 -0.1670543 -0.3470157 -0.004984448 0.02101658 0.05170256 0.01275505 0.1089392 0.2824803 -0.5239845 0.2142251 0.1928637 0.2928109 -0.05440863 -0.2039791 0.2383364 0.3099349 -0.2529692 -0.5744338 0.232819 -0.8903881 0.08483489 -0.121347 0.04388044 0.1432187 0.3118646 -0.07656871 -0.1268763 -0.02616631 0.03434599 -0.64421 -0.2424235 -0.3375234 -0.09605269 0.09931578 0.08459564 -0.07661345 -0.1167667 -0.3168123 -0.04066156 0.3940852 -0.1024355 0.2267341 0.2765957 0.2431864 -0.1131039 0.08601563 -0.007050327 0.2488918 -0.3090059 -0.008380787 -0.01343102 -0.3478546 0.3663019 -0.1086309 -0.5311347 0.3269252 0.2595323 -0.05133041 -0.2878439 -0.1454144 0.04805405 -0.3197792 0.05026683 0.40231 0.5338791 0.04626076 0.5856382 0.08171692 -0.2186686 -0.1667328 -0.65958 -0.02667399 0.3542555 0.5145699 0.2810994 0.1665856 -0.6496573 -0.04572035 -0.3208985 0.3199818 0.07417533 0.0564923 0.1547534 0.2657515 0.1820961 -0.211131 0.1064286 -0.5443861 0.1040549 -0.221581 -0.2240005 -0.1853859 0.03304644 -0.2956223 -0.5580735 0.163318 0.02537297 -1.094326 -0.1760221 0.01234867 -0.08025519 0.2711214 0.2732638 -0.1067885 -0.4480756 0.09929809 0.1162507 0.655226 -0.2064114 -0.329438 -0.2069855 0.3241636 -0.3935633 0.3573093 -0.4564657 0.03334548 0.2666915 0.2922109 0.04757804 -0.3011195 -0.2136136 -0.03180615 0.1717604 -0.1732154 -0.07779105 0.6561661 0.2491817 0.2410801 0.2173815 0.07208689 0.3167932 0.174885 -0.1119377 -0.3078843 0.1602693 0.01193388 0.1582745 -0.0008561274 0.05852174 -0.05855633 -0.1074052 0.159227 -0.2153712 0.03678128 -0.1152251 -0.04656674 0.8443281 -0.2451382 -0.1999712 -0.7070267 0.09527662 0.2925773 0.03369624 0.2347468 0.3863807 0.1267301 -0.3294238 -0.09063028 0.0206332 -0.03175188 0.8389084 0.5026476 0.07011163 -0.07709599 -0.07562631 -0.1838784 0.1545825 -0.4481245 -0.01678455 -0.1275181 0.05778872 -0.3178676 -0.2700987 0.1943379 0.2658077 -0.01385237 0.02041165 0.1227542 -0.2950917 0.002381172 0.3297924 -0.1381872 -0.05266162 0.046121 0.04433874 -0.02608763 -0.3471555 -0.1417491 0.1315169 0.108111 -0.2013979 0.6778889 0.05792903 -0.07406169 -0.3053439 -0.2867375 0.2852633 0.03865436 -0.3059999 0.2637728 -0.2393813 -0.2593957 -0.3709085 -0.3722202 -0.5488269 0.04223622 0.1209631 0.4711123 -0.6091675 -0.09331702 -0.1635089 0.02019499 -0.1404953 0.03106416 0.4873569 -0.1835815 -0.17257 0.1162821 0.03578022 -0.2224885 0.3279338 0.07002469 0.5857451 -0.04752173 0.2474236 -0.1863028 -0.137949 -0.5309345 -0.3999761 0.110456 -0.1251146 
  -0.2043346 0.112508 -0.2667931 -0.3033528 0.08348077 -0.1463735 0.01741585 -0.1770774 -0.1476472 -0.1742341 0.05464073 0.03578041 -0.4251003 -0.07733694 -0.02151258 -0.006624436 -0.03934085 0.2966504 -0.01046376 0.1292183 -0.1588793 -0.444569 0.001852799 -0.2089007 0.2015901 0.09612498 0.2391402 -0.02331037 0.1502295 0.2016298 0.1454779 0.1027803 0.1743194 0.1545306 0.06175204 0.02007584 0.04034865 0.09441438 0.01804681 -0.2436627 0.05924708 -0.02485706 -0.2663559 -0.09591695 0.1124638 0.1697604 0.1125465 -0.03878094 -0.05894997 -0.05903506 0.2307071 0.0148301 0.06331987 0.1979549 0.04087975 -0.01340386 0.1474305 -0.134719 -0.01141554 -0.1347579 -0.08025409 -0.07060772 -0.07441004 -0.09042921 0.0983093 0.0482907 -0.5656024 -0.5476565 0.1737635 0.003544846 -0.02243279 -0.4145586 0.1254372 0.1926499 -0.116741 -0.1709132 0.1793988 0.3858 -0.1492081 -0.0976529 -0.5293292 0.08155925 0.185241 -0.09503847 -0.1020763 -0.02455456 -0.3938604 -0.01236756 0.1409298 0.1058822 0.08932216 -0.2532366 -0.1914129 -0.06296054 0.1586688 1.009863 -0.05387264 -0.1291688 -0.2598289 -0.05717112 0.0534201 0.267447 0.09595301 0.07597141 -0.2044604 -0.1642401 -0.0999485 0.05226592 0.04285118 0.1360572 -0.02367909 -0.003905238 0.09269693 -0.1749149 -0.09313841 0.2022631 0.05388403 0.2013639 -0.005285911 0.3320771 -0.03808598 -0.1170753 -0.07055859 0.1720149 -0.006769363 0.1959133 -0.2111733 0.1546296 0.0250691 -0.05192659 -0.07722872 -0.007459274 0.07752606 -0.2412793 0.3205557 0.1790446 -0.008890561 0.02007393 -0.02057393 0.06438585 0.002502108 -0.272563 0.07216941 0.01357635 -0.1484898 -0.1841918 0.08425397 -0.01051657 -0.05674086 0.1399428 -0.2574306 0.04273785 0.2685603 0.3913915 0.09312026 0.1147215 0.02595041 -0.2518865 0.2370577 -0.2075058 0.1331668 -0.321121 -0.06350605 -0.1057048 0.03044216 0.07851598 -0.0003515236 -0.003030448 -0.1223673 0.07645791 -0.09695734 -0.1730823 -0.02533269 0.2546572 0.3896901 -0.09281161 -0.04554547 -0.01302084 -0.1953444 0.02392661 -0.2770191 -0.03575129 -0.05717603 0.06500895 0.0506932 -0.05823368 0.1850169 -0.159609 0.0266826 0.2584756 -0.1749816 -0.1299644 -0.7411516 0.03607621 -0.03315732 0.007331764 -0.0965773 -0.2341468 0.3116765 -0.05399995 0.1743204 -0.1785765 0.09356394 0.1854843 0.02118086 0.03175345 0.04382855 0.0533939 -0.1702318 0.06670029 0.007876904 -0.1525913 0.01332325 -0.03828596 0.0732624 -0.01010187 0.1277318 -0.0795904 -0.110895 -0.01934641 -0.1134632 -0.1214401 -0.07607319 0.328425 0.07165434 -0.1563066 -0.2419333 0.1031567 -0.3036753 -0.01809231 -0.06354707 -0.08482739 0.03452481 -0.1127385 -0.2101941 0.008574971 -0.169533 0.0405877 -0.1934873 -0.01431361 -0.12915 0.02162905 0.06585149 -0.3032713 -0.1764374 0.1861468 -0.01694013 0.1924949 -0.1488197 -0.1145563 -0.1231134 -0.2110556 -0.4670519 -0.1566496 0.007936143 -0.07227203 
  -0.1843346 -0.04819554 -0.2035543 -0.4894348 0.02721591 0.2247792 -0.1206156 -0.2906747 0.1209618 0.1860081 0.5121116 -0.7639626 -0.002588658 0.2542468 -0.05743864 -0.5003432 0.1304278 0.1260366 -0.1580284 -0.3378246 -0.01591289 -0.22409 -0.2755636 -0.1995436 0.28023 0.3096235 -0.1291738 0.01527753 -0.00894723 -0.3573005 0.1350129 0.1960253 -0.2112693 -0.4393779 -0.2454798 -0.3119615 0.2678352 0.05080629 0.3798302 -0.06736855 0.0822906 -0.1232313 -0.0917694 0.1182696 0.2713566 -0.06570468 -0.2387164 -0.08548816 -0.1534487 -0.1107517 0.4301214 0.09410424 -0.1360762 -0.5506682 0.2694448 -0.3348348 -0.1292931 0.07760511 -0.3684959 0.1367232 -0.0925834 -0.2742889 0.06467147 -0.07724606 0.3373075 0.170496 0.1545753 -0.5677206 -0.139942 -0.285875 -0.0928393 0.4221529 0.1790535 -0.3791453 -0.7809634 -0.1070104 0.2863634 -0.2536577 0.07321717 -0.09911327 0.1535409 -0.006156142 0.02660757 0.048469 -0.124598 0.3356942 0.04064843 0.3440453 0.041026 -0.2310903 0.4153763 0.4553763 -0.180245 -0.003945985 -0.3904198 -0.0203426 -0.1545137 0.09648252 0.1026964 0.1569044 -0.06176866 0.01970513 -0.1619277 0.117578 -0.1261311 0.1893453 -0.09205668 0.03832313 -0.167004 0.2334801 0.07459742 -0.2440825 0.0883842 -0.08704162 -0.5460616 -0.2956259 -0.2883572 0.08022922 0.09194075 -0.02869429 0.1226212 0.1232418 -0.3323449 0.004610365 -0.1806543 0.2953991 -0.03876915 -0.3822161 -0.1538897 -0.2337384 0.02793838 0.1269391 0.2913841 -0.3499956 -0.201998 0.1517349 -0.1066661 0.2160352 -0.342777 -0.1629207 -0.487555 -0.2062528 0.007750447 -0.2645991 0.505035 0.04382966 0.2757132 0.1838009 0.1038454 0.05065788 -0.2224442 0.3137597 -0.2209271 -0.1881885 0.04027861 0.01800015 -0.2233952 -0.3272572 -0.2800946 0.2687782 0.5304197 -0.5074922 0.2061604 0.3408882 -0.0444192 0.131479 -0.008708162 -0.008740262 0.2109835 -0.8090765 -0.07071692 -0.01237358 0.3085371 0.01432646 0.2731266 -0.2051727 0.1001472 0.5417461 -0.03458857 -0.02676755 0.1766444 -0.2355187 -0.4022527 -0.2077006 0.7509525 -0.4218081 0.1286795 -0.09658361 0.1953085 -0.2257261 -0.02002016 -0.3559245 0.1275138 -0.2435804 0.5405641 0.1247977 -0.06880238 0.183299 0.1358744 0.06069119 -0.06236835 -0.01848838 0.3157926 0.323876 0.2225623 -0.09452111 0.03251947 -0.2214033 -0.2166291 -0.6055206 0.04784265 -0.1973525 0.147641 0.1700197 0.02178516 -0.02153351 -0.9398702 -0.04359493 0.1136572 0.1073151 -0.07903894 0.191437 0.003588155 0.1187716 0.02409468 -0.4362709 -0.4100924 -0.4857265 -0.2715026 -0.5103635 -0.1412056 -0.03146289 -0.009718545 -0.2064075 0.004679857 0.08759865 -0.5235034 -0.4564969 -0.1499347 0.1441067 -0.005409133 0.01670673 -0.1514551 0.06802313 0.04244507 0.3423951 -0.2372205 -0.2889706 -0.09965931 0.2442571 -0.1077642 0.2838735 0.01726388 0.06087583 0.05875109 0.2305262 
  0.06296688 -0.0254507 -0.02686294 -0.01348931 0.02829484 -0.02660648 -0.1006163 -0.04427052 0.1986811 -0.1227669 -0.3624838 -0.1702963 -0.09624019 0.7338855 -0.1990754 0.09100856 -0.5041238 0.1354274 -0.02944828 0.1504942 -0.3319259 -0.2421762 0.1639922 0.05814806 0.2247243 0.06959839 -0.3319841 0.06377521 0.2105095 0.1794484 -0.3168318 0.125137 0.1178212 -0.1295107 0.1059405 -0.1452607 -0.3265014 -0.004713125 0.003707611 -0.1945072 -0.1327412 0.5662698 0.01400831 -0.2759807 -0.05538346 -0.06001483 0.211743 -0.05628505 -0.05669887 -0.2441723 -0.2141104 0.09424161 0.09438357 -0.04522565 -0.1057848 0.05339301 -0.09564921 -0.06340852 -0.02530922 -0.3569186 0.05894864 0.04171829 -0.01117662 -0.1270414 -0.0168561 -0.05383513 -0.1134209 0.07472489 0.1400137 -0.4632074 0.1902084 0.3637 0.2232229 0.005479083 -0.2304927 -0.2456851 0.05682082 -0.5816393 -0.0416321 0.05998345 -0.2692459 0.02812309 -0.1734671 -0.4939403 -0.1435698 0.03160196 -0.09279771 0.3186699 -0.1153464 0.1813356 0.06816523 -0.06500575 -0.20017 0.04344517 -0.1544943 -0.07630777 0.007702958 -0.03701151 -0.05041971 -0.2435249 0.03771544 0.4653984 -0.1299639 -0.07216316 0.0152921 -0.1235798 -0.08312518 0.06329269 0.1791159 0.1093525 -0.07096671 0.1738559 0.05250219 0.08467634 -0.1428747 0.1816584 0.02749499 0.06008202 0.02625011 0.05723507 0.02519492 0.1219949 0.1000538 0.01158829 -0.5859495 -0.05653356 -0.4144278 0.6503574 -0.1107593 0.04603616 -0.1362898 -0.267344 0.1761814 0.1196697 -0.09361823 -0.03671816 -0.2228124 0.08679749 0.001625085 0.1443235 0.02638168 0.05568483 -0.1297214 0.2535951 -0.3618157 0.1318692 -0.1517466 0.06700903 -0.0799014 0.03143501 0.2150316 -0.2045922 0.5805472 -0.4787774 -0.2693498 -0.07779384 -0.1796086 0.002137699 -0.1476175 0.02324962 0.206614 -0.1573539 -0.3532581 0.1950929 0.0629931 -0.01252114 0.0387506 0.01535598 -0.2502001 -0.03652345 0.01644621 -0.07067472 -0.1105393 -0.1132384 -0.0765993 0.08476266 -0.08302969 -0.2334223 -0.1616348 0.004250225 -0.005087528 -0.2435541 0.1769735 -0.07511842 0.02893778 -0.09492895 -0.07139421 0.1634067 -0.00464913 0.4760937 0.02783611 -0.06116712 -0.194651 0.03527854 0.001431241 -0.07283462 -0.06410687 -0.3662917 -0.1586475 -0.3272471 0.0562082 -0.2365907 -0.2740004 -0.05803567 -0.8150986 0.2755934 0.03678556 -0.1130065 -0.1046564 -0.1819123 0.2380777 -0.1767994 0.07090686 -0.03758458 0.1199293 0.07928696 0.06792204 0.09816659 0.06691455 0.09580015 0.29856 0.01994372 -0.2026894 0.1162409 0.3196083 0.1491679 0.06801808 -0.01541696 -0.01536936 0.2526073 -0.09141577 -0.2048748 -0.1151365 0.05261651 -0.03891823 -0.01983387 0.05168853 0.04559772 1.174821 0.08973236 0.05419888 -0.08119717 -0.04794051 0.08960681 -0.1449718 0.3522712 0.1085843 -0.06787074 -0.1540543 -0.03728971 -0.07018003 -0.4203948 0.1739641 0.09504827 0.1446368 -0.1421509 
  -0.1609543 -0.06635441 -0.2834442 -0.03258462 -0.1295402 -0.1654221 0.01936669 -0.9395922 0.1955521 0.1212562 0.02941831 -0.1275565 -0.2343788 0.139219 -0.01953288 -0.2128016 -0.1070601 0.3600452 -0.464256 -0.05178145 -0.1010904 0.002419156 0.07395383 -0.2083486 0.08482076 0.0002945835 0.1309549 -0.1119841 0.1808421 -0.4726628 0.1122492 0.3031932 0.2523802 0.4271283 0.1168396 -0.05955371 0.05895939 0.06222076 0.1199926 0.2778846 -0.08694036 -0.05593638 0.3602996 0.3274636 -0.06370915 0.1537961 0.006375314 -0.037214 0.02514026 0.2466491 -0.05774225 -0.004085732 -0.03283711 0.2227226 -0.03664717 0.1397746 -0.1910674 -0.2609149 0.1395609 0.03535636 -0.07565784 0.06877943 0.2444555 0.05643756 -0.1764667 0.0785936 0.02693166 0.1960466 0.01255155 -0.1425431 0.07671747 0.2057434 0.08369564 -0.468535 -0.2269438 -0.1459182 0.163355 0.2200401 -0.1615316 -0.005005446 -0.3821652 0.03534817 -0.08988182 -0.09328263 -0.1856117 0.08176734 -0.04874821 -0.03167328 -0.07765752 -0.2598716 0.1098897 -0.3383188 0.00439804 -0.1306064 -0.4426261 0.1630427 -0.06544063 0.0444208 0.1793647 0.0950724 0.02307341 0.1879237 0.240941 -0.1429998 -0.2620091 -0.04234733 -0.5355175 0.09309097 0.1613093 -0.1223047 -0.05056166 0.1275237 0.1240438 0.09072634 -0.1890556 -0.05768593 -0.2268252 0.243727 -0.1566102 0.1066339 0.02560643 -0.3026059 0.04064769 -0.2400427 -0.0797835 0.1251371 -0.02621557 0.3017188 -0.02898045 -0.4605584 -0.2943413 0.005239837 0.08367407 0.01775458 0.1705205 0.3188497 -0.242614 -0.004126484 0.0223489 0.05228823 -0.3703459 0.01266982 -0.2993838 -0.4967389 0.04318552 -0.2207756 -0.0706536 0.005512315 -0.2802325 -0.2111176 0.009504412 0.2593695 0.1164542 -0.3484159 -0.451434 0.04290312 0.06623293 -0.1185718 0.4570447 0.3628806 -0.2776092 -0.08126407 -0.0171987 -0.1858677 -0.1288273 -0.07912157 -0.08430483 -0.1108844 -0.0489026 0.055686 0.07585078 -0.1016121 -0.01661057 0.1952751 0.3209268 0.05201218 0.08799791 -0.03538844 0.08536676 -0.01162219 -0.1217878 0.1364294 0.3771778 -0.07804912 0.05797996 -0.03073277 -0.09914151 -0.09440754 -0.2623249 0.2131076 0.09579804 0.1296387 -0.01851251 -0.05299797 -0.2400361 -0.3895218 -0.1526577 -0.1665864 0.1522405 -0.4279425 0.06283677 0.0473932 3.851702e-05 -0.2216747 0.1675053 -0.1433375 0.2400388 0.01410259 -0.1960635 0.2257787 -0.1428635 -0.3527273 -0.2138748 0.06754977 -0.196148 -0.2032822 -0.03103836 -0.1498202 0.2032395 0.09691346 -0.2686269 0.1248685 -0.04213512 0.1826823 0.06304066 -0.01821658 0.03464788 0.01806183 0.05810473 0.169707 0.07738273 -0.04490404 -0.04676688 -0.101305 -0.4588123 0.07459808 -0.003299203 -0.1669248 -0.06205764 -0.1681745 0.06314506 -0.01256825 0.276222 -0.05694479 -0.1121853 0.3223141 -0.02563345 0.1298066 -0.07475299 0.04396912 -0.06577152 0.03835201 0.08268262 -0.2152011 -0.1870388 -0.2195938 
  -0.02965401 0.06395754 -0.08591289 0.09170955 0.7823652 0.1702695 0.004975537 0.2069038 0.04667275 -0.07879527 -0.2165515 0.04340096 0.1748294 0.02818176 -0.02515665 -0.03787339 -0.1376078 -0.0003758667 -0.02210316 0.06710441 -0.04201597 -0.1193057 0.181081 -0.03063126 -0.1801502 0.1079302 -0.3898333 0.1319758 0.9862081 -0.1364939 -0.1933269 0.1299339 0.6236856 0.024354 0.09933737 0.5361807 -0.1887854 -0.2207382 -0.2905384 -0.2204776 -0.02219991 0.1776728 -0.00874662 0.1446937 0.03963471 -0.2699713 0.06425581 -0.1436277 -0.07408133 -0.078981 -0.1838067 -0.1062896 0.06750225 0.03822477 -0.07009453 -0.2747889 -0.148541 -0.2503233 0.2642321 0.03141474 -0.1074967 0.06120311 -0.02013446 -0.06870279 -0.1464627 -0.1048739 0.09039567 -0.4687579 -0.1748985 0.002826954 -0.3414448 0.2799498 0.1387712 -0.02673909 -0.02394666 0.1457129 0.1384925 -0.1535596 0.123661 0.4562633 0.3406173 -0.04154503 -0.07390098 -0.02445509 -0.1953637 0.0897177 -0.1432485 -0.09117629 0.2597022 0.08856934 -0.05859129 0.1779426 -0.3314999 -0.04067499 0.07217894 0.04627616 -0.01639524 0.07888609 0.05499983 0.1680789 0.8037274 -0.2461425 -0.2150848 -0.160678 -0.03634444 -0.09593494 -0.0564396 -0.04386023 0.2591015 -0.3141207 0.2626311 -0.06592424 -0.08794631 0.003565911 0.2156206 -0.144731 0.06237529 0.02089487 -0.01385182 -0.2300165 -0.2423287 -0.1606942 0.03361816 0.06790918 -0.2966115 -0.1342433 0.03450442 -0.1984306 -0.0005046988 0.3167436 -0.002027277 0.2362669 -0.1900321 -0.7717219 0.009621887 0.03910456 -0.1447956 -0.3437381 0.1207234 0.1372192 0.1160023 0.02206602 -0.2289732 -0.07403056 -0.0743803 0.002966625 0.2092847 -0.03959254 -0.01983481 0.01063842 -0.09468106 0.07533238 -0.1045792 -0.0117688 -0.01289916 -0.09814959 -0.002169115 0.09600427 0.1733463 -0.0108747 -0.07215474 -0.2546356 -0.2398746 0.1745354 -0.143121 -0.04693625 0.1038428 -0.1243863 0.01483904 -0.02699367 0.06840427 0.05811468 -0.05473105 -0.08642428 -0.1736192 -0.2062725 -0.05319726 -0.02682967 0.006813046 -0.01875133 -0.05610382 0.05060853 0.1235758 0.02068404 0.04589 0.2684715 0.04187666 0.1074702 -0.2541263 -0.04283622 -0.02718931 -0.03951324 0.3656074 -0.2557881 0.04917421 -0.02528355 0.7866936 0.06504656 -0.04357262 -0.00653058 -0.1122939 -0.1283959 0.09015268 -0.1813348 0.1359382 0.1038327 0.0007048984 0.1941103 0.1448243 0.01864361 0.1476216 -0.1998514 0.01783884 0.1003742 0.01306407 0.08567607 -0.07691182 -0.07346465 0.2531545 -0.06414235 0.2377329 0.03225264 0.0231029 -0.02217944 -0.1937896 -0.1677187 0.01366212 -0.3457185 -0.009528845 -0.1882013 -0.1061932 -0.06171456 0.1172425 -0.06501785 -0.1893567 -0.02962531 0.181814 -0.4499025 0.1910702 -0.2769704 0.006269594 -0.3197646 0.03240854 0.09328684 0.04785246 -0.05593929 -0.05103714 -0.1586259 -0.08231798 -0.03510782 0.1560376 -0.1855793 -0.09574707 -0.2503177 -0.05787285 0.1502753 
  0.2260431 0.2092804 0.1003331 -0.1406318 0.1787804 -0.1522643 0.03594878 0.1395932 0.09440341 -0.5273859 0.05706723 -0.04775058 -0.001386781 -0.02226724 0.06210175 0.08481341 -0.1732938 0.1316041 0.05587364 -0.1812669 -0.1849951 0.05450384 -0.5819775 0.1281159 -0.06781172 -0.4737372 0.5157136 0.1747872 0.04583983 0.1423564 -0.464203 0.03029102 -0.01475637 -0.323475 -0.1625309 -0.0640531 0.06064255 -0.3868589 -0.2070258 0.09818307 -0.5001677 -0.1903597 -0.04458343 0.4194044 -0.3589238 -0.1145672 -0.05346143 0.5246459 0.118784 -0.05589222 -0.03020326 -0.07795005 -0.1811721 0.01158872 -0.1853734 -0.2110945 -0.08733074 0.3501239 -0.05530819 0.2802538 -0.6903108 0.04457678 -0.4976049 -0.05227785 0.06680682 -0.282886 -0.2778336 -0.5809962 -0.3874748 -0.2482713 0.06744849 0.3026925 -0.126587 0.9401711 -0.2897686 0.08175388 -0.2132783 -0.2955976 -0.02389894 -0.172107 0.2647602 -0.1058636 0.08895035 -0.3066696 -0.586981 -0.3186412 -0.7073078 -0.1408827 -0.1790641 0.4414704 0.02948048 -0.2345828 -0.1262088 -0.2878902 -0.06454508 -0.08032528 -0.1530325 -0.07693537 0.2253529 0.1534436 -0.4915826 -0.1248366 0.2853937 0.2921131 0.06254558 0.3022759 0.1506047 -0.1129346 0.169444 0.051104 -0.62514 0.3505629 -0.251656 0.1085346 0.2921428 -0.08234092 0.1166401 -0.1749571 0.06809697 0.04287695 -0.08041628 0.5061352 0.3599565 -0.0685487 0.1693963 -0.4997332 0.08365903 0.08471158 -0.3892736 0.1877031 -0.1946717 0.06168482 0.06104168 -0.01246091 -0.02617634 -0.3230383 0.2573856 0.03168933 -0.1316658 0.03864446 0.313737 -0.3679111 -0.4835988 -0.08200738 -0.1776341 0.1564703 -0.3049737 -0.2584989 0.3473496 -0.5824592 -0.1713865 -0.1025886 -0.3413197 -0.05052459 0.1952929 0.0522906 -0.140628 0.5546808 0.02828799 -0.2589187 -0.1247469 -0.5586265 -0.3992628 -0.1085912 0.1003545 -0.2360187 -0.05753548 0.2089591 0.2012106 0.150137 0.1187519 0.2424898 -0.2429856 0.4758397 0.3385402 0.3767015 -0.3102563 0.2463296 -0.02375441 0.2284312 0.06792979 -0.7662299 0.461115 -0.04381137 -0.1596533 -0.1097777 -0.117423 -0.2637365 0.05161334 0.008212207 0.07660158 -0.3966837 -0.3831116 -0.08402828 -0.1069022 -0.1617531 0.01035793 -0.1177247 -0.05607285 0.1710562 0.219283 -0.1873432 -0.1394767 -0.06139829 0.03854304 0.06978756 -0.2281522 0.03238109 -0.104061 0.8757066 0.2604634 -0.1304002 -0.3398173 0.3705747 0.1939834 -0.3216356 -0.2419324 -0.2562392 0.1454032 0.03788933 -0.4113439 -0.224266 -0.3200546 -0.07617518 0.01491953 0.05049262 -0.3434971 0.2617608 0.006462226 -0.1796489 0.007565991 -0.1876238 -0.1686577 0.1378178 -0.03465735 0.1357453 -0.2056645 -0.1732301 -0.0907615 -0.5030364 -0.2825151 -0.2205357 0.4935008 0.0361958 -0.4878669 0.0840578 -0.1966304 -0.005483204 -0.4803208 -0.6267546 -0.1500024 -0.4024161 -0.02769239 0.188242 -0.1241709 0.0664458 
  -0.0936661 0.08058519 -0.1411925 -0.6561578 -0.2329776 0.1359806 -0.1659772 0.08934771 -0.263418 -0.8573757 -0.1976538 -0.6834173 -0.419779 -0.7966968 -0.2642632 -0.3305339 -0.2564904 -0.4027574 0.3266317 0.2090705 -0.169674 -0.06325948 0.2720823 0.2211831 -0.2700178 -0.4845768 -0.03034823 0.3344471 -0.2983097 0.1764437 0.04812889 -0.4990115 -0.08615665 -0.4837513 -0.3389391 -0.40186 -0.1236304 -0.3610666 -0.1364103 -0.1036828 -0.1640066 0.013437 0.03555291 -0.2294719 -0.2732746 0.03175877 -0.5345917 -0.4396372 -0.506355 -0.03739464 -0.3434413 -0.3597213 -0.4061969 -0.1124397 0.0588062 -0.3503743 -0.4261993 -0.1282263 -0.2273511 0.6587136 -0.3469928 -0.215012 0.5535046 -0.1394336 -0.3214156 -0.2654032 -0.316238 1.131005 -0.02829771 -0.3662469 0.175054 0.4364723 -0.2688372 0.0002711241 -0.4032998 -0.3692925 -0.1757414 -0.7738613 0.09705907 -0.5526792 -0.4041131 -0.382409 -0.1145134 -0.02611059 -0.5812573 0.05886741 -0.09339105 -0.3376473 0.1472262 -0.1854424 -0.2038927 0.5857618 -0.1336882 -0.4356285 0.1768959 0.0262758 -0.3140563 0.09247985 -0.1927146 -0.1311578 -0.6956209 -0.7190244 0.05031937 -0.3330863 -0.1051681 0.003261733 0.8300505 -0.26478 -0.3150476 -0.1899376 -0.2050749 -0.04086143 -0.6553486 0.0442581 -0.09705403 0.09090106 0.03268169 -0.6377774 -0.2544015 -0.08179155 0.3101758 0.1607786 -0.1101398 -0.1844933 0.268189 0.0621792 0.405719 -1.318416 -0.06996655 0.1172919 -0.4522737 -0.1165398 0.05030038 -0.09530066 -0.2851249 -0.04845115 -0.3289424 -0.04692425 -0.1821964 -0.3068017 0.04561745 -0.3251634 -0.0568492 -0.451218 -0.1740421 -0.03372759 -0.2981913 0.3289782 0.3826684 0.102461 -0.4395814 -0.06864957 -0.6058781 0.006090595 -0.1917456 0.09468269 -0.711517 -0.2777977 -0.008973635 -0.6026862 -0.1787358 0.7673872 -0.06059026 -0.2926626 -0.004317794 0.01947004 -0.8664593 -0.005545348 -0.1974621 0.05326778 -0.1435184 0.08481009 -0.1447934 -0.2459513 -0.132972 -0.202022 -0.1493198 -0.09904382 0.02406587 0.0301104 -0.197311 0.1317959 -0.3058878 -0.05895229 -0.3775647 -0.1603725 -0.3176297 -0.1882491 -0.1400806 -0.09130961 -0.01145928 -0.4669364 -0.008910437 -0.1802371 0.7058172 -0.04330955 -0.3242913 0.05639319 0.1707095 -0.183534 -0.2178357 -0.4482203 -0.426817 -0.1675507 -0.1225521 -0.03259262 -0.1614533 -0.1565627 -0.03746003 -0.1051515 -0.1505876 0.207891 -0.2751997 0.4116414 -0.09930125 0.5425234 -0.2690414 -0.4115995 -0.3845283 0.09163126 0.2348067 -0.2111846 -0.08630344 -0.08932879 -0.2178485 -0.08949462 -0.2356418 -0.07408546 -0.2820522 0.05064471 -0.4291706 0.1644293 -0.4638899 -0.5539066 -0.3074008 -0.3238977 0.0447133 -0.01604909 -0.2132172 -0.1728831 -0.1985985 -0.3977851 -0.2853226 0.03445726 0.2753079 -0.6091054 -0.1962271 -0.310173 -0.3053448 -0.1228054 -0.02917101 0.4812798 -0.1479961 0.1186283 -0.403785 0.05978049 
  -0.1738752 -0.01805159 -0.1464849 0.01271992 0.2424088 0.1274342 -0.09012494 -0.3115046 0.1888393 -0.0365777 -0.05387466 -0.2562059 0.1845004 -0.9860899 -0.1587649 -0.1705955 0.7209702 -0.3534456 -0.00559155 -0.04140644 -0.05556823 0.09962505 -0.55147 -0.04314567 0.2701095 -0.3580028 -0.5055568 -0.04511387 -0.1531008 -0.008879783 0.007245665 -0.0948539 -0.2577189 -0.2669073 0.5616949 0.2200882 -0.100245 -0.248785 0.03881793 -0.2057627 0.09941519 -0.2673431 -0.008240781 0.5031909 0.145103 0.1003017 -0.2454932 -0.05458056 -0.1256088 -0.05038298 0.1575211 -0.1115833 -0.3536434 -0.1068188 -0.3210455 -0.09496327 -0.3092876 -0.1201558 0.009831763 -0.08043507 -0.0295114 -0.2562629 0.3272714 -0.2264358 -0.1447218 -0.08252678 0.2459583 -0.06346692 0.302139 0.0795065 0.1090033 0.05547782 0.001998004 0.1240819 -0.3615541 0.1190054 -0.248905 0.5048159 0.3004001 0.3930565 0.1208159 -0.1632103 0.1646366 -0.0979535 -0.3064893 -0.02918759 -0.1817805 0.250084 -0.08919129 -0.2474818 -0.2110244 -0.05405714 0.3506674 0.005411243 -0.1322934 0.2739192 -0.1439599 0.137162 0.2494383 -0.1268911 -0.2690755 -0.05390773 -0.1749401 0.2183561 -0.242354 0.0508632 -0.2656351 -0.2240641 0.06046506 0.2718791 0.2224596 -0.2785644 0.05362678 0.05958567 0.08510207 0.3275804 -0.2483195 -0.4219903 -0.2573203 0.2228876 -0.1371229 0.1762725 0.06081662 -0.1848387 -0.2103818 0.2526092 0.1116633 -0.1533981 -0.2521276 -0.3777397 0.1778396 -0.3617509 -0.2425303 0.07427161 0.002572981 0.3784976 0.06507838 -0.3283186 0.1570857 -0.1522741 -0.1733285 0.1922206 -0.863841 0.02005267 0.506097 0.04183236 0.1471604 -0.1042505 0.05496642 0.2167604 -0.02263707 0.3114799 0.09359574 -0.1816689 0.2080172 0.2891406 -0.03749944 -0.1194936 -0.0219103 0.0292939 -0.4622615 -0.5731739 0.0858082 0.05017684 0.1647815 0.0699416 -0.3444169 0.136164 -0.072322 0.08725096 0.1430552 -0.02545262 -0.05022155 0.01458615 0.08929478 -0.2773761 -0.01791601 -0.04790048 0.02799601 -0.04165301 -0.05871095 -0.3749964 -0.1355696 -0.0768737 0.472066 -0.5993 -0.4456443 -0.2329137 -0.1309063 -0.2532073 -0.1911881 0.3604082 0.07970665 -0.5381803 0.2028473 -0.2073257 -0.1682845 0.04590745 -0.2750089 -0.5258849 0.09056628 -0.09472145 0.3954336 -0.05977972 -0.0730598 0.1516003 -0.1903296 -0.1499816 -0.139565 -0.4669001 0.3661424 -0.1678938 0.1108765 0.04067303 -0.06086918 -0.3553753 -0.5318692 0.1212498 -0.208062 0.145237 0.2050529 0.2190704 -0.08828864 0.04312939 0.4990666 -0.06949878 -0.2686469 0.08640024 -0.06017279 0.1146588 -0.03324118 0.0266225 -0.04782429 -0.1048323 -0.1760481 0.01172443 -0.2268033 -0.08538876 -0.01322771 0.06215872 -0.1245293 -0.3007228 -0.1361328 -0.1003867 -0.08272558 0.3486087 -0.2375192 -0.04317231 -0.2751324 0.03896677 -0.009286835 -0.09889767 0.1688842 0.2401793 0.010382 0.009470958 
  -0.02504403 0.06429751 0.1896007 -0.05980838 -0.4534754 -0.08742993 0.1283888 0.3558484 -0.06223548 0.1026054 0.2335801 -0.2339257 -0.2856044 0.201672 -0.3493809 -0.1425068 0.02785516 0.3290403 -0.1558279 -0.04988959 0.05964227 0.2020803 0.1550558 0.1150299 0.414912 -0.3286225 -0.0754913 -0.1670046 -0.1776345 -0.1074197 0.08953172 0.032686 -0.1294619 -0.1465491 -0.002405953 0.1373473 0.2887392 -0.09348952 -0.03956392 0.1107607 0.3598285 0.1000339 -0.1932316 0.01785436 -0.6402684 -0.4383088 -0.1867159 0.3639824 0.2445931 0.09108892 -0.3008237 0.007643096 0.0222474 -0.2787675 0.2202569 -0.3856713 0.05584136 0.118711 -0.8295912 0.2235529 -0.1313166 -0.06313144 -0.06377492 -0.1333706 0.08549526 -0.1673562 0.3334882 0.08602316 0.07164308 0.06248925 0.6841577 0.3998408 -0.2168066 -0.2156386 -0.2318978 0.179202 0.2537392 -0.322722 0.01523931 0.2098815 0.1212746 -0.03811874 0.2365864 0.1156827 0.1895087 -0.274406 -0.8030449 0.2907265 0.3399101 0.04451199 -0.01077099 0.1489565 -0.02063665 0.01732912 -0.0315933 -0.9024811 0.1762231 -0.02099678 -0.1335994 -0.07148003 -0.1524387 0.08532099 -0.8279842 -0.2299424 0.03828872 -0.01669806 -0.009218208 0.1789211 0.1982183 -0.07693391 0.009771227 -0.009463619 0.07012206 -0.1566638 0.01407448 0.2200025 -0.1008341 -0.2300904 0.07828803 -0.8218712 -0.06832623 0.09726831 0.04970329 0.01748933 -0.01083479 0.301358 -0.03733381 -0.1449015 0.06825873 -0.0254409 -0.05898532 0.0696989 -0.05668255 -0.2260077 -0.2804431 -0.1847152 -0.6383248 0.2908411 0.1161722 0.01837584 0.06785458 -0.2488071 -0.01505926 0.2922127 0.1126216 0.06408543 0.1358081 -0.03041405 -0.1755096 -0.07653826 -0.2678075 0.1239229 -0.2147176 -0.2278513 -0.07471684 0.1233453 -0.07288455 -0.09354345 0.1001044 0.08513972 0.405069 -0.19185 0.1146423 0.206572 -0.4099413 -0.08461348 -0.06844924 -0.2820171 0.0304844 0.5816011 1.03771 0.2011344 -0.179188 -0.3521016 0.02414671 -0.07047527 0.4005654 0.04640041 -0.001276624 0.0217095 0.159501 -0.3019189 0.1085766 0.01503577 -0.04566538 0.1127332 -0.3509249 -0.01183016 0.1820421 -0.2759111 0.003739898 -0.1077527 -0.1128099 0.07604665 -0.04502315 0.1837108 0.1252449 -0.04586481 0.1127743 0.03390421 -0.1267754 0.2865806 0.1576454 -0.1182166 0.1460168 -0.2012174 -0.2059499 -0.5722914 -0.08575734 0.2185492 -0.1650614 0.6103235 -0.1175851 -0.1376937 0.0766223 -0.162478 0.02629186 -0.2326505 -0.1135799 -0.005534605 -0.2976615 -0.08814947 0.1327803 -0.2816513 0.1288166 -0.5685036 0.01130176 0.3647638 0.2705078 -0.5265923 -0.06671739 -0.1562246 -0.2605613 -0.3603409 0.4999705 0.02183289 -0.4852446 -0.4692121 -0.1378332 -0.4049096 -0.1168038 0.03553138 -0.2610901 0.3695328 -0.1848324 -0.1509386 -0.008555572 0.2385264 0.07698835 -0.2350893 -0.2341108 -0.003304532 0.256552 0.1192133 0.2340511 0.08945965 
  -0.1982997 -0.2595519 -0.02338689 -0.07840338 -0.1848815 0.05992968 -0.2758348 -0.03907951 0.1148844 -0.1884252 -0.2335525 0.02699752 0.0532834 -0.3880394 -0.1025447 0.1383449 0.1860181 -0.2226091 0.0270945 -0.621265 0.2927625 0.2020406 0.2244871 -0.08360521 0.07890491 -0.0936278 -0.2233884 -0.1313487 0.06462414 0.0536864 -0.004713784 -0.3123415 0.3750285 -0.5172171 0.1235913 -0.1108058 -0.03470115 -0.4960711 0.276001 -0.1302612 -0.4167039 -0.6238427 -0.2439298 -0.5750458 0.5185322 0.1300513 -0.04792331 -0.1528154 0.1797508 -0.3976201 -0.1369338 -0.0797129 -0.1992777 0.3307975 -0.1271375 -0.2582672 0.01749351 0.03320881 0.07085727 -0.157649 -0.01324649 0.003117945 -0.1138872 -0.09323543 -0.2541702 -0.001067264 -0.1211529 -0.1031416 0.3483129 0.2432213 0.2409387 0.06149378 -0.6026856 0.05934789 0.4469802 -0.2488146 0.7393271 -0.2752764 0.3125431 0.4143935 -0.1006689 0.001553532 -0.1076304 -0.3513591 -0.05309641 0.2076593 -0.3320189 0.0007938591 0.4805009 0.1029106 0.130818 -0.5115544 0.1814859 -0.1933832 -0.05114606 0.3043858 0.4294581 0.400865 -0.3751721 0.2393974 -0.1612175 -0.2348438 -0.2436188 -0.02774242 0.06139921 -0.07741123 -0.3852025 0.0853162 -0.1133319 -0.2537419 0.2099186 0.1537068 -0.5019999 0.2837066 0.1944207 -0.3680446 -0.04423605 0.1265957 -0.0147647 0.13907 -0.3234264 -0.1801904 -0.08294579 -0.09944877 -0.03805499 0.2621654 -0.2801253 0.1424526 0.3675469 -0.1842676 -0.09547205 -0.3397064 0.3336067 0.2366658 0.07311395 -0.05661742 -0.07916298 0.1670404 -0.08749379 -0.2068852 -0.2540618 -0.4656085 0.1171334 -0.04940703 -0.3180041 0.009661705 -0.09188443 -0.02595675 0.02385315 0.1595732 -0.01174845 -0.172212 -0.1279639 0.2671075 -0.3306133 -0.504323 -0.4201707 0.05461909 -0.1389381 -0.1466841 -0.1997345 -0.2065403 -0.00299011 0.1077022 0.0977566 0.04251579 -0.02605682 -0.2998861 -0.4046504 -0.1775625 0.07548399 -0.1093198 -0.1846942 -0.02762507 0.1115603 0.2218648 -0.04489104 -0.1606574 -0.03543701 -0.114402 0.1676879 -0.2211611 -0.05784159 0.3938772 -0.1202886 -0.2841479 0.05358373 -0.2316188 -0.334968 -0.07928868 0.02454019 0.615216 0.3298466 0.5718113 -0.0567372 -0.08052166 -0.0801084 -0.2677174 -0.1228134 -0.03532479 0.1822814 0.2339856 -0.1800569 0.7573974 -0.4531862 -0.1306925 -0.0877526 0.04659446 -0.2405293 -0.03533525 -0.6043448 0.08314531 0.1567066 -0.2214929 0.1409903 -0.1072604 0.07481714 0.8201526 -0.1991124 0.1337882 -0.141308 -0.1944605 -5.738016e-05 -0.1068361 0.4878395 -0.08655797 0.08069748 -0.2010846 -0.02410844 -0.1986914 -0.01954546 -0.04527058 -0.2623485 0.1075093 -0.1358058 0.1116295 -0.7644899 -0.09022991 -0.2203469 0.07540131 0.07932255 0.3891522 -0.1754699 -0.0708679 -0.02417444 -0.1253699 0.01702807 -0.008508596 -0.4555636 0.1562056 -0.1521929 -0.09745011 -0.4206139 -0.06831964 -0.1335857 -0.05267638 
  -0.1374712 -0.3175855 -0.2207129 0.2368585 0.1073449 -0.1035926 -0.01546475 -0.1716352 -0.1608889 0.2262723 0.04979882 -0.2478397 -0.08026502 -0.118628 0.228367 -0.03666031 0.03542072 -0.02521421 -0.01339213 0.3606766 0.01474658 -0.1506874 0.0206492 -0.02118264 -0.1884171 0.004639111 -0.07297165 0.1797941 0.09712859 -0.0416155 0.04492673 0.1242158 -0.0105611 -0.1705348 0.1986293 -0.0445592 -0.1681751 -0.2410956 0.1213419 0.07941328 0.1086676 -0.04648694 -0.004376947 -0.040863 -0.2628593 -0.05315779 0.4017856 -0.2788197 0.1028401 -0.1173747 0.6398079 -0.03645355 0.2897396 -0.0275419 -0.1721206 -0.03833783 0.2849208 0.1673194 0.04324401 0.07671853 0.9037908 0.2300229 -0.00976356 0.09654565 -0.1570019 0.03062969 -0.1856002 -0.238038 0.06753887 -0.0823383 0.09915362 0.1161209 -0.2093851 0.2221732 -0.07105783 -0.001340286 -0.103314 0.1315178 0.03571828 -0.09843616 -0.2400062 -0.04383497 -0.1198661 -0.3550146 0.02842693 0.1560327 0.1822416 -0.08491464 0.08707507 -0.1160682 0.1777885 -0.07334871 0.05700447 0.131822 0.04607733 -0.1095988 0.1074037 0.09150161 0.07514161 -0.1292186 -0.1718122 -0.2475401 -0.3974514 -0.09355678 0.1123156 -0.06808526 -0.04589706 -0.4557528 0.01638911 -0.1929641 0.1521932 0.001393463 0.04067333 0.05321043 -0.03385086 0.2953268 -0.1163916 -0.3035779 0.2787125 0.1156356 0.05053445 -0.05305707 0.1495935 -0.01412098 0.01297604 0.04600329 0.1471311 0.03365438 0.04391276 -0.3010344 0.08707682 0.007690428 0.0192508 -0.02092963 0.3654229 -0.02871797 0.02322624 -0.05267825 0.241047 0.05533415 0.05307116 -0.08273607 -0.1990634 0.01430354 0.1452976 -0.03155809 0.04097502 0.202165 -0.05271727 -0.2864367 -0.1023659 -0.006291207 0.09200799 0.1316855 -0.05161291 -0.1595711 -0.1246313 -0.03877512 -0.2693611 -0.1652443 0.01223216 -0.0152571 0.01973354 -0.04225378 0.2040832 -0.03896117 0.001321992 0.1025606 -0.09787989 0.1294013 -0.1240315 -0.3034787 0.2853791 -0.2696851 0.1946992 -0.04168388 -0.455871 -0.097994 0.0329985 0.371266 0.08057805 -0.1858627 0.007661541 -0.2792892 -0.0644087 -0.005085114 -0.2609927 0.004549657 -0.2343581 0.01121539 -0.05968521 0.01283754 0.1898824 0.007624805 -0.1004336 0.05086483 -0.01445114 0.0008580349 -0.08411695 -0.3126527 -0.1196736 -0.1599949 0.05484678 0.007171869 -0.08490012 0.09894425 0.1817945 -0.03292883 -0.04244178 0.2020296 0.1188518 0.1070772 -0.02358714 -0.0878769 -0.0555911 -0.03072389 -0.2355048 0.002700231 -0.08139893 0.05519073 0.06077214 -0.1116925 -0.09094071 -0.06652915 -0.2720748 0.2207471 0.1610963 0.06198983 -0.1261974 -0.1835802 0.1143877 0.1919342 0.2434094 0.3148428 0.02241282 0.2803311 0.383762 0.303227 0.03444458 0.01841761 0.1353678 0.02874551 -0.08250231 -0.09810563 -0.1190238 0.1015179 -0.2500123 0.0452839 0.1046916 0.3809604 -0.05041362 -0.0324033 0.1654993 0.07891468 0.2734587 -0.031174 
  -0.06207256 0.1256503 -0.1554215 0.07218554 -0.2093664 -0.03598985 0.1705538 0.04111567 0.06483381 0.2938316 0.2119592 -0.4685209 -0.1887068 -0.1437175 0.03410616 0.2790756 0.07121867 -0.4932326 -0.2451525 0.5458653 -0.1654374 -0.4909498 0.2409358 0.1826544 -0.05106802 0.3481499 -0.2417809 -0.1309816 -0.4189336 0.1993401 0.05795366 0.172607 -0.2875057 0.1815584 0.1469259 0.01985827 0.0489961 -0.4486111 0.4332675 0.0747785 0.2423887 0.01685505 -0.1176972 -0.1709894 -0.2725728 0.01538923 -0.006833848 -0.595305 -0.2359091 0.06236102 0.02141229 -0.05292469 -0.06023563 0.7936684 0.2338158 0.1971197 -0.06351095 -0.06804001 0.06500021 -0.1394678 0.09464598 -0.2560107 0.1941136 -0.3392422 -0.2307956 -0.1305165 -0.2886269 -0.1719031 -0.1063134 -0.2553334 -0.4549248 0.4184807 0.2968034 -0.3601178 -0.361084 -0.1479867 -0.4239102 -0.004370372 -0.1049569 0.20072 0.06352136 -0.0693067 -0.001544358 0.4259341 0.2961787 -0.01212298 -0.08670414 -0.2147327 0.1001139 -0.09124973 0.1284229 -0.2870721 0.1891066 0.6689406 -0.3016881 0.2305204 0.03653831 0.003825198 -0.003427119 0.5946576 0.2801194 -0.4371296 -0.3679167 0.1436636 0.1607561 -0.006922003 0.2001703 -0.1978475 0.2221462 0.4624347 0.04356238 -0.06018409 -0.2009514 0.5659543 0.005088036 -0.1132069 -0.4690518 0.2282979 -0.1540984 0.033176 -0.1713497 -0.04073425 0.3464984 -0.1272278 -0.1836964 -0.06782223 -0.4376696 0.1808912 0.02034394 0.7057564 0.04236935 -0.019804 0.2299639 -0.02658604 -0.1348607 0.3152615 -0.1634131 -0.1500523 -0.3495916 0.2627866 -0.08695365 -0.4489243 0.04487988 -0.07616162 0.2721499 -0.01000761 0.3951552 -0.1418777 -0.1250329 0.2840424 0.8646606 0.4711013 -0.3429238 0.01132783 -0.255975 -0.09151079 -0.2412272 -0.1770654 -0.02811778 0.3684304 -0.268815 -0.09094682 -0.1445355 -0.1296344 0.3014476 -0.1921376 -0.08415466 0.1080352 -0.1052224 -1.148141 -0.06861356 -0.1817185 -0.2277092 -0.05128863 0.3910519 -0.04805798 -0.233325 -0.1405397 -0.2332061 0.02096312 -0.286876 -0.1231527 0.2529521 0.02117985 0.09227175 0.2994058 0.2437779 -0.05594898 0.1809434 -0.4070069 0.1557337 -0.4848066 0.09977354 0.1698178 0.1931227 -0.108411 0.06937642 0.08043589 -0.07644129 -0.4788571 0.09120449 -0.240753 0.1596064 -0.05435501 -0.3124314 0.07864852 0.2846456 -0.1629864 -0.01640965 -0.3628804 0.1689502 -0.5357971 -0.04531052 -0.2148925 0.04862079 0.1242249 0.4765484 -0.002628038 0.1417994 0.1486204 0.2565661 0.08859064 -0.07190268 0.08347778 0.1337387 -0.3898664 0.008126441 -0.5756506 0.2962437 -0.3291253 -0.1603937 -0.006506243 -0.07111666 0.3637443 -0.2246641 0.05794 0.2082271 -0.309697 -0.1278192 -0.4341447 -0.1949481 -0.1026404 0.06061428 -0.157122 -0.07890315 -0.06197927 0.2704119 0.01100532 0.09447975 0.05861935 -0.044524 0.00107806 0.2545803 0.004850499 -0.1771356 -0.02242184 
  0.07156291 -0.1603568 0.004810341 -0.0425149 0.09205943 -0.3268224 -0.09886133 -0.1325565 0.003133768 -0.2367786 -0.1590588 -0.187287 -0.003222184 0.08736667 -0.3191283 -0.01272774 -0.1748521 -0.07295313 -0.0270017 0.006995704 0.324872 -0.2445677 0.0920676 -0.2312443 -0.2310457 0.01386427 0.1607113 0.1555275 -0.1738754 -0.01958736 0.2140624 0.4062046 -0.2487192 0.0847406 0.2123361 0.04861975 0.08653446 0.185991 -0.3217889 -0.1620817 0.3254131 -0.1460646 -0.05552239 0.04429059 -0.04106173 0.3887995 0.2265178 0.1416803 -0.1332441 -0.08432272 0.2493163 -0.09938585 -0.3836188 0.3123026 -0.5237412 0.1731675 -0.1690146 0.1395417 0.05506818 -0.07391357 -0.3972017 0.05027318 0.05520169 -0.000863625 -0.01490035 0.1166793 0.3398497 0.3227814 -0.04433815 -0.07978434 0.006529089 0.03832175 0.225555 -0.04853701 -0.4031727 0.0462446 -0.09049354 0.30403 0.4625456 0.3185427 0.202911 0.1354276 -0.2207101 0.1997579 -0.2109409 -0.2583035 0.1256646 -0.03381418 0.0716093 0.09580891 0.1095375 -0.06308495 0.04300473 -0.1545446 0.03180085 0.05104014 -0.2456961 0.1219288 -0.1725244 0.01285813 0.3326155 -0.2585014 0.07193999 0.2595993 -0.08172831 -0.0387038 -0.2719197 -0.13025 0.05638372 0.161144 0.4531927 0.1188136 -0.2494896 0.1451208 0.1858206 -0.05155643 0.2392229 0.2883744 -0.06342311 0.3016282 -0.2673268 0.01091163 -0.197985 -0.04715985 -0.261214 -0.0728955 -0.002972521 -0.05889994 0.2467728 0.01323985 -0.2409667 -0.006036734 0.1747196 0.1395683 -0.1425574 -0.124622 -0.1351038 0.3394021 0.03304705 -0.1008723 -0.1498251 0.7579728 0.1960921 0.3166181 -0.1968201 -0.1427795 -0.01588908 -0.04009951 0.05892646 -0.1206054 -0.04614634 0.1639761 -0.3663261 0.1409757 -0.2751336 -0.08202448 0.09602728 -0.2131798 -0.153487 -0.003069458 0.0001868639 -0.03912019 0.04916529 0.07919594 -0.1448715 -0.1847871 0.06051239 0.1304569 -0.1676015 0.1461467 0.06463329 0.1859908 0.04210995 0.06570577 -0.1611596 -0.1601029 -0.2733225 0.08665979 0.1573631 -0.2650619 0.06400273 -0.3613069 -0.04246165 -0.1590915 0.2046216 0.2698974 -0.3122933 -0.169356 0.4138655 -0.18583 0.1249931 0.2947667 -0.1813765 -0.3477166 -0.1768254 -0.02976069 0.1645642 0.07674573 0.001485913 -0.316104 0.08259143 -0.008111707 -0.2603013 0.003841537 0.1010242 -0.1712928 0.2844845 0.0830683 0.007795386 0.1303766 -0.1557968 0.189096 -0.1742824 0.1760777 0.04185934 0.008889478 0.04543994 -0.1609702 -0.06651121 -0.07797688 -0.3558071 -0.3084297 -0.05064414 0.01543202 0.3595535 0.23022 -0.1261176 -0.1733424 0.001058585 -0.08482278 -0.2494937 -0.2179002 -0.2610941 -0.2151996 -0.06905101 -0.1479366 0.04145732 -0.2017747 -0.06646016 0.01722366 -0.01994688 0.2730744 0.3508184 -0.08844174 0.2531533 0.1857935 -0.1236936 0.06450371 -0.1324405 -0.151257 0.09710373 0.08519967 -0.2276236 0.1683386 -0.1271994 0.2899566 
  -0.206432 -0.1083272 -0.2688672 0.2169158 -0.1523932 0.2340336 -0.4788758 -0.2024994 -0.135191 0.08852848 -0.06589819 -0.05599084 -0.2868955 -0.4399888 -0.1479346 0.1630221 -0.2122707 0.2195311 0.08112518 0.05863399 0.01569485 0.1999763 0.1623832 -0.1282001 -0.2682199 -0.437102 0.04427951 -0.07901862 -0.121829 -0.2579789 -0.252797 -0.02178344 0.02691848 0.05066857 -0.08621787 -0.1287928 -0.1414622 -0.3189783 0.1005238 -0.3392283 0.06723543 -0.1236634 -0.007933205 0.02684945 0.3879999 -0.06179728 0.02049224 0.02434674 -0.2018405 -0.2180283 -0.5215089 0.3130856 0.0769425 -0.131074 -0.149994 0.676341 0.2375267 0.006901535 0.004969492 0.2390457 0.04787884 -0.0783959 -0.1680211 -0.1303553 -0.1436494 -0.009732372 0.2690518 0.3325053 -0.3426175 0.2453482 -0.02534401 0.4436643 -0.3085558 -0.3126557 0.2535338 -0.3728169 0.02494815 0.1147024 0.02070771 0.1233279 0.4379852 -0.09386288 0.07265562 -0.5325717 0.1689228 0.01744345 -0.2559381 0.2211782 -0.5436091 -0.02734073 -0.06793893 -0.07546412 -0.04823647 -0.09614351 0.1689931 -0.2651141 -0.07322509 -0.1127412 -0.0008572137 0.515545 0.06658565 0.1587728 -0.05441552 0.09556898 0.05805284 -0.01188177 -0.09927956 -0.1602251 0.3686291 0.01149941 -0.08300394 -0.006129224 -0.2506242 0.02867824 -0.2274467 0.1402062 0.3219115 0.1104604 0.2250228 0.008911759 -0.2412717 -0.01031273 0.1947991 0.2424193 0.05776777 -0.1103801 -0.1144992 -0.2039864 -0.02609856 -0.7702658 -0.03651566 -0.07497488 0.2270674 -0.6515175 -0.1154256 -0.2019393 0.178313 -0.0115941 -0.2029621 -0.3451606 -0.1901883 -0.07821907 0.01324421 -0.01867141 0.04157161 0.1379504 0.152201 0.02347014 -0.01677378 -0.1654325 -0.2487835 -0.2115986 0.2514666 0.2684073 0.05311092 0.04896985 0.1756521 -0.2973397 0.07587127 0.2967961 -0.137316 -0.3034939 -0.4140614 0.1266016 -0.2202809 0.1217346 0.1987465 -0.05614291 0.004539642 0.09970037 -0.5319642 0.2124838 -0.1502623 0.3620734 -0.2210882 0.2002409 0.05178713 -0.000826527 -0.2312643 -0.1800724 -0.2600919 0.2298702 0.1386939 0.1027419 0.1850298 -0.04718558 0.3045684 -0.2864466 0.1166736 -0.2319138 0.2546358 0.8560258 0.1345463 0.07154252 0.1696399 0.3168443 -0.4422384 0.2124401 -0.1977328 -0.1478174 -0.07843572 -0.1748692 0.08572291 0.154958 0.1462945 0.2935629 -0.2672893 -0.5301418 0.1160296 0.05578299 0.06737273 -0.04231187 0.1470637 -0.09066584 -0.2884385 -0.1393952 -0.0001272384 -0.2840892 0.02611871 0.05511486 -0.04328036 0.5123898 0.4279035 -0.2872418 0.1232666 -0.2085027 0.2208991 -0.02233329 -0.08219213 0.330582 -0.01093836 -0.1138887 -0.02564613 -0.4838314 0.164229 0.04067862 -0.1776116 -0.2724522 0.1365143 -0.3836874 -0.370775 0.05240923 0.06585359 -0.2658203 -0.2757716 0.06410365 0.05918 0.4332549 -0.2412215 -0.1101593 -0.1498979 0.1292674 -0.3486671 0.4785001 0.001444105 -0.01051456 
  -0.06300268 -0.1883387 0.3333851 -0.4441565 -0.1933209 0.02405666 -0.1430365 -0.1382188 0.1284199 -0.02810317 0.2689836 -0.001739903 -0.2318462 0.148605 0.100032 -0.01872527 -0.009753285 0.4577517 -0.2221778 0.01933932 0.009360334 0.3451884 0.01673952 -0.1698468 0.2516712 -0.5064886 -0.07778242 -0.2709006 -0.6436937 -0.3201345 0.09198052 -0.002107233 -0.5671356 -0.05959851 -0.01604945 0.1568371 0.248789 0.02826418 0.174459 -0.2197334 0.2299742 0.0858963 -0.5981784 -0.2380267 -0.4582317 -0.5120767 0.04883828 0.1194807 -0.03981408 0.1486063 -0.01854252 -0.0646878 0.1271991 -0.2942436 -0.3066696 -0.3107279 -0.2233787 0.1869512 0.1166471 0.05083142 0.2474081 0.0171091 -0.3061811 0.1081205 -0.06622279 -0.07447589 0.7552627 0.0007782744 0.08911552 -0.01826186 0.4028735 0.05045173 -0.2672714 -0.3924786 0.1373934 -0.06057624 -0.2207876 0.1460195 -0.002010804 0.296736 -0.2418655 0.1440289 0.08557563 0.05107195 -0.1447952 -0.3495274 -0.3320462 0.1134496 0.1786167 -0.03649487 -0.05167222 0.08418448 -0.07113993 -0.08624469 -0.1506603 -0.5106031 0.1520872 0.105588 0.1361232 -0.4611688 0.3730113 -0.222241 -0.4983795 -0.1481904 0.05725453 -0.1097805 0.2827258 0.1762419 0.2585458 0.2716369 0.01233109 -0.1918885 0.03324157 0.475029 0.2613746 -0.2294178 -0.3226556 0.2739845 0.1949851 -0.7200879 0.006961601 0.1919665 -0.04382363 -0.08457527 -0.3564595 0.1400411 0.3059236 0.2175398 0.08979561 -0.09015846 0.1576691 0.243816 -0.3194534 -0.3456189 -0.1639641 -0.01505027 -0.698319 0.2806425 -0.06209631 -0.1105353 -0.2898883 -0.2358727 -0.02719499 -0.1120293 -0.03098636 -0.2354523 0.1260237 -0.03993672 -0.01887676 -0.2672106 0.3726812 -0.06047938 0.01644678 0.7951347 0.06371818 -0.01906135 0.04064121 -0.04559851 -0.2509434 0.06529458 0.06633267 0.0592357 -0.03711005 0.1045457 -0.005645797 -0.06583355 0.1852843 -0.3378066 0.1415118 0.2938068 0.2379297 0.1356141 -0.1000416 0.2720151 -0.3721688 -0.3938529 0.05837361 -0.01444964 0.5776367 -0.119677 -0.1105598 -0.3799242 -0.0663641 0.2611153 0.008412156 0.003222485 0.1425729 0.09430949 0.1432641 -0.06709683 -0.2850015 -0.1168967 -0.322272 0.0190002 0.02566296 0.3124584 0.2518216 -0.3214132 -0.05434613 0.2471306 -0.1318692 0.02140711 0.04644866 -0.199869 0.5182985 0.5773279 0.02660703 0.1784332 -0.3266655 -0.2085159 -0.1139164 0.2032418 -0.008744517 -0.2583162 -0.09602921 -0.007315114 0.05136734 0.1186511 0.07957614 -0.2606422 -0.4733301 0.1265581 -0.02114062 0.2519007 -0.04296729 -0.4824736 -0.1576956 0.4898812 -0.3233001 -0.3628199 -0.0137061 -0.02008019 0.06143871 -0.1643986 0.3568963 0.04092036 -0.5633535 0.01059274 -0.03258105 0.20809 -0.3634738 -0.1060514 0.02223764 0.05351835 -0.02061234 -0.09985621 0.02731358 0.1965421 -0.116559 0.1364631 0.1250876 0.3167728 -0.4682092 0.05846519 -0.1553118 -0.480618 
  -0.1647047 0.1412594 0.1847176 -0.2269055 -0.05695582 -0.1722166 -0.1640939 -0.2804156 -0.07241329 -0.3759231 -0.02612938 0.4470026 0.1530605 -0.07415581 0.130362 0.07229652 0.2978768 -0.01493223 0.06420843 -1.101405 -0.04907432 0.03896629 0.08880018 0.1668561 -0.1277834 -0.131441 0.2241225 0.03679356 0.2129242 -0.1295512 -0.1623476 0.06969277 0.1371461 0.0351289 0.2533367 -0.09075497 -0.1555893 0.1805721 0.1987859 0.01882433 -0.05178263 -0.08238029 0.356516 0.05936242 0.9268798 -0.1878855 0.08532489 -0.5428813 -0.1623445 0.03860757 0.4569023 0.2055462 0.003849454 0.007546183 0.02422753 0.05480153 -0.02665715 -0.01550694 -0.1768353 -0.1275981 -0.03610938 0.03047127 -0.6560897 -0.3509154 -0.328649 0.1459289 -0.662327 -0.1029758 0.1509676 -0.4810845 0.4858373 0.1138547 0.1978804 -0.07368306 0.2774514 0.2024019 0.2099278 0.0129846 0.00179466 0.2624717 0.049635 -0.1281686 -0.2348402 -0.1467582 0.1081261 0.05463364 0.001359552 -0.2540793 -0.225404 -0.1913456 -0.168157 0.3643421 -0.00657939 -0.05679962 0.1101144 0.5790496 0.3224157 -0.7727998 -0.2828179 -0.4423756 -0.2770355 -0.2569246 0.2702071 -0.2111754 -0.1311738 0.1280436 -0.1253496 -0.07349668 -0.2386162 -0.185481 0.03662592 -0.01861377 0.1755887 0.01380419 -0.2717425 -0.04135294 -0.1079117 0.1724941 -0.09499127 -0.228938 -0.2396763 -0.03834243 -0.2765721 -0.01017015 -0.1195138 -0.5170144 -0.5422083 0.03633715 0.07358233 -0.1392887 0.05734335 -0.1587601 0.1630568 -0.08271986 0.2677805 0.1306431 -0.1279276 -0.1321685 0.1008558 -0.1044535 -0.09671008 -0.1044826 -0.2659659 0.04280666 0.2390238 0.02853233 0.0234248 0.05649488 -0.03160601 0.2513834 -0.4036493 -0.1577479 0.1465709 0.0230052 0.06773081 -0.02229023 -0.3589198 -0.2825039 -0.1508944 -0.208119 -0.4482548 -0.4569314 0.2080306 -0.02692541 -0.2288181 -0.1457213 0.00456758 0.1595122 -0.02786663 0.1247051 0.1005974 -0.1052564 0.03740332 0.200692 0.405798 0.2397783 -0.1437605 -0.1843831 -0.04244402 -0.01162773 -0.1191818 0.3612075 -0.07589914 -0.2991132 -0.0870971 -0.1398123 -0.4233883 -0.2766186 -0.1779198 0.4320138 0.1552875 -0.1792018 0.1083348 0.0155822 0.04451569 -0.2524013 -0.154364 0.2329062 -0.1251093 0.2052361 -0.1068004 -0.08993702 0.05581616 -0.4461653 -0.1637799 0.1433627 0.1279301 -0.1597166 0.1532477 0.02167825 0.2436469 -0.1346856 0.09449001 -0.177166 -0.2906352 0.1128628 -0.3396107 0.06150263 -0.1227012 0.1219197 0.2511172 0.2403409 0.1476107 0.08560687 -0.0571836 -0.171169 0.1866917 0.02661471 -0.3846464 0.2793882 -0.03238969 -0.2059887 -0.1270961 -0.3265485 0.1536078 -0.2141018 0.09871551 0.1237528 0.1466749 -0.156114 0.07837129 0.09242645 -0.09605367 -0.08148202 -0.07620587 -0.02625318 -0.2109602 0.07851373 -0.06118704 -0.1573389 0.2750998 0.01064702 -0.2108631 -0.03492837 0.4910997 -0.09961992 
  -0.08599243 -0.03251779 -0.01656447 0.395307 -0.07775219 -0.00195113 0.03195241 -0.5174525 -0.01221858 0.09035861 0.03642467 -0.1120581 -0.1807209 0.0382632 0.2244442 0.2613689 -0.3980851 0.2790591 -0.00436466 0.05396147 0.08093859 0.1578618 0.04064969 0.1435514 -0.2328251 0.6389336 -0.04080411 -0.08789265 -0.1151537 0.03389196 0.004292135 -0.05916633 -0.3629639 -0.2703292 0.1786499 -0.02773305 0.0478132 -0.6217213 -0.02408344 -0.1192679 -0.1440287 0.1398256 -0.01710499 -0.2863592 0.3011239 -0.03081029 0.07955986 -0.3235402 0.008490962 0.08693274 0.1087852 0.2100643 0.04255162 0.05120967 -0.2151371 -0.03760791 0.03617434 -0.1795602 -0.03734187 -0.08287685 0.0321979 0.187649 0.3789775 0.03568582 -0.3405032 -0.2259455 -0.1578994 -0.06127923 -0.06299181 0.1264486 -0.0459534 -0.1591253 -0.025373 -0.2394703 -0.1366585 -0.03639928 -0.06098837 0.1372764 0.02605746 -0.1255734 -0.05946843 0.124055 0.9212304 -0.21642 -0.07224846 -0.1064043 -0.02872712 -0.1776162 0.3091837 0.02517977 0.3168101 0.02398154 -0.252183 -0.02221122 -0.06326213 0.0923631 -0.07551667 0.06938221 0.09530567 -0.004132687 -0.007250116 0.1948357 0.02648875 0.1509378 -0.1170856 -0.005175142 -0.0645723 -0.1351337 -0.009062561 0.08086007 0.230673 0.1078306 -0.1270963 0.01855381 0.01338707 -0.04937441 -0.3364559 0.06517104 0.04064758 0.03751315 -0.01418695 -0.08752333 0.01922957 0.07685272 -0.06694578 0.1038428 -0.2141583 0.1053406 -0.1332531 -0.04353393 0.2250798 0.08137922 -0.06727696 -0.05952123 0.06657169 0.4318939 -0.1331814 -0.09799764 -0.1598083 -0.7761531 -0.1073606 -0.06913539 0.1105565 -0.1302926 -0.1389295 -0.3565965 0.09181387 -0.1828746 0.004802796 -0.20698 0.08935067 -0.03297811 -0.1991465 0.1727559 0.008817505 -0.2606623 0.2754851 -0.2039131 0.08866234 0.1327872 -0.1406123 -0.9325434 -0.1049853 -0.03412952 -0.06981559 0.2147335 0.1702944 -0.07827523 -0.1168834 -0.2718609 -0.262217 -0.0905796 0.01198851 0.101553 0.2600401 -0.2205451 0.2798547 -0.1093973 0.1742303 0.06847046 -0.5297121 -0.1994349 -0.05955037 -0.145605 -0.1525966 0.2598323 0.24569 0.2123985 0.07434744 0.09038859 -0.06407727 -0.0220472 -0.02884739 -0.05017858 -0.07981456 -0.09138895 0.2958874 0.05275087 0.06763988 -0.1786148 -0.1305448 -0.09202999 -0.03460121 0.1833171 -0.05111946 0.05058201 -0.09692408 -0.122937 -0.006281006 -0.1716941 0.3503444 0.1349103 -0.07004687 -0.2187186 0.2155346 -0.02681857 0.1093099 -0.1538952 0.2027478 0.06038944 0.3448232 0.2096156 0.1267774 -0.1545453 -0.07115788 -0.08873741 -0.1585833 -0.1491037 -0.01131339 -0.09507582 0.1451025 -0.2058959 -0.03835974 0.02350925 -0.3467735 0.3431698 -0.05264635 0.135265 -0.1929611 -0.1449837 0.2997215 -0.06424367 -0.07535904 -0.3577988 -0.04916615 -0.0451511 0.331675 0.5050992 0.08075303 -0.2410593 -0.1133054 0.2807083 -0.1308888 -0.3352013 -0.3153296 0.1061796 
  -0.0267976 0.0510185 -0.07970133 0.003118069 0.2448316 -0.2876309 0.1617639 -0.6501921 0.3548678 -0.1047023 -0.09135904 -0.1043427 -0.0127841 -0.357104 0.12719 -0.1301029 0.2411985 -0.1235553 -0.0364063 -0.03516596 -0.04457537 -0.1530868 -0.09683872 -0.07677018 -0.09377746 -0.3355951 0.3154524 -0.05220095 0.8172156 0.1485558 -0.1890804 0.200376 -0.06101569 -0.2587011 0.04551502 -0.10684 0.005590662 -0.05675494 0.04919763 -0.02098556 -0.05549134 -0.1399115 0.04017117 0.04734716 0.2845075 -0.5941079 -0.04658989 -0.1863996 -0.05454222 0.1999737 0.2880323 -0.04417855 0.07291918 -0.05119838 -0.09856875 -0.176635 0.04235925 0.05813022 -0.273771 0.01105239 -0.0356674 0.1588695 0.005075463 0.1047931 -0.01426177 0.1894763 0.08038719 -0.06170703 -0.2834753 -0.1942542 0.0837362 -0.02783226 0.5058954 -0.2121362 0.09496614 -0.3047976 -0.05245801 0.09495633 -0.08056863 -0.02517739 -0.322645 -0.01752796 -0.5172069 0.1447751 -0.05590227 0.1313186 -0.3653768 -0.0718229 -0.1697458 -0.1044212 0.03853391 0.07759443 0.1739602 -0.5284327 0.002489162 -0.03869796 -0.1821572 -0.01392022 -0.2142893 0.5372903 -0.05413148 -0.07929125 0.3113165 -0.003316365 -0.1624865 0.1287993 -0.159679 0.2136978 -0.09491786 0.0231627 -0.02891575 -0.05406674 0.08076066 -0.1191912 0.125915 0.2286866 -0.2998305 0.03481185 0.1186667 -0.009717151 0.09137075 0.0750315 0.2922589 -0.0724507 -0.08095071 -0.1536934 -0.1316343 -0.2299052 -0.06250171 0.05729158 0.1403299 -0.1544631 0.1577046 0.3749924 0.08076219 -0.09404594 -0.2563139 -0.03109966 -0.1690915 0.177328 0.009175229 -0.153699 -0.1590381 -0.007483826 0.2025997 -0.2421166 -0.08337545 0.04846919 -0.1650883 0.09256569 0.08771592 0.1559696 0.07852563 -0.07192682 0.1071394 -0.17974 0.1627095 0.06281153 0.03223816 0.03880399 0.09314871 -0.4690872 0.004036868 -0.05875356 0.4058208 -0.06206185 -0.1437303 -0.1644886 -0.08166154 0.08241563 -0.4833722 0.03197742 0.1317746 0.132023 0.5393167 -0.05327309 0.02911993 0.0009978742 -0.04633196 0.227689 -0.2985653 -0.2111978 0.1305239 -0.01866877 -0.03190996 0.05891566 0.06937864 0.1108438 0.09620222 -0.08310806 0.07608181 0.1267896 0.08479639 -0.02388058 -0.03876027 0.1276604 0.5815325 0.1583716 -0.1161113 0.5257621 0.01673455 -0.01600399 0.04133216 -0.03622077 -0.02530723 -0.03211366 -0.1448331 -0.3039596 -0.1792279 0.3243036 -0.0681453 0.2061672 -0.09931424 -0.004552704 -0.2462613 0.1581941 -0.1923973 -0.1109574 0.4866525 0.06275094 -0.1129682 -0.4300544 -0.2778634 -0.09302267 -0.09572285 0.1324427 -0.3368274 0.06733029 -0.1232602 0.1747298 -0.02701974 -0.1783924 0.1029998 0.006496228 0.02772473 -0.1659243 -0.1260078 -0.2218455 -0.03750004 -0.1249552 0.118756 -0.003326471 0.006416253 -0.07100207 0.06099142 0.05927119 0.0200518 -0.04170517 -0.05040045 -0.03498624 -0.1307865 -0.1120173 0.1495387 -0.1668768 -0.2476926 -0.05542256 
  0.5411536 0.1101593 -0.2308721 0.6630211 -0.05681831 -0.03945311 -0.3200077 0.2134291 -0.2030495 0.4097056 0.1269244 0.4144999 -0.6017064 -0.2947342 -0.2736471 0.2906249 -0.5388659 -0.2121466 -0.009933502 -0.4042915 1.00292 -0.4182772 0.4344894 0.009919211 -0.2627159 -0.3568241 -0.7028112 0.1917408 -0.03000588 -0.5498652 0.122158 -0.1232857 -0.1979535 0.7379235 0.4883944 0.00318071 -0.06860886 -0.1633899 -0.3872674 -0.3043917 -0.338079 -0.1821301 -0.06955468 0.09210718 0.07547111 -0.1258231 -0.4339989 -0.5558727 -0.2513486 -0.2082462 -0.08628339 0.3068271 -0.1650395 -0.02934718 0.07413445 -0.2987834 0.03054306 -0.1351529 -0.02439345 0.3747531 -0.5362226 -0.1995201 -0.1577896 -0.4179811 -0.08327182 -0.4084937 0.1911912 0.8677492 -0.3472207 0.5702245 0.2907062 -0.0775345 -0.09443359 -0.8241613 -0.739602 -0.4174842 0.3558337 -0.4013754 0.1647739 0.1987047 -0.2936171 1.134027 0.1156499 0.6224532 -0.2938719 0.2514563 -0.3916802 -0.3164446 -0.3093297 0.4240908 -0.09763479 -0.2337544 -0.1163693 0.09825315 -0.3749589 0.1619333 0.08971234 -0.3211788 0.2123228 0.3139839 0.05799714 0.9993156 0.3710711 0.07136928 -0.4040866 0.1226396 0.2391138 0.2167222 0.4465392 0.453257 -0.1572265 0.02741128 1.419856 0.1167592 -0.08685862 0.4607112 0.1760439 0.4996478 -0.731345 0.2057782 -0.09680788 -0.3307967 0.3163765 -0.3751154 0.01202893 -0.4173442 -0.2838601 -0.232726 -0.236034 0.9782471 -0.04823311 -0.2940696 0.2121989 0.4452393 -0.01496738 0.1338842 -0.2905208 -0.3157314 -0.2915788 0.2637222 -0.3930956 0.7931445 -0.2579429 -0.7112816 -0.02769274 -0.4686237 -0.0356378 -0.01956029 0.252018 -0.1790228 -0.3798023 -0.03408976 -0.545163 0.2013979 -0.08207443 -0.2775554 0.05788856 0.9545962 -0.04547536 -0.3742889 0.1966874 -0.4804672 -1.107373 0.03731772 -0.04686692 -0.5858701 -0.696373 0.4326147 -0.1442375 -0.3428752 -0.01400527 -0.1173442 -0.3233544 -0.291858 0.01469341 0.07487044 0.09291245 -0.3654718 0.02765566 -0.1261356 -0.2758709 -0.0006321212 0.2140732 0.1185529 -0.3427621 -0.04689701 -0.06206317 0.2526644 -0.3111598 0.510101 -0.1150442 -0.07762355 0.04488298 0.207423 0.4998543 -0.3797892 -0.2166159 -0.2127077 0.1112788 -0.3612174 0.07164238 0.1258356 -0.1386832 -0.05447433 -0.4193825 -0.09624016 -0.4386884 -0.1499844 -0.3880921 -0.3187061 0.01554914 0.8263037 -0.3807993 -0.3117083 0.5274374 0.07346 -0.2307522 0.1171612 -0.05786189 -0.1445121 0.1350175 -0.05720646 -0.1535086 0.123465 -0.2752995 -0.1810899 -0.1212315 -0.1442364 -0.2412326 0.6283832 -0.9305159 -0.1957802 -0.1495747 -0.3664065 -0.4112661 -0.2297432 0.099545 -0.306017 -0.08643088 -0.2796912 -0.2596074 -0.01871621 -0.03138596 -0.1407248 0.586493 0.430702 0.01464595 -0.09821753 -0.05150041 -0.2868667 0.3416159 -0.4121492 0.3276671 0.6873825 -0.2943648 0.02321999 
  0.2715424 0.03086208 -0.02956098 -0.1917481 0.02402623 -0.101686 -0.3160926 -0.9099503 -0.1986551 1.025064 0.7379255 -0.6638995 -0.1151276 -0.3414544 0.1444129 0.4791037 -0.8503615 -0.4487809 -0.3547697 0.1329848 -0.06338403 0.04262794 0.09662407 -0.4655276 -0.3293401 1.278173 -0.1590458 -0.004546341 0.293659 -0.2073219 0.02324296 -0.04179702 0.2606508 0.04678766 0.2664184 -0.186308 -0.1934845 0.06093538 -0.1991199 -0.3862055 -0.236743 0.0332854 -0.2536165 0.2862342 0.1072639 -0.005169945 0.3163136 -0.6228438 -0.3899455 -0.02920236 0.43403 -0.4050354 0.1198961 -0.2753095 -0.9791383 -0.4960067 -0.3910725 -0.1798371 0.05920594 0.02306952 -0.1421896 -0.1521231 -0.1234659 0.133041 -0.3661073 -0.1775304 -0.128734 -0.4900374 0.3775266 -0.5446865 -0.3203046 -0.1499691 -0.1682346 -0.3073777 -0.1867536 0.409894 -0.2603244 -0.5957716 -0.4990774 -0.2687932 -0.1675757 0.2624292 -0.2229664 -0.02050971 0.1227894 0.01080024 -0.1936499 0.5577969 -0.413283 0.3942648 -0.01544892 0.3583714 -0.9719365 0.1899111 -0.2329583 -0.2455583 0.2684047 0.1055363 0.2558762 -0.1751977 -0.02743881 -0.1485075 0.08638043 -0.3098607 -0.1607661 0.02127502 -0.3865495 0.5168248 0.1116598 0.02837991 0.1243568 -0.00869362 -0.2956077 -0.4125788 -0.2588396 0.6780542 0.07730296 -0.1663189 0.05607225 0.1800456 -0.1379145 0.06948313 -0.03423262 -0.376591 0.03507001 0.3138959 0.1640017 -0.6762808 0.1290867 -0.3707222 -0.2134499 1.026108 -0.2584628 -0.1117859 -0.4264502 0.04887694 -0.3887849 -0.05470493 0.0895747 -0.2956584 -0.167889 0.08613842 0.02431598 0.09036063 -0.138532 -0.2810683 0.1550109 0.05547765 -0.3844925 -0.4061151 0.1828417 0.2241882 -0.9091616 -0.6150858 -0.1892344 -0.4076075 -0.3907651 0.07221722 -0.5528726 -0.05090965 -0.2213747 -0.2169284 -0.02857459 -0.01924107 -0.2705084 0.1179972 -0.01460084 -0.09069988 0.6274859 -0.06546074 -0.1537195 0.04176527 -0.1458266 0.08137176 -0.07065273 0.1489927 0.03270138 -0.04469 -0.02448146 -0.4884264 0.6998617 -0.5054143 -0.1375141 -0.0915215 0.9239959 -0.6642317 -0.06448533 -0.04423391 -0.466675 -0.2952056 -0.5256075 0.2417591 -0.004909775 -0.157411 0.08189702 -0.1537545 0.5436119 -0.08152096 -0.2597211 0.04960779 -0.3071994 0.0129455 0.3719613 0.0385452 0.06965579 0.001912082 -0.1327068 -0.1535878 -0.4786405 -0.8354075 -0.262246 0.1727069 -0.3942226 0.497099 0.200714 0.05295575 -0.7454273 0.1629147 -0.01351555 0.08417807 0.1537588 0.1978449 0.3784993 0.06564617 0.1074651 0.3094614 0.1655 -0.2200893 -0.07222292 -0.2280582 -0.5280282 -0.2508069 -0.3343218 0.08254904 -0.3465925 -0.4215873 0.5900009 -0.459812 -0.9933574 0.1565749 -0.2326924 -0.01318933 -0.06454317 0.5288114 0.01593333 -0.6284968 0.2117819 0.3091846 0.2209647 -0.3516057 -0.6382516 0.5259013 -0.461351 -0.1590388 0.2879128 0.3000073 
  0.1108 0.1301215 0.484511 0.1570838 -0.05036319 -0.1957458 -0.03397647 -0.1094423 0.1463688 -0.09849716 -0.01440242 0.1178913 -0.1558303 0.6457121 -0.2160387 -0.1977266 -0.0587132 0.2674364 -0.0392886 0.1778997 -0.07491135 -0.1018316 0.1200325 -0.06908626 0.1811813 0.2534961 0.1085668 0.1743165 0.05755617 0.1790704 -0.2953815 0.2976833 0.1405136 -0.5654737 0.2151352 -0.1639515 -0.05170289 0.3337686 -0.07948669 0.07619385 0.3924603 0.1718927 -0.1904607 -0.2177403 -0.1579861 -0.1001171 -0.07095005 0.6066785 -0.1426911 0.03197272 -0.3243464 -0.01712104 0.02892445 -0.07910743 -0.1350378 0.03833075 -0.06043239 0.330058 0.2106562 0.1653856 0.04165279 0.119782 0.1832589 -0.2724579 -0.059107 0.1612437 -0.007003394 -0.03866852 -0.0273156 -0.04234075 0.1560082 -0.0665677 -0.1441775 -0.09377098 -0.002025142 0.070858 0.4823484 0.2395345 0.00460345 0.2054355 -0.05320299 0.322797 -0.1521416 -0.2075463 -0.07987881 -0.08160028 0.3027881 0.1957594 0.03673083 0.4960546 0.01238299 -0.1868662 0.02198467 -0.1866161 -0.1094548 -0.07441574 0.1047159 -0.035044 -0.005228898 0.220926 0.03940632 -0.1587357 -0.008047501 0.043901 0.0146324 -0.2781536 0.1503358 -0.6021682 0.1994396 0.07603594 -0.3471359 0.05598368 0.01405141 0.05480618 0.21628 -0.2514663 0.1962437 0.276438 -0.07424486 0.2960894 -0.0486108 0.1822153 -0.2042443 0.04026034 -0.04312983 -0.1642084 -0.0699124 0.3880772 0.03708363 0.02349786 -0.1181424 0.3232812 -0.1243279 0.08480204 -0.01749394 0.0802809 0.2470147 -0.0001705316 0.2077036 0.05247692 -0.06287766 0.2778534 -0.1723361 0.0419468 0.387795 -0.121564 0.1572038 0.2738614 0.2110259 0.2887598 -0.1258661 0.04149198 0.05210341 -0.2035319 -0.157736 -0.1318663 0.030914 -0.3112852 0.3827851 -0.3519875 -0.02117328 0.04653164 -0.1282283 0.1125975 0.03418472 -0.03069173 -0.0005808204 0.02914989 0.3371621 -0.1097348 -0.1550726 -0.2442452 -0.1952787 0.08138984 0.3091404 -0.08132646 -0.241954 -0.2382907 -0.1410314 0.03406848 -0.003200624 0.05325885 0.2737239 -0.1790855 0.3318228 0.2718795 -0.008375173 0.1300425 0.1694864 0.01403219 -0.1841206 0.1875107 -0.3372608 -0.08340056 -0.06299239 0.09229583 0.1469364 0.2902955 -0.0127632 0.1566495 0.02944756 0.1402085 0.19213 -0.08483111 0.1060354 0.04908016 -0.01909816 0.2358021 -0.03080175 -0.2845885 0.3043239 -0.06536873 -0.1150233 -0.296414 0.03945364 0.05476901 0.0513279 0.276839 0.1708625 0.1717687 -0.1088306 -0.1018902 0.04270314 -0.0814506 0.2965432 -0.09445291 -0.01673722 -0.1434853 0.2869706 0.08235558 0.003679111 0.2046717 0.2775276 0.01122609 0.2893238 0.07891731 -0.24363 0.4361272 -0.03922925 -0.008978104 -0.1883909 -0.07327387 -0.08107975 -0.1457417 -0.1068202 0.3099262 -0.125409 0.04108309 0.2774634 -0.006002694 -0.03001683 -0.226329 0.05236988 -0.2023015 -0.1268977 0.04995253 
  -0.00900491 -0.194084 0.008518019 -0.5599716 0.08979645 0.00604522 -0.08361084 0.2347432 0.1683142 0.09264898 -0.02939666 -0.008420099 0.2523337 0.1768278 -0.01473464 0.1455933 0.07039932 0.2147001 -0.04111575 0.02112272 0.04224375 -0.03488248 -0.01593958 0.004003304 0.4175787 -0.5763808 0.1087886 0.02076543 0.106907 -0.2354951 -0.002747809 0.239566 -0.03929113 -0.2236656 -0.07008752 -0.01516897 -0.02819743 -0.2567408 0.06692801 0.2347577 0.1120504 -0.03179882 -0.07750113 0.167675 -0.7219132 0.04901407 -0.06289299 0.5818893 0.1424976 0.1117558 -0.06859161 -0.1387873 0.1263996 0.2501819 0.08790914 -0.4715347 0.002583174 0.04152469 0.1724994 0.04738148 -0.003621504 -0.005308892 -0.2145926 0.3172933 -0.03921695 -0.1643706 0.2593184 -0.05050915 0.05403835 0.0536863 0.08950628 0.1117917 0.06050765 -0.2770454 -0.07030303 -0.2585989 0.03030189 0.348073 -0.3134097 -0.2314629 0.09980962 0.211425 -0.06511168 -0.1653056 0.01517704 -0.2251146 0.1059668 0.2361299 0.1696399 -0.05703185 -0.2703668 -0.2034968 0.234596 0.4345114 0.1688092 -1.074691 -0.08356342 0.2922568 0.3414319 0.5455014 -0.0452674 0.2249777 -0.6177477 -0.3020352 -0.1445869 0.3258256 0.05461153 0.02264319 -0.470678 -0.0536189 -0.03800419 0.04614669 -0.1380453 0.2015493 -0.223896 -0.3808013 -0.1489154 0.1360671 0.01117527 0.5862973 -0.2930229 -0.07184506 -0.1365047 -0.03637018 -0.3285809 0.3724473 0.06925499 0.2941748 0.07258378 -0.246898 0.09662782 0.06284509 -0.1424848 0.1869997 -0.043319 0.1052335 -0.6756532 0.1884887 -0.1346463 -0.2517903 0.09185352 -0.292238 -0.01067246 0.02760842 0.07754841 -0.01366492 0.05992422 -0.1608359 0.2582099 0.06314584 0.3527212 -0.01258578 0.2233344 0.1145487 -0.09877643 0.1644013 0.08818959 -0.2770419 -0.02865046 0.15839 -0.2104084 -0.3063281 0.08169957 -0.0846047 0.07179133 -0.01362415 -0.01284086 0.01954431 0.1877116 -0.152728 -0.6833066 0.02267789 0.01041712 -5.598101e-05 -0.5150371 -0.7242317 -0.05696845 0.3045387 0.03867044 0.1131748 -0.1698826 -0.05560005 0.2879775 -0.1567475 0.09026136 -0.1448782 -0.2609631 0.1043477 0.03946799 0.03855758 -0.2747748 -0.200895 -0.2645114 -0.05470473 -0.01423636 0.1624999 -0.2289687 0.03280636 0.05066467 -0.1564152 -0.02792534 0.3147605 0.1629997 0.06111569 0.2077871 0.2292096 0.09325591 0.2665374 -0.02786726 0.05291235 0.001031692 0.3167561 0.01418489 0.003659321 0.1861769 -0.1491825 0.2783658 -0.1682747 -0.1318777 -0.2505759 -0.1671133 0.02616343 -0.1340907 -0.06824554 -0.01571469 -0.1360531 -0.04199753 0.03521974 -0.09078062 -0.1919834 -0.2798286 0.02028615 -0.08019573 -0.2985569 -0.3657793 -0.2909845 -0.5154778 -0.1356148 -0.1718551 0.1845864 -0.03815179 0.1588116 0.2642756 -0.08798008 -0.1150088 -0.01294227 0.09217207 0.09023342 -0.2296667 0.1640259 -0.1021354 0.04014572 -0.2382471 -0.1549446 -0.2064929 -0.2794147 
  -0.06212926 0.1161003 -0.2409139 -0.002232639 -0.1214228 0.145643 0.05028559 -0.2338465 0.1363075 0.2612851 0.5066972 -0.2581514 -0.08111627 -0.2221079 0.5674962 0.1562901 0.1406702 -0.07386709 -0.0394565 0.245507 -0.1234878 -0.09257887 -0.2306761 0.1284316 -0.08074896 0.3565761 -0.04254073 -0.0637467 -0.1586054 -0.1280244 0.144924 -0.2900763 -0.05753872 -0.0609528 0.1154757 0.01278349 -0.150105 0.2220121 0.2134734 0.04261935 -0.255534 -0.06567771 -0.05144724 -0.06488521 0.01852152 0.06191397 -0.1955469 0.2380825 0.1232608 0.3999736 0.1370693 -0.1229485 0.01280898 -0.2204028 0.2188081 -0.1017117 0.07256062 0.1455466 0.1967407 0.08164313 -0.2588189 0.02793572 -0.1696704 0.0259346 -0.3042791 0.1531441 -0.2629154 -0.1907602 0.02431022 0.2149624 -0.1723743 0.3021841 0.02375995 -0.03044632 0.05462043 -0.1463207 0.1486051 -0.269016 0.08630464 -0.03814401 0.3060941 -0.02317517 -0.3161265 0.02811075 0.09767307 0.03904189 -0.2807593 -0.07580368 0.2324567 0.2829222 0.989282 -0.065446 0.07989106 -0.04353493 0.189033 0.07682189 -0.1446758 0.06722585 0.0888981 -0.002287702 -0.009232144 0.1607044 -0.1123051 -0.2788592 -0.1370143 0.007691355 0.1342461 -0.2199795 0.1441068 -0.2131893 0.1984694 -0.04456081 0.2461345 -0.04620367 -0.1834844 -0.1053836 0.3716908 0.05795871 -0.00985466 0.1123965 0.1847772 -0.1037067 -0.3605952 0.001719542 -0.1197341 0.1899026 0.1232894 -0.2724097 0.02454304 0.2174858 0.004260796 -0.001456686 -0.2392305 -0.04390666 -0.2372099 0.02597275 -0.1373344 -0.08928072 -0.1892433 0.4958842 0.09306693 0.1933021 0.003359075 0.07372251 0.1346467 0.1090802 -0.04333925 -0.04940592 -0.04216133 0.2966046 0.08609504 -0.0104363 0.04683047 -0.04083573 0.08204862 -0.03929671 -0.204818 0.09442163 -0.3985792 0.05907297 -0.2706201 -0.210807 -0.1979894 0.03679448 -0.2434938 -0.1192126 -0.08186992 0.03010107 0.06011429 -0.2527757 -0.12984 -0.1863649 0.09856911 -0.1365301 0.09208429 -0.02156494 0.5735775 0.09170856 -0.04766131 -0.4469327 -0.05885941 -0.1661503 -0.06225222 0.2458251 -0.1155381 -0.04378654 -0.08682151 0.1562619 -0.1702311 -0.4094834 0.01315532 0.04872097 0.006705642 0.03374237 -0.01769032 -0.08010042 -0.2802586 -0.1674346 0.09737003 -0.6232865 0.1464063 0.1227477 -0.06237686 0.1131719 -0.1082675 -0.1591554 -0.01208568 0.1310372 -0.1210971 -0.2868525 -0.06825247 -0.01234556 0.05622882 -0.2715904 -0.1866138 -0.009558069 -0.1007987 -0.07884502 -0.01404477 0.05402987 0.1281591 -0.05200234 0.1018571 -0.03734698 -0.03172468 -0.08289339 -0.2009928 -0.1014695 0.129552 -0.004229928 -0.1367647 -0.1725632 0.09463823 0.1700917 0.04212303 -0.09309647 0.03486283 0.3352905 -0.2224043 0.2477483 0.1972299 -0.02539333 -0.03716258 -0.1606526 0.02140018 -0.2041929 -0.1588366 0.5221657 0.09325837 0.1622498 -0.09178547 0.02102967 0.105555 -0.007360623 0.3883024 0.09780903 
  -0.1705104 -0.0006758784 -0.274622 -0.01650627 -0.1350242 0.4924666 0.2658001 -0.07163909 0.2702205 -0.2012823 0.07231665 -0.1652479 0.3509113 0.1280002 -0.3658657 -0.5930263 0.01656293 0.127105 -0.06319942 0.07036005 0.01143827 -0.1264794 -0.04987321 0.1380645 -0.1129098 0.1792086 -0.2717429 0.2587529 0.047635 0.04747891 -0.1273485 0.4001783 -0.2051371 -0.137386 0.1629995 -0.4179561 -0.1350854 -0.4958158 0.4339601 0.005515706 0.3271349 0.475804 0.04912321 0.04765053 0.04650774 0.02696752 -0.2088353 -0.01279421 0.1159678 -0.1039423 -0.1894338 0.202266 0.2180158 0.01002955 -0.227069 0.2279634 0.1436299 0.1024534 -0.2212955 0.1928934 -0.1478595 0.05002846 -0.07678603 -0.09829273 -0.1325485 0.4536823 0.1575293 -0.03795346 0.06136874 -0.5198798 -0.1039302 0.1542366 0.05996151 0.08860541 -0.4153244 0.01053521 -0.2539544 0.1449844 0.1788329 -0.3042191 0.2257817 0.2857766 -0.1116242 0.1722529 -0.08170458 -0.02029143 0.04129436 -0.2469917 0.3235861 -0.09609172 -0.3848083 -0.04740315 0.5349185 0.005121257 -0.2098477 0.2009575 -0.04519899 0.1075075 -0.1381714 0.06559487 -0.239343 -0.005136167 -0.2653052 0.04317914 0.1525166 -0.01423803 0.04550469 -0.372651 0.02529982 -0.1492558 0.110701 0.2671397 -0.05262506 0.2320088 -0.08185826 0.07134938 -0.1112215 0.1593063 -0.03133938 0.08511821 -0.06308272 -0.1173856 -0.1562021 -0.01684662 -0.1298911 0.121566 0.07150361 0.2605333 0.198151 0.08678762 -0.01144311 -0.03370428 -0.0594673 -0.2688469 0.04442254 -0.1305133 0.1025829 0.2765566 0.08875387 0.3439352 -0.1769882 -0.09203972 -0.1319054 -0.3846512 -0.2927886 -0.006108258 0.2044385 -0.08402213 0.2519422 0.2297518 -0.1998671 -0.2262852 -0.1329234 -0.1700917 -0.1047702 -0.1275603 -0.02676516 -0.3121136 -0.265143 -0.1744079 0.9138536 -0.2175625 -0.1517376 -0.06720892 -0.1967376 0.1123151 -0.02445135 -0.1180939 -0.2808104 0.00414105 0.06874433 -0.05407852 0.047883 0.1641209 -0.1152742 -0.03132715 -0.2042083 0.0006214628 -0.02475994 -0.1192355 -0.04680471 0.03359288 0.0790026 -0.5074139 0.0626798 0.1186398 -0.343628 0.00204208 0.1130513 -0.005907468 -0.01859088 0.0196672 0.04434116 -0.01988939 0.3274968 0.1612356 0.1087433 -0.04277342 0.1534221 -0.06103813 0.06926861 -0.04908351 -0.08102503 -0.1327876 -0.1227736 0.02032206 0.03423924 0.2454182 0.2357569 -0.357032 0.351027 -0.1367487 0.09568561 -0.1131985 0.03413199 -0.03895162 -0.2928486 -0.1078878 -0.03627071 0.04719295 0.2914855 -0.1020878 0.01542831 0.1121852 0.4576326 -0.05404126 -0.051259 -0.3729195 -0.1135468 -0.2845611 -0.06929477 0.05815677 0.5072727 0.1169041 -0.4909916 -0.1167096 -0.1459242 -0.2536636 0.01589502 0.06979243 0.1890073 0.03844905 0.3400728 0.02979722 0.07597323 -0.02121934 -0.1386462 0.2246761 0.3792737 0.06021842 -0.0229623 -0.0887548 -0.02824423 0.1732858 0.04603116 0.1385344 
  0.07707376 -0.3136963 0.03473574 0.04241557 -0.06558806 -0.03077037 -0.2253753 0.1585436 0.3828365 -0.2815757 -0.4073232 -0.1629076 0.07403611 0.227411 -0.3039456 -0.272497 0.02046264 -0.6245646 0.0121822 0.1718353 0.01217216 -0.166034 0.2072516 0.004698639 -0.07172336 0.5083916 -0.249489 0.2024789 -0.1357717 -0.1477334 0.01706078 -0.1551727 -0.002493519 0.1042883 0.2728929 -0.1748754 0.1038285 -0.4435711 0.1323348 -0.1697656 -0.1346082 0.2559232 0.267172 0.1053378 -0.4693122 -0.0197105 0.1906926 -0.1705062 -0.2258244 -0.01050844 -0.161871 -0.2270382 -0.1215089 -0.3448445 0.06774487 -0.2685768 -0.0356091 -0.04372456 0.01640182 0.02084516 0.07944161 0.2319276 0.04346387 0.06049559 -0.1527766 0.009684655 0.07649764 0.0562858 -0.1278845 -0.07160243 0.0205037 0.3190387 -0.3073354 0.1748987 -0.1332296 0.1731025 0.01880164 -0.00357771 0.0827187 -0.07226431 0.4023533 -0.07848023 -0.05438981 -0.5274279 -0.2829885 -0.03385843 -0.4229774 0.1238447 -0.2925016 0.08156665 0.05147229 -0.1831099 0.2135817 0.7650818 -0.04543726 -0.19957 0.03910185 0.2825095 -0.1699292 -0.01197494 0.3278418 -0.1503465 0.02424618 0.05411064 0.04598918 -0.1186328 -0.2083032 0.564449 -0.2135076 0.2830532 0.02608642 0.09649715 -0.4276863 0.00156956 0.1057156 0.0484881 1.035199 0.04720728 -0.08885673 -0.04015259 0.3389416 -0.01016376 0.161671 0.02276745 -0.6151499 -0.06016761 -0.2549371 0.01121817 0.3358379 0.0153855 -0.01461094 0.07813668 -0.05587669 0.1646234 -0.2757674 -0.08214885 0.2558638 -0.123019 -0.002353053 -0.06004509 0.1096686 0.1694621 0.06557585 0.01598768 -0.02816017 -0.1535524 0.06515557 -0.2307674 0.1576337 -0.1187417 -0.05051569 -0.2295034 0.01815759 0.4187755 0.2211606 -0.1161813 0.2300995 -0.3628963 0.01884785 -0.04695824 -0.1457602 0.01201749 -0.1966525 0.0926737 0.1490057 -0.1018063 -0.1608138 0.02809534 0.03606997 -0.02595821 0.02284535 -0.1403659 -0.4659309 -0.1984078 -0.1609435 -0.09758992 0.1402081 0.1918397 -0.1853063 0.1887742 0.04615358 -0.07923456 -0.04119767 0.00816255 0.2088329 -0.1125504 0.2002436 -0.125752 0.05022439 0.4399219 0.120837 0.1433979 0.07160771 0.06750164 -0.02599999 0.1681421 -0.1259038 -0.08147494 0.07848928 0.6215408 -0.0357757 -0.1441954 0.1470423 -0.2244984 0.2988209 0.1946559 0.07297671 -0.2828199 0.2439129 0.3763272 -0.1598546 -0.09840328 -0.1569892 0.2239842 -0.334102 0.000356908 0.2524802 0.1063847 0.1584898 0.007364955 -0.07545023 -0.2846243 -0.08178557 0.03921911 -0.0193163 0.1837035 0.02635219 0.111645 0.2117776 -0.02210276 0.07099365 -0.04470761 -0.1551587 0.2834094 0.04328437 -0.06725577 0.07914978 0.2252751 0.1567633 -0.1073105 0.04564219 0.2975588 -0.1011343 -0.03547857 0.07845708 -0.111658 -0.08749503 0.04600893 -0.4771913 0.2271866 0.570323 0.03257091 0.1847463 0.2144381 0.07386517 0.02573543 
  -0.1176254 -0.04586312 -0.07446253 -0.3709943 -0.09480632 -0.1478317 0.1679888 -0.2441387 -0.1749452 0.1401218 0.07934265 -0.6893092 -0.381745 -0.1025268 -0.2749373 -0.01055916 0.09698205 0.09887727 0.08647629 -0.2031863 -0.1968908 0.06876127 0.09994221 -0.0217272 0.09419599 -0.2030133 0.1150819 -0.08744764 -0.05675478 0.04322992 -0.06549466 0.1976658 -0.04950428 -0.4309176 -0.06208923 -0.02942834 -0.1719399 0.2578239 -0.006972914 0.1008377 0.3199787 -0.03585756 -0.2626024 0.2584277 -0.8014184 -0.3261289 -0.1586788 0.03528844 -0.1065998 0.01224028 0.04910235 -0.06375313 -0.1330602 0.02098216 0.04142545 -0.03463567 -0.1969262 -0.1050725 0.375869 0.09720145 0.007494858 0.05953376 -0.1555383 0.3714488 0.2311865 -0.1344617 0.04128275 -0.2362017 -0.0507967 0.105217 -0.525628 -0.1629757 -0.1990358 -0.1290015 -0.126741 -0.009029534 -0.03596147 0.1021534 -0.09674211 0.04703717 0.6683295 -0.1147327 0.2608481 0.2060651 0.1364651 -0.16111 0.1364396 0.1732657 0.307622 -0.08113263 -0.054346 -0.1936798 0.1305681 -0.2189412 -0.02934589 -0.7751973 0.01396318 0.3246945 -0.04614971 0.1075369 0.08248617 -0.3866426 -0.7749718 -0.1059578 0.1280392 0.1798581 0.0470424 0.002600812 0.4202903 -0.04849037 0.1299606 -0.06409282 0.007352358 -0.3057178 -0.2954837 -0.1150823 0.2125543 -0.3082908 0.00744494 -0.1686313 -0.06479739 -0.1014841 -0.4092758 -0.04943648 -0.03597911 -0.1269679 0.2418541 0.02951297 0.07687975 -0.3193912 0.04223786 0.2084545 -0.07699814 -0.3228056 -0.225386 -0.2365746 -0.9265801 0.1346143 0.0879831 -0.2880416 -0.2008348 -0.256978 -0.5617674 0.03813054 -0.03587907 -0.2577873 0.0001183429 -0.05799795 -0.03900425 -0.1247708 -0.057243 0.05447852 0.3951235 -0.09559094 -0.1041148 0.1076578 -0.02731431 -0.4442249 -0.1973783 -0.1139901 0.595631 -0.06591165 -0.2012741 0.2131097 -0.1309552 0.04682643 -0.03210127 0.01107172 0.148014 -0.03731853 0.1297017 0.2431193 0.2963073 -0.2023763 -0.5647696 -0.1031027 0.2613412 0.1109754 -0.1592416 0.1375883 0.4097071 -0.4997374 -0.05007156 0.2324718 -0.001120406 0.2648394 0.05981326 0.2551139 0.2629368 -0.5689493 -0.06790289 0.3908966 -0.4507101 -0.01002214 0.04852858 0.07257923 0.1829712 0.04332566 0.01319808 0.2000211 0.1692633 -0.1330352 0.0258013 0.01739656 0.6112909 0.4095808 -0.2437894 0.4422272 -0.002501953 0.06375825 -0.2385487 -0.1482239 -0.004207808 -0.1993867 0.215801 -0.3069837 0.4397599 -0.1229488 -0.1187179 -0.1627368 0.001321427 -0.1399207 -0.1855483 -0.06536157 0.04260321 -0.228388 -0.233442 0.6808525 0.3377393 -0.5148463 0.07695138 -0.005998798 -0.03427667 -0.5508404 1.077294 -0.03135627 -0.6605465 0.08139431 -0.1068238 -0.1017989 -0.2358207 0.06534749 0.02821719 0.2389279 0.1430667 -0.2761101 0.1342397 0.05097469 0.2513663 0.07912482 -0.3069093 -0.1382493 -0.107812 -0.1696006 0.3232833 0.08272029 
  0.1096853 0.3933042 -0.2047481 -0.1698086 -0.1042776 -0.2856456 0.1108063 -0.4262917 0.0340542 -0.001566699 -0.1078702 0.3140979 -0.2830917 0.4013957 -0.7093999 0.06258502 -0.02300053 -0.1208026 -0.3381512 -0.1993226 -0.07926391 0.01861593 0.04934194 -0.1316994 -0.00518387 0.1839198 0.002433545 0.2291897 -0.1179366 -0.0260341 0.04210094 0.08068807 0.1008859 -0.6799049 -0.418584 -0.1163188 0.3128703 0.4025973 -0.1126472 0.2304032 0.4985935 -0.1121626 -0.2516751 -0.3002135 -0.7538512 -0.1366064 -0.02135617 0.1459015 -0.2474872 0.002950509 0.04196404 0.2812104 0.4620362 0.0453443 0.3363642 -0.01976649 1.051281 0.3748049 0.005584308 -0.06616095 0.0668577 0.3798351 -0.3026921 0.2511278 0.4501094 -0.07537777 -0.8802611 -0.07241588 0.0244754 -0.3025078 -0.175355 0.2375875 0.2746626 0.5000743 -0.1330959 -0.1881143 -0.07317024 0.1638379 0.2160826 0.12223 0.1395919 -0.1575645 -0.1992025 -0.4107701 0.1858215 -0.04120398 -0.4144867 0.3601465 0.1131238 0.2444526 -0.1692274 -0.2468089 -0.01277758 -0.04568154 -0.05427401 -0.8733594 0.05442357 -1.487401 0.1956836 0.05981224 0.1949686 -0.3125486 -0.5479765 -0.2144998 -0.1960096 -0.08460343 -0.3961091 0.2693739 0.04946849 -0.2045393 -0.2198069 -0.07479962 -0.2992291 0.08907014 0.02502251 0.03863383 -0.07657671 -0.3534086 -0.2674041 -0.1103995 0.1476667 -0.1950121 -0.1231918 0.002144287 0.1760751 0.06595845 0.2011186 0.1111584 0.3071846 0.3347854 -0.3588441 0.06755894 0.3233795 -0.006692957 -0.01393665 -0.5279905 -0.1821048 0.0311048 0.3788007 0.1680658 0.1423742 -0.06061473 -0.168928 0.2162473 -0.106568 -0.1760051 0.3034925 -0.4139231 0.09872526 -0.02810474 0.4549996 -0.3022872 -0.2528909 -0.1588104 -0.136395 0.08310001 0.07363776 -0.1327547 -0.09836946 -0.3201482 -0.4608358 -0.3313802 0.199303 0.05753693 -0.1727911 0.1478823 0.4932737 -0.4538858 0.1359636 0.4195564 0.0698552 0.07342732 -0.1658179 0.239512 0.2902776 -0.01112167 -0.09325102 0.4974706 -0.05749253 -0.1588671 0.2344016 0.01475017 0.1013006 -0.3204948 -0.3024681 -0.3802768 -0.2774664 -0.02173712 0.06951259 0.4212363 -0.5079033 0.007132627 -0.5377424 0.02116108 -0.0284683 0.8422073 0.08900826 0.172306 -0.1337805 -0.4491652 -0.1399177 -0.2964014 0.08875058 0.267583 0.4405584 -0.09765685 0.04351583 0.0727132 0.04377529 0.1343026 0.1085204 -0.1803537 -0.6437382 0.07159587 -0.3470309 0.1592527 -0.2058682 0.06048235 0.04369828 -0.7920554 -0.591323 0.04909446 -0.2891593 0.04348182 -0.1586959 -0.442777 -0.2510162 0.01487949 -0.006203834 0.05206103 -0.3691361 -0.1039772 0.342096 0.1179679 0.111331 0.3695076 -0.7682372 -0.04777214 0.05158615 0.03031756 -0.08962412 0.2163928 -0.1999554 -0.03111686 0.1238341 -0.004730358 0.05950534 -0.007266416 0.2519191 0.01647229 0.06815791 -0.4428821 -0.08450148 0.1709686 -0.1004734 0.04626821 
  0.935561 -0.2258406 0.08868272 0.7443589 0.1099216 -0.3875397 -0.1295848 0.1504667 -0.2278834 0.06722327 0.7389857 0.7044222 -0.328077 0.3991505 -0.01282184 -0.2755816 -0.1621885 -0.2516815 0.7517551 0.503004 0.9287286 -0.4967161 0.3333886 -0.4243755 0.3180597 -0.2528759 -0.2389593 0.07290995 -0.1070345 0.5655413 0.2466885 0.1576064 0.119307 2.223164 0.4856023 0.2423001 0.4647068 0.418482 0.5158405 -0.3842377 0.2930286 0.4756874 0.1526629 -0.3386286 -0.7430705 -0.2470554 -0.3521768 -0.235908 0.05506873 0.2392427 -0.5492808 0.5069157 0.0882914 -0.1087689 0.05466575 -0.0129468 -0.2486568 0.179335 0.1938476 0.1626295 -0.2829634 -0.06457945 0.2836834 0.09422577 0.2123352 0.1266512 -0.1978615 -0.02760964 0.01725501 -0.1230168 0.2549281 0.4479611 0.150477 -0.09780619 0.3555841 0.2437983 0.0931198 -0.00471945 0.115196 0.316857 0.03087821 0.1536288 -0.5231189 0.3028657 0.7518556 0.8956697 0.4066179 0.08145536 -0.03734119 0.1111959 0.07101613 0.3782258 0.3581657 -0.09424673 -0.5668032 0.3624174 0.1141768 -0.2893088 0.1271253 -0.3256508 0.1009478 1.142787 0.01714979 0.252662 -0.3394329 -0.2104955 -0.1770474 -0.5415603 0.005629249 -0.2544862 -1.095481 -0.1132106 0.8478836 -0.1585881 0.1401747 -0.6171515 0.2656507 0.09995662 0.05812244 -0.0795457 0.130148 0.2440291 -0.0344187 -0.03474719 0.5402794 0.04984063 -0.3314273 0.191545 0.8453907 0.5270374 -0.01960606 0.3131065 0.1771415 -0.000921328 0.1261952 0.4594733 -0.06682133 0.1034308 0.1397989 0.3620906 0.002737161 -0.3347924 -0.1768906 0.3154868 0.2098033 0.04575948 0.5780041 -0.5880795 -0.5505211 -0.1598105 -0.06606735 -0.200325 0.1255877 -0.3727759 -0.006183433 0.2713712 0.3366202 0.2580245 0.2358162 0.0218195 0.1226459 0.07507575 0.4772256 0.05664463 0.09954374 -0.376684 0.1059047 0.1145436 0.394015 -0.2730009 -0.06061874 -0.1246225 -0.3952351 -0.04983349 -0.01454012 -0.1831291 0.1728906 -0.1865177 0.02833031 0.1551047 -0.08277565 -0.3615042 0.2469977 -0.150184 0.141001 -0.3510275 0.8926938 -0.2070547 -0.06549198 -0.5074634 0.6614224 -0.03764181 -0.3346608 0.4126252 0.2889775 0.08797644 -0.2993407 0.4176363 -0.4239439 0.03394505 0.04696315 0.2682577 0.5430081 -0.461653 0.06405225 0.1794412 -0.2454696 0.03442454 -0.5016226 -0.03881293 0.0316669 0.7976648 0.1449642 0.003103878 -1.045494 0.2952481 -0.1896019 0.3981314 0.329795 -0.05385282 0.7730617 -0.213445 -0.264624 -0.2025196 0.1382636 -0.1179943 0.0847137 -0.03022064 -0.5223909 0.1056539 0.02953421 0.4230953 0.259687 -0.1020001 -0.1819873 0.2340666 0.2439922 -0.3687466 -0.1555331 -0.0599166 0.3055404 0.7924594 0.3552305 -0.2859826 -0.2439656 0.3777694 -0.08349013 0.1443444 -0.04438848 0.03207081 0.7663315 0.6402846 0.1470869 -0.6253638 -0.1056223 -0.1264303 
  0.01696369 -0.001111366 -0.215361 0.1681459 0.279506 0.5590028 0.152904 0.2846312 0.01099859 -0.1465643 -0.05326478 -0.1334931 0.2057353 -0.2885328 0.08769237 -0.6677979 0.1494063 -0.1520088 0.1278468 -0.1112898 0.2629429 -0.3142519 0.1072034 0.1253593 -0.5328453 -0.1279218 -0.05983443 -0.08908537 0.00787745 -0.2538233 -0.146832 -0.1498234 -0.1841469 -0.3705774 0.1569153 0.2315199 -0.08197287 0.1132823 0.04337726 -0.04887124 -0.01656102 -0.4801151 0.02891011 -0.2466803 -0.1520524 0.05685556 -0.1701769 -0.2345584 -0.1569261 0.2841051 -0.09236279 -0.01074819 0.107309 -0.007982221 -0.02804918 -0.1241808 0.1530728 -0.1535449 0.1100122 0.1913125 0.0888906 -0.01249101 0.1779213 0.1335176 -0.2835345 0.03558147 0.1436247 -0.2195505 -0.1783259 -0.1261914 0.03686211 0.1988788 -0.167834 -0.2170614 -0.005769167 0.2365943 -0.03600952 -0.1505327 -0.08653247 -0.0289924 0.1534855 -0.02650611 0.1155351 -0.1829207 0.1389189 0.02525955 0.182914 -0.01745673 -0.07074659 -0.2143732 0.07533865 -0.0102884 0.08767639 0.005103165 0.115997 0.1418312 0.1566421 0.1438774 -0.1081684 -0.02213127 0.4383553 -0.1928426 0.04872528 0.004813242 0.02896706 -0.04572289 -0.1232899 0.1100087 -0.09428922 -0.02164914 0.121345 0.3057387 -0.3553416 0.08996332 -0.09191742 -0.07514928 0.2133964 -0.3020775 -0.1054694 0.0432014 0.1819225 0.01617312 0.2308495 -0.2037324 0.4099649 -0.2430994 0.0468112 -0.1237035 -0.002226376 -0.1707034 -0.1261476 0.479975 0.01335846 -0.01948898 0.01011473 0.1183303 -0.05730385 -0.01548473 -0.1081209 -0.0912402 -0.06268456 -0.2083108 0.03654171 0.2135736 0.4660344 0.07216367 0.130526 0.003080911 -0.1610593 0.06228795 -0.1280307 -0.2673815 -0.4918882 -0.1703148 -0.1788289 0.0108039 0.1275754 0.09681835 0.2087587 0.1234797 -0.09368112 -0.3750032 -0.1320024 -0.03265353 0.001819881 0.00646965 0.0579105 -0.1162212 -0.07468162 -0.08516634 -0.01225348 0.04354501 0.01012835 -0.02906747 0.02990164 0.1630379 -0.0605384 0.00363856 -0.0918653 0.1114675 -0.1617492 0.1292807 -0.0395721 0.04153215 0.0737896 0.3112612 -0.1102837 -0.1694447 -0.2114441 -0.03634109 -0.0814477 -0.1482531 0.1516339 -0.2515383 0.1860191 0.2264081 -0.164354 -0.1953126 0.3848549 -0.4586583 0.07035021 -0.1880194 0.4754978 -0.000197718 0.1164344 0.1684611 -0.07222254 -0.173627 0.03926646 0.09846299 -0.3878432 0.03336839 -0.05012829 -0.02365929 0.08892176 0.03419574 -0.0122722 0.08901656 -0.1409934 -0.07328897 0.1055153 0.04809362 -0.0175182 0.01157089 0.2270963 -0.02607029 -0.01671795 0.002615172 -0.2048811 -0.2140081 -0.147038 -0.3493356 -0.2294596 0.3384229 0.02422087 0.02006207 0.1532021 -0.1514842 -0.3508464 -0.0465428 0.03914441 0.03987671 -0.02969573 0.2707764 -0.1208139 -0.1513349 -0.02189516 -0.007374843 -0.1431673 -0.1431203 -0.04409204 -0.03535345 -0.09793177 0.01869845 -0.1755487 0.1287221 
  -0.1776881 0.443336 -0.02358409 0.06928353 0.05266851 -0.1362786 0.01409363 -0.04602385 0.0747603 -0.001160227 -0.2850108 0.1544532 0.01441774 -0.2002015 0.1331666 0.2450643 -0.2314523 0.1189345 -0.2694563 0.03966959 -0.0382868 -0.2308633 -0.08665038 -0.09290532 -0.3587618 -0.01536685 0.01770339 0.002184562 -0.1407388 0.01732311 -0.5470138 -0.1720317 0.01013962 -0.2341426 0.1439668 -0.1103204 -0.223453 0.009140739 0.1827573 -0.1346214 0.06139341 -0.421858 0.02734548 -0.08025523 0.1474448 -0.07133362 -0.1144297 0.04555552 0.07288065 -0.08537763 -0.02978697 0.239323 -0.1233485 0.145362 -0.4480046 0.0574216 0.6315094 -0.09600966 0.05427915 0.3765398 0.03340266 0.2556241 -0.2934021 -0.08902985 -0.1205649 0.03291762 0.2518792 0.2709275 0.5964994 -0.1721888 0.1727086 0.06958903 -0.04109062 -0.3833713 0.1524815 0.04960071 0.03118694 -0.2318043 -0.01140042 0.0155369 -0.07841238 0.01855779 -0.07543595 -0.3135791 -0.1578259 0.1593323 -0.5391691 -0.007495009 0.3173325 0.03389125 -0.1151905 -0.09926109 -0.09379306 -0.07832279 0.2412809 -0.225848 0.07010531 0.01753063 0.1851325 0.2289972 0.01508393 0.2586843 0.2381507 -0.163074 -0.0635026 0.061836 -0.2089261 0.08855321 -0.07630512 -0.1508901 -0.1531217 -0.03381138 -0.5796156 2.460353e-05 -0.07455424 -0.07121634 0.01629066 -0.1385548 -0.00340785 -0.1216226 0.2806072 -0.05576035 0.03310137 0.06323409 -0.4088258 -0.02019503 -0.2134913 0.0303619 -0.1033052 -0.07323086 0.2207079 -0.0008818642 -0.1253539 0.1029207 -0.1176352 0.13086 -0.1712919 0.02721227 -0.09141123 0.0271864 -0.04984852 -0.1568472 -0.02636847 -0.0397146 -0.4199057 -0.004954736 -0.3350861 0.07160601 -0.2617335 0.05627292 -0.01887017 -0.1945078 -0.01270831 0.1879045 0.1526923 -0.09184325 -0.0347982 -0.2076679 -0.2997606 0.04430062 0.3237465 -0.3438267 -0.09404684 0.0730558 0.1126334 -0.02109319 -0.1600514 0.04378274 -0.2611292 0.02859133 -0.0529194 -0.1466361 0.2051195 0.1560461 0.1143641 0.2598643 0.01703753 -0.03745452 0.09707586 0.03271536 -0.07762036 -0.1491463 0.1056806 0.1351831 0.1172765 -0.07809908 -0.2117943 -0.8311099 -0.08134586 -0.08548651 -0.2383318 0.04688725 0.1229769 0.1316673 0.03356335 0.1766334 -0.2311968 -0.1599677 -0.03012422 0.3321226 0.1040093 0.05852918 -0.3361107 0.04961063 -0.2363521 0.01970356 0.01098262 -0.1060319 0.3159156 -0.04085965 0.3569078 -0.234125 -0.0720836 -0.2373804 -0.001202981 0.01704172 -0.0108324 0.08134186 -0.344519 0.003190738 0.186436 -0.388432 -0.06082973 0.07001738 0.09987068 0.110158 -0.1346819 0.01793519 -0.04467845 0.06503091 0.1532937 -0.04701357 0.08502231 0.1027902 0.3131081 -0.140762 -0.07478513 -0.02278911 -0.465492 -0.05275017 -0.1749643 0.1217548 0.0005729849 -0.09331154 -0.01456206 -0.04054589 0.003935513 -0.2229593 -0.5810895 -0.02470938 -0.2851389 -0.3850465 -0.04211763 0.07238717 0.03206767 0.3253308 
  -0.04680867 0.2001575 -0.173503 -0.2351021 0.08660419 -0.02027992 0.04856994 -0.4364192 0.3172592 0.1080706 -0.06939382 0.009340261 0.1674862 0.06735677 0.05779288 0.003136788 -0.2681531 0.07406145 -0.3239599 0.06587069 -0.01533273 -0.1882276 0.2155104 -0.02046156 0.2657963 -0.1062831 0.1586393 0.07201923 0.1468193 0.05446071 0.000245156 -0.2147742 -0.06414507 -0.4291491 -0.03881836 0.07643777 0.2393776 -0.003521273 -0.04581808 0.1631719 -0.2232762 -0.0665893 -0.3746804 -0.2428867 -0.1394985 -0.05951899 -0.1891568 0.01163623 0.06715173 0.009231118 -0.1866436 -0.2089603 0.1247445 -0.1102302 0.1326571 -0.5665873 -0.05949259 0.1818036 0.6635825 0.1386037 -0.2038474 0.2315078 -0.01021312 0.3691067 -0.0689896 0.0009823657 0.2309134 0.1199349 0.2306431 -0.130042 0.4388069 0.06414504 -0.03121578 -0.09301165 -0.09506901 0.2674603 -0.1137178 -0.160505 -0.4923203 -0.1604419 0.4003945 -0.04536531 -0.2831472 0.1968874 0.0443855 -0.07541444 -0.2923566 -0.03829247 -0.05169911 -0.1622627 -0.2669506 0.03467591 0.1353087 -0.001603978 0.213472 -0.8789529 -0.252128 -0.002796652 0.1885878 0.09805264 -0.04670252 -0.1171164 -1.271393 0.1055549 -0.1258767 -0.4510958 -0.3517462 0.2316094 0.4275011 -0.04073483 -0.1619365 0.1172945 -0.157698 -0.3473893 -0.05903506 -0.1273252 0.135789 0.08088881 0.05673077 -0.03422544 0.1067852 0.1833494 0.01146991 -0.1030084 0.5686534 0.2774725 -0.1138383 0.04689083 0.2020988 -0.2251872 0.004049852 0.1808078 -0.08167246 0.4078529 -0.3827744 0.004472413 -0.8617991 0.1351675 0.1884161 0.1652454 -0.2924968 -0.4554225 0.110385 0.3049135 0.1501619 -0.1774055 0.3130077 0.01583594 0.06142547 0.3314761 -0.1776271 0.08539265 -0.350453 -0.3101999 0.1663457 0.3735117 0.09993505 -0.06277201 0.05174715 -0.1907638 -0.1737213 -0.04285847 -0.274994 -0.03487227 -0.04825645 -0.08619721 -0.1019177 -0.1562513 -0.007475573 0.002502264 -0.03921522 0.3230948 -0.2038446 -0.2073765 0.09580576 0.4453515 0.04782367 0.1340557 -0.07766896 0.1413574 -0.04067868 -0.0744056 -0.1155688 0.0005538916 -0.07538407 -0.1693444 -0.1115993 0.176757 -0.1111906 -0.4563921 -0.3292552 0.2040163 -0.8647594 -0.06545521 0.2375239 0.1122899 -0.002146094 0.02961654 -0.07527514 0.2506642 0.006936543 0.2976604 0.1145709 -0.262619 -0.1185474 -0.1013385 -0.1290065 -0.02170437 -0.4786943 -0.1495997 -0.4228376 -0.147797 0.0143135 -0.006593361 -0.1449127 0.006744614 -0.3268428 -0.03688315 0.184269 -0.3118723 -0.5992327 -0.1273835 -0.01970797 0.1391967 0.01117925 -0.2345731 -0.3439527 -0.1918214 0.8172113 0.01929209 0.3210008 0.2284038 -0.08710092 -0.2372927 0.04270322 -0.1331466 -1.294898 0.3617999 -0.1573438 -0.04897969 0.1568101 -0.03644656 0.07204649 0.1004964 0.2092298 0.04586057 -0.1088528 0.1377374 0.2360416 -0.03672079 0.2851996 -0.17501 0.0955205 -0.1353081 0.05308282 0.3617376 
  -0.3261921 0.03139915 -0.004247739 -0.3158574 -0.08636002 0.2036884 0.04512341 -0.3977382 0.00580176 -0.05679535 -0.1811174 -0.47444 0.01902285 -0.141731 -0.3177779 0.1785618 -0.01312518 -0.04684963 0.4575581 0.1637783 -0.01864607 0.2971515 -0.2000264 0.1287904 0.2692266 -0.1539032 0.3700273 0.1601135 -0.0406613 0.0827787 0.8083675 0.003781676 -0.07383474 -0.0746036 0.350307 -0.2062829 -0.1111579 -0.4643356 -0.002640824 0.2624449 0.3345385 0.4477915 0.02083688 -0.2121199 0.2818854 0.004195184 0.05038593 0.01796296 0.0721926 0.1977885 -0.02699213 0.1435535 0.09534547 0.07118185 0.2733133 0.3137752 0.1861172 0.6933272 0.02140341 0.2453074 0.005191061 -0.2772281 0.2908281 -0.1152557 0.1969269 0.06400567 0.3314029 -0.07999036 -0.06617633 -0.2874701 0.0251559 0.3813459 0.07917282 0.09894089 0.007189945 0.1384237 0.1094278 0.02282785 -0.0003623981 0.09920887 -0.3614839 0.263088 0.2384599 0.1734961 0.4498242 -0.1031535 -0.3974935 0.1884721 -0.2015069 0.4286131 0.07209838 -0.02930834 -0.002308728 0.03166325 0.308044 0.3375476 -0.1213617 -0.07043605 -0.1917983 0.1546219 -0.1608872 -0.04844863 -0.08694213 -0.01019781 0.1248246 0.3819542 0.4306375 0.02215223 -0.1316917 -0.0683066 -1.704811 0.1161572 0.3154145 0.05466522 -0.08110261 -0.1551717 -0.1358973 -0.1878305 0.003114518 0.1655523 0.03742765 -0.3814319 -0.1809177 -0.1705156 -0.1298276 0.3353418 0.1616821 0.1186638 0.02441026 0.3713084 0.2626275 -0.09383854 0.09798577 -0.1467622 0.108401 -0.2300491 -0.121472 0.2652413 -0.02121837 -0.02886834 0.1963445 -0.08136747 -0.184585 -0.03573238 -0.3631417 0.01209436 0.029748 -0.5793457 -0.1315404 0.05069736 0.1418344 -0.3140404 0.119163 -0.04623895 0.09871871 -0.1207911 0.04736298 -0.3525932 -0.3334886 0.04709849 -0.200071 -0.09496674 -0.05355349 0.2092094 -0.01111231 0.1241228 0.5815405 -0.004010831 0.06651019 0.04189352 -0.09093307 -0.1180023 0.03910988 -0.04060631 -0.03940083 0.3098484 0.04000446 0.4275946 0.05495541 -0.02644752 -0.2829677 -0.1268296 -0.1883042 0.08964071 -0.2712724 -0.04031503 0.02609921 0.0004603352 0.08161734 -0.101484 0.1200431 -0.1287136 -0.08651903 -0.2197209 -0.06751411 0.2919157 -0.1082017 -0.1318571 -0.3396169 -0.05888524 0.02998986 0.1958346 0.03037634 0.04155654 0.2471371 -0.08466727 0.02287811 0.05465984 0.1362406 0.04132514 -0.1301501 0.2375074 0.2818657 -0.4320399 0.1510224 -0.1800309 -0.1959217 0.01746934 -0.1499187 -0.09865548 0.1436226 -0.06775289 -0.1686825 -0.1758604 0.08101611 -0.1599239 0.1403415 0.1933678 0.1166097 -0.4168781 0.02855458 -0.04794998 0.105395 -0.03589591 0.1454674 -0.3949276 -0.01364225 0.03433157 0.1457011 0.07926261 -0.06771255 0.1239937 0.04678009 -0.04782091 0.01740022 -0.1059361 0.04073855 0.03967385 -0.2058509 0.2330595 0.683301 -0.6234903 0.05408821 -0.2885845 -0.09264956 -0.01766115 
  0.2692473 -0.2363043 -0.01273974 0.5131713 -0.06462897 -0.03330608 0.07033906 0.9767589 -0.137835 0.273562 0.04859206 0.6652012 -0.1178032 -0.3327986 -0.05380717 -0.1584002 -0.248913 0.1146237 0.1814505 -0.258758 0.3462428 -0.07532141 -0.1676253 0.1890873 0.05460349 -0.08782724 -0.1307807 -0.009883304 -0.03482622 -0.01483809 0.1432792 -0.187999 0.03655382 -0.2112741 0.3232343 -0.1234656 0.07342182 -0.2158298 -0.4872569 -0.3805086 0.2119284 -0.05406058 -0.09599391 -0.1889044 0.1429338 0.1272411 -0.01639508 -0.136925 -0.08489855 -0.2531512 0.1543037 0.06094514 0.4394939 -0.01163114 -0.2253426 0.07973865 0.06148726 -0.23093 -0.152121 0.4657322 -0.2250947 -0.276372 0.0384695 -0.1038826 -0.3258729 0.06785133 0.1191768 -0.1288078 0.04442316 -0.2246415 0.01470482 -0.06056248 -0.1157327 0.1221249 -0.2724879 -0.2451276 0.09792319 -0.1837067 -0.003219178 0.02174383 -0.2791813 0.226342 -0.1069888 0.02510474 -0.3987204 0.1581545 0.08332975 -0.1811266 0.08656608 -0.1904685 -0.1089788 0.1453026 -0.3332002 0.08405262 0.1153011 0.01785474 0.3053642 0.1431332 -0.174516 0.116713 0.1774471 0.1555227 0.00629819 -0.1947422 -0.02695551 0.1195159 0.1954834 0.05019474 -0.049853 -0.06535292 0.002623495 -0.3357061 -0.1843851 -0.2797896 0.0150474 0.01482682 0.1125538 -0.5125478 -0.1070754 0.05693437 -0.08878392 0.1191665 -0.05420498 -0.2343491 0.3968798 0.07362528 -0.004335726 0.07769695 0.3120715 -0.1233365 0.1786639 -0.1757434 -0.08649068 -0.06144074 0.1793005 -0.1752383 -0.2731926 -0.4424308 0.6283773 -0.06461657 0.149933 -0.1598762 -0.2766223 -0.3482667 0.1142877 -0.1054395 -0.5805119 0.04025692 -0.1060456 0.09821836 0.07146084 -0.3745466 -0.4277928 -0.05165485 -0.04620824 0.04196848 -0.33097 0.2938694 0.1137168 0.5303887 0.05595375 -0.1238741 0.1687487 0.1629102 0.01631777 -0.1091005 0.009036144 0.3330341 0.09951108 -0.3580516 -0.0007948606 -0.09953976 -0.1215025 0.220762 0.1198873 0.1240162 -0.08458722 -0.3820606 -0.007003345 0.1202002 -0.01716339 0.482294 0.03037829 0.02641783 -0.1250917 0.8426447 0.1404429 -0.1477807 -0.03328504 -0.06428125 0.05715964 -0.01643175 -0.03228345 1.109544 -0.2106159 -0.1120507 -0.1528787 0.03844452 -0.2841622 -0.4352378 -0.05363259 0.08717884 -0.2660376 -0.1546441 0.1516258 -0.04472084 0.05850081 -0.07726777 0.08394465 -0.1537167 -0.2980724 0.4668426 0.09093641 0.09859506 -0.05235134 -0.2861164 -0.5973248 0.0332957 0.04538976 0.1108864 0.2109315 -0.3269312 0.1198229 0.09960899 -0.6722102 -0.09172197 0.02468937 0.1497703 -0.05260246 0.5163882 -0.1022159 0.03680206 -0.2277944 -0.08897103 -0.195343 0.4263685 0.06632745 -0.1380605 0.04048184 -0.0605908 -0.03061461 -0.3121379 0.1561798 0.05693817 0.01049967 -0.5117186 -0.1816877 -0.03579436 -0.6371585 -0.102053 -0.2825879 0.1834099 -0.001485362 -0.1314455 0.04512599 -0.08029323 
  0.2890196 -0.4092412 -0.06777891 0.6612657 -0.3425511 -0.9722185 -0.1224051 -0.04550759 -0.1599484 -0.7318205 -0.4943581 0.1080444 -0.1192352 -0.1461162 -0.2002865 -0.2436123 0.3120871 0.9682035 0.3126554 0.3326972 -0.1604315 -0.3281603 -0.4065358 0.3193236 -0.4717115 -0.48141 0.3132279 0.9337609 -1.011494 -0.3363059 -0.2974661 -0.02286982 0.1703066 -0.0655259 0.1017073 -0.4609721 0.03714073 0.04614005 0.4450282 -0.2937209 -0.2962688 -0.4285967 -0.2819184 -0.888118 0.06263011 -0.0300129 -0.1685769 0.4902288 0.2062544 0.3487198 -0.1057596 0.3687889 -0.5197678 -0.5670273 0.3251774 0.2272326 -0.1083283 -0.2089528 -0.1481385 -0.04616827 0.3168458 0.2137209 0.189721 -0.01762036 0.1021876 0.3217738 0.4011267 -0.1321225 0.01231155 -0.1629542 -0.6397302 -0.2088757 -0.5900655 0.00544542 0.5203362 -0.2610281 -0.4679515 0.07582504 0.3617931 0.1639014 0.7039357 -0.06725534 -0.7296211 0.3988556 -0.7855048 0.1427892 0.1591851 -0.6812772 0.04299054 0.9653574 -0.1269307 -0.1323249 -0.215672 -0.128993 0.1544627 -0.5084818 -0.2719535 -0.03811488 -0.2878203 -0.149055 -0.2286763 -0.1859705 -0.08244345 0.3358231 0.06563111 -0.4198135 -0.5597162 -0.06224926 -0.2123722 -0.8230131 -0.1469278 -0.2591982 -0.09874226 -0.3455919 0.4563684 0.5336788 0.2637979 0.07389783 0.01464686 0.1368783 0.002280209 0.08751363 0.07215735 0.2941701 -0.08205202 -0.1122539 0.4313218 0.1467004 -0.2615101 0.4188084 -0.4117603 -0.217147 0.2145745 -0.05957939 -0.2911449 -0.02727987 0.8112594 0.3879336 -0.2951051 0.3300521 0.3957838 -0.4234178 -0.9790413 -0.9558847 0.4218244 -1.144266 -0.2501682 -0.7979676 0.1953083 -0.5342213 -0.1806588 0.5712087 -0.06240604 0.6539362 -0.271112 -0.02193203 -0.06120599 0.1397731 0.2257208 0.1184412 -0.3805452 0.2026336 -0.7673614 -0.2532425 -0.2625144 -0.176833 -0.219617 0.1929089 -0.1639068 0.6060013 -0.01947716 -0.1084648 -0.2463425 0.2280353 0.08543569 0.5285864 -0.6085717 -0.04666592 -0.3846258 -0.2937558 -0.3381829 0.01006218 0.1350324 0.1754615 -0.4762689 -0.1522227 1.075032 -0.6364892 0.1991617 -0.4902221 0.204637 -0.4699412 0.2953878 0.2582191 0.7998095 0.269989 -0.02252996 -0.1448332 -0.8034802 0.5974327 -0.258945 -0.1342077 -0.5102453 0.05849266 0.3246528 0.09379267 -0.1063408 0.05953967 0.2190668 0.1783422 -0.06527516 -0.008284124 -0.8198064 0.6710964 -0.1828877 -0.4184411 0.4488724 -0.2316556 0.08757341 -0.07666814 0.1072939 -0.3756118 -0.3755555 -0.03653407 -0.4923295 0.749081 -0.4449665 -0.7647838 0.06422454 -0.4792157 0.1338372 0.07873635 -0.1273998 0.3576263 -0.4445971 0.3009318 0.02690065 0.2294057 -0.2167692 0.5460658 0.348128 -0.4054324 0.9110158 0.7514487 0.3034117 -0.3288794 0.02381178 -0.114302 -0.779479 0.4063576 -0.06660704 0.4216081 0.2573203 -0.2747273 0.009916073 -0.2553398 
  0.124329 0.1251307 0.1006242 -0.2703782 0.2336261 -0.1984346 -0.08196457 -0.2022517 0.1545985 0.04236367 0.2455977 -0.1409516 -0.2647618 0.05328974 0.144302 -0.03038579 0.002611592 0.03651057 -0.06269797 -0.3814328 -0.2327527 0.5653496 -0.02794226 -0.02339744 0.04929993 -0.4422997 0.1694203 0.05085698 -0.1754604 -0.1333306 0.03404138 0.005135126 0.170631 0.1291796 -0.0105183 0.2766689 0.154963 -0.1734047 0.2268997 0.1634581 0.1656194 -0.06594543 -0.3946609 -0.1189396 -0.3510753 -0.2042301 0.132795 0.1106339 -0.0240248 0.2109557 -0.2351099 -0.04510115 0.1079396 -0.130623 0.06432524 -0.2865697 0.02557946 0.2254987 -0.3875332 -0.1760241 0.01268589 -0.04817271 -0.07593173 0.6180391 -0.01905433 0.2430034 0.171946 0.1705852 0.01253683 -0.4634053 0.609622 -0.0458988 -0.09112634 0.09506894 0.1050113 0.3016125 -0.1245336 0.1573308 -0.01138214 0.1417408 0.105443 -0.2707013 0.2414998 0.03724063 0.093619 -0.1987638 0.2470772 0.006562142 0.04372825 0.007825124 -0.07359221 0.2087439 0.00997403 -0.4601189 0.2024966 -0.7933604 0.0003231201 0.1757376 0.1123075 -0.01010916 -0.08645336 -0.3840529 -0.4523372 -0.06564628 0.06599488 0.2235649 0.2643282 0.3177612 0.2266876 0.1645333 0.0610369 -0.08753419 -0.1284473 -0.1931458 -0.1297343 0.02965613 -0.0748205 0.04715362 0.04647663 -0.7083433 -0.1797067 -0.3707327 -0.415608 0.2032743 -0.06656799 -0.410491 0.4134378 0.07517983 -0.05959577 0.1435799 -0.01634094 0.02727086 0.09891579 -0.3097989 -0.1809806 -0.1269206 -0.3140385 -0.275796 -0.1405906 -0.3004489 -0.07784291 -0.3316372 0.2911164 0.3579897 0.04557224 -0.2081201 -0.0532787 0.06505568 -0.1552553 -0.1184812 0.2036502 0.01654667 -0.08152601 -0.01250353 0.1200977 0.05340914 0.21603 -0.05998495 0.1136466 0.2533232 0.02624005 0.03258711 -0.04997428 0.09993425 0.007931581 -0.07460762 0.09021267 -0.4170561 0.0258137 -0.4851548 0.1627192 -0.5358167 -0.2736277 -0.1222135 -0.2726152 0.1599639 -0.2565043 0.0403762 0.2273337 0.3842856 0.1235553 -0.2551531 -0.4318931 -0.06711126 0.00932356 0.03223433 -0.1663473 -0.06880457 -0.08353534 -0.05008885 -0.1792004 -0.06583975 -0.1923396 0.03345049 -0.02932521 0.115997 0.07722584 0.04049181 -0.2205266 -0.2867136 -0.06088236 0.1708169 -0.06607812 0.233334 0.3979209 -0.3398239 -0.119358 -0.3504933 0.1406512 0.367436 -0.1315285 0.01345156 -0.1706599 -0.3072893 -0.2439467 -0.04470556 0.005699337 -0.1708381 0.02877444 -0.135986 0.1166384 0.08699491 -0.06809574 0.2126404 0.03016277 -0.3571731 -0.1439949 0.0507489 0.7116616 0.07683578 -0.06591914 -0.2328563 -0.1260742 -0.2735797 -0.04132585 -0.05269537 -0.7457926 -0.2702775 -0.1220958 0.3320588 -0.1908474 0.008042261 0.2371416 0.04047123 -0.05343922 0.07652578 -0.242718 0.2443874 0.05231033 -0.08148147 0.1604093 -0.2775387 -0.09331249 -0.04481853 -0.0441466 -0.3477313 
  0.08702555 -0.05199236 -0.03611736 0.03832412 -0.00305252 0.5313853 -0.2049651 -0.2105668 0.09430198 0.2682905 0.2397198 -0.003045261 0.1899738 -0.7036044 -0.246209 -0.005403281 -0.1248288 0.1271051 0.1120522 0.1515468 -0.2430519 -0.09446913 0.1436353 -0.1012321 0.1168705 0.1208942 -0.08444799 0.2214811 0.170444 -0.08385454 0.2513966 -0.00419233 0.1886525 -0.05454367 0.1112796 -0.2378919 0.3946459 0.364861 0.06325781 -0.1962056 0.08594803 0.2028955 -0.1446637 0.02490113 -0.383503 0.04749214 0.2204514 -0.1015993 -0.2503812 -0.05129058 0.01520833 -0.1719013 -0.3480107 0.1368476 -0.116678 -0.3305375 -0.2694765 -0.03259328 -0.09304243 0.0101214 -0.004856689 0.3258984 -0.1301738 -0.03937463 -0.3634801 0.341337 -0.2337579 -0.2576838 -0.136877 0.1659251 -0.05675897 -0.06913266 -0.3521848 0.08846357 -0.1536141 -0.1644748 0.1796469 0.02773095 -0.05915752 -0.08159966 0.3538848 -0.04017751 -0.1844237 -0.0187525 0.120576 -0.2035429 0.0684445 0.07614912 0.03108758 -0.2652156 -0.3156703 0.1941351 -0.2231051 -0.04153136 -0.1423821 0.06167226 -0.05653881 0.01156017 -0.04640853 -0.007463545 -0.2248578 0.3019438 0.1945008 0.003223067 -0.3380046 -0.05799525 -0.008619817 -0.1166079 0.1576283 0.0466813 0.01995963 0.2300733 0.1045722 0.2121024 0.1755961 0.08863311 -0.3221669 0.2161921 0.07175815 -0.1671921 -0.2554488 -0.1776295 -0.1303626 0.03798598 -0.1547127 0.04850439 -0.06920739 -0.2377605 -0.03474747 0.04635392 -0.1165782 0.2923676 0.1115639 0.2792594 -0.08916468 -0.25812 -0.01924277 0.08346872 -0.1227276 -0.1753557 -0.10474 -0.1269298 0.05112358 -0.2695835 0.1655497 0.04488033 0.04426579 0.0247341 0.1029534 -0.2567655 -0.08835367 0.2141124 0.3887447 -0.1554253 0.03663215 0.07646074 -0.3774412 -0.1533962 0.3778868 0.1235485 0.3668274 -0.4479125 0.01588093 -0.1256218 -0.1079164 -0.1764627 -0.07861392 -0.3442545 0.05632368 -0.172363 0.00805235 -0.04565572 -0.09606969 -0.1051059 -0.1671908 0.3257399 0.1947975 -0.1567426 0.2538733 -0.3676082 0.1788912 -0.177692 -0.08854261 -0.1552171 0.3701307 0.3600758 0.5045359 -0.08239412 0.02302426 0.1647414 -0.3282363 -0.0465623 -0.236907 0.3183586 0.2406725 -0.002912786 0.1130165 -0.1726931 -0.5517163 -0.1820054 0.06730738 -0.00328725 0.01849502 -0.08216619 0.0752805 -0.1640052 0.2264327 0.01930078 0.4719787 0.2451637 0.1213839 -0.4036031 0.06520157 0.1886123 -0.2352413 0.04773982 0.1168293 0.0001513112 0.1412675 0.03967682 -0.04123035 -0.1765906 -0.09170143 -0.04298248 0.3390614 0.3240902 0.08929068 -0.04176741 -0.0304936 -0.1393946 0.08735251 0.01633647 -0.3095981 -0.09568296 0.2218979 0.01964187 -0.3936994 0.005665198 -0.03593137 -0.2351712 -0.06103966 0.1606016 0.03544495 -0.1017147 -0.2519569 -0.1880817 -0.05943545 -0.1468355 -0.1942261 -0.03746239 -0.2438498 -0.3417149 0.2278341 0.1018703 0.1294843 0.009652247 
  -0.03637113 0.5576774 0.1289077 0.1783615 0.1357166 -0.4430683 0.1388476 -0.1092588 0.03288984 -0.09620466 -0.2908455 -0.03591631 -0.06171469 -0.1394848 0.146914 0.4378634 0.0517568 -0.3750516 -0.1910541 -0.1415791 -0.2625726 0.328751 -0.06793609 -0.007374009 0.2326178 0.01675572 -0.3980791 -0.02680875 0.1131536 0.03387517 -0.3216663 -0.06995557 0.1298847 -0.1992535 0.1197545 0.01399526 0.0989972 -0.08038846 -0.1442072 0.1398156 0.1147976 -0.04428671 -0.109517 0.1854698 -0.1545662 0.1414798 -0.2711819 -0.08692121 -0.1123203 0.1022272 -0.609308 -0.2697449 -0.1515371 0.1127636 -0.02243952 -0.1752292 1.203274 0.1473483 0.03710283 -0.3514564 0.003669308 -0.3132108 -0.07798546 -0.1031547 0.09691649 0.08022547 0.7336341 -0.5648245 -0.1054111 -0.3485687 -0.1013875 0.1205686 0.04313996 -0.08879028 -0.3461992 -0.05787897 -0.003486241 -0.2074403 0.1033026 -0.0196325 -0.2036896 -0.1347547 -0.1043973 -0.1935683 -0.5423121 0.0001629172 -0.4487846 0.05712933 -0.06009901 -0.1941657 -0.0448751 0.2930052 -0.05114761 -0.03542421 -0.3160148 0.1912502 0.04869754 0.4068307 -0.2706063 0.04126108 -0.03953001 0.03527237 0.03727674 -0.01269883 0.2838528 -0.1119258 -0.04141401 -0.033466 0.138261 -0.1376274 -0.0575028 0.0003458901 0.2182274 -0.118625 0.08761458 -0.09067598 -0.1361776 0.1260342 -0.006846228 -0.1060183 -0.08062622 0.1294418 -0.1067538 -0.2240316 -0.5229194 0.0001340547 -0.200876 -0.2241054 -0.190544 -0.8069783 -0.09128617 -0.2489681 0.1679418 -0.08464526 -0.1187616 -0.5107216 -0.1507301 0.1210774 -0.02494228 0.1508435 -0.1286511 -0.1203264 -0.1163408 -0.009263758 -0.02443817 -0.07169989 -0.1301793 0.3104682 0.06244426 0.04143838 -0.1039169 -0.2114655 -0.503092 0.2721412 -0.5104448 -0.1693552 -0.1045364 -0.1696175 -0.05515539 0.1291711 0.2396682 0.02920185 -0.1329292 -0.08676168 -0.1380573 -0.06469424 -0.07993992 -0.04241296 -0.3060816 0.04130366 0.05527675 -0.008921817 -0.06237435 -0.167016 -0.05857735 0.01861574 -0.09351491 -0.1798637 0.05800439 0.2110086 0.0384785 -0.06416889 -0.1225273 -0.01937907 0.1168621 0.2060507 0.1024181 0.2951342 0.08403403 0.02012433 0.05477999 -0.007521343 0.0711314 0.03895843 -0.01438475 -0.2293831 0.1702221 0.08029774 -0.07023095 -0.2424423 -0.02394485 -0.1101079 -0.1792942 -0.4535799 0.008054859 0.05583403 -0.2451942 0.05576349 0.0216582 -0.1588242 -0.1783348 -0.2352145 -0.04578649 -0.02020702 -0.09052018 0.2706314 0.08932202 -0.04889326 0.1322613 0.0283017 0.2371279 0.208873 0.08106073 -0.05877435 0.06582569 -0.05891602 -0.03983689 -0.06163299 -0.02222281 -0.4310278 0.09862315 0.01017445 0.06436946 -0.04777572 -0.274688 -0.1231328 -0.01776861 0.1520327 0.04518051 0.2030376 0.06272455 0.08400964 -0.1336159 0.3088174 -0.1886905 -0.03955577 0.155503 0.004225307 0.3364385 0.1683383 -0.285806 -0.4321059 0.1949017 -0.1448398 -0.06627811 -0.1040886 
  0.02515108 -0.02613255 0.003201634 -0.05426931 -0.1708422 0.171037 0.2640553 -0.1356241 0.03398979 0.2542674 0.03821023 0.1186971 -0.04809745 -0.1070435 -0.05814356 -0.07214485 -0.1340575 0.1057625 0.09488492 -0.08858021 0.263785 0.2810093 0.1545215 0.03909609 0.1416311 -0.2075585 -0.2355841 0.09338832 -0.1265438 -0.2055302 0.08523592 -0.265275 0.3253835 0.3402904 0.1040032 -0.1202308 -0.1077245 0.2415104 0.1521631 -0.2061233 -0.2581295 0.02350942 -0.2290346 0.05189696 -0.144809 -0.2829108 0.05478598 0.6060587 -0.1302332 0.3900385 -0.1307008 -0.03012196 0.06785916 -0.07683971 -0.3861243 -0.05135763 0.04149233 0.1175234 -0.2700565 0.1728013 -0.1755914 0.06384254 -0.07179958 -0.08573225 0.1003743 -0.6052822 -0.06276751 0.06625709 0.1559228 0.3535856 -0.0688927 0.03679502 -0.05668587 -0.1243293 0.0661509 -0.005135438 -0.06281288 -0.0602883 -0.08232225 -0.2826479 0.1466407 0.02555817 -0.140015 0.0907384 0.1044019 -0.1006066 -0.2476809 0.2302815 -0.04116972 0.1373169 0.01432988 -0.2677755 -0.1548072 -0.03937772 0.1286112 -0.2327553 -0.2977096 0.1689446 -0.03315048 -0.1822524 -0.1154997 0.2182677 -0.5841192 -0.2410322 0.05409708 -0.131043 -0.07627409 -0.03346587 0.7361304 0.05863538 -0.06332728 0.1031057 0.413897 0.2190462 -0.1664982 -0.1324327 0.3408565 -0.1137296 0.01720536 -0.1486098 -0.03843697 0.04311199 -0.6785085 0.1039968 -0.1910789 -0.004879272 0.1949535 -0.0902417 0.1108625 -0.06415159 -0.09606609 0.0361185 -0.1025354 -0.2153264 -0.2154481 -0.2580277 -0.2806065 -0.08865456 -0.1920477 -0.1159205 -0.1199662 -0.08363801 0.4442079 -0.3298124 0.09515511 -0.2087233 -0.02529123 -0.04413388 -0.002743973 0.260286 0.1515399 0.2266714 -0.09815505 0.09229914 -0.09821773 0.06282607 -0.0399432 0.09876153 -0.1401586 -0.2090395 0.1672053 -0.1075599 -0.09665177 0.2923616 -0.2114684 -0.1282248 -0.04808675 -0.2300318 -0.07284794 -0.0214295 0.00111009 -0.06927076 0.009577841 -0.07853954 -0.06722011 0.4327176 0.160462 0.07985841 0.0173068 0.7691436 0.3099957 -0.0676695 0.07092118 -0.01784075 -0.129424 -0.3327299 -0.3461473 0.111641 0.2132671 -0.2171213 0.007772296 0.6300165 -0.09797123 0.2845942 0.05203893 0.08057693 -0.1309423 -0.1231648 -0.0557329 0.1672495 -0.01018394 0.1179661 0.07929098 -0.117608 0.1992546 0.06748021 -0.177428 -0.3661161 0.28676 0.03229364 -0.2571222 -0.04602532 -0.0684748 -0.2065705 0.0285163 0.05709179 -0.07210562 0.3544679 0.08807016 0.1378324 -0.03183624 0.1409538 0.01391987 0.06922057 0.07342364 0.1199258 -0.06222326 -0.5068002 0.2614622 0.271846 -0.04085048 -0.3205306 0.006020069 -0.4899548 -0.04415613 -0.07455267 -0.5662523 -0.4552086 -0.06334562 -0.4174492 -0.2558434 0.195905 -0.02823431 -0.06305879 0.0404673 0.2351839 -0.06677587 0.2607986 -0.01722361 0.02115565 0.04660205 0.1376854 0.0805509 -0.01122416 0.044083 -0.133392 
  0.08000193 -0.006092072 -0.1296124 -0.004720504 -0.00233277 0.04969357 -0.4320707 -0.3510958 0.03196053 -0.1336778 -0.4023046 0.2923728 0.1042387 -0.6157299 -0.1287588 -0.2245443 0.09055977 -0.05801304 0.1509106 0.1822819 0.148587 -0.2012178 -0.007623735 -0.01416249 -0.0166471 -0.437424 0.02805857 -0.04056266 -0.4405819 -0.005520771 -0.09214525 -0.07145309 -0.1366653 -0.09311453 0.01091897 -0.3885653 -0.1219052 0.05314785 0.2582994 0.3806266 -0.1886854 0.1101598 -0.2948728 0.2222989 0.6916935 -0.07118428 0.1105884 0.01848938 -0.01849427 -0.04488173 -0.05385883 -0.3144329 -0.223427 -0.2455429 0.07972149 0.7017548 -0.09584536 -0.02571228 0.3804253 0.3561695 0.1092968 0.3471964 0.5663081 -0.2450517 -0.1846463 -0.2013026 -0.1240251 -0.09797289 -0.008429926 -0.2938642 -0.1710245 0.3700583 -0.006279226 -0.1755467 -0.06445839 0.1486979 -0.05497598 -0.7472839 -0.2839651 -0.005488766 -0.5287818 -0.2650269 0.2129989 -0.1205777 -0.01947198 0.2637691 -0.2201499 -0.006938106 -0.07909517 -0.2137957 -0.110412 -0.09626934 0.1389508 -0.04715415 0.08645973 -0.2486867 0.08450521 0.1574011 0.01051762 0.1939729 0.305735 -0.2095986 0.05986289 -0.180105 -0.1170724 -0.2239878 -0.425837 0.3186473 -0.4941902 0.05379351 0.1248525 -0.4493891 -0.1869859 -0.2077308 -0.1158527 -0.3393798 -0.09820674 0.02296176 0.1154513 0.0249117 -0.1319928 0.6690739 -0.3433609 0.2803858 -0.005193864 0.04000953 -0.3536172 -0.2608236 0.1705694 -0.1787248 0.03238397 -0.4538264 -0.09225071 -0.06808627 0.1414095 0.3356523 0.1028003 -0.2341018 0.204714 -0.01518766 0.06443539 -0.2988387 -0.2598851 0.1693608 0.0422418 0.1758769 0.1221513 -0.009809497 -0.2021796 -0.2605489 0.1772138 -0.3498022 -0.4861137 0.04065205 -0.1985893 -0.1785932 0.1025348 0.104676 0.01311173 -0.3932813 0.05866165 -0.5721798 0.2243329 -0.1622563 0.1326111 -0.2509238 -0.07323383 0.6696005 -0.1287306 -0.007989123 0.06865011 -0.00530071 -0.09214285 -0.3307106 -0.01775788 -0.1821127 0.2014758 0.2138428 0.299495 -0.05928692 -0.6188872 0.2990681 -0.09824129 0.005737821 0.1127995 -0.1486529 -0.09429663 0.1104168 -0.08604445 -0.3331357 0.1058617 -0.2508272 0.05751115 0.2481018 0.02534818 -0.2533403 -0.4286028 -0.1505302 -0.4065146 0.6985235 -0.09554917 -0.01582286 -0.02372053 -0.04455874 -0.07651894 0.02156065 -0.1693209 -0.06737074 -0.1212862 0.2578866 0.1310769 -0.1697501 -0.05538625 -0.4462404 -0.05057846 0.005640695 -0.1240847 0.3138246 0.1359721 -0.06548178 0.6120281 0.2282089 -0.1060094 -0.157461 -0.08139521 -0.6684204 -0.0851272 0.03652018 0.2799501 -0.312031 -0.09798623 -0.2236166 -0.1184749 -0.4105997 0.01286354 0.08388261 0.2043896 0.1349395 -0.3307198 0.2465993 -0.7877601 0.1653299 -0.1184891 -0.7949533 0.04037692 0.2868508 -0.06847057 0.2546955 -0.1750398 0.04244587 0.2371329 0.2556455 -0.1361129 -0.0535637 0.01251742 -0.4868957 
  -0.05147165 -0.1175919 -0.2514152 0.2936106 0.001158753 -0.01725389 0.1761702 -0.4537717 -0.1474519 -0.04493539 0.223899 -0.4230992 0.1778448 -0.115473 -0.4629198 0.1238888 -0.1975568 -0.09066527 -0.1653213 -0.1257187 0.100985 -0.07503152 0.06449482 0.09868449 -0.08657858 -0.1120987 0.6820635 0.1016424 -0.03653631 -0.01027986 0.1326534 0.1714381 -0.009429544 -0.1929298 0.2395923 0.2133391 -0.07950466 -0.0615624 -0.02336937 0.7132894 0.107576 -0.4020521 0.4809057 0.02914915 0.9299857 0.086902 -0.06259856 -0.4198713 0.2440174 0.02715622 -0.2424609 0.3504044 -0.0879133 -0.3216845 0.3402735 0.1691855 0.2174856 0.01485085 -0.1288904 -0.04204122 -0.01691121 -0.07932959 0.07598668 1.026758 -0.3006949 0.008547701 -0.06703552 -0.04302558 -0.05820329 0.08898097 -0.2214969 -0.1546503 -0.01042983 0.2491135 0.2639446 -0.1743419 0.02952044 0.01935315 0.1841173 0.005949451 -0.5381498 0.2566686 0.04062414 -0.8998775 -0.7447019 0.08802865 -0.7034898 -0.2991239 0.3642187 0.1884211 -0.1326726 -0.003297267 -0.05640133 -0.2361369 0.00772067 -0.4857159 -0.1261596 0.09838063 0.1171022 -0.2188484 0.044967 0.4384226 -0.1862814 0.7199279 -0.009283548 -0.03951177 -0.0765168 0.09005225 0.1891274 -0.0415847 0.2353789 0.01675235 -0.3887582 0.05363316 0.2555183 0.009351574 0.003150454 0.3973088 -0.2990901 -0.05507049 -0.05312921 -0.1529707 0.1138587 0.09619746 -0.5185824 0.06457124 -0.06346863 -0.06536029 -0.2206181 -0.2284769 0.1577751 0.0915926 -0.1163725 0.01459313 -0.03468855 0.2992465 -0.1847492 0.06100435 0.05954104 0.106574 0.0124489 0.272335 0.1570353 0.2253687 0.1742077 -0.02249891 -0.3811394 -0.08755697 -0.1528838 0.2662545 0.09902399 -0.4419805 -0.2737833 0.07149059 -0.008964706 -0.3838439 0.09701322 -0.01763218 -0.04263759 -0.04610094 0.3858462 -0.6139143 -0.3386029 0.05991051 -0.06260137 -0.2748124 -0.1176578 -0.09622756 -0.02273699 0.2170821 -0.4626587 0.006072387 -0.06568179 0.1498736 0.04581931 -0.5980488 0.0297124 0.05056458 0.246492 0.05126727 -0.2585747 0.1821379 0.3218325 -0.01750283 0.005766939 0.2221672 0.0950148 -0.3283904 0.2505104 -0.01611253 0.050374 0.4679801 -0.3580408 -0.1488367 -0.2981951 -0.1886256 0.1251166 0.1518051 -0.4076367 0.005898581 0.1153507 0.3038901 -0.1075286 0.2345127 -0.02238126 0.4357355 -0.05852361 -0.1864689 -0.2548341 0.02839835 0.03763881 0.2897542 -0.2416243 0.1303065 0.1754933 -0.4441324 0.152554 0.01809866 -0.08530095 0.0878119 -0.5484697 -0.1259233 -0.1168414 0.3193058 -0.2124269 -0.5389898 -0.3964314 -0.1168578 -0.333333 -0.08929627 -0.1162637 -0.09927128 -0.2995797 0.07365347 -0.3097469 0.3162479 -0.5918195 -0.07880227 -0.1168163 0.05458518 0.1552098 -0.1069802 0.0689861 0.05479936 -0.07915467 -0.3348104 -0.2757034 0.02882059 -0.5884466 -0.07934821 -0.1465529 0.02099236 0.2484426 -0.2237719 0.2673116 0.1920916 
  -0.07595222 0.1265393 0.2385191 -0.1738119 -0.01658866 -0.1912134 0.2338987 -0.3603962 -0.4378538 -0.20981 -0.2193441 -0.1632875 0.07304439 -0.2794294 0.1019447 0.3031732 -0.1962628 -0.4686452 -0.1557884 0.09899177 0.1013569 -0.4544587 0.1631243 -0.2053348 -0.6145957 0.4764258 0.2977698 0.04103212 -0.007065941 0.06440373 0.7003078 0.1627478 0.07484566 -0.04866583 0.293429 -0.001785567 -0.1859885 0.1619078 0.3217621 -0.3299437 0.2200185 0.5884442 0.1247835 -0.1624986 0.1002006 0.08495308 -0.5262986 -0.1193061 0.04690919 -0.2358977 -0.1908907 -0.1376553 0.09571408 0.07041694 0.1760563 -0.00790814 0.1548975 0.1603181 0.03388496 0.01309185 0.33236 0.1926063 -0.07108254 0.2139817 -0.2765459 0.06169159 0.6770968 0.2171332 0.07438938 -0.1851804 0.06232066 0.7464597 0.08091502 -0.1023393 0.05639527 0.1699726 -0.2142652 -0.4341561 0.6494372 0.07854801 -0.4874699 -0.482351 0.08798019 -0.2134481 -0.4122112 -0.04898741 -0.08031286 -0.04677852 -0.02414438 0.0178182 0.132989 0.1525567 -0.00839851 0.3215233 -0.3912613 -0.5159317 0.08435339 0.3498268 -0.02532795 0.192917 -0.07018851 0.2097543 -0.2124501 -0.3081877 0.1924584 -0.09918179 0.2036177 -0.1131013 -0.01417407 -0.05825403 0.04414357 -0.02073894 -0.07173838 0.08244583 0.1775133 0.006052359 -0.04181624 0.1417902 -0.007026626 0.1685558 -0.1220671 -0.03218584 0.1004385 0.09848794 -0.5554789 0.00599686 -0.2179137 0.07449488 0.2306562 -0.3941151 -0.1025622 -0.06332766 0.01509437 -0.1199495 -0.2934079 -0.2637879 -0.1392886 0.04620372 -0.05390962 0.2122582 -0.000546891 0.1530846 -0.5315657 0.1844304 -0.09269165 0.194474 0.3223361 0.003773435 -0.1731438 -0.1984485 -0.04014786 -0.3371239 -0.1441308 -0.271686 -0.1288237 -0.1542944 -0.04784849 0.1411742 0.1811619 0.1038108 -0.1201244 -0.2202857 -0.3584499 0.03536015 -0.06235333 0.05577684 0.3007511 0.02093808 -0.14289 -0.3876611 0.033407 0.01091745 0.2009598 0.1105884 -0.084905 0.03290202 0.06297577 0.1114647 0.2890503 -0.061485 0.06521543 0.3583736 0.02004444 0.2032404 -0.1671487 0.01042085 -0.2497436 -0.0865446 0.08842745 0.05188396 0.01488089 0.00215444 0.4603808 0.2420802 -0.1413491 0.1034084 0.5023664 -0.07147988 0.1473069 0.3017952 -0.02017422 -0.3899892 0.06677262 -0.5860343 -0.3374376 0.1283658 -0.1574242 -0.022785 -0.1822044 -0.2278654 -0.1939969 -0.3397752 0.0265492 0.2305678 -0.3869551 0.04648998 -0.1269989 -0.0569291 0.2339981 0.1451178 -0.2639098 -0.1849204 -0.3815151 -0.09071171 0.2373672 -0.05584796 0.06169124 0.1190047 0.13951 0.2397478 0.1173102 0.05278002 -0.09730294 0.06984818 0.05266701 0.01240657 -0.2069915 -0.0467499 0.4665656 0.1223206 0.239016 0.04788456 -0.2474867 -0.2644316 -0.166912 0.3905144 -0.02635981 0.3000384 -0.5566551 -0.2520894 -0.3050965 -0.7066666 -0.2351611 0.2571121 -0.156547 0.1033089 
  -0.01179239 -0.1326538 -0.2812048 0.1068736 0.139737 -0.2825856 -0.2635156 0.4193824 -0.1570715 0.1097729 -0.1114676 -0.07030682 -0.09002504 0.3825036 -0.2620386 0.09545112 -0.6577419 0.2576608 -0.3068849 -0.02065909 0.1633204 -0.007758038 0.1925638 -0.1570368 -0.1214517 0.1140205 0.01331426 0.05387492 0.2549213 -0.2300433 -0.09835055 -0.165116 0.06911154 -0.4886276 0.0462908 0.06749377 -0.20625 -0.007702961 -0.122147 0.2490383 -0.3833054 -0.4081491 0.03326933 -0.02726668 0.1215548 0.1034356 -0.0227386 0.2463238 -0.09201566 0.02406398 -0.09421763 -0.06605469 0.02909165 -0.03432135 0.006805775 0.1870743 -0.1562213 0.00841255 0.03766814 0.2315336 0.03118105 -0.08682156 -0.06607802 -0.1801372 0.3034327 -0.1053986 0.3785467 0.1361826 -0.0407124 0.2299238 0.09442575 0.2030298 0.01746363 0.2676213 0.114957 -0.3592507 0.396174 -0.1532692 -0.1726118 -0.08229286 -0.4982213 0.05718927 -0.3568723 0.06273571 0.01489953 0.09882683 -0.2813631 0.02092298 -0.2233896 0.1864378 0.05860839 0.01803301 -0.1340037 -0.3207033 -0.4611309 -0.04258202 0.04861225 -0.2622605 -0.117399 0.03888454 0.1415061 -0.05070352 -0.1026094 -0.2435734 0.494364 -0.06971935 -0.1030772 0.1760543 -0.06113983 0.1772928 0.1724943 0.1446305 -0.03702822 0.003033055 0.05124807 0.06700695 0.04175737 0.2546283 -0.06715827 -0.1769232 0.08485793 0.07159337 0.1402355 -0.04663727 -0.7379032 0.01084946 -0.05259456 0.1121119 0.09468237 -0.4022123 -0.1746726 -0.3022785 0.1345657 -0.08953874 -0.3696276 0.1488959 -0.2410727 0.04473682 0.01857043 0.1888789 0.1380868 -0.08828075 -0.1022452 -0.04386026 -0.5142123 -0.1622827 -0.007889505 0.2296029 0.05921562 0.03175001 -0.03156351 -0.1803406 -0.3263994 -0.2868862 0.243745 0.07393847 -0.1825609 0.2493262 -0.09960879 0.0320586 0.06953406 -0.1564465 -0.05187222 0.06604686 0.02913095 -0.1798632 0.1757095 -0.02144317 -0.696243 0.4193643 0.1388823 -0.1132191 -0.0349794 0.04189695 0.1638306 0.0828311 0.08788298 -0.2452482 0.08805747 0.02103265 0.2921114 -0.4416894 0.08308367 -0.07437013 0.02586686 -0.2611281 0.05483571 -0.0137318 -0.04374628 0.07998233 -0.01763537 -0.005563866 0.03868262 0.3683357 0.2413063 0.03649811 0.06691575 0.01965885 -0.05136572 -0.2531349 -0.1606907 -0.06395319 -0.209609 0.1161598 -0.4985597 0.1906669 0.008523969 0.01193225 0.2712758 -0.3547871 0.09298358 -0.3468703 -0.2289634 -0.1091287 0.09907244 0.02532316 0.08154027 -0.03378534 -0.3866752 0.07898106 0.0474886 -0.2344524 0.09441848 0.02333644 0.1490924 -0.1638099 0.09766626 0.1820926 0.00518231 -0.07746042 -0.3798859 0.1465928 -0.2750443 -0.154594 -0.111084 0.01270048 -0.2589347 -0.06399804 -0.0196913 0.08113793 -0.08760798 0.2711794 0.2031106 -0.3509369 0.2065771 -0.1597658 0.1054269 0.048903 0.08536939 0.01340576 -0.2284186 -0.09022526 -0.02806328 -0.1006247 -0.07047497 0.3949625 
  -0.05861542 -0.09417939 0.3797803 -0.1458694 0.1420076 0.1380081 0.03347052 0.02208748 0.03665692 0.1099029 -0.1193549 -0.2887641 -0.08343423 -0.002863826 0.1767032 -0.300544 -0.03869889 0.4039088 -0.03643661 0.1941952 0.1105828 -0.2598663 -0.4731733 -0.153337 0.0527656 0.2197177 -0.2049628 0.1959423 -0.0739544 -0.3082727 -0.1142079 -0.3010743 0.1971108 0.2094897 0.1146729 0.2384817 -0.1412346 -0.073838 -0.1524325 -0.223984 0.07937022 0.1157426 -0.1531496 -0.2085212 -0.02722365 0.005417959 -0.0502646 -0.05657212 -0.05453646 -0.101515 -0.1413428 0.05252559 -0.5423669 0.08825663 -0.137805 -0.1569713 -0.08050612 -0.0009060148 0.1241591 -0.007480433 -0.222084 0.07678065 -0.3220026 0.01899675 -0.09528992 -0.1122562 -0.07979175 -0.01803853 0.00538397 0.0221311 -0.3245277 -0.09287589 -0.4974968 -0.1980364 0.623027 0.1266828 -0.04384442 -0.1515751 -0.1183526 0.1865963 -0.009644059 0.2441377 -0.184456 0.03469042 -0.03184305 0.06788237 -0.05679593 -0.1108351 0.02677944 -0.2029449 -0.2040826 0.4055901 -0.1582946 0.3492597 -0.2743315 -0.2279182 -0.1923018 -0.02856385 -0.1721278 -0.05190776 0.01730752 -0.1405853 0.04341725 0.06014949 0.2063198 -0.03790869 0.3000354 -0.08869997 0.06255064 -0.4729366 0.02572733 0.1530272 0.3076815 0.01972773 0.2022077 -0.05784132 -0.2351834 -0.3245228 0.0006696968 -0.04304883 0.06065711 0.05410369 -0.4172226 -0.2605301 0.235154 -0.3180374 0.2035252 0.09565213 -0.1541322 1.113654 -0.04358741 0.01434806 -0.2935221 0.03704442 -0.07184658 -0.03520242 -0.03868258 -0.09997927 -0.1127634 -0.3757059 -0.2191689 0.2719326 0.5087167 0.1475499 -0.06662703 0.04022318 0.03705952 0.1669799 -0.3340481 -0.01819626 -0.2124945 -0.1576757 -0.2761434 -0.001899289 -0.08151776 -0.5130361 0.2435852 -0.002231103 -0.9180048 0.1120867 -0.08801807 0.03085644 0.00917306 -0.1598492 -0.0702714 -0.05777029 0.03705972 -0.1810219 -0.1465048 0.05457132 -0.07755604 0.01811567 0.002508273 -0.0777353 -0.2320641 0.1333619 -0.02263308 -0.09936017 0.05037623 -0.2955532 -0.0487388 -0.8900993 -0.03697136 0.7591466 -0.550473 -0.4136625 -0.04535797 0.09971304 0.2059924 -0.1498547 -0.2584495 0.1447074 0.01502936 -0.2421815 -0.2094074 -0.06124604 0.06154625 0.3097531 -0.1135309 -0.551097 -0.2306709 -0.007636501 0.2039602 0.2170697 0.005040763 -0.08701695 0.1439203 -0.1315747 0.01696817 -0.0554259 0.1971721 0.1962099 -0.1202805 0.04862661 -0.03047183 -0.1624085 -0.3439678 0.1078635 0.03651639 -0.136636 -0.5830867 -0.05791481 -0.1334939 0.02437094 -0.1349677 0.096742 -0.1046622 -0.1032338 0.1003297 -0.4244723 0.2198244 -0.1514493 0.1421765 0.09860971 -0.108338 0.1390309 -0.04296994 0.2570471 0.3538224 0.1841382 -0.2450015 0.04183337 -0.2418883 -0.0247642 -0.08907403 -0.2131721 0.08922969 -0.1246843 0.1064583 0.1341136 -0.2305653 0.308591 0.264246 0.392019 -0.07551865 -0.2055896 
  -0.140418 0.06573835 -0.1172757 0.04903033 -0.1163056 0.6437981 0.6172745 -0.3774461 -0.03225724 -0.1933801 -0.2604132 0.05725144 -0.4081447 0.05449114 -0.5142376 -0.1842921 5.183127e-05 0.08336366 0.01282557 -0.1172722 0.001205133 -0.4558296 -0.06099916 0.499504 -0.08824735 -0.01319786 0.160611 -0.2955963 0.1346151 -0.2718324 0.4710049 -0.0234318 -0.06681664 -0.2047493 0.1735621 0.3117579 0.03099087 0.006322073 -0.244678 -0.3655678 0.4693355 0.05922858 0.6568926 -0.2908413 -0.02777371 -0.247926 0.2902399 -0.3499697 -0.1050768 0.07785825 0.2961887 -0.00128288 0.1091478 0.733513 0.2269547 0.2575388 0.04993625 -0.09711967 -0.459828 -0.1063334 -0.02268261 -0.003785532 0.09078904 -0.2025378 0.1382766 -0.08668457 -0.2715517 -0.1585424 -0.2802255 -0.362794 0.1361333 -0.9223997 0.108518 -0.1701623 -0.2326135 0.0005619806 0.5302384 0.6477521 -0.02672974 0.065813 0.4054196 0.3480233 -0.152737 -0.2808394 0.3802991 -0.2488405 0.003652083 -0.1738112 0.1242941 -0.1807032 0.06101441 -0.4162915 -0.06169313 0.03481232 0.007813632 -0.09781484 -0.151723 0.01798989 -0.1710262 -0.3349974 -0.009335853 -0.03117617 -0.2953565 -0.06112378 -0.2560081 -0.1463049 -0.4403487 0.01807492 0.08005418 0.004407872 0.08002704 0.265473 -0.2977221 -0.1082015 -0.02504362 0.3204312 -0.03567346 0.09221906 0.1281259 -0.05347224 -0.2922278 -0.125569 0.1224349 0.2049167 -0.1850751 0.2263586 -0.6863565 0.2441475 -0.03055466 -0.3665639 0.06580455 0.1078977 -0.07209443 -0.01852383 -0.09200406 -0.00312389 -0.2116894 -3.496577e-05 0.1318386 0.2758919 -0.04289268 -0.5779456 0.04989959 -0.1402547 0.05495368 0.2172577 0.1711684 -0.03046384 0.09269934 0.2721138 0.3852791 -0.3333267 0.8519635 -0.07536458 0.3187392 0.185601 0.5308356 -0.09797052 -0.2072216 -0.1718704 -0.05733682 -0.2837708 -0.2245229 -0.293666 0.1492519 -0.01217291 0.1016455 0.1022 -0.2094416 -0.1373065 0.07907243 -0.2135118 0.06971563 -0.3664495 0.194252 -0.1501316 0.1219074 -0.1893945 0.1409553 -0.04486992 -0.4039737 -0.3621911 0.07528511 -0.07936767 0.04841411 0.07983667 -0.01909083 -0.09760249 -0.001813319 -0.2686091 0.02351395 -0.09321299 0.00732401 -0.2262011 -0.002473582 -0.2683225 -0.1119884 -0.08561195 0.315042 0.5085108 -0.05763159 -0.02074482 0.07295588 -0.07753058 -0.1424864 0.3537959 -0.1477464 -0.1659946 -0.1517897 -0.4224938 0.5087751 -0.2644036 0.01134968 0.1679778 0.03851164 0.3108988 0.2233483 -0.09510877 -0.02385274 0.1351469 0.1258159 0.2478987 -0.1309773 0.07911717 0.1292772 -0.325141 0.1336214 -0.4175767 0.3141747 -0.3536861 -0.1732764 -0.09703699 0.653048 -0.2003458 0.01680231 -0.0525793 -0.2991952 -0.05180999 0.1288289 0.04501684 0.2496536 -0.2558503 -0.1291316 0.2441301 -0.1881737 0.2997725 -0.2182768 -0.04999989 0.06148382 0.07222962 -0.2143561 -0.01151212 1.374357 -0.1241135 0.1288677 -0.1546534 
  0.136872 0.2635507 0.09648556 0.05038904 -0.2135719 0.005031547 -0.04273903 -0.2555856 0.03721583 -0.04377786 0.08716775 -0.2696934 -0.1676678 0.08380416 -0.05931364 0.1888855 -0.02228456 -0.04350026 -0.01265965 0.1115597 -0.07558458 -0.03696101 0.03474617 -0.137956 -0.2129004 -0.2151306 -0.01696047 0.04486465 -0.009142785 -0.03024494 0.1505879 -0.2173141 0.009705535 0.0524285 -0.07485136 0.08390821 0.05168924 -0.09447504 0.05492005 0.02664512 -0.1668286 -0.1690617 0.08208737 0.01096213 -0.01781704 -0.5337807 -0.137858 0.09644558 -0.001235777 0.1695985 0.1537764 0.1105079 0.158649 -0.01226537 0.1214807 -0.07429813 -0.003033735 -0.0173101 0.9002293 -0.04698339 0.1123471 -0.07827709 -0.09328368 -0.009085462 -0.1803209 0.4403231 -0.03493134 0.005930133 -0.07956128 -0.07431304 -0.5682771 0.1702923 -0.01772093 -0.02235876 0.1625798 0.1248197 -0.1247634 -0.1830436 0.04287878 -0.1598043 -0.01051065 -0.1861729 0.01593954 0.1090992 -0.03061604 -0.02364538 -0.1994667 -0.005445381 -0.08810187 0.09619381 -0.5934613 -0.1024579 0.1799712 -0.465463 0.03120859 0.09252963 -0.202141 -0.1204948 0.1529717 0.01241901 0.1601816 0.07013612 0.06853634 -0.2201737 -0.008194664 -0.1014178 -0.03940572 -0.03022028 0.07958171 0.05515988 -0.04547874 0.08447342 0.08007144 0.01705557 0.2554634 0.3850164 -0.1187185 0.05959799 -0.05223251 0.291082 -0.0530421 0.02004279 0.482568 0.0363292 -0.07564837 -0.0857598 0.07153479 0.08777575 -0.07918721 0.155412 -0.05070151 0.003678665 0.4001701 -0.7307444 0.09107275 -0.08447396 0.002973981 -0.03047846 -0.1918579 -0.2174947 -0.0367394 -0.08762617 0.1831167 -0.1039189 -0.09260084 0.1456779 -0.08227912 0.02643452 -0.009490448 -0.07089335 -0.1717594 0.1203012 0.03013434 0.2625 0.1223724 -0.02360663 -0.1094738 -0.1218029 -0.1187918 0.07874431 -0.1140034 -0.412962 -0.05413037 -0.005903555 0.855102 0.1052596 -0.08185873 0.01542689 0.05879321 -0.321543 -0.09260654 -0.05119102 0.06045935 0.02099983 -0.06270953 -0.09774942 0.1430389 0.04860035 0.05507506 -0.5080252 -0.08765859 -0.1601051 0.1312563 0.03169026 0.07201431 -0.2026185 -0.04801518 -0.06686917 -0.16934 -0.004948751 0.138589 -0.1797343 0.1303593 0.1218616 0.0925086 -0.03740994 0.08907234 -0.03936228 -0.02838334 -0.2464305 -0.0831091 0.01993362 -0.0665902 -0.09286372 -0.04464944 -0.03657321 -0.06991877 0.7909911 -0.0002324682 -0.03299821 0.1426775 -0.1635265 -0.01240982 0.01559343 -0.1836255 0.01596597 -0.04636317 -0.2726116 -0.1107986 0.004344342 0.04907967 -0.006301912 -0.0657171 0.1129209 0.07838039 -0.2442439 -0.03452722 -0.1838746 0.1080326 -0.02346022 -0.06005838 -0.01548829 0.06878389 -0.5895134 -0.0519225 -0.04765138 -0.02187288 0.1489495 0.04856243 0.2013469 0.1331075 -0.01226422 0.1297212 0.01028485 -0.1004949 0.01520075 0.1054339 -0.2342984 -0.02522009 0.0213564 -0.1682331 0.2459624 0.1105916 -0.1077421 0.03366163 -0.02444638 
  -0.1654747 -0.2536538 0.05107561 0.4693907 0.1480263 -0.02320899 0.1594603 0.0506648 0.292246 -0.3798688 -0.3183017 -0.2086767 0.1228386 0.1200483 -0.05877583 -0.2684679 -0.08431879 -0.05154448 -0.05402027 0.05383557 0.2586676 0.1434987 -0.02398922 -0.007038092 0.4134693 -0.1111353 -0.06410475 -0.03813729 0.1406418 0.2737297 0.02728747 -0.4525605 0.06442257 0.1786229 -0.02677413 -0.1578401 -0.05647283 0.08048534 -0.08396787 -0.00727893 -0.03842214 0.437295 -0.1798973 -0.03134716 -0.1156033 0.0502865 -0.2444016 0.09064805 -0.08059706 0.2467284 -0.2769326 0.3827521 -0.2763356 -0.08597739 0.1705932 -0.05265053 -0.2440467 -0.188711 0.02242692 0.226425 0.3515806 -0.05220816 0.1202448 0.1038151 0.2511876 0.1551487 -0.1118295 0.0212665 -0.004353812 0.1539551 -0.1124036 0.1166156 -0.03688385 -0.02440868 0.9774466 0.02719424 -0.2226265 -0.006502251 0.02263794 -0.1427135 -0.009422433 -0.1891735 -0.2519525 0.06556039 -0.3263277 -0.119878 0.1653832 -0.03299647 0.2152525 -0.3911943 -0.0356294 -0.06460196 -0.1374481 0.3062465 0.2035644 -0.2269843 0.05406003 -0.1630429 -0.05688347 0.1201306 -0.1860832 0.4608272 -0.1263197 -0.322878 -0.2173044 -0.2249899 -0.2709452 0.0518789 -0.1474156 -0.08135294 -0.166617 -0.3995253 0.2946786 -0.2160489 0.3125378 -0.08162977 -0.1525432 0.362915 0.1455625 -0.219825 -0.2769409 -0.005860062 -0.1064804 0.005970103 -0.1461577 0.1167655 0.238929 0.1107569 -0.2015272 0.1298329 -0.1223485 -0.41939 0.3320867 0.0255279 0.1424847 -0.03077683 0.1538569 -0.06342553 0.07981601 0.2066205 0.04153007 -0.6265131 0.09291489 0.1248333 -0.3463033 0.05228681 -0.3721711 -0.5243448 0.020503 0.3437776 0.04055768 0.4348131 -0.2176633 -0.1487742 -0.3692875 0.254885 -0.4393247 -0.2426896 -0.08753268 0.07979539 0.1145928 0.2101023 -0.1879183 -0.04097642 0.1072177 0.05443725 -0.264119 -0.166859 -0.118259 0.1468033 0.1629327 -0.02215587 -0.09593794 0.1426377 0.1341171 -0.04500445 -0.04291696 0.3526812 0.05907405 0.003625893 0.06232343 0.05951038 -0.02515044 -0.004086599 -0.03328215 0.3826662 -0.1410502 0.02343803 0.01301547 0.4632176 0.1657419 0.00218704 -0.008323868 -0.1608405 -0.2598169 0.101647 0.01341161 0.09040742 0.6402684 -0.2577884 -0.005533332 -0.16137 -0.4905844 -0.02457148 0.2066015 -0.1209735 -0.0063229 -0.03735034 0.1027383 0.07326926 -0.1774039 0.03381469 0.3374323 -0.02539754 -0.1236259 -0.1791825 -0.0002473419 0.119132 0.1393858 -0.09905914 0.05748899 0.1319022 0.1961527 0.1451032 -0.3904345 -0.07025754 -0.251979 0.03677517 -0.1741354 -0.3284529 0.04701907 0.5745364 0.3526525 0.2811367 -0.1395915 0.05365206 -0.00185826 0.1985188 0.2259725 0.2940093 0.03818541 -0.1148642 -0.1594046 -0.05263933 -0.07250685 0.02754733 -0.05432341 0.1626242 -0.4516983 0.164268 0.1536129 0.06108516 -0.1812493 0.06506056 -0.01092537 -0.3011873 
  0.07161229 -0.1736239 0.3594393 -0.3039171 -0.1321948 -0.7059556 -0.1315891 1.281699 0.1374329 0.1490405 0.3355317 0.04430433 0.1213198 0.1001011 -0.2358142 0.1250549 0.09229222 0.4345836 -0.03705514 -0.05709615 -0.06970678 0.08194236 -0.2571538 -0.1298126 0.3662282 -0.2365901 0.2974532 0.1815397 -0.320993 -0.4054022 -0.04766912 -0.02752487 -0.1556311 -0.1766593 -0.2761901 0.1463688 -0.1308825 0.1618467 0.07386839 -0.3219477 -0.4061047 0.2990983 -0.3100936 0.2086904 -0.6090493 -0.2457683 -0.1434491 -0.009857848 0.1266959 0.2810909 -0.02535296 0.04033138 -0.02085287 0.03224133 -0.2001431 0.001379617 0.2206959 0.428851 0.2226806 0.07804739 4.389551e-06 0.06970139 -0.0003889699 0.2579035 0.3691587 -0.1111099 0.06859066 0.050876 0.3374621 -0.3276803 0.2469244 -0.09511604 -0.4028378 0.3303485 0.05264364 0.03707298 -0.5576261 -0.543692 0.1080561 -0.3446817 -0.006146098 -0.1238736 0.04871264 0.385483 0.07841643 0.004135203 -0.1351033 0.1183438 0.410991 0.03644022 -0.3058683 -0.7586876 -0.02603039 0.03470392 -0.472042 -0.2153077 0.07821797 0.1008394 -0.1302264 0.01880018 -0.07806362 -0.3254539 -0.2351996 -0.1672622 0.9245611 -0.1877469 0.2366444 0.2880018 0.2767178 -0.1080927 0.1020624 -0.3667272 -0.1751524 -0.3042597 0.006932778 -0.03108962 -0.1836153 -0.6589456 0.2697177 -0.240777 -0.8049336 -0.9274471 -0.02417846 -0.1721162 0.02956413 -0.09077753 0.2084864 0.1135332 0.01025897 -0.6688902 0.05349896 -0.3061639 0.6275521 -0.2394533 -0.09311088 -0.4418042 0.05452958 -0.04605919 0.2856991 -0.260946 -0.05816904 -0.5394279 -0.3258473 0.09159208 0.01932861 -0.1111187 0.1499077 0.09640748 -0.2627448 -0.1293073 -0.169662 0.2843279 -0.04645577 0.6245664 -0.2266578 -0.5230184 0.7895473 0.1094877 -0.1515605 0.3240149 0.2174808 -0.1121509 -0.3294359 0.9500237 0.09761374 -0.08342516 -0.03406577 0.3736657 -0.139789 0.5461141 -0.6696692 0.1341644 -0.1805828 -0.01100619 -0.4331057 0.2155028 0.2959572 -0.06993119 -0.3186333 0.1736693 0.3499295 -0.2663599 -0.3095963 -0.04213167 0.1604854 -0.1329198 -0.05106957 -0.109285 0.01338539 -0.02397027 -0.3148027 0.09268717 -0.3644257 -0.007489312 -0.04083049 -0.1569871 -0.007972275 0.002573295 -0.1172382 0.5120881 -0.4793284 0.262784 0.1659698 0.07930131 0.05195896 -0.7939029 -0.249493 -0.3526697 0.4059685 -0.5847758 0.08236314 0.1191105 0.003068469 0.2862522 0.211329 -0.2218798 -0.1062793 0.08768403 0.02274515 0.01200554 -0.1771242 0.02364678 -0.2009006 -0.2339343 -0.5949737 -0.8753731 -0.06412057 0.1524688 0.0193863 -0.4962199 0.02961041 0.04574824 -0.04241445 -0.5813308 0.547951 0.08372893 -0.849851 -0.1417671 0.4335511 -0.9160062 -0.1889078 0.1781136 -0.04374722 -0.64485 -0.05110568 -0.05949732 0.06825816 0.09341213 -0.01060551 0.1109972 -0.2014879 -0.2315385 -0.2444046 0.2780101 -0.378669 -0.1654747 
  0.1523508 -0.1618274 0.4055249 -0.09184505 0.1196545 -0.752903 -0.548885 0.4343303 0.1304442 0.01969275 0.09148148 -0.2468252 -0.06351987 -0.03104853 0.2206812 0.1888075 -0.4476365 0.2365476 0.2953042 0.2860888 0.03668086 0.1762211 0.01041639 -0.1439769 0.03099156 0.152248 0.05602631 0.3916275 -0.5165538 -0.07352563 -0.05547523 0.1551744 -0.4663896 -0.4906031 0.3967395 0.3548676 0.01680603 0.08875965 -0.03218056 0.07613942 -0.2662486 -0.8765012 -0.1720677 -0.09378637 0.1149183 -0.1957707 -0.009634195 0.03464961 0.03336442 0.4254914 0.2331287 0.265055 -0.1094339 0.02775738 0.1748165 0.08705995 0.06225825 -0.05302646 0.04033406 -0.01183123 -0.1804598 0.4304451 0.09770738 0.05219162 0.1095443 0.05993634 0.1234988 0.2473439 -0.1065815 -0.2297854 0.01734229 -0.3500869 0.1662432 0.191796 0.1190777 -0.03730633 -0.1795789 0.0933507 0.09481598 0.2748498 -0.115548 -0.7239332 -0.05733173 -0.02139642 0.0001020338 0.1273953 -0.0317663 -0.02128931 -0.4326254 -0.6352313 0.16791 -0.06218699 0.008855909 -0.1457417 -0.2638364 0.09749991 0.1452785 0.2396887 0.1024158 -0.1084612 0.1706541 -0.3462898 0.002931385 -0.4295692 0.3444684 0.2466048 0.2099894 0.04433206 0.02852309 -0.0167545 0.2257799 -0.2105233 0.3094237 0.3347896 0.1707342 0.1001495 -0.001772587 -1.060764 0.03987671 0.001402413 -0.08350786 0.05394911 0.03669623 0.1614453 0.08740451 -0.001303633 0.2717063 -0.5303676 -0.2238997 -0.2252171 0.1536859 -0.5797207 -0.0239873 0.07873461 0.0881974 -0.004358888 0.4182096 -0.1841889 0.04096487 0.0479001 -0.2691742 -0.05251681 0.04912329 -0.2621447 -0.3192879 0.1782592 -0.03253828 0.02648076 -0.3617635 0.2357287 0.0995747 -0.05097983 0.4017439 -0.1344733 -0.8148019 0.04915873 -0.1258059 0.2437147 -0.007462747 -0.1801424 0.1160733 0.3502005 0.2368311 0.3534817 -0.07619204 -0.2560043 0.1917892 -0.2164541 -0.8796604 -0.5196496 -0.3234968 -0.009305149 -0.08490794 -0.05579377 0.1105007 -0.082371 0.09556332 -0.1140972 -0.04617161 -0.03404274 -0.094649 0.05818758 0.2060026 -0.08686899 -0.3770197 0.06358265 0.3969059 0.5163619 -0.2055339 0.1363785 0.06640317 0.1259004 -0.08999892 -0.1881242 0.2247688 0.1464603 -0.04797515 0.01021328 0.505196 0.2869548 -0.6183231 -0.1104667 -0.1774063 -0.365679 -0.0950728 0.02609254 -0.1305032 -0.2983112 -0.04077525 -0.3382447 -0.2251664 0.4577664 -0.08211899 0.1130156 0.3221394 0.06144089 0.4690635 0.07778313 -0.9034759 -0.01209435 -0.004495367 -0.2162519 -0.2536849 0.002972571 -0.118362 -0.01615881 -0.2374739 -0.01424234 -0.02321021 -0.1218899 -0.2164197 -0.1391711 -0.02773711 0.1874442 -0.02709375 -0.07461199 0.06164066 0.1696274 -0.2121372 0.3710689 0.00422803 0.09580558 0.03592998 -0.3458689 0.06151431 0.04579777 -0.07453279 -0.04041066 0.5196476 0.05426412 0.02126641 -0.2343599 0.2491482 -0.1987137 0.3557393 -0.2887979 
  -0.3226239 -0.3066798 0.07548503 0.06030177 -0.1177671 0.06496162 0.2234689 -0.6314845 -0.136594 -0.008138981 -0.1854824 -0.4018159 0.2561975 0.2343801 -0.2726009 -0.02039393 -0.1427224 -0.08964668 -0.1438795 0.2860562 -0.2876075 0.09902204 0.07968791 -0.04893278 0.08398712 -0.1001499 0.2637941 0.1058235 0.282717 -0.009531632 -0.2840486 0.3084614 0.2738405 -0.3502529 0.207638 -0.3207209 0.09518151 0.4284837 -0.201909 0.2195652 -0.3063594 0.1063379 -0.1376616 -0.2632616 -0.1901792 -0.01996855 -0.2276158 -0.3170271 0.03049924 -0.06630496 0.246856 -0.2351287 -0.1378167 0.04317861 0.2255351 -0.2069482 0.002255535 -0.1869001 0.005334056 0.2506199 0.182944 -0.01516646 -0.5285384 0.1655031 -0.08106729 -0.210844 -0.1480055 -0.08024787 -0.1451753 -0.1964257 -0.2420922 0.05472107 0.2363366 -0.2394206 0.1684578 0.2651 0.0993785 -0.6804651 -0.09251945 -0.02064409 0.03332109 -0.2546422 -0.01623655 -0.1655166 -0.6446142 -0.01136266 -0.5385084 -0.2626145 -0.3370744 -0.07909514 0.1769002 0.05713335 -0.1868665 -0.3323402 -0.1110044 0.2977199 -0.03181495 0.02171061 -0.0786105 0.1032258 -0.2462113 0.07529078 -0.0153789 0.07250544 -0.1349321 -0.08982097 0.07727785 -0.2458031 0.07687721 -0.002509869 0.04934118 0.002491837 -0.1760957 -0.04208724 -0.1593713 -0.2469632 0.255616 -0.1722536 -0.1457327 0.03351637 0.06648619 -0.3455382 0.3373766 -0.1082023 -0.2812534 0.04523914 0.305851 0.005218255 -0.1941463 0.1466075 -0.1463476 0.1241353 -0.1745118 -0.1473018 -0.1889887 -0.2225584 0.06032491 -0.02717186 0.2252467 -0.07514097 -0.2702764 0.4312638 0.342905 -0.2673101 -0.1079761 -0.4997 -0.2643672 -0.1393922 0.004533126 0.369763 -0.2186503 0.05909763 -0.6337964 -0.06736138 0.02655976 0.4168887 0.218214 0.07676396 -0.07059785 -0.08172095 -0.257937 -0.0498477 -0.309054 -0.1054227 0.2537405 0.05700669 0.005461171 0.2007699 0.2489837 -0.3205007 -0.08883261 -0.0717214 0.6958302 0.001315655 0.02636717 -0.01968973 0.306554 0.05827085 -0.0809209 0.2698061 0.2610838 -0.1083737 -0.1440201 0.3263363 -0.2719768 0.04228489 0.1999859 0.2412498 -0.02075445 -0.04182841 0.02864877 -0.2177974 -0.1672214 -0.216966 0.04321363 -0.02085765 -0.07398071 0.04147628 -0.1864424 0.2666724 -0.06290456 0.3139538 -0.08185872 -0.01109828 -0.004644112 0.1284785 -0.306901 0.112718 -0.02656958 -0.3780273 0.1148151 -0.1478778 -0.03608892 -0.08328539 0.07866228 -0.161097 -0.1711157 0.05206264 0.2037632 -0.03506315 -0.08444569 0.6827943 0.2194702 0.2457107 -0.2786199 0.06245669 -0.2409686 -0.06636986 0.06511269 0.04367932 -0.1167982 0.2069151 -0.1471101 0.0961855 0.08518383 -0.1034696 0.07184468 0.0281951 0.1154971 2.337343e-05 0.2519434 0.005326685 -0.3056457 -0.400365 -0.2079676 -0.123466 0.1790604 0.03689289 -0.04571509 -0.1149043 -0.03184623 -0.3956885 0.2936782 0.1034539 -0.06793819 -0.09153144 
  -0.3241036 -0.1402681 -0.4229977 0.600667 -0.2287477 -0.01624504 -0.2405575 -0.6608506 -0.5662091 -0.2764693 -0.4762141 -0.188743 -0.3901987 0.2369212 -0.3123324 -0.1012117 0.562338 -0.2089012 0.1100266 -0.1075813 0.4378249 0.1891573 0.1736135 -0.4982268 -0.03672912 -0.001575173 -0.4165571 -0.9771422 -0.08888619 -0.6613823 -0.06831463 -0.2696531 0.04985867 0.593491 0.2856196 -0.2012318 0.09015676 1.127677 0.3381231 -0.2549835 0.07406259 0.1022441 0.1318294 0.01516938 0.1871169 0.1964315 -0.6321834 -0.1078335 -0.1207363 -0.2038398 -0.2167631 -0.3632714 -0.1618367 0.04100918 -0.1758316 -0.01955417 0.1299013 0.4056452 -0.1012903 -0.06801924 -0.3556034 0.4110732 0.5706406 0.1717911 0.01539612 -0.1158614 0.07078254 -0.1055849 -0.07149146 -1.002112 -0.04213628 0.1764434 -0.04371512 -0.09099445 -0.2507042 -0.2286784 -0.3893866 -0.09844469 -0.5721668 0.09699515 -0.2322152 0.06998207 -0.4225496 -0.1656292 0.1050736 -0.07024087 0.1688421 0.3453065 -0.3622919 -0.4596067 -0.01477962 -0.2657083 0.3120308 0.07852753 -0.1599026 -0.3055889 0.2627085 -0.2989636 0.3784926 -0.3009605 0.1892171 -0.03276943 -0.0462975 -0.09544181 -0.3739905 0.05194294 -0.4545695 -0.06237948 0.1542849 -0.2564711 -0.5503597 0.3845847 0.9298271 -0.1230458 -0.01413726 0.2005228 -0.120909 0.1687049 -0.1491755 -0.01434422 -0.1975542 -0.2281972 -0.1415159 -0.2967979 -0.542608 -0.1800805 0.06609147 0.6057982 0.1864277 -0.02377784 0.3383786 0.08836946 -0.08198923 -0.1533654 0.2047696 0.2074554 -0.2547332 0.1970135 0.2260383 -0.1672657 -0.06992774 0.0343941 -0.05178625 0.05144366 -0.2589278 -0.4954816 -0.05305222 0.3693728 -0.3149708 -0.1202518 -0.1791364 -0.06410585 -0.1720706 -0.76096 -0.766406 -0.34086 -0.7312149 0.4281821 0.00544741 -0.02992667 -0.07541873 -0.3934692 1.159754 0.01480344 -0.02300212 0.2691225 -0.1677949 -0.2305343 0.2916398 -0.3822465 0.02296407 0.1271206 -0.1418794 -0.2346851 0.08123176 -0.1008921 0.1329341 -0.9037946 -0.371316 -0.2718168 0.2740753 0.2447369 0.3066507 -1.047326 -0.1421978 0.2315405 -0.05045966 -0.1753381 -0.4435377 -0.4417583 -0.1728061 0.01037231 0.1099222 -0.01464408 0.5621902 -0.6370181 0.03521512 -0.5799343 -0.05533127 0.29424 -0.367753 -0.2170664 0.1743716 -0.2080022 -0.04033909 0.05685575 -0.9255248 -0.0122213 -0.6098413 -0.2010407 0.08935113 -0.5202922 -0.1494006 0.1677125 0.7353426 -0.1150909 -0.4501828 0.1976321 0.1256642 -0.3059114 -0.09423205 -0.2243282 -0.2270948 -0.2865975 0.2141311 0.1483832 0.1839543 -0.005884992 -0.1891034 -0.4049899 -0.3563008 0.0324404 0.475202 -0.1759729 -0.4583312 -0.1705296 -0.06705616 0.08917955 -0.06292164 -0.2109807 0.6115919 0.1412582 0.2664016 -0.6596435 -0.3622253 0.1545043 -0.1210585 -0.3709046 -0.2861706 0.08049898 0.2506571 -0.09982201 0.03481089 0.01841588 0.1919013 -0.5113579 
  0.3222003 -0.1329988 0.2561852 0.5706487 -0.06899644 -0.2820799 -0.09894112 -0.6536372 -0.02636533 -0.4212481 0.01538746 0.02061026 -0.4116778 -0.3393675 -0.3651929 -0.03263729 -0.09674437 -0.1315103 0.4768727 0.2760416 -0.6425238 -0.2206929 -0.3137613 0.05026607 -0.2494746 -0.3752852 -0.05351602 -0.02482681 -0.4404011 0.3061791 0.3687381 -0.3385507 -0.4639324 -0.3456444 -0.1707004 0.03058536 0.9302181 1.400563 0.1803933 0.4644072 0.07707992 0.1442319 0.3027288 0.2918971 -0.139199 -0.001435132 -0.3210624 0.229371 0.5442846 0.07587419 -0.1158393 0.6939577 0.2477021 -0.1079516 0.1735781 0.1021711 0.04366763 0.03782412 -0.05941207 0.1568848 -0.3848482 0.6233755 0.2701423 -0.1855928 0.4990481 0.1478214 0.01393886 -0.1856748 -0.04696287 -0.201655 -0.2309581 -0.07095613 -0.4042922 -0.7288625 -0.1803309 0.01389194 -0.3084045 0.05160752 0.3058412 -0.1596825 -0.2283668 0.1350629 0.2890461 -0.4357755 -0.1944465 0.180797 -0.7293298 -0.4247482 -0.275869 0.2901884 0.3091228 -0.02998002 -0.2372334 -0.005370955 -0.5636687 -0.3525498 -0.2119364 -0.5930184 -0.3204747 -0.03865359 -0.02412494 -0.4158185 -0.02774469 1.989344 -0.05954187 -0.1896464 0.1019645 0.1113875 0.4580152 -0.06509878 -0.1612471 0.1092072 -0.7759707 -0.3329414 0.1779591 -0.08384937 -0.4353682 0.1045903 0.2888607 0.05124097 0.03207376 0.04890127 0.1188004 -0.2386635 -0.3341088 -0.01045976 0.01280403 0.3727729 0.1502991 0.5958433 0.001173944 0.236772 -0.09222099 -0.03887345 -0.0281757 -0.3038354 0.9274473 0.1672924 0.0189636 0.586477 0.3733376 0.1956987 -0.164095 -0.2530275 0.2025846 0.8377812 0.1468981 -0.05591732 0.02211745 -0.2979002 0.3050021 -0.3174151 0.1335159 -0.006009603 -0.3052343 -0.2636786 -0.7888424 -0.3819501 -0.07946519 0.001403562 -0.3930805 -0.8865018 -0.3049152 0.1391426 -0.3154839 -0.4407842 0.1573548 -0.9530092 0.2485162 -0.4075444 0.05939727 -0.1801351 -0.2714333 -0.06150569 -0.4320187 -0.347579 -0.1447048 -0.2125521 -0.7013627 -0.02865151 -0.3539175 -0.1881102 0.01579668 -0.04251127 -0.09121618 0.3033979 1.161016 -0.2292214 -0.1238001 0.05307352 -0.2817701 -0.004153434 -0.03867509 -0.122051 -0.3147584 -0.09036583 -0.2470488 0.1761712 -0.2314306 -0.2210969 -0.2667292 0.02658937 0.2164043 0.1019804 -0.3351644 -0.3760593 -0.126716 0.03501269 0.07792366 -0.1230174 0.03288942 -0.09139789 -0.9193016 -0.361829 -0.3288224 0.06572462 -0.6229587 0.02075255 0.2392915 0.09315372 -0.09611217 -0.4885887 -0.2030046 -0.4018177 0.3641323 -0.2869237 -0.298267 0.07145888 0.1946148 -0.3493128 -0.5928743 -0.594801 0.01880018 0.1048959 -0.009121939 1.336536 0.2057068 -0.07614134 -0.05530353 0.4422334 0.1178214 0.04122517 -0.2221492 -0.1061717 -0.2590816 0.1565112 -0.01224143 0.2087066 -0.3691204 -0.8122066 -0.1807755 -0.3994714 -0.006396213 -0.4663824 -0.04019091 -0.03400143 
  0.3136245 0.1296326 -0.29217 -0.03069822 -0.02860903 0.21563 -0.1167722 0.1305123 -0.2506235 -0.0674555 0.02130263 0.05287023 0.03127493 -0.213891 0.1658703 0.04634748 0.1667238 0.3841718 0.1676947 -0.2209 -0.1649219 -0.2725914 -0.05443694 0.06478821 -0.2263135 -0.1931762 0.1116809 -0.07987504 -0.1140751 -0.1245173 0.2782531 0.01862598 0.07988168 0.3354627 0.2075548 0.2444907 -0.1894167 0.03281905 0.08432989 -0.04879519 -0.02227151 -0.4267404 0.2823234 0.009256463 0.1436348 0.4350482 0.002787265 -0.3202662 -0.04503705 0.1150288 0.1634143 0.01361734 0.1213982 -0.07534809 -0.1123192 -0.2665955 0.03499696 0.05187611 0.1507369 0.06059418 -0.06556515 0.01480349 0.2040005 0.9319885 0.02806315 -0.3321458 -0.1237416 0.1692252 0.1579767 -0.03625834 -0.2959296 0.1772364 0.4569679 0.5221757 0.03387063 -0.2653124 -0.2649287 -0.2821266 0.3772246 -0.09411118 0.2951943 -0.1457637 -0.08277442 0.4753481 0.3417012 -0.2779984 -0.07161263 -0.3578887 0.2063474 -0.1924715 -0.01192269 0.03318839 0.1349561 0.1665512 -0.01831434 0.2959207 -0.2046495 0.05581901 -0.1837503 -0.04331397 0.1610299 0.2400122 -0.002457722 0.052271 0.004986364 0.2361786 -0.07185865 0.1705604 -0.2115543 0.07873605 -0.01738529 -0.09841236 -0.1624919 -0.1616071 -0.3242231 0.1673252 -0.255028 0.05580842 -0.10362 0.1979069 -0.1067116 -0.2327556 -0.03053467 0.002729197 -0.3540023 0.006760209 -0.2482052 -0.2683719 -0.01459219 0.1285139 0.0704793 -0.2778634 0.1473693 -0.05666674 0.05466105 -0.01635915 -0.297422 -0.1590414 0.01704008 -0.1700907 0.1645231 -0.1696697 -0.0388612 0.01538117 0.07030873 0.08717249 0.04314557 0.05759242 -0.06165292 -0.05574619 -0.1708264 0.2711759 0.02794809 0.3872345 0.1993122 -0.1414616 0.1932855 0.03558987 -0.2143632 -0.0482728 -0.1142474 -0.3613042 0.2090018 -0.07984923 -0.008362835 -0.1783423 -0.2068282 0.07705019 -0.07329244 -0.03331769 0.1259749 0.1647097 0.1915912 -0.03786514 -0.2290111 -0.04584422 0.1296145 0.1494959 0.03065365 0.1327538 0.2134282 0.03909012 -0.08932267 0.101706 -0.01368122 -0.1475826 0.05927491 -0.009523989 -0.3567162 0.1292638 0.0266943 -0.2371506 0.2413809 0.009833122 0.07786538 -0.2186983 -0.128031 -0.137938 0.007515057 0.1142965 0.07956181 -0.03239343 -0.05647863 0.05564433 0.03780977 -0.08356958 0.1199906 -0.1677839 -0.1311081 0.02129454 0.07443876 -0.1142452 -0.06052856 -0.2122176 -0.2444763 0.001336099 -0.2056014 -0.1988908 -0.06911521 0.07269874 0.0309089 0.006771191 0.03607861 0.1451728 -0.3016788 -0.05768949 0.0618105 -0.04333211 -0.2529879 -0.00923044 -0.1885028 0.05798709 0.03766426 -0.5143215 -0.06013209 -0.1067257 -0.1055081 -0.3669862 0.1839779 -0.0448487 -0.05772051 0.02221244 -0.05351249 0.0281523 -0.1763578 -0.06436697 0.2307563 -0.2750565 0.2049973 -0.1216002 -0.1070268 -0.2028168 -0.1200694 0.1462971 0.04096159 -0.2943888 
  -0.01854238 0.0004598684 0.1907483 0.3485791 0.05635693 -0.3607174 -0.244188 -0.144985 -0.1169007 -0.09375548 0.2127317 -0.02799008 -0.1228156 -0.8282307 0.0501505 -0.01767748 0.03744078 -0.08499508 0.1821168 -0.2567361 0.1476366 0.05690743 0.1558488 0.05234226 -0.1245208 0.0991433 -0.3840332 0.1059939 0.06599499 0.009391923 -0.0001708247 -0.0342487 0.1425207 -0.307055 -0.006366407 -0.05920553 0.1386903 0.2504801 0.4072411 -0.5016246 -0.2843485 -0.07417236 0.08675104 -0.03113608 0.07370179 0.02570484 -0.06409676 0.06955035 -0.2119467 0.07199881 -0.07110988 -0.03931011 0.01129529 0.1335893 -0.05089841 0.04183519 0.1708181 -0.09288319 0.1327697 -0.01003344 -0.2187867 -0.161733 -0.2208228 0.02044696 -0.04071454 -0.02831316 0.09667055 0.0410886 -0.09936919 0.009349165 0.03845688 -0.1084359 0.02687451 0.06742333 -0.0003820859 -0.05383294 -0.2012358 -0.336119 -0.05955849 0.03573259 -0.3319805 -0.02278417 -0.0240432 0.1437576 -0.08565883 -0.12573 -0.3371611 -0.02575329 0.1681396 -0.1220558 0.02587922 0.04691058 0.004159296 -0.1155208 0.4409462 -0.0900192 0.2156625 0.007775789 -0.04877915 -0.1691937 0.1204699 0.1452344 -0.09775188 0.04444635 -0.02831873 0.1350986 -0.407158 0.1461656 -0.09426002 0.2200582 -0.1545664 -0.05580594 -0.2622039 -0.01293433 0.07061657 0.1656807 -0.002761761 0.06577928 0.01961166 0.0909929 -0.01888249 -0.177552 0.1712222 -0.02720761 -0.4278922 0.04833292 -0.3130325 -0.2139512 -0.09680504 0.0453032 0.07644577 -0.1037499 0.2543755 -0.02582411 0.1985494 -0.1280046 -0.1899789 -0.009245171 0.1244649 0.1682526 0.1008122 0.01971755 0.218223 -0.1585086 0.5973701 0.04730831 -0.2405663 0.1413601 -0.09981227 0.1863912 0.0274804 0.2131272 -0.3921433 0.1036471 0.4718631 0.007052835 0.241601 -0.04399023 -0.1760655 0.07977271 -0.1179194 -0.6544439 -0.1181228 0.02758499 0.03774747 0.2686447 -0.07832922 0.1108223 -0.3784386 -0.2455331 0.04436701 0.08179734 -0.1003599 -0.02780703 -0.08062907 0.09410385 -0.1400653 -0.1273261 0.07365335 0.0277241 0.06163655 -0.1099335 -0.08874176 -0.03934278 0.5992783 -0.07539529 -0.3471051 -0.3054104 0.1174314 -0.2588083 0.01166381 0.02970413 -0.04885484 0.07290707 0.04562822 0.03158627 0.09760092 0.1750039 -0.7098153 -0.1518357 0.2031262 0.1171235 -0.2522409 0.08079724 -0.2287103 -0.02577687 -0.05886175 -0.01647133 -0.142274 -0.3588696 0.00714637 0.07505038 0.201147 -0.03820645 -0.3123824 -0.107412 -0.0872426 0.1582921 -0.3250996 0.1364908 0.01819275 -0.00456869 -0.07791805 -0.1375445 -0.04605474 -0.01194796 -0.2591692 0.1383839 -0.1753283 0.07052545 -0.03274048 -0.08434802 0.1213365 0.11797 -0.2484813 -0.05952915 -0.1432515 0.09504845 -0.1979549 0.05677152 -0.05268217 -0.07570919 0.009167128 -0.04408887 0.07093937 -0.1429305 -0.04387853 -0.1261417 -0.01806299 0.05464286 -0.1047853 -0.02685769 -0.07046292 -0.0689848 -0.01905279 -0.1436546 
  -0.1113714 0.0004379174 0.1240577 0.2308789 0.05690063 -0.1129309 -0.03545233 -0.4782173 -0.3711467 0.03723823 0.2017653 0.0297519 0.4040394 0.1252471 -0.3357389 -0.04001905 -0.2044621 0.1758462 0.04349351 0.2064955 0.05676306 -0.214038 0.05084017 -0.05563688 0.04464061 0.2338367 -0.04329723 -0.05264639 -0.03278597 -0.01387229 0.2857991 -0.1141787 -0.002383459 0.003326833 0.007879468 0.01599951 -0.2008849 -0.264992 -0.144025 -0.3292511 0.1441511 -0.4721509 -0.2467167 -0.01571568 0.4238957 -0.1128071 0.2917956 -0.1843317 -0.3824085 -0.1208735 -0.1483786 0.06969079 -0.1691066 -0.01755646 -0.06149692 -0.0870764 -0.2011778 0.04089665 -0.05145117 -0.2928507 -0.3727503 -0.01420945 -0.1044569 0.02015687 0.1034508 -0.17146 -0.1978589 -0.3795668 -0.1825914 0.07995708 -0.03799597 -0.3160647 0.3784163 -0.1840814 -0.1568456 0.2156562 0.05003608 -0.08075215 0.30141 0.007463254 -0.3671404 0.3769242 -0.02518032 -0.1230269 0.3821555 0.04796798 -0.2183368 -0.01245883 0.1947396 -0.1902776 0.06502208 0.09969599 -0.123809 -0.1740336 0.1424041 0.5039848 -0.04213344 -0.4821656 -0.06170512 0.02465164 -0.1453054 -0.1380669 -0.3063506 0.2321038 0.02300807 -0.1730387 -0.1746799 -0.1996515 -0.1440406 0.02348254 0.02428394 0.1572211 0.133691 -0.1440336 0.0901785 0.1150402 0.04492893 0.2592459 0.06720162 0.147424 0.05614153 -0.05065278 -0.05320643 0.009700564 0.03973681 -0.1401809 -0.1578388 0.1154544 0.09857135 0.1093547 -0.02576759 0.1157872 0.2255114 -0.07476524 0.2033031 -0.06915786 0.1117438 0.1834815 -0.1001712 0.06899563 -0.02278134 -0.06753054 -0.008428844 -0.004487508 0.0160135 -0.2879167 0.01168024 0.1421823 -0.113596 -0.2323361 -0.1743323 0.02837195 0.01607026 0.3807166 -0.1018762 0.01898172 0.02530682 -0.04950899 -0.0003504696 0.1153317 -0.1914659 -0.5430433 -0.1179093 -0.1034689 0.1525308 0.05822646 0.07343067 -0.09779773 0.03879811 -0.05847323 0.05557697 0.01396046 -0.005383976 -0.452767 0.6214249 -0.06936044 0.2193856 -0.1332002 -0.1769861 0.1301511 -0.3447906 -0.06820874 -0.1423865 0.1462776 -0.2248353 -0.04645 0.0188957 0.07868585 -0.05275687 0.3989599 0.1386983 -0.1690056 0.1727836 0.09326978 -0.1139951 -0.03698057 -0.1417976 0.09255982 0.3696596 0.2670878 0.08702359 -0.4568465 0.000732939 0.2481934 0.3039745 -0.1346289 -0.05925811 -0.1621558 0.05647282 0.06720409 -0.2160889 -0.3239785 -0.03236591 0.009712521 -0.358863 -0.007466577 0.1045703 -0.1694522 -0.1170347 0.03147789 -0.08607257 -0.2737084 -0.1822831 0.09050868 0.08093569 -0.03882914 0.1104405 0.1480783 0.1739679 0.02131932 0.2561134 -0.09553166 -0.2886343 0.1243053 -0.05309515 -0.02089639 0.03773989 -0.3980136 -0.1843396 0.03085559 -0.2361201 0.05610435 0.1590512 0.1720389 -0.09463738 -0.009633101 -0.1274984 0.1856861 -0.0277194 0.2350789 -0.06246751 -0.0002284361 -0.09798432 -0.2105437 0.01722265 0.1542671 
  -0.1458025 0.03781978 -0.05227751 0.3270955 0.05049936 0.3081093 0.1184091 -0.02929811 -0.007377613 -0.402223 -0.4625353 -0.2818264 -0.2174466 -0.4322284 -0.6456688 -0.08666757 -0.09505634 0.2158017 -0.122094 0.120718 -0.007526186 -0.2369012 -0.1266967 -0.4252809 0.1845814 0.04181214 0.1339631 -0.5469527 0.3139209 -0.0201382 0.2521215 0.0507765 0.2258234 0.02259717 0.2092521 -0.03547803 0.06531065 -0.6699561 -0.05702842 0.1886389 -0.3156648 0.2347847 0.2463183 -0.6121755 -0.3035277 -0.1400996 0.4593278 0.006336283 0.04454878 -0.625523 0.1097762 -0.2660253 0.971698 0.1794862 -0.03531596 -0.09718345 -0.1078161 -0.1920704 -0.0998828 -0.1767279 -0.1038456 0.3959316 -0.1966068 -0.1775444 -0.3178023 0.1768284 0.4222363 -0.2968273 0.3104204 0.1803398 -0.2085878 -0.1393078 -0.03757751 -0.03186839 -0.3067349 -0.2813002 -0.2193737 -0.3593761 0.01108219 0.01812455 0.3621168 -0.1854945 -0.2453982 -0.3696388 -0.2053295 0.01975359 -0.1966663 -0.2213634 0.2520643 0.08299792 -0.1632877 -0.01808891 -0.002960531 -0.09776791 -0.2381485 -0.0701375 -0.4888664 -0.0263643 -0.5362183 0.05513598 -0.1690866 -0.1636453 -0.1472598 -0.1259418 -0.03116678 -0.1313375 0.08667764 -0.02863148 0.3408681 -0.3458323 0.06319705 0.3843028 -0.2784957 0.2156692 0.2055914 -0.09073465 -0.3194382 -0.07118776 -0.3612266 -0.2205174 -0.3648242 -0.08422665 -0.1758481 -0.2942369 -0.1737504 -0.05545711 -0.63701 -0.2736673 -0.3796719 -0.3039408 -0.2311312 0.1782867 0.2317589 0.08147006 0.660741 -0.1798328 0.04400767 -0.05709941 0.2031965 0.03332847 0.008935736 0.1015731 1.03054 -0.09149588 0.212588 0.00620308 0.3079885 0.01761854 -0.2313802 -0.008019067 -0.179223 -0.3794589 -0.6341451 -0.0107537 0.07905567 -0.1276152 -0.09975579 -0.3127075 0.1320758 0.05087788 -0.2816302 -0.3214974 -0.08847117 0.1075997 -0.06633092 -0.06543086 -0.07396065 0.09975158 -0.1524041 -0.4938854 -0.1196423 0.02578068 -0.4484812 0.08422656 0.03280354 -0.1593561 -0.3105169 -0.06556015 0.3226784 0.0172911 0.1721665 0.0004932829 -0.001668402 -0.141498 -0.2034645 -0.07400978 -0.285503 0.004611413 0.2636913 -0.2463312 -0.0301652 0.3872635 0.1178361 -0.1116574 0.06628081 -0.06619896 0.1880379 -0.1110002 -0.24851 -0.3958709 0.4236684 0.412457 0.2444321 0.0527444 -0.1510942 0.06004192 -0.1115539 0.1726605 0.206049 0.1792964 0.4270972 -0.08072085 -0.2797605 0.1954224 -0.07356121 0.07550729 0.1793606 -0.3381995 -0.1263718 0.225899 -0.3838899 -0.009689081 -0.07121433 0.01980286 -0.2014813 -0.1376029 -0.02963813 0.1284564 0.05080927 -0.06500079 0.1402626 0.1947469 0.2361927 -0.2688177 0.05093274 0.2303732 -0.274271 0.1084242 -0.1519947 -0.09646218 -0.03938487 -0.6676161 -0.2578701 0.1022233 -0.0001240874 0.05480701 0.9433846 0.05563049 -0.02152775 -0.0004759698 -0.175848 -0.5394503 0.2757837 -0.1251483 0.04249289 -0.07856216 
  -0.008151286 0.01540023 0.2506033 -0.1425671 0.3048168 -0.6183633 -0.09906811 -0.0607325 -0.1083827 0.1091758 0.3268592 0.01031157 -0.01709767 0.2310693 -0.06749228 -0.3363152 0.08065946 -0.3871982 0.08898688 -0.084318 0.01108247 0.1140075 -0.01127412 -0.1876947 0.06325094 -0.3375202 0.1551019 0.01020481 -0.1884013 -0.2627489 0.3229595 0.01411731 -0.06664822 -0.356732 0.2508458 0.3931431 -0.1239346 0.1311813 0.01736471 -0.1697713 -0.09343419 -0.1177339 0.3725171 0.1777793 0.1098048 0.05282373 -0.007680903 -0.1168425 0.01575809 0.1820538 0.08903198 0.03212937 0.08906293 -0.1134905 0.3787083 -0.5462685 -0.03663871 0.05286959 0.1403496 -0.1051217 0.01264984 -0.1966163 -0.1046692 0.3444462 0.7600097 -0.2149104 0.1408176 -0.3486176 0.0391867 -0.1991574 0.04767517 -0.3437828 -0.0861867 0.1229728 -0.1324601 0.3139322 -0.03143151 0.08538403 -0.05360739 -0.06384731 0.3465414 0.005085343 0.02087345 0.06660588 0.08148363 -0.004904622 -0.2179994 -0.1747002 -0.1249623 -0.02766276 -0.05511715 -0.4937256 0.3728505 -0.1194522 0.06485612 -0.02478412 0.1164734 0.1188388 0.08756242 -0.09011848 -0.1683439 -0.3690414 0.08322512 0.117728 0.01055711 0.4193626 -0.2198 0.04889803 -0.215875 -0.1075754 0.101838 -0.00209794 -0.2452123 -0.4327767 -0.06897366 0.1326571 -0.4644791 -0.1734981 0.03884998 0.01271073 -0.2202199 0.0717738 0.043286 -0.0992421 -0.009369592 0.1481574 0.2199989 0.4795501 -0.07959561 0.153844 -0.07295288 0.1002749 -0.01021692 0.3791486 -0.1833653 0.01838433 -0.166292 -0.1905502 0.0410795 0.5600679 -0.2673132 -0.06342877 0.138608 0.02094443 -0.02718826 0.08149964 -0.1547254 -0.01032743 0.01078759 0.1435236 -0.5200375 0.2668624 0.3108998 -0.155946 -0.02570285 0.6302736 0.4715894 -0.1543671 -0.3827188 -0.149581 -0.01877079 -0.1943581 -0.06889118 0.04207575 -0.1633664 -0.09881222 -0.2705901 -0.1241191 0.01643454 -0.06246337 0.03182581 0.005449121 0.128527 -0.1562749 0.1550195 -0.01706068 0.1135394 -0.002883289 0.09209062 -0.1942835 0.2516646 -0.06647586 0.2600148 0.1202848 0.3279824 -0.08832552 0.07241827 -0.09152034 -0.1535649 0.05662581 -0.008075093 -0.3916829 -0.2554548 -0.08152445 0.0567 0.1346464 -0.3155576 -0.1116621 0.353662 0.418032 -0.123207 -0.02418185 -0.01511749 -0.1526642 0.02584909 0.3665555 0.004073585 -0.2320752 0.2386236 0.08595773 -0.1257488 0.1097997 0.01275319 0.2279419 -0.284216 0.003024413 0.02047817 -0.0242656 0.04978895 -0.008819458 -0.03923718 0.06793263 -0.044436 0.257147 0.03466959 -0.2300406 -0.0867829 0.09925534 -0.06175388 -0.3036866 -0.09811392 0.01386023 0.2039054 -0.1720446 -0.008762259 0.1800363 0.1076568 -0.005650371 -0.02481711 -0.0518375 -0.02559696 -0.1464389 0.1487249 0.5341923 0.07875615 0.260915 -0.1895548 -0.1328274 0.1096388 0.2554141 -0.1012885 0.01720158 0.2436842 0.1522433 -0.1295958 -0.05294174 
  -0.3340783 -0.3124225 0.1678328 -0.0697232 0.1249471 -0.02670778 0.1289908 0.1636199 0.1276145 -0.04617289 -0.1200363 -0.1687963 -0.1015008 -0.05537232 -0.02772811 -0.5703777 -0.2049845 0.413133 0.1197187 -0.1901449 0.1342602 -0.1137488 0.1087887 0.3671928 -0.1567823 -0.001237759 -0.2425238 -0.1043007 -0.08090997 0.04183087 -0.3409251 0.2362316 0.04482665 -0.1900911 -0.0111325 0.09038549 0.08206107 -0.1965816 0.4061421 0.4696976 0.05811119 -0.1070142 0.8285765 -0.2375977 0.08585496 0.0693284 -0.2970217 0.01382955 -0.05030365 0.3449405 0.1315604 -0.4003634 0.05703951 0.005453569 -0.4424049 0.3590516 0.05196767 0.2480061 0.438875 0.5262318 -0.1310751 0.02383277 -0.2841345 -0.1676157 0.4673387 0.07990215 0.1563589 0.0785439 -0.4972946 -0.6007881 -0.2172502 -0.3201017 -0.09678419 -0.144724 -0.2320665 -0.287946 0.1238207 0.1784091 0.4949528 -0.1119684 0.2799408 -0.6745114 0.2526644 0.04751705 -0.09774356 -0.2779421 -0.3696253 0.05018089 -0.2793769 -0.2669812 0.09505131 0.33481 -0.3254471 -0.1212099 -0.1324103 -0.1773233 0.08044183 -0.2375174 -0.1287438 0.03300288 -0.104007 -0.141619 0.02853989 0.2067885 0.2407311 0.1486514 -0.3682905 0.08676422 -0.363457 0.2194266 -0.1495048 -0.07131574 -0.01060023 0.5230226 -0.1675595 0.04915204 -0.2158408 0.2058204 0.2025671 0.3920458 -0.09803439 0.2492654 -0.05560616 -0.04333899 0.3471397 0.08807037 -0.1559977 0.05326624 -0.06999885 0.1853333 -0.03920799 0.3837444 -0.1752653 0.09504863 -0.3385113 0.09640349 -0.003299852 -0.06597616 0.219625 -0.2369439 -0.05724153 -0.1857333 0.6803101 -0.1565141 0.2999781 0.09348844 0.1468765 0.2026984 0.5752336 -0.1747025 0.06731212 0.1578148 0.2844689 0.2976092 -0.0240554 -0.0005867502 0.07045437 -0.1280819 0.4657489 0.2189929 0.0945541 -0.320304 0.07329296 0.4670749 0.02913399 -0.1213322 0.1721826 0.1676508 -0.2251399 -0.200752 -0.1918258 0.2239911 -0.2137552 -0.4616682 -0.05302132 0.003761241 0.1102453 -0.314996 0.3519501 -0.2208549 -0.04984796 0.6556167 -0.05317317 -0.07380082 0.2999555 0.576475 -0.3966816 -0.07695014 0.2445431 -0.2062384 -0.4731843 0.109685 -0.3020975 -0.1578355 1.050244 0.06709939 -0.6688703 0.4381028 -0.8196824 -0.2839043 -0.29852 0.384344 0.2742516 -0.5661851 -0.1160742 -0.09621292 -0.1820624 -0.6191881 -0.4091112 0.04886147 0.3971711 -0.1085772 -0.1485051 -0.03439987 0.04141588 0.2127089 0.03722237 -0.09609598 -0.204142 -0.001438673 -0.3098142 -0.01753531 -0.1815531 0.1037381 0.3215334 -0.191824 0.09980109 0.2988195 0.1406786 -0.1024832 -0.1697297 0.03190096 0.3092588 -0.02681781 -0.2436352 -0.06331271 0.213393 -0.2516274 0.1035273 0.09986793 -0.2618497 -0.1335192 0.04815262 -0.2923159 -0.2038912 0.2875294 0.2392034 0.1915238 -0.2861556 -0.1632387 0.04403859 -0.3068624 -0.05206801 0.2646471 0.6054471 0.001808438 
  0.09269512 0.189693 0.08837275 -0.7470239 -0.09643982 -0.01811056 0.3765724 -0.5941462 0.2881727 0.21113 0.1148451 -0.2378271 -0.1296204 0.0186957 -0.4185665 0.2912763 -0.1077761 0.5996667 0.02256079 0.1428862 0.01580308 0.3062126 0.003356275 -0.2492707 0.5150004 -0.4792999 -0.1653555 -0.003274876 0.04016238 -0.5270569 0.08864604 -0.0329154 0.2316521 0.08114348 -0.1702916 0.1527023 0.1013709 0.03605079 0.1346346 0.1962495 -0.09885292 0.1351983 -0.3807101 -0.08506601 -0.7877312 0.2026808 0.0449871 0.8024114 -0.1077862 0.3691412 -0.2621708 -0.3074569 0.07111102 -0.1881714 0.08704477 0.03157474 -0.1120298 0.3115514 0.03302253 0.1294101 -0.004285845 0.2714682 0.0006125245 -0.4384298 0.04310563 0.4155093 -0.05420341 -0.02719715 0.08710376 -0.1463506 0.143006 -0.2052374 0.07652611 0.02032625 -0.3987976 0.1405543 -0.1272843 0.1643122 0.05364883 0.1740592 0.3001019 0.1276223 0.1769107 0.2111546 0.1868762 -0.1478713 -0.2798499 0.172392 0.4120761 0.08234194 -0.2852202 -0.2631427 0.1844133 0.2898528 0.1447225 -1.051028 -0.07757753 0.2795115 0.1480362 0.1434475 0.07416579 -0.4447908 -0.5535796 -0.3670858 -0.3268633 0.1027642 0.08462815 0.2423678 0.2793576 -0.0376584 0.07057679 -0.3014658 -0.06654169 -0.1109473 -0.2528264 0.03461741 -0.1167469 -0.2831652 0.07052021 0.1518934 0.7507336 0.01593546 -0.2730848 0.01779716 -0.02270929 -0.007022656 0.4678034 0.4257564 -0.02619398 -0.1144999 0.1258566 0.07994923 0.009433286 -0.02895346 -0.3865354 -0.05033565 -0.3061794 0.2613951 0.1211745 -0.1324912 -0.3071695 -0.1414714 0.3911271 -0.02125838 0.259367 -0.3676191 0.01221094 -0.03976133 0.08060147 0.08630484 0.04280111 0.1874478 0.1739647 -0.2455276 -0.4930681 0.3985588 0.2852102 -0.04008912 -0.4000522 -0.1998694 0.1105923 -0.05413659 -0.1815013 -0.4246955 0.1136253 0.06945948 0.2350622 -0.1558061 -0.06514917 0.1975805 0.2032524 0.1530651 -0.1169314 -0.04982648 -0.1436157 0.5205608 -0.1094594 0.1896192 -0.2666527 0.01057165 -0.07209583 -0.3219796 -0.3325041 0.2205724 0.2324881 -0.1013673 -0.01348792 0.1325644 0.05615717 -0.01086822 -0.1485164 0.07061623 -0.5737198 0.06729658 -0.06097196 -0.0005961904 -0.1676152 -0.07475613 0.08838852 -0.08345344 -0.2477894 0.1664802 -0.1463964 0.2212918 0.4682496 0.4148239 -0.2493493 0.1372819 -0.260631 0.2663963 -0.6253661 -0.05947184 -0.06962363 -0.4533176 -0.1830501 0.07130346 0.2035383 -0.02856458 -0.02963198 -0.3050288 -0.2060105 -0.1867268 -0.03538003 -0.1593726 -0.2002179 -0.6475676 -0.4996609 -0.09671263 0.07206485 -0.2204075 0.004793994 0.04388507 0.02971456 -0.4369537 -0.3743206 0.1763629 -1.414876 -0.203108 0.001751837 -0.2948979 -0.4168473 0.1083412 0.1311067 -0.3575659 0.1092824 0.03065955 0.01466178 0.3626952 0.04481876 0.1986292 -0.01222503 0.1825867 -0.3363457 -0.1838749 0.1600877 0.147654 
  -0.4226297 -0.04962986 0.1656695 -0.004906667 0.005365296 -0.4012984 0.008149582 -0.07069644 -0.2018657 -0.06436928 -0.1364538 -0.1581895 -0.03655934 -0.2578978 -0.05644982 0.04659363 -0.01046972 -0.01185662 -0.1210236 0.00400256 0.1363397 0.06938652 -0.1209774 0.03586258 -0.07954143 -0.0196693 0.4696935 0.02726917 -0.08060524 -0.01153517 0.3959847 0.05248804 -0.06024166 0.06564436 0.9158621 0.1409311 0.06725308 0.1411243 -0.1457805 -0.1853213 -0.2834478 0.06665905 0.099195 0.01733321 -0.1702906 -0.04309504 -0.2128579 0.09354277 0.07219885 0.03703576 -1.699778 0.1683675 0.1373366 0.1145134 0.04538789 0.008437077 -0.01464632 0.388289 0.005519357 0.07993556 -0.1668235 -0.08637252 0.3084954 -0.05634309 0.05799375 0.07842167 0.2494424 -0.1889951 0.0272918 -0.0149329 -0.06274237 0.04349454 -0.1478488 -0.1096907 -0.09946448 0.01001945 0.02183822 0.08972041 0.08589208 -0.06197754 -0.306976 0.03377007 0.03714556 0.01257272 -0.3052972 -0.1025544 0.07113552 0.004922349 0.1675646 0.3208712 -0.09387354 0.03331673 -0.01471845 -0.02928378 0.1255467 0.1068759 -0.07665146 0.009810123 0.00909682 0.03281196 0.01525194 -0.296016 -0.119147 0.1498438 0.01420947 -0.3145449 0.4143556 -0.02613567 -0.09841749 -0.08537458 -1.345145 0.003888542 0.06501758 -0.2117792 -0.1099468 0.09004925 0.3427274 -0.08854465 0.1070914 0.1115855 -0.2481565 -0.06441629 0.1083807 0.4082878 -0.7759569 0.04435026 0.1044504 0.04071558 0.002889471 -0.02068649 0.07874767 -0.06355555 -0.02883287 -0.0849932 -0.1149508 -0.02684752 -0.001428503 -0.1135269 -0.02421877 0.00341601 0.08249602 -0.04660962 0.002477044 0.03221725 -0.07479537 0.07198567 -0.01387954 -0.5221173 -0.0004440993 -0.3912583 -0.03184544 0.06690173 0.2099605 -0.2046425 -0.1888013 0.06681146 0.02225534 0.4207644 -0.001358805 -0.03778981 0.03598991 -0.7834833 0.1002961 -0.01222557 -0.01074459 -0.591993 0.4744665 -0.04512082 0.02654677 0.105917 -0.1052613 -0.004068297 -0.2441458 0.06561279 0.01394679 -0.1362816 -0.01909206 0.7173567 -0.03079607 0.02665525 -0.05687473 -0.08838934 -0.06731813 0.05268239 -0.1378841 0.2163516 -0.01136769 -0.05620145 0.09946421 -0.08150385 -0.03649262 -0.07839815 -0.2457796 -0.1232585 0.3585993 -0.0233337 -0.107523 -0.1200318 -0.3843184 0.09900453 -0.08359475 -0.135449 -0.02030889 0.006603425 0.02350165 -0.0633859 0.09001265 -0.0691087 -0.4689843 0.1569289 -0.01673324 0.03395235 -0.3825489 0.3120179 0.2867855 -0.1780772 0.2032224 -0.07581496 -0.05325917 -0.2449993 -0.3916719 -0.1380824 -0.1920676 0.06059434 -0.004856383 -0.05553574 -0.08635269 -0.1637938 -0.06766559 -0.1120837 -0.02166748 -0.09716108 0.03323955 -0.09318233 -0.04633432 0.0284893 0.02390845 -0.09817001 -0.1504306 0.005856427 -0.07104526 -0.1369435 0.0005516455 0.1594305 0.1267747 -0.04306225 -0.1618135 0.107319 -0.148344 0.01325502 -0.08850732 0.175295 0.06116843 -0.2024257 0.002515528 -0.04702613 
  -0.04928814 0.02976337 0.09931625 -0.31532 0.007259619 -0.1769981 -0.1977422 -0.1156794 0.0161541 0.4096386 0.1430188 -0.1133628 0.173978 0.07860226 -0.08727651 0.5720866 0.1513577 0.1047147 0.02563121 0.1534473 -0.478796 -0.01151537 0.01472542 0.001080218 0.1863986 -0.04540843 0.1404609 0.127933 0.05736399 -0.4089705 -0.4440555 -0.1172875 -0.07999553 -0.1521836 0.2967707 0.09563941 -0.245365 -0.339533 0.1735163 0.04511739 0.464879 -0.4723706 0.2516921 0.1887324 0.1204848 -0.04849769 0.1422779 0.3206597 -0.2488447 -0.355179 1.0686 0.1255915 0.04338869 0.218409 0.4299314 -0.007836007 -0.120711 -0.04872617 -0.00187428 0.1190434 -0.2042205 -0.3222006 -0.05844833 0.06164735 -0.1907724 -0.1415823 -0.4171755 -0.455044 -0.09720794 -0.2693254 -0.3040788 -0.08861516 -0.01101908 -0.2560416 -0.275694 -0.3456601 -0.04009921 -0.1659954 -0.5008958 0.05930224 0.1090765 -0.06209162 -0.2585846 -0.1521084 0.00164932 0.1132196 -0.3467578 0.3405099 -0.1009782 0.08449787 0.08619656 0.1430939 -0.2159665 -0.0700727 0.1757836 0.292838 -0.009878249 0.2347447 -0.2413222 0.03099795 0.01850698 -0.4917631 0.5527147 -0.1080981 0.02584231 0.05050581 -0.1237788 -0.2267341 0.04678682 -0.1168129 0.5258892 0.217614 -0.1656691 -0.09185679 0.1325413 -0.2202497 0.3494369 0.142632 0.4713182 0.1718211 0.3379132 -0.1362543 -0.00830858 -0.114964 0.2726878 -0.2300084 -0.2744364 0.2290097 0.04716407 -0.5670179 -0.1166221 0.8061436 -0.02990033 0.07669674 -0.1226892 -0.1524447 0.2100108 -0.03758838 0.01876078 -0.07679532 -0.3297451 -0.2033361 -0.07682537 -0.1632369 0.6080298 -0.4650939 -0.002246303 -0.09748854 -0.2531181 -0.07448184 0.06074259 -0.2660887 -0.0848361 -0.08621468 -0.392361 0.07389206 0.07227587 -0.1672439 -0.03826331 0.00956367 -0.01356167 -0.2325985 0.06071636 -0.01184342 -0.2348013 0.06716575 0.04558967 0.09326442 0.5313157 -0.2894154 0.107823 -0.1095219 0.1345013 0.17189 0.08290285 0.07388442 -0.004513385 0.1026132 0.1613673 -0.09396869 -0.1073803 -0.1175716 0.2515234 -0.1634839 -0.1301646 0.006162679 -0.08050386 -0.06081994 -0.1119843 -0.1190801 -0.1558791 0.1911882 0.1007495 0.04490494 -0.0265061 -0.1915417 -0.2175775 0.4341271 -0.100184 0.1136477 0.2378394 0.01145247 0.3630729 -0.1207975 0.452021 0.04238759 -0.05380768 0.01205587 -0.2549857 -0.2762948 0.2015556 0.1331212 -0.07066079 -0.148848 -0.1213941 -0.0714808 0.2696971 -0.03869735 0.1959505 -0.1175754 -0.06880527 -0.1297553 -0.05805115 0.3290354 -0.0558788 -0.2293035 -0.168659 -0.1692672 -0.03545005 -0.3402075 0.07443359 -0.01322368 -0.1206531 0.36031 -0.3778229 -0.2375892 0.1616372 0.0977978 0.3651384 -0.05362283 -0.1103588 0.1380264 -0.01364249 -0.2675487 0.03456677 -0.2701546 0.01845742 -0.05957817 -0.1159164 -0.02261901 -0.1803776 -0.3836724 -0.3356651 -0.2573324 0.2596512 0.03127646 
  -0.04989309 -0.04558771 0.1190716 0.157326 0.08774947 -0.1350333 -0.07461474 0.3365307 -0.1342105 -0.3471665 0.1348044 -0.06292297 -0.2160933 0.1724071 0.2710479 -0.2616394 0.05687323 -0.1914855 -0.160553 -0.05908451 0.03505508 -0.03647462 0.09910636 0.1919222 0.04713838 0.2113833 0.3022368 0.1004698 0.006657696 -0.1263384 -0.2319953 0.01574785 0.1319879 0.04913493 0.016182 0.002815344 -0.1564771 0.1723494 -0.01855445 0.2151006 -0.06066665 0.1588686 0.2753618 0.1723478 -0.08232211 0.006513261 -0.3472411 0.2267207 0.004285321 0.08715606 0.2099026 -0.007739381 -0.01802484 0.2607494 0.002335759 0.03682025 0.3122554 -0.1949272 -0.07842989 0.04102977 0.0449194 0.06137171 -0.7846848 0.007251519 -0.07308979 -0.01759629 0.1511421 -0.1218088 0.2086859 -0.2119182 0.2076162 0.2259305 -0.1324855 0.1757945 0.01446716 -0.06226788 -0.05530393 -0.03437638 0.007907626 -0.1010531 -0.5124752 -0.1932351 -0.1356326 0.2068303 0.2583681 -0.05212696 0.5722998 -0.14337 0.04280977 -0.2348927 0.04542122 -0.08936382 -0.01365416 -0.2107079 -0.207931 0.3220573 0.09504676 -0.4037595 0.08484792 0.001544202 0.01065648 -0.4045886 -0.1052219 -0.08810915 -0.05671082 0.1062822 0.1072789 -0.0779631 -0.02523993 -0.01792909 0.05688308 -0.1042627 -0.116004 0.005075562 0.1278832 0.1960529 0.296074 0.01115907 -0.02404529 0.08518556 -0.2465322 0.0592205 0.2830912 -0.03212172 -0.1044639 -0.0734689 0.264905 0.2042466 -0.04666068 -0.0756181 -0.2980219 -0.06147568 0.08635657 0.1065666 -0.01050806 -0.4105098 -0.1950191 0.004139308 0.0605658 0.1076256 0.08415134 -0.1488888 -0.2004141 -0.1175032 -0.06653909 0.1247412 -0.028807 -0.003150681 0.01628656 -0.07909585 0.2163706 -0.05364366 -0.1039619 -0.1194877 0.1890422 -0.1999935 -0.2346765 -0.2994509 0.2488844 0.135781 0.008512538 -0.2071699 -0.2106618 0.1019216 0.133069 -0.2605956 -0.1756011 0.06858219 -0.005254832 -0.08651633 -0.05342866 -0.007318457 0.382564 0.1446251 0.03469874 -0.2359499 -0.07025644 0.1026234 -0.08938961 -0.07630582 0.03647337 2.431697e-05 -0.06573034 -0.03362588 -0.008820524 -0.06301234 -0.2086736 -0.1612162 -0.1759937 0.05477033 0.2685308 -0.0232502 -0.2515532 -0.06767668 -0.05764046 0.0226072 0.02793811 -0.05170368 0.1356536 -0.340435 0.1028874 -0.05865077 0.02328677 0.1490735 -0.1940204 -0.0464827 0.01081613 0.1076366 -0.1413316 -0.2783711 0.07220733 0.005665467 0.1815687 -0.01551131 0.361245 -0.1368757 -0.06171302 0.1702135 0.02177029 -0.2537841 -0.07962686 0.08297074 0.3353113 -0.2489657 -0.04917051 0.1499147 0.187517 0.02330025 -0.09187025 -0.287706 -0.3125544 0.05517959 0.1025498 0.1276056 0.07860015 0.2790788 -0.1437428 0.1348587 -0.005928621 -0.1151698 -0.1782986 -0.1781184 -0.0729819 -0.338993 -0.2232769 0.07340875 0.01580259 -0.05223444 0.03930544 -0.3006291 -0.2398109 -0.3299282 0.2059893 0.2831832 -0.03593281 0.08298568 
  -0.1429141 -0.3022947 0.03336496 -0.08154625 -0.2825053 -0.3635527 -0.0751482 0.496184 0.1939181 -0.2842777 -0.2726443 -0.7872778 -0.3523743 0.04711747 -0.2682943 -0.4367188 0.06463655 -0.0276659 0.4876262 -0.4358 0.9564453 0.2111876 0.009741371 0.1480884 0.2474155 0.1674528 -0.1188274 0.1708166 -0.168132 -0.6680216 -0.1943109 -0.7497498 -0.1518503 -0.07936585 0.09515925 0.04978254 -0.8310887 -0.2442278 -0.1533472 -0.2658592 0.04822343 0.2134492 0.03067157 -0.08523237 0.037568 -0.008033134 -0.5155981 -0.04443999 -0.032876 -0.1716845 -0.1214681 -0.1804038 -0.5807627 0.02899164 -0.5658772 -0.1557782 -0.1733841 -0.5247796 0.01570969 -0.370625 0.1066112 0.2241431 0.8796406 -0.03532586 -0.1479731 -0.3037609 -0.7597212 -0.336146 -0.0890504 -0.4618297 -0.1503446 -0.09244005 -0.2528631 -0.04496768 0.341842 -0.003265751 0.3471656 0.08197622 0.144665 -0.003554536 0.2220744 -0.05604761 -0.269385 -0.1927676 -0.468899 0.1094367 0.4676062 -0.2056777 0.02571242 -0.3132713 -0.2449381 -0.1439086 -0.05000621 -0.1814649 -0.2405111 -0.1461529 0.07510513 -0.2078781 -0.1609731 -0.07732773 -0.08656041 0.3889954 -0.1496904 -0.8868976 0.3916962 -0.03643475 -0.1765706 -0.05927503 -0.0357503 -0.2323294 0.3002531 0.3993478 -0.1943103 -0.4603224 -0.08432782 0.2074487 -0.1827685 0.07236338 -0.01654258 0.152387 -0.04924047 0.2364772 -0.3816242 0.1471875 -0.09473016 -0.1163506 -0.1566733 0.5393232 -0.2400169 0.007648068 -0.1218159 -0.1328197 -0.1479635 -0.0849712 -0.04567569 0.1381632 -0.2031487 0.1231746 -0.05028543 -0.2754287 -0.1517205 -0.1501037 -0.4748231 -0.0298064 -0.3499154 -0.3493328 -0.4441842 -0.2510754 0.3652297 -0.160663 -0.1970399 -0.1157307 -0.1267329 -0.2111675 -0.1200461 -0.07683165 -0.1044728 0.9386204 0.1676758 0.5517989 -0.167492 -0.05229146 0.3682311 0.07784504 -0.1138346 0.3806133 -0.3628073 -0.003102333 0.2757016 0.4351209 -0.2743902 0.1695837 -0.2240863 -0.2006547 0.1179106 0.1722236 -0.4605897 0.02242769 -0.175058 -0.04964332 0.1822786 0.1333315 0.1905466 -0.1492945 -0.39544 0.4728152 -0.2311493 -0.337301 -0.1703567 -0.5039294 -0.1236518 -0.2622024 0.032177 0.1640265 -0.9242237 -0.624369 -0.113131 -0.007213115 -0.3254713 0.2440762 0.1807443 0.1802069 -0.3947369 -0.005433521 -0.2493423 -0.1385768 0.1708984 -0.1084084 -0.2446115 0.2665917 -0.2957669 0.5175344 0.08755136 0.2371739 -0.1964295 -0.2481112 -0.2492052 0.02495703 -0.2564253 -0.3187209 0.3698096 -0.3405455 0.01688827 0.2237805 0.8105077 -0.107354 -0.03367271 0.3604746 -0.1001266 -0.4367076 0.2041186 -0.4367471 0.3578506 -0.07589891 -0.1649279 -0.2523783 -0.2417324 0.1799215 -0.1681517 -0.2271486 -0.005062743 -0.6027274 -0.6005026 0.03399958 0.5543664 0.5591499 -0.02105076 0.08448741 -0.467461 0.08033114 -0.5960882 -0.2178193 0.05873622 0.08600394 -0.3770587 -0.2697757 
  -0.005471 0.02012922 0.04452858 0.1196127 0.03720565 -0.2266166 -0.2202301 -0.1309284 -0.03799563 -0.5429804 0.05094869 0.3661216 -0.001137133 -0.1925575 -0.001319085 -0.4051787 0.1857714 0.1772906 0.07367845 -0.1459141 -0.09680989 -0.1492505 -0.108689 -0.06773412 0.169792 -0.1788157 -0.2415311 -0.3128071 -0.06292568 -0.242548 -0.1307516 0.145508 0.2486617 -0.1779984 0.1614074 0.3229942 -0.1488157 0.2770529 -0.08337871 -0.05142062 -0.2191006 0.1176995 0.09435655 0.2696866 0.2169083 -0.2208127 -0.1553917 0.1358395 -0.03056937 -0.01414857 -0.09127603 -0.1079952 -0.3315087 -0.01735359 -0.1035281 -0.1783693 -0.5441173 0.06974298 -0.2607312 -0.2422937 -0.2530783 -0.2018408 0.2689416 -0.1247033 -0.2559287 -0.09398582 -0.5671958 -0.6558075 0.09211694 -0.5743166 -0.2328407 0.06997035 0.04530317 0.1358927 -0.2780918 0.08698541 0.02204109 -0.6871561 0.1422435 0.09739624 0.01224232 0.185414 0.08446784 0.1302891 -0.1041807 0.2011556 -0.02677781 -0.01497681 0.149291 -0.09832654 -0.1312183 -0.04481466 -0.08484174 -0.2260547 -0.01190698 -0.08697381 0.1362084 -0.3031185 -0.02041612 -0.1480681 0.26452 -0.001553062 -0.1629392 0.1816214 -0.278147 0.01093829 0.08753125 0.0428369 -0.07568984 0.01838654 0.1253361 0.06540141 -0.3449163 -0.09244076 0.1236879 0.1933958 0.005104974 -0.4491169 0.647087 -0.3180011 0.05937488 0.2267115 0.044508 0.1602994 -0.01559248 -0.3042543 -0.1744169 0.09246813 0.3768299 0.5364178 -0.1996797 -0.1706414 0.0004944625 0.2925192 -0.2507812 0.1995743 0.2201298 -0.2521371 -0.04979274 -0.1820161 -0.2148408 -0.2821621 -0.3935928 -0.3096427 -0.2053615 -0.2762946 0.3469193 -0.2695292 0.02817962 0.06566026 -0.141205 -0.03387601 0.4942498 -0.005416232 -0.3063188 -0.4411268 0.2394302 0.172204 -0.07964894 -0.1682851 -0.004906541 -0.3072533 0.3471332 -0.1710356 0.0336648 -0.1617069 0.0483118 0.3631825 0.2456914 -0.5062544 -0.08492242 0.001798585 -0.1994504 -0.09631643 -0.007420943 0.2662171 0.1675426 0.008766203 -0.1510705 -0.1942237 0.2860923 -0.2227843 -0.1252914 -0.1618546 0.04013338 0.006592811 0.04115153 -0.1067214 0.4565131 0.365135 0.06851032 -0.05407548 0.133301 -0.307519 -0.1741502 -0.004183974 0.0386451 0.07051189 -0.3547709 -0.1241311 -0.05630974 -0.1156127 0.2026065 0.2960867 -0.1343458 -0.1424121 -0.007781901 -0.1461921 -0.1550696 0.2779393 -0.1204202 -0.4069459 -0.09538807 0.1992102 -0.05905665 -0.08769217 0.4316435 -0.07158794 0.05579532 0.1074167 0.313831 0.03893977 -0.07018264 -0.08681314 0.4400871 -0.08516117 0.06759951 0.1103454 -0.1546723 0.4606525 -0.3407313 0.1567062 0.1562164 -0.1115889 -0.1429281 -0.342784 -0.1769978 -0.5956738 -0.003994556 -0.2129715 0.1009529 -0.04013613 -0.0543389 -0.07908076 0.1718573 0.30652 0.05682979 -0.02958403 0.2392412 0.1418666 -0.0391701 0.3060585 -0.14638 -0.1457987 -0.004969524 -0.4477974 
  0.2905121 -0.02501237 0.1316879 -0.5428571 -0.1570399 -0.1511438 -0.2247604 -0.5206586 -0.07424626 0.2317459 0.06242078 0.4784502 -0.07961196 0.008491641 0.1376659 -0.1251989 -0.05295272 -0.184009 0.2003209 0.1890111 -0.08894438 0.1665593 -0.04441014 -0.02683773 0.02600406 -0.07542643 -0.1038054 -0.1236107 -0.1565725 -0.2738498 -0.1085128 -0.0004399845 -0.05991473 -0.3713772 -0.3392423 -0.3545589 0.1584587 -0.1612598 -0.2403851 -0.3529891 -0.1003079 -0.0308151 -0.08393491 0.4165552 0.2118424 -0.06816844 -0.1112514 -0.06805647 0.2939091 -0.3635404 0.3266405 -0.1469825 0.08107343 -0.1540819 0.2054947 -0.2235762 -0.003334756 -0.08208903 -0.2583012 -0.1463525 0.005005302 -0.2613256 -0.2676151 -0.1088896 -0.07574231 0.1791939 -0.2476905 0.7105833 -0.1958589 0.5292231 0.07149208 0.3265746 0.006476272 -0.1106691 -0.3228936 -0.1755482 -0.5177383 -0.3122377 0.02157775 0.09397764 0.2632989 0.2608851 -0.2039457 0.08420011 -0.2889163 -0.07425378 -0.2428089 0.1600922 -0.1805701 0.06057195 0.1446822 -0.1332576 0.03616723 -0.6346525 -0.1186747 -0.02966235 -0.06824083 -0.1895275 0.05333608 0.2625403 -0.1495445 0.08273646 -0.255812 0.4164963 -0.2245764 0.1817885 0.4624068 0.04611594 -0.03580337 0.2326449 0.08286751 -0.3020183 0.002595474 0.2531203 -0.1599124 0.02606049 0.1389712 -0.4513051 -0.1357685 0.04618414 0.02234071 -0.1016698 0.05408639 0.05447245 0.3110797 0.1470397 -0.03393505 -0.0888212 0.04429614 0.1858878 -0.04501818 -0.1071675 -0.01361741 -0.2433324 0.05908681 -0.2325338 0.3220401 -0.0840902 -0.1006367 -0.2226429 0.1555958 -0.1225307 0.07062028 -0.2744081 -0.1337022 -0.1144795 0.1454114 0.2584806 0.3820128 0.1109463 -0.1507899 -0.05024386 0.004386615 -0.0005977726 -0.286476 -0.0408801 0.1943839 -0.3571926 0.1570398 -0.1422944 -0.2062841 0.1677728 -0.2436315 -0.138561 0.1406978 -0.08065544 -0.221027 -0.1466914 0.1047118 -0.3459668 -0.2064058 -0.07359451 0.3173461 0.1511443 -0.09475092 -0.1894455 -0.02243488 0.1852952 0.02176874 0.1378995 0.03761471 0.5903621 -0.1925871 0.01871712 -0.1154424 -0.1004326 0.1691095 -0.03366142 -0.2113206 -0.2627799 0.07092556 -0.2257299 0.0830441 -0.01051166 0.5058619 0.2020903 -0.3315985 -0.2596542 0.02404966 -0.03049627 -0.1235694 -0.166654 0.1757831 0.1237766 0.007890576 -0.1233526 -0.2282003 -0.01091557 -0.1506439 -0.04074299 -0.03788237 0.1050077 -0.09021305 -0.02701745 0.1447419 0.05594992 0.2233093 -0.163677 0.1355373 0.2572439 -0.8392138 0.03407402 -0.2007713 0.04851619 -0.1902037 -0.2047393 -0.1421052 -0.006201008 -0.05174869 0.2330033 -0.06475752 0.05840296 -0.07441295 0.1492983 -0.1307462 -0.162547 -0.04449399 0.01165629 0.04766527 -0.08166417 -0.0106867 0.01258824 -0.07340581 -0.1422185 -0.0108749 -0.1203901 -0.1384534 -0.1150074 -0.09251573 -0.1049117 0.01515196 -0.2365643 -0.2359476 -0.04043341 -0.3864247 0.1813298 
  -0.1447369 0.08000597 -0.07786948 0.009823094 -0.5129606 0.2368757 -0.04288965 0.2250995 -0.2112478 0.2069924 0.1582414 -0.07907518 0.1777502 -0.01077401 0.1330986 -0.06487558 0.1254827 0.01150421 0.0523077 0.07155848 -0.002427469 -0.01289054 0.2253917 0.03226458 -0.08153333 0.06987641 -0.328963 0.2079762 -0.002168842 0.3550087 -0.07634587 -0.4748988 -0.01960707 -0.6321566 0.2089609 -0.2083985 -0.4724158 -0.4046691 -0.2855369 -0.05096171 -0.2231515 -0.108907 0.118771 -0.002544766 0.06057825 -0.1526791 -0.1072309 -0.1612085 -0.06410319 -0.1426085 0.1116587 -0.09921207 -0.09393486 -0.1356063 -0.2647089 -0.1513806 -0.02435422 -0.06085493 0.009430258 -0.1620598 0.05503206 0.07036017 -0.1205909 0.1943515 0.10279 -0.3883246 -0.007339074 -0.08640704 0.1103617 -0.2072431 -0.2117806 0.06583831 -0.2880083 -0.03811722 0.1152181 -0.1108513 0.09517174 -0.2167458 -0.04812949 -0.0003045384 -0.2801478 -0.3906612 0.03428905 -0.1470912 -0.08578432 0.1204426 -0.2310696 -0.08031864 0.0408196 -0.1480412 -0.5382149 0.04163918 -0.07854334 -0.3948309 0.1489449 0.08203495 -0.1387752 0.1381946 0.04526382 0.1107608 -0.04072323 0.08437558 -0.0519329 0.07551286 -0.04718322 -0.009156891 -0.1927422 -0.3861516 -0.05464841 0.02054719 0.1120786 0.241051 -0.07679001 -0.2363404 0.9499915 -0.1338181 -0.01101709 0.1311976 -0.03447068 -0.4134801 0.1891425 -0.03904457 0.01174002 -0.1835365 -0.1188039 -0.06722999 0.3119549 -0.2264423 -0.2480697 -0.04983443 0.04039354 -0.08908715 -0.09043531 -0.437591 0.2009559 0.08419665 0.08541912 -0.1279644 -0.2727399 0.7647793 -0.04638445 -0.2101006 -0.07604956 -0.2623149 0.1233831 -0.3449343 -0.1372093 -0.05533117 0.02388135 0.1736246 0.04072699 -0.2560545 -0.4052422 -0.007915196 0.03704819 0.002718353 -0.3556714 0.1405421 -0.1456043 -0.0707145 -0.239082 -0.6962386 0.02661457 -0.04501782 -0.01205768 -0.0169162 0.1269185 -0.1471116 0.02251291 -0.1597366 -0.3536856 -0.08856746 0.0582389 0.0007700984 0.1766866 -0.2428961 0.7943354 -0.08137267 -0.01812365 -0.2718488 -0.134457 0.08826665 -0.08018534 -0.05111105 -0.06076434 0.2386545 0.3507459 0.146551 -0.1201116 -0.2407638 -0.3616881 -0.1361557 0.1210448 0.0573604 0.05284059 -0.1223871 -0.7813212 0.06850693 0.06321399 -0.1591331 -0.05460736 -0.04593109 0.05513905 0.2026712 -0.003497015 0.1266984 -0.1210183 -0.528481 -0.004203674 0.04276423 -0.2335828 0.006957661 0.02659343 -0.07525761 0.1718038 0.1740909 -0.6805842 0.04092258 -0.001991623 0.1782316 -0.05072055 0.08061581 -0.03666172 -0.04321715 0.1183262 -0.1722661 -0.3487287 -0.1003804 -0.003329808 0.330131 0.04983894 -0.1887427 0.03926856 1.226426 -0.2666478 0.1454812 -0.06090932 0.3167105 -0.06840888 0.03599794 -0.1159769 -0.1068632 0.3975173 -0.03908303 -0.1385864 0.1530819 0.5224736 0.1623193 0.02808585 0.1267789 -0.4363073 0.03772421 0.1681115 -0.2020337 0.08528747 -0.02154477 
  0.09865353 -0.01675131 -0.2079203 -0.4726584 -0.02248549 -0.4493295 -0.2324747 -0.3509261 0.1536811 0.09672841 0.3012501 -0.17508 -0.01984825 -0.5624719 0.02000876 -0.208538 -0.03828086 -0.229405 0.08152412 -0.228423 0.1536709 -0.1851565 -0.6610958 -0.1173225 -0.2231742 -0.1601638 -0.2644155 -0.2619352 -0.3009641 0.2509685 0.2141872 0.05063508 -0.2010542 -0.5703532 0.07412981 0.1347473 0.8643875 0.5619167 -0.07561183 0.6862841 -0.5850293 -0.03503958 -0.1117985 0.4217687 -0.2844655 0.1242705 -0.05301553 -0.06023195 0.6612948 0.07478633 -0.0071547 -0.145176 -0.2769782 0.2968447 0.09403285 0.2315516 0.1108496 0.1224678 0.1600599 -0.1915275 0.07760103 0.4283491 0.3140817 -0.2933534 -0.1695592 0.2105808 -0.2601395 -0.7047805 0.3318968 -0.4385421 0.1876307 0.1361493 0.3562557 -0.1508979 0.003867876 -0.1473459 -0.1991672 -0.3199339 0.07376689 0.2051007 -0.5902043 -0.2806128 -0.003590271 0.3294594 0.2508204 -0.135255 0.6565824 -0.02827635 -0.1041952 0.3455209 0.03074057 -0.4743352 -0.167377 -0.1681655 -0.380891 -0.03999167 0.3596177 -0.151433 -0.03370654 0.213071 -0.3071686 -0.480168 -0.2668281 0.2505898 0.2889408 -0.08604071 -0.125318 0.4036959 0.3180596 0.1309112 0.2858988 -0.2767543 -0.9337072 0.03000921 -0.01511255 0.2438416 -0.2201996 -0.5053036 0.08015734 -0.1080095 -0.02510696 0.1789778 -0.03603834 -0.2229908 -0.37559 0.0669031 -0.1123826 -0.7990304 -0.4393712 -0.1941027 -0.3590967 -0.5934752 0.3765254 -0.2275163 -0.1951281 0.3714389 -0.01145495 -0.1949677 -0.199622 0.04943044 0.6667212 -0.2082582 0.2545202 -0.3487718 -0.1256592 0.4281243 -0.3248912 0.2394205 -0.1851868 0.1765293 0.03017149 -0.4592203 -0.02736678 0.06896568 -0.1757579 0.0204225 -0.03130547 0.6285051 0.2276536 0.486499 -0.515588 -0.5819586 0.9948242 -0.01287811 -0.2616209 -0.4602031 0.04909408 -0.2923391 -0.4117845 -0.1318055 0.1955561 -0.3116096 0.09555901 -0.02110056 -0.08133236 0.1765896 0.1354382 -0.01228146 -0.2422436 0.2612484 -0.03437232 -0.2665603 0.07451784 -0.4243398 0.006980714 -0.5553701 0.6525915 0.1261243 0.01186688 0.2558156 -0.1285722 0.2907521 -0.006265985 0.2151002 -0.1939372 0.03420038 -0.08468723 0.06081284 -0.4849213 -0.5532748 -0.1150459 0.104426 -0.4661725 0.1478235 -0.1208171 -0.1534473 1.292104 0.0410608 0.1709391 -0.1960875 -0.2315534 -0.06605554 -0.3034844 -0.1176491 -0.453743 -0.3297876 -0.1731307 0.03643361 0.08047861 -0.4609365 0.1303346 0.04066342 0.01685051 -0.23291 -0.1738677 -0.00548587 -0.4373394 0.3177889 0.03635421 -0.06459846 -0.1935746 0.3402191 -1.075383 -0.09321595 -0.136972 -0.722807 -0.3450649 0.1682327 -0.0701552 -0.3697615 -0.4888671 -0.04827295 0.03184897 0.2498409 -0.6243979 -0.8107192 -0.05051207 -0.1330095 0.280624 -0.2312148 0.1368352 0.07120255 -0.2714751 -0.02623503 -0.2431882 -0.02590462 
  -0.004578367 0.05618225 -0.2120245 0.09374585 -0.5107917 0.1627746 -0.2811739 -0.1592025 -0.2777646 -0.05208957 0.1733389 -0.06424847 -0.1592981 0.284188 0.057163 0.2030587 0.1461981 0.1309198 0.002268655 -0.001741246 -0.09616504 -0.1108794 0.5229216 -0.03864552 -0.04999055 -0.04369977 -0.2555023 -0.09975354 -0.2407398 -0.04205852 0.003198131 -0.3123099 -0.2463 -0.01858833 0.1390885 -0.191373 -0.1962074 -0.2937092 0.002172861 0.3385049 0.2712494 -0.445176 -0.06780541 -0.003382644 0.4468255 -0.008099681 -0.1770597 -0.04317315 0.06895775 -0.1634322 0.1307435 0.2169338 -0.1381959 -0.3656273 -0.0433575 -0.08914542 0.09643603 0.02732682 0.1543917 0.1196256 0.04401034 0.02472075 -0.03653676 0.1028472 -0.009923537 -0.05973863 -0.07421053 0.3603283 -0.1867041 0.1020667 -0.1339981 0.07968097 -0.04491268 0.02136831 0.139093 -0.2129482 -0.01095599 -0.116547 -0.2128542 0.5408239 0.1428672 -0.3180475 -0.1005374 -0.4399621 -0.2324024 0.06430162 0.04586596 0.1806388 0.2262891 0.07491532 -0.21682 -0.3232293 -0.1613856 -0.2098812 -0.410132 -0.2382766 0.9501559 -0.01812324 0.3281619 0.1633595 -0.375213 -0.04538357 -0.2583387 -0.1121035 0.3635761 0.02846187 0.1655552 -0.08162394 0.1861941 -0.01369082 -0.06563395 0.6394517 -0.1030218 -0.1944396 -0.529799 -0.1001425 0.4652711 -0.1350405 0.175403 -0.01706175 0.05509478 -0.2870617 -0.09152699 0.1030438 -0.09510443 -0.09348999 0.4215737 -0.1656549 -0.2166304 0.09825622 0.03647481 0.2770734 0.1992843 -0.1694448 -0.06518832 -0.08659371 -0.1027949 -0.2687726 0.20639 -0.06080271 -0.04695268 -0.1876451 0.2154832 -0.1730793 -0.08380017 -0.1273773 -0.4157546 0.06151251 -0.06654122 0.1064615 -0.08848643 -0.01051341 0.1277131 -0.08653197 0.01453999 0.1553302 0.03699826 0.1013902 -0.3325031 -0.1320736 -0.1646044 -0.3210459 -0.09727404 0.3411852 0.06594665 0.1299461 0.3364958 -0.1108988 0.4692881 -0.008482412 0.08636948 -0.09041375 0.07658823 -0.01223865 0.06276651 -0.1783624 -0.03336796 0.0002325328 -0.005552153 0.03595711 -0.07623768 0.07453945 -0.02529553 -0.2795756 -0.005334079 0.5164731 0.02243339 0.1084633 -0.1059137 -0.4728049 0.09518164 0.1637254 -0.06506218 0.2770888 0.06400703 -0.08409476 -0.3943601 0.4060557 -0.1640128 -0.3971767 0.1669486 0.01373272 -0.02103598 -0.1236183 0.1404478 0.1258592 -0.1941962 0.202975 0.450685 0.03046208 -0.2240507 0.07348512 0.04169548 -0.1778218 0.01607037 0.002134173 0.05601898 0.5977419 -0.01733316 0.003405581 0.2546476 -0.08598117 0.1195424 -0.005321745 0.4192722 -0.2960587 -0.08405969 0.3610831 -0.01708625 -0.0238644 0.07820325 -0.04292321 -0.07158988 -0.3484826 -0.2981335 0.001181978 0.2048907 -0.3533623 -0.1049794 -0.005242534 0.094882 0.05255413 -0.08870582 0.1047692 -0.04869911 0.07078598 -0.04092756 0.2160589 -0.1130135 0.01724708 -0.1083405 -0.2326698 -0.01349662 0.1579951 -0.07935608 0.2903799 
  -0.07437544 -0.01788733 -0.2770987 0.06238579 0.09157151 -0.5019267 0.1791074 -0.3342105 -0.1215359 -0.6587274 -0.5214568 -0.2823165 0.09734824 -0.5225562 0.03317245 -0.2362276 0.1877367 -0.47948 -0.05578619 0.09920821 0.03178944 -0.2616425 0.230308 -0.02473546 -0.1824027 -0.1135711 -0.1059196 0.07031624 -0.1046038 -0.09086094 -0.1289155 -0.01548669 -0.0623931 -0.2041157 0.2232068 0.007014011 0.08793819 0.1527274 -0.08732905 -0.04506662 -0.1575323 -0.26588 -0.04232927 0.2072001 -0.01174412 -0.09917102 0.2264949 0.01157559 -0.2112901 -0.06350668 -0.4117725 -0.1274473 -0.1363415 0.003391657 0.03494367 0.02353493 -0.1151073 -0.07724263 -0.07156025 -0.114748 0.04272399 -0.05205526 -0.144598 -0.1208667 0.1741029 0.1031016 0.09054001 -0.7275381 -0.1438504 -0.1842324 0.08117698 -0.01889629 0.09126348 -0.11347 0.2701855 -0.1648006 0.09699762 0.4424812 -0.2282039 0.02114218 -0.2396627 0.1089541 0.03714082 -0.08207516 0.6831903 -0.02295854 -0.5569215 0.09276716 -0.3369911 -0.2537861 0.2636965 -0.03971944 0.1323867 0.2150523 -0.2184881 -0.1033817 0.06048595 -0.00802487 0.01368257 -0.1336716 -0.003194377 0.1434162 0.03226293 -0.1250398 0.1468662 -0.02701387 -0.02831767 0.1530143 -0.04058331 0.05164737 0.1540796 0.1158835 0.2878222 0.05799191 0.1871376 0.07067034 -0.06910153 0.1768264 -0.2342365 -0.02312271 -0.298417 0.007277396 -0.03005656 -0.3166776 -0.8111658 -0.13259 -0.3838158 0.4473258 -0.2749678 -0.3791844 -0.06847154 0.05850844 0.1531419 -0.0453836 0.1408335 -0.1697545 0.3328298 -0.09045215 -0.1720823 0.008747002 -0.03999579 0.3041228 -0.3349282 -0.1620541 0.1464909 0.1379756 -0.08061467 -0.1711311 -0.03287372 -0.05212848 -0.0692005 -0.4199433 -0.03104355 -0.1761278 -0.1944989 -0.08224744 -0.3852285 -0.2020749 -0.3352967 0.02505016 0.08474994 0.07710131 -0.3162309 0.03508166 -0.01994976 -0.008929722 -0.007208435 0.269287 0.0979572 0.101739 0.01731843 -0.1227832 -0.536099 0.1007865 0.1479869 -0.1401445 -0.125029 -0.02444404 -0.234195 0.06624928 0.05425131 -0.1881016 -0.2137892 0.03542398 -0.2235371 -0.4053771 -0.3936112 -0.1424005 -0.298458 0.00971667 -0.007941713 -0.03556603 0.05305787 0.2278591 0.1089643 0.07314595 -0.1551062 0.1515138 0.01943851 -0.1675785 -0.1399875 0.01667893 -0.256172 0.1257469 -0.001582225 0.2886658 -0.2065737 -0.04673941 0.01765516 -0.2459909 -0.223473 -0.4812022 -0.2506395 -0.08801857 -0.08640403 0.2253489 -0.6011024 0.07513686 0.1330982 -0.005314722 0.1073618 -0.2142051 0.1428068 0.02630346 0.06163565 0.07954242 -0.009671167 0.1612359 -0.1463257 -0.1249941 -0.2082753 0.01778616 -0.1673445 0.237566 -0.07552563 0.05030776 0.04781918 0.1776062 -0.4310261 0.06351699 0.1117082 -0.007148308 -0.1341362 0.1449016 -0.1765734 -0.1463055 0.1720348 -0.03694269 0.7925374 -0.1949095 -0.6490776 -0.3271733 0.1787827 -0.05711862 -0.09445445 -0.1736815 
  -0.0203016 0.002601095 -0.1091974 -0.1059152 0.01367263 0.05044319 -0.1644192 0.07609493 0.1605432 0.2000713 -0.1444912 0.05338963 0.00322929 -0.326099 0.5461453 -0.1341259 -0.1364269 -0.2324317 -0.01240728 -0.07014186 -0.008693967 0.1078968 0.05992562 0.311662 -0.2935877 -0.01636415 -0.2946067 -0.01783555 -0.01904156 -0.05183575 -0.03875276 -0.2818952 -0.08919585 -0.3050897 0.03373678 -0.1850512 0.06757623 -0.270115 0.09538511 0.2845581 -0.2273409 -0.113928 -0.019496 -0.2455558 -0.1538057 0.1269753 -0.07946254 -0.004435557 0.00754624 0.2899619 -0.3230851 -0.0007629419 -0.2142955 0.04409193 0.173358 -0.2905733 0.2019405 0.1411702 0.003460225 0.05356859 -0.1463203 0.06940686 -0.3063169 0.08535095 -0.02607932 0.1926526 0.02955594 0.09251268 0.5880475 -0.1672155 0.09417202 0.01967229 0.1146845 0.1348268 0.1393808 0.2638634 0.3173752 0.3044958 -0.04996723 -0.227353 0.07939546 -0.157462 -0.06399861 -0.05512169 0.3776546 -0.109144 -0.1241025 0.007760925 -0.1761634 0.09046903 0.0194714 -0.1675063 0.01548305 -0.1625085 -0.2787938 0.1646525 0.06825741 -0.1038438 -0.2293228 -0.03664678 -0.3544039 -0.1767001 0.1190833 -0.02698566 0.002713877 -0.09933692 0.06538639 0.02460295 0.1711281 -0.05106616 -0.1915793 -0.1553577 -0.3892809 -0.2332147 0.05670243 -0.0006119426 -0.09202735 -0.2522844 -0.00539609 -0.01142376 -0.02061881 -0.07747677 0.3166254 0.07713955 -0.3876801 0.2708616 0.1760344 -0.1064662 0.3100258 -0.4867332 -0.0184888 -0.0893885 0.1599691 0.1002733 -0.1321036 0.01383973 -0.08713922 0.08245292 0.1771073 0.0939328 0.06846996 -0.1204262 -0.2906872 0.06046744 -0.131545 -0.07821785 0.2783998 0.1823566 -0.2173142 -0.3363703 -0.1690515 -0.5887545 0.08999248 0.0884819 0.2165436 -0.1886476 0.132497 -0.2732622 0.04048891 0.04164861 -0.03776451 -0.5199369 0.09533802 0.04462627 -0.02853062 0.03578629 0.2651352 0.03379586 -0.3563274 -0.2892577 0.1307844 0.1297133 0.09430755 -0.08220074 -0.02417004 -0.1485174 -0.08179367 -0.1135865 0.05119941 -0.00314415 -0.1372584 -0.3178727 0.1150254 0.009261502 -0.2699872 -0.06934749 -0.1545187 -0.1667518 -0.1223448 0.06499471 0.1912168 -0.08050314 0.2212854 0.1458078 -0.03348402 0.01559836 0.0375061 -0.2569078 -0.09555376 -0.2967328 0.08244115 -0.03050105 0.1156427 0.1881755 0.154075 0.2409047 0.1086818 0.2444416 0.0795406 -0.1691375 0.09817024 0.3460068 0.1598024 0.01324959 -0.01051456 -0.2308378 -0.05540678 -0.1332011 -0.08790403 0.2282548 0.09566642 0.1230774 0.0316553 0.07007612 -0.08628451 -0.003013785 0.0508037 -0.224916 0.00336042 0.08398564 0.07335807 -0.4834353 -0.06760935 0.0889648 -0.325911 -0.1565191 -0.1746011 0.1126734 -0.1080786 -0.02526613 -0.07758852 0.373838 0.004390104 0.2781056 -0.05169028 0.2946005 -0.03681127 0.07711592 0.210677 -0.01611895 -0.006384224 -0.1468726 -0.228805 -0.06734212 -0.0770048 0.04128584 
  -0.1142854 -0.07186615 0.196728 0.1318663 -0.4399394 -0.01125975 -0.1166986 0.075796 -0.1662851 -0.3152575 -0.04286582 0.04406306 0.1373404 -0.02425296 -0.2652574 -0.4120749 -0.2864345 0.101388 -0.03744552 0.5467636 0.138466 -0.2460844 0.1885411 0.03919606 -0.02769443 -0.333022 -0.2770819 -0.005866372 0.1055606 -0.2468249 -0.1546426 -0.2513655 0.1504462 -0.2869732 0.1497283 -0.04834664 0.07463759 0.1203044 0.028477 -0.1733584 -0.1163806 -0.1049963 -0.01742788 0.0155939 -0.03125175 -0.03414769 0.294958 -0.1816225 -0.112418 0.2611459 0.1961473 -0.09858511 0.05311926 -0.1621182 0.1669437 -0.03803296 0.06844854 -0.1230835 -0.3940628 -0.1296538 -0.01836473 -0.07095251 -0.1819128 0.00962997 0.03139751 -0.5465354 -0.05325485 -0.09477672 0.03149284 -0.1425512 -0.009633918 0.1220919 0.5218064 -0.2001573 -0.1117872 -0.1667733 -0.08353794 0.1198905 -0.02869889 -0.7876306 0.3473593 -0.05450865 -0.2419562 -0.155467 -0.2543109 0.06922366 -0.03729623 -0.0966106 -0.2753495 -0.09642382 0.0950937 0.09184629 -0.2132368 0.1570715 -0.04608429 0.09032589 0.1849061 -0.1000433 -0.1253852 -0.2400115 -0.01683838 0.1576341 -0.3195607 0.2062021 -0.134159 -0.1474426 -0.2301266 -0.08722537 -0.739534 -0.02742043 -0.07084137 -0.1506124 0.1290855 0.1277326 -0.2518262 -0.218989 0.8076503 0.04104428 0.09784088 0.1451104 0.0181087 0.08447973 -0.0161932 0.08496965 -0.1717036 -0.2746421 -0.07218871 0.06247589 0.1422448 0.281326 -0.1313534 0.1323177 -0.5333304 -0.1613588 0.4643836 -0.1393071 -0.1737314 0.05404221 0.03127253 -0.2483722 -0.1781823 -0.190803 -0.5269472 -0.06150838 0.02287029 -0.005526984 -0.1938492 0.214587 -0.1946506 0.132067 -0.3414088 -0.3543037 -0.2753845 -0.05511143 0.2272997 -0.07404195 -0.1479551 -0.007544308 0.02778646 -0.02418629 0.1376185 -0.1164337 -0.05246852 0.07897391 1.226605 0.00540812 0.1281244 0.009529901 0.1988194 -0.165381 0.1077393 0.1974202 0.1981014 -0.02301665 -0.006880992 -0.1762487 0.2169853 -0.1172712 0.02726118 0.4717327 0.2128116 -0.1402491 0.1498636 -0.1701867 -0.1064757 -0.3004844 0.2906013 -0.1132335 -0.03182544 -0.1195073 -0.008018495 0.4898853 0.04214788 0.2138725 0.2141214 -0.04684896 -0.1334137 0.066884 -0.04498763 0.07213838 0.03175288 -0.2031664 -0.1042708 -0.2666733 -0.5838182 0.09025197 -0.08460584 -0.3443761 -0.0004803515 -0.1969429 0.1015802 0.01384449 0.07832347 0.2321071 0.07756372 0.02953088 0.4859524 1.382313 0.01909034 0.1291482 0.2493982 -0.1323317 0.1051805 0.1688431 0.05436721 0.03691049 0.08133941 -0.3560754 -0.01654065 0.3924744 0.002696858 -0.1489134 -0.3961342 0.006644974 0.03195829 -0.03955068 0.4878819 -0.0179887 0.3209502 0.1186943 -0.09767134 -0.03791611 -0.07972234 0.01824349 -0.1744065 -0.1876426 -0.2880009 -0.01648082 0.02515935 -0.1719175 0.2727849 -0.04690458 0.1845828 -0.137808 -0.02482847 0.2362754 
  -0.002538464 0.2642244 0.05826241 0.2229338 0.06994214 -0.1555712 0.1445305 -0.1180205 0.5795626 0.0250305 -0.2770055 -0.269575 0.02594554 0.06506397 -0.1377192 0.1096261 0.1466312 0.0241803 -0.02439227 -0.1650553 0.09760919 -0.439447 -0.1395507 -0.1599059 0.7181942 -0.2028487 -0.03730714 -0.03767454 0.1887817 0.08174226 0.3543032 -0.3295045 0.2545313 -0.1477688 -0.113328 0.1983887 -0.4558362 0.1374829 -0.2530396 0.03272182 -0.1293009 0.2802465 -0.2063957 -0.1329309 0.1322799 -0.1309593 -0.04133285 -0.2924179 -0.03911441 0.1861873 -0.1662343 -0.01827997 -0.1243495 0.1059226 -0.03397379 0.1190128 -0.1288561 -0.07441795 0.006636143 0.1228832 0.007846481 -0.1745245 0.03173596 -0.005215789 -0.03319298 -0.02171931 0.07369883 -0.1276028 0.4310716 -0.1970761 -0.1246573 0.09060797 -0.1073848 -0.00268796 -0.07258399 -0.2470463 0.2399149 -0.7798604 0.06310554 0.07456023 0.35318 -0.1454687 -0.06728856 -0.3554417 -0.1539086 -0.05093603 0.0655586 -0.2469912 -0.1875839 0.136724 -0.08589885 0.09127057 0.1691255 0.05758036 -0.1015221 0.1315326 -0.1824136 0.01492368 -0.03043626 0.1549159 -0.1107107 0.05486266 -0.09016212 -0.05344978 0.08241613 0.05480405 -0.0223051 -0.2601474 -0.3504873 -0.03225432 -0.1877163 0.0353752 -0.2456474 -0.1499267 0.07084348 -0.08557392 0.01868665 -0.1778781 0.05972 -0.04947978 -0.05011501 0.08257326 0.03044975 0.2023555 -0.6393244 -0.06988577 -0.3514129 -0.4326947 -0.2406294 -0.2575185 0.05888681 -0.01230536 -0.1053332 0.06268872 -0.4823271 -0.04955802 0.03141772 -0.04022474 0.01302684 -0.01577923 0.2054811 -0.1525953 -0.2210696 0.4793294 -0.2514674 -0.03212059 -0.4466536 -0.002289674 0.092483 0.1144167 0.1694077 -0.2005268 -0.2649307 0.1004242 0.09205044 0.02661622 -0.2365805 -0.1966214 0.1375027 0.09962744 -6.462431e-05 -0.1593052 0.3688978 0.03303279 0.1366758 0.07279392 0.1748092 -0.02159205 0.2535813 0.2190137 0.06944184 0.06848695 -0.3183976 0.08620043 0.1377759 -0.1784524 -0.02020626 -0.04016816 0.1479628 -0.06164996 -0.07411588 -0.2732528 0.09808199 0.09309415 0.009916558 0.08128589 0.02012097 -0.1255429 -0.1720791 -0.02785428 -0.04371907 0.1625134 -0.171386 -0.1126821 -0.2506048 -0.1524622 -0.01760948 0.1354142 -0.1435924 -0.08468545 -0.08286279 -0.239246 -0.3358968 -0.3077458 -0.01232604 -0.1695766 -0.08738389 -0.04568517 0.05396679 -0.1559608 0.1161517 0.04925564 0.09018272 0.1683149 -0.1725474 0.1397122 -0.1368207 0.0814798 0.04866117 -0.01961275 -0.05193965 0.02503606 -0.06920711 0.01343814 -0.09936639 0.105219 -0.1106373 0.01567009 -0.07240308 -0.1430411 -0.09596861 -0.008392556 0.1373946 0.04521919 0.04048169 -0.01274427 -0.09366482 -0.03711649 0.1348552 0.003014239 0.06124545 -0.02730053 0.01414477 0.03999059 0.05601554 -0.2062416 -0.2235374 -0.1945618 -0.4202341 0.01474326 -0.1071541 0.01464933 -0.1716125 0.04934673 -0.03247445 0.1782213 
  -0.05848064 -0.06108941 0.4146315 -0.1174068 -0.2395464 0.00929652 0.2309996 0.3263009 -0.2300366 0.2583903 -0.04730065 0.3517767 -0.1206242 -0.1686323 -0.03478447 0.187777 0.09874538 0.1125629 0.1736019 -0.2170496 -0.03710605 -0.03758616 0.05845965 -0.151042 -0.1137001 -0.3646958 -0.1027168 -0.09255727 -0.476186 0.1701173 0.02656278 -0.07296844 -0.002520527 0.3248147 0.1134275 -0.1563411 -0.04198866 -0.329968 -0.135373 -0.163859 0.2770311 0.04717211 -0.1722772 -0.2326866 0.3601995 -0.4494041 -0.3253104 -0.2648886 0.2357686 -0.02487387 0.241458 0.01259172 0.3219287 -0.005387867 -0.1872714 0.3546091 -0.005573393 0.1218559 -0.1015777 0.1690654 0.183418 -0.02253686 0.04775474 -0.2367678 -0.2819701 -0.02384297 0.09520113 0.1664505 -0.0003646305 -0.1639922 -0.1549054 -0.01741062 0.3496757 0.1838293 -0.011021 -0.06801907 -0.1007925 -0.1395259 -0.2576389 0.1218612 -0.03026303 0.06055561 -0.1530675 -0.01669511 -0.04826816 0.08767467 -0.238372 -0.06190062 0.3075119 -0.04481747 0.07659718 -0.1530901 0.09479616 -0.3995454 0.08786388 -0.3085826 0.3762302 0.2774675 0.334042 0.1344147 -0.09463074 -0.2411753 -0.3169255 -0.04414474 0.07763634 -0.1852717 -0.3486748 0.02609129 -0.1882617 0.07613324 -0.08952047 0.1941115 -0.09470648 -0.1080094 -0.07993912 -0.3235396 0.0773818 0.1534695 -0.127656 0.05251814 0.101622 -0.4684772 -0.3073184 -0.1689749 -0.1662036 -0.06633319 -0.272698 0.02731035 0.0763888 -0.1073597 -0.08549537 0.04343271 0.1847584 -0.2780715 0.03322582 -0.0891857 -0.1286819 -0.340397 -0.04896669 -0.1946268 -0.1052034 0.1935935 0.117416 0.004029352 -0.3843169 0.1768556 0.2195739 -0.05550477 0.1465499 0.3595702 -0.1405599 0.3567431 -0.09738136 0.104572 0.004229262 -0.262376 0.2239064 0.004255539 -0.4205353 -0.00353975 0.04462842 -0.09024985 -0.1742085 0.3597493 -0.3978237 0.05336032 -0.02024709 0.3756936 0.03519929 -0.1522242 -0.1654462 -0.09293883 -0.02148438 0.0852181 -0.02396669 -0.1920251 -0.3405634 -0.1444146 -0.3288732 -0.3485928 -0.1566456 0.3035176 -0.08568618 -0.1329304 -0.06225036 -0.05839015 -0.115262 0.0406249 -0.05153516 0.7483735 -0.04876053 -0.04242505 -0.03819977 0.07879101 0.1477565 -0.06121437 -0.2131138 -0.0006943803 0.4568821 -0.09072492 -0.189635 0.06741474 0.1754187 -0.1011801 0.015066 -0.1710776 -0.2701581 0.1469333 -0.3577206 0.1017959 -0.1556637 -0.1035142 0.1333452 0.2967526 -0.0584045 0.0658983 -0.4245027 0.2062605 0.1070793 0.04951584 0.1108517 -0.06358226 0.1459514 -0.2209568 0.03001965 -0.2277339 0.1533973 0.008170995 0.2199849 -0.06686924 0.09971043 0.2939929 0.1959186 -0.4247466 -0.3525774 -0.07079426 -0.198651 -0.4563495 0.4144451 0.1652864 -0.1527455 0.2139206 0.1536717 -0.1574219 -0.0782193 0.02478932 0.4262114 0.389886 0.2034375 0.1743892 0.04383733 0.1250435 0.3104524 0.2014548 -0.03506886 0.03472932 
  0.14548 -0.2604971 0.07403418 0.09940485 -0.164975 0.1576703 0.01674718 -0.1307082 -0.008483373 0.14232 -0.2661004 -0.1976472 -0.050052 -0.01548671 -0.2256397 -0.03003313 0.08773569 -0.1507538 0.06478462 0.05416949 -0.09210544 0.1263996 0.5005532 -0.04019195 0.01832625 0.02661817 -0.05932878 -0.2512866 -0.03507488 -0.1104357 -0.1261375 0.4455782 -0.1814635 0.1533495 -0.008150845 -0.1582803 0.05670999 -0.2309796 -0.04096884 -0.1790387 0.6005 -0.111379 0.004199476 -0.121485 0.01559743 0.03243717 0.07486752 -0.2231562 -0.1238321 -0.2996025 0.004945362 -0.06140442 -0.7626299 -0.1423311 0.1076014 -0.08385085 -0.02832035 -0.09727688 -0.01143555 -0.02263728 -0.04856575 0.01890579 -0.03316314 0.1746124 0.08593026 0.1733825 -0.07061752 -0.09525428 -0.1252191 -0.2680318 -0.06041364 -0.115926 0.06532244 -0.1921493 0.009825674 -0.1474791 -0.3227521 -0.1055865 -0.09770346 -0.2018463 0.02585885 0.1065641 0.03183281 -0.1071897 0.1011919 -0.01415035 -0.08114372 -0.017671 0.03810591 -0.1898948 0.0052727 0.1329057 0.3758722 -0.1635247 0.09579524 -0.003628612 -0.4045434 -0.07553282 0.1217965 0.128344 -0.00924209 -0.3290012 -0.02327961 -0.3265033 -0.01148624 -0.0283918 -0.1321703 -0.168619 0.08531888 0.189695 0.06692086 -0.2953338 0.009014743 -0.008308546 -0.09322587 0.1212886 0.159676 0.07420645 -0.1852628 0.005133806 0.03332482 -0.0186615 0.1699874 0.0338897 -0.07469577 0.1588227 -0.3244533 0.1101866 -0.3043769 -0.5500543 0.009667328 0.09856769 -0.2679415 -0.08810253 -0.009663288 -0.1188665 -0.03695285 -0.1576241 -0.3119347 0.3060339 -0.02531428 -0.154798 -0.1582326 -0.1811377 0.08103055 -0.15963 -0.3643957 -0.06280671 0.03046402 -0.2050649 -0.03833436 0.1861669 0.04955193 0.08975683 -0.2365852 -0.02475239 0.1632579 -0.4108505 -0.04791342 0.03925512 -0.5623286 -0.1234171 0.1545623 0.008911717 -0.4223017 0.05167458 -0.1313974 0.149823 0.04330567 -0.1365302 0.06253642 0.05443599 0.1959179 -0.07676903 0.02918776 -0.2868338 -0.2154024 0.02762895 0.18405 -0.07088147 0.2648045 -0.1336354 -0.0274011 0.008831975 0.1710231 -0.5936517 -0.04199371 0.004552647 0.1586733 -0.04564225 0.2517024 0.1877055 0.1012102 -0.3253054 -0.1531784 -0.05982621 0.008345679 0.2462203 0.04706822 -0.2716115 0.3592536 -0.1498825 0.03910824 0.1163452 0.1732128 0.07118899 0.008318214 -0.01720684 -0.2296993 0.1497201 0.06402074 -0.04575145 0.1438646 0.2078448 -0.2905745 -0.03204999 -0.4931318 -0.3400354 -0.1430815 0.0574587 0.02804855 0.03022799 0.1160565 -0.03276874 -0.1938425 -0.2743234 0.04924878 -0.09252141 0.1316493 -0.2556754 -0.09059018 0.03920774 -0.2074468 0.09806943 -0.1156719 0.1125492 0.2797191 0.06459265 0.08350005 0.02888121 0.1813721 -0.05699598 0.1221747 -0.1916119 -0.1659096 0.2559774 0.423316 -0.03114027 -0.03969242 -0.104047 -0.2553588 0.05258533 0.280786 0.04987532 0.07897629 0.07494143 
  -0.7432967 0.2264639 -0.4446338 0.3541158 -0.2604244 -0.04327125 -0.1879968 -0.2120428 -0.08926409 -0.1403165 -0.08684071 0.3496297 -0.02865767 -0.381836 0.1840585 0.05837835 -0.1048953 0.1064733 0.608906 0.4553201 0.04569455 0.3417409 -0.2887514 -0.05343141 -0.1746477 -0.1690039 -0.2596464 0.2072195 -0.4724127 0.6893877 -0.03600208 -0.0794109 -0.1863757 -0.1195581 0.1804746 -0.02039044 -0.2869824 -0.05341976 -0.02184645 -0.2496362 -0.1506426 0.4446153 -0.1237692 0.1602918 -0.02350591 -0.3191423 -0.321669 -0.3250445 -0.1510233 -0.0250046 -0.1984491 -0.2611331 0.1470102 -0.0308427 0.3424502 -0.0389168 -0.2448926 0.427021 -0.1374118 -0.1360305 -0.5155435 -0.03142678 0.9867404 0.2760276 -0.07175327 0.05226392 -0.3755246 0.2980036 0.1007042 -0.1462274 -0.236489 0.08090035 -0.01785526 0.3043077 -0.6126117 -0.1068215 0.2297685 -0.5092857 0.2662308 -0.4957426 -0.5371129 0.07059877 -0.3025051 0.03482454 0.2194067 0.2878802 0.1281086 -0.07586438 -0.4368149 0.3167951 -0.1284491 0.294422 0.08722588 -0.05842083 -0.0879938 -0.1380765 0.1953439 -0.5264397 0.04734675 -0.07384861 -0.3236497 0.2732756 0.2340505 -0.3409145 -0.09901424 -0.02556004 -0.1815667 -0.4553541 -0.2121023 -0.2758566 -0.5133504 -0.2040162 -0.03599962 -0.7219526 -0.5457817 -0.3330248 -0.06070535 -0.4742613 0.1747677 -0.4397131 -0.08634349 -0.1781404 -0.08670387 0.2369998 -0.7320515 0.02701143 0.06484388 -0.3413369 0.08485082 -0.03360357 0.1083678 -0.06611287 -0.06696463 -0.5305801 0.4342523 0.1414621 -0.1369869 -0.2308767 -0.3372895 -0.2492936 -0.1713776 -0.1804448 0.4516996 -0.4381463 -0.2286933 0.05930565 0.2419245 -0.007559076 1.013745 -0.4326476 0.3064696 -0.2882235 -0.6186348 0.1683277 -0.2705661 -0.1464941 -0.2840046 -0.2912105 -0.6946439 -0.03815578 -0.3392278 0.9564803 -0.2392539 0.1186367 -0.1033862 0.391598 -0.1911414 -0.4131999 -0.1201383 0.1196509 -0.3228718 -0.2915423 0.7941924 -0.319859 -0.2498395 -0.4314924 -0.1769764 -0.1348777 -0.4366759 -0.1628134 -0.05979837 -0.2746548 -0.0271216 -0.3800836 -0.150273 0.2134534 -0.1259149 -0.01456282 -0.596738 -0.1662712 -0.2161438 -0.03992137 -0.2335289 -0.1059561 1.015867 0.6131799 -0.4684654 0.06229062 -0.206073 0.0123739 0.0706632 -0.3207178 -0.03734012 0.04436067 0.05578056 -0.1071419 0.2465874 -0.1446751 0.2238239 -0.8601308 0.1620315 0.2421518 0.7624238 0.0362151 0.5292585 0.03531843 -0.1618728 -0.3267902 0.02126966 -0.1043687 0.2265373 0.1776272 -0.5221726 -0.08137263 0.1485659 -0.1583698 -0.1012441 0.3078297 -0.1112688 0.02385929 0.156714 1.312139 -0.3033872 -0.6572346 -0.02938622 -0.09924339 -0.1999058 -0.2747293 0.04399659 -0.5684675 0.7835364 -0.01301798 -0.1510025 0.3090875 -0.07658204 -0.5047624 -0.1997552 0.209923 0.4072407 -0.2354975 0.97868 -0.3612444 0.2555564 -0.2233452 -0.05065689 -0.8658548 
  0.2494213 0.3006518 -0.1226752 -0.2565413 0.04926846 -0.03753867 0.1026885 0.5460054 -0.1270054 -1.003686 0.2273998 -0.2327444 -0.1549252 0.1217138 0.2198821 -0.8182055 -0.1153327 -0.4541649 -0.04206598 -0.1947558 -0.02526952 0.3497941 -0.1105496 -0.03468494 0.1785177 0.315066 0.1158304 0.04910671 -0.2657593 0.1216588 -0.03804836 -0.04978157 0.0142686 -0.3106935 0.02843387 0.1556329 0.04437744 -0.1023182 0.1730645 -0.3833817 -0.165904 0.2601335 -0.1906856 -0.1977687 0.04634489 -0.002859127 -0.3580735 0.1759889 -0.0823856 0.1959487 0.1476832 -0.1550489 -0.2754224 -0.05245747 -0.004293746 -0.05789896 -0.1693313 0.1140782 -0.03953905 -0.1010336 -0.3301848 -0.0185575 -0.06392792 0.09206559 0.0880505 0.0851703 0.1104897 -0.207209 0.3392276 -0.2577223 0.07618994 -0.08609868 0.07740669 -0.6620979 -0.7007692 -0.02865722 -0.05203815 -0.02593772 0.1531675 0.02008038 0.03024136 -0.2849585 0.01706311 -0.3538884 -0.4013485 -0.08692499 0.1136798 -0.06556623 0.1469902 -0.3288274 -0.06102144 -0.0618183 0.0861624 -0.02312483 0.1488172 -0.0938939 0.1573467 -0.05934171 0.2458477 0.07265466 0.1937983 0.04785433 -0.2642009 0.3609568 0.002348928 -0.346901 -0.1158605 -0.01444054 0.02594915 0.1646514 0.2196625 0.4090763 -0.1406065 -0.1442777 -0.06980657 0.01870338 0.5063376 0.1128317 0.3376935 -0.01186305 0.2037224 -0.1521619 0.05421527 0.5270752 -0.3602322 0.0103245 0.7014947 -0.07138104 0.1083685 -0.4617085 0.1216487 -0.0880323 0.04246897 0.04949456 -0.1072741 0.2692094 0.2129564 0.4003139 -0.2050331 0.1430052 -0.247778 0.1763662 -0.02771492 -0.01854157 -0.2741934 0.01637226 0.002870239 -0.1247227 -0.0008124431 0.2344936 0.3249673 -0.2526588 -0.3230127 -0.02185836 -0.08384871 -0.09419072 -0.3533699 0.1395803 0.3192358 0.5854468 -0.2847981 0.06674952 0.1022815 -0.110954 0.0476685 -0.0544195 0.0006936625 0.3006234 -0.03649472 -0.227542 -0.1479549 -0.1401028 -0.100967 0.01872007 -0.05899709 0.1676832 -0.02281875 0.0160982 -0.06222781 -0.1957969 0.1214622 0.1316885 0.1525932 0.03088818 -0.02322743 0.4171773 0.2349482 0.005884669 0.3311268 -0.4436483 0.08019786 -8.703263e-05 -0.1030819 -0.1030158 -0.05871659 -0.02323419 -0.3256816 -0.222182 0.125511 -0.1943062 -0.1771744 -0.1147316 0.02277775 -0.1277016 -0.08087984 -0.004841332 0.02645039 -0.05727139 0.1668376 -0.05163654 0.01034385 0.3067092 -0.02702488 -0.05637384 -0.02665365 0.2758031 -0.4859327 0.1810717 0.003136946 0.02373441 -0.0155707 0.2574934 -0.1676215 -0.1369761 0.2404929 -0.0174207 -0.126911 -0.1109519 0.03802538 -0.04544379 -0.03862015 -0.1324863 0.09395393 -0.1969709 -0.1080594 -0.468797 0.02981179 -0.2128194 -0.008455857 0.04335342 0.275492 -0.04566739 0.002175119 0.130925 0.03490104 0.3470867 -0.0338424 0.2521006 -0.04206974 -0.0273455 -0.6163935 -0.2276356 0.0795238 -0.2329323 0.1961261 -0.337317 
  0.1896078 -0.07965352 -0.04335176 -0.02664801 0.04279144 0.1170616 0.03222196 -0.02481694 -0.2231028 0.6680824 0.1525471 -0.3785005 0.0128509 0.07726423 -0.03621382 0.1990252 0.2038587 0.3064497 -0.07552058 -0.02893888 -0.1617915 -0.02313058 0.09131125 -0.1457548 0.06769978 -0.00843533 -0.2084007 -0.06628925 -0.156265 -0.003136978 0.09952977 -0.5245298 -0.0692239 -0.004169875 0.2168533 0.1087265 -0.1511839 0.03983825 0.5122159 0.1617498 -0.2026627 -0.1411711 0.06778913 -0.0197625 0.06170652 -0.08117422 -0.2015691 -0.1256861 -0.2734337 -0.07901235 -0.2541469 -0.1611858 -0.07529477 0.04326147 0.008988182 -0.02135675 -0.06036425 -0.09209207 -0.1245814 -0.09955219 -0.01121801 -0.01880636 0.03347 -0.1606108 -0.02663257 -0.03848553 -0.033869 -0.3502929 0.01325573 0.08563595 0.02520016 -0.01519941 0.1670788 -0.07981876 -0.1383751 -0.1594682 0.01394104 0.2796257 -0.02276997 -0.04086108 -0.280302 -0.1171246 -0.0421882 0.1876417 0.5034197 -0.118907 -0.3200393 -0.1123508 0.04659874 -0.02655761 0.02085725 0.07538953 -0.01556566 -0.1343054 -0.2553883 0.01388532 0.07190957 0.1392144 -0.01704126 -0.05648388 -0.174835 -0.07347919 -0.01866922 0.2696211 0.09039042 -0.06767278 -0.04319681 -0.1562644 -0.06476296 -0.2618433 0.00505847 0.1339941 -0.1727822 -0.1393334 0.09864679 0.1206463 0.1685001 0.004238918 -0.04854945 -0.04217963 -0.05984277 -0.04611023 0.2065212 0.1260592 -0.2229924 -0.01824766 0.03523161 -0.3158928 0.04339615 -0.07629024 0.03294872 0.1231881 0.01560383 -0.184443 -0.1037392 0.2279975 0.1017598 -0.06845708 0.1993955 -0.002193896 -0.125195 -0.07721618 -0.100431 -0.07208243 0.23419 -0.02573776 -0.260241 -0.08436827 0.06227532 -0.02159381 -0.0813873 0.4356784 0.8313105 0.02280927 0.005494484 0.06439475 0.1926564 0.0178456 -0.129325 0.007923017 -0.2828958 -0.3525135 -0.1132807 0.08999959 0.07108752 -0.004172737 -0.09581277 -0.03882352 0.04602879 0.1592979 -0.001534738 -0.1031766 -0.06982271 0.05157696 -0.0001391898 -0.05731623 0.2891785 -0.2229816 -0.1199918 0.1285968 0.1861119 -0.01765839 -0.003184428 -0.03972032 -0.5677359 -0.7536921 -0.09644483 0.09464648 -0.1663778 0.05090259 -0.05867846 -0.0992703 0.04312082 -0.05554007 0.09620795 0.01822615 -0.06027094 0.1517608 0.08479055 0.1748457 0.1544805 0.09826736 0.2585671 0.05980029 0.006879364 0.1171751 -0.1275389 0.04255332 0.0216229 0.009096815 0.008701484 -0.04616839 0.06319735 0.008947898 0.0992306 0.05987272 -0.06289989 0.1019935 -0.0400601 -0.04694774 0.08643031 0.2264529 0.01751547 -0.1296581 0.3947523 0.04003832 -0.0446018 0.09739187 0.02105749 0.1224355 0.07437455 -0.09487358 0.1760704 -0.08160079 -0.3364044 -0.02440374 -0.06695563 -0.1375013 -0.2401667 -0.02051025 -0.03419756 -0.2810186 0.08836371 0.05011213 0.1616841 0.3059529 -0.1154557 -0.1324212 -0.4528852 -0.02057923 0.1607577 -0.1597319 0.01195714 -0.07765971 0.02758067 0.03954797 
  -0.04733417 -0.1926428 0.147741 0.06325749 0.0379114 -0.09517296 -0.2178195 0.2515178 0.03186557 0.1182159 -0.2093229 0.05685729 0.0260994 -0.4041661 -0.3189762 -0.3819972 -0.398138 -0.1687074 0.09183973 -0.06947601 -0.080181 -0.05406304 0.02807148 -0.08900273 -0.08363003 0.1561304 -0.209884 -0.003378077 0.01665315 -0.09157178 0.01388842 0.2004251 -0.1319049 0.1426875 -0.3842305 0.04623715 -0.08034503 -0.04842501 -0.1793573 -0.01039467 -0.0675391 -0.02139114 0.08017731 -0.2400779 -0.1157916 0.1375628 -0.08199435 0.01102951 -0.08620886 -0.004326528 -0.09505469 0.269893 -0.0810067 0.078156 0.1056434 0.2332654 0.1682034 -0.07308719 0.0970567 -0.3133385 0.1269691 0.4071002 -0.2275744 -0.2049666 -0.1998741 -0.1037565 0.1138091 0.3513569 -0.1225076 -0.5224727 0.1015342 -0.07560244 -0.04423027 -0.1732107 0.3453785 -0.303404 -0.06636931 -0.5228375 -0.002505862 -0.01998979 -0.124864 -0.2330924 0.1041931 -0.1861841 -0.0008671986 0.02887593 -0.4392549 -0.04755357 -0.1386129 0.332944 0.07562702 -0.191057 -0.168644 0.2556489 0.1182008 -0.02481485 0.1694222 0.02886769 -0.2490185 0.1210127 -0.04910792 -0.1751707 0.0452632 -0.1544231 0.5812959 0.1511708 -0.4188629 -0.2061571 0.05520732 -0.1022281 -0.2265866 -0.0197182 -0.262508 0.162732 -0.1016581 -0.1363425 0.02751765 -0.241326 -0.1497559 0.04924356 -0.2812506 -0.1234022 -0.01933326 -0.03804296 -0.3766328 0.01385398 0.1466036 -0.5139226 -0.01075794 -0.08144686 -0.1111344 -0.4702139 0.1742661 0.007414979 -0.08396354 -0.461732 0.001515284 -0.011571 0.1010454 -0.01373117 -0.04634172 -0.169949 -0.383206 0.06501779 -0.3489735 -0.02850513 -0.1794974 0.06355453 0.04434829 0.02033137 0.2152275 -0.2233826 -0.5127859 0.1128883 -0.01223065 0.6958812 0.1019888 -0.05297618 -0.3712497 0.0428478 0.3324433 -0.11921 0.1081897 0.09011968 -0.01071404 0.3132187 0.2838659 -0.05480347 -0.4504421 0.06944594 0.1193646 0.1652921 0.01820473 0.05230308 0.09093273 0.08797736 0.1455403 -0.09481186 -0.003592706 -0.05175698 -0.05958575 -0.5333925 0.3039389 -0.1581572 -0.2400675 -0.2448518 -0.06237112 -0.7192404 0.2078449 -0.4339779 -0.09302829 0.03051165 -0.1831139 0.1403739 0.3061683 0.1470049 -0.0358617 -0.08483607 -0.2731974 -0.6385449 -0.3147915 -0.2216513 -0.1271484 -0.1414782 0.1374574 0.07765158 -0.0640014 -0.02483546 -0.1955567 0.05643765 -0.01681947 0.5614562 0.3361745 0.1140131 -0.3865629 -0.1448076 0.007983997 -0.05039142 -0.1746285 0.1181569 0.02223721 -0.1259802 0.08108966 0.09207514 -0.2136624 0.1547733 -0.1036253 -0.08510483 0.004601364 -0.5896764 -0.006255814 -0.1946533 -0.1559143 0.07904147 -0.01988044 -0.0208342 0.08724216 0.01984982 0.3851692 0.009437058 0.08109193 0.1695331 0.139591 0.1844637 0.2273955 -0.2643375 0.3335188 -0.06089831 -0.6203195 0.2250774 0.0724857 -0.007909425 -0.076819 0.0805229 -0.1103233 0.03646218 
  0.2003822 -0.1446758 0.1349654 0.1382988 0.05223719 -0.5618775 -0.04164715 0.1910593 -0.656929 -0.2325616 0.02293433 0.8046784 -0.006474049 0.5269247 0.04859915 0.1558592 0.1552911 0.8326712 -0.03612131 0.1616288 0.03754224 0.3192246 -0.3670998 -0.03482424 -0.1208452 -0.125353 0.1385932 0.4428064 0.05340886 -0.02528601 -0.168483 -1.067707 0.09599259 -0.1479892 0.3509013 0.2086636 0.3421597 -0.165658 -0.1398848 -0.2006199 -0.004218634 -0.2276983 0.1009677 -0.1999154 0.05621276 -0.06544511 0.02186806 0.1064252 -0.1325442 -0.1474927 -0.0117256 0.3465347 -0.169339 -0.1840709 -0.2427369 -0.4529759 -0.02341239 -0.07649294 -0.03473998 0.4974701 0.03634436 -0.140777 0.6456643 0.08851369 -0.05979361 -0.1569299 0.1009527 -0.009252163 -0.2587782 0.4100333 0.06594545 0.06111605 -0.2214576 0.5790844 0.405966 -0.2638171 0.4128106 -0.1841548 -0.1124846 0.2224036 -0.09755322 -0.1863978 -0.01349544 0.190255 -0.3143767 0.5607446 0.6663812 -0.164749 0.2233098 -0.02398917 0.1231039 0.09905928 0.1478915 0.1013022 -0.2488245 0.1336705 -0.1177793 0.2009933 -0.09822267 0.08238139 0.08338104 -0.2032751 -0.03550855 0.2192554 0.02320415 0.1516939 0.6240305 0.1214732 -0.01851496 -0.00502981 -0.1145775 -0.03074791 -0.1548571 -0.8133353 0.02761796 -0.3158241 0.1111695 -0.1182259 0.1121228 -0.2787465 0.005493904 -0.2190794 0.1890252 0.2355531 0.2461758 -0.01422879 0.2365754 -0.6435215 -0.4084307 0.5021783 0.1846119 -0.1723313 -0.2217608 0.2244476 0.1476543 -0.1334063 -0.04117499 -0.3420886 -0.04805433 -0.0270087 0.46799 -0.09788744 -0.2189352 -0.04273497 -0.2785492 -0.1384375 -0.1970784 0.2417961 0.483013 0.1896703 -0.4717283 -0.4716646 0.03670109 -0.2658769 -0.01909944 0.1332425 -0.3896143 0.3831232 0.2458294 -0.2682639 0.1817308 0.3835451 -0.7563612 0.2026298 0.07213099 -0.4027213 0.4050059 0.3230416 -0.382289 -0.3916678 -0.427135 0.2458023 -0.3789054 -0.08092682 -0.1172957 -0.4744936 -0.1461998 -0.09675806 0.08387516 0.1735654 0.1010627 0.1218032 -0.05484303 -0.1964581 -0.02281692 -0.2446419 0.03767527 -0.1866448 0.1048099 -0.484454 -0.1358295 -0.1816995 0.1038596 -0.01371193 -0.2682609 0.1255045 0.04523176 0.2114775 -0.333064 0.3753861 -0.1796467 -0.433652 -0.3005634 -0.03139832 0.03916778 -0.0408072 0.2615728 -0.2672271 -0.1414286 0.1326104 0.2101498 0.136758 0.1624506 0.2138419 0.2565723 -0.6788701 0.1923878 -0.1016532 -0.1802523 0.2554034 0.092281 -0.4633504 0.3276997 0.1442762 -0.3147458 -0.04976977 0.2120874 0.09443778 -0.1423328 -0.2013924 0.04723576 0.1472093 -0.2953268 -0.2754214 -0.1354349 -0.07930624 -0.06000276 -0.01114735 -0.004245735 -0.1821273 -0.1038347 -0.03983808 0.3821776 0.1260342 0.8345889 -0.2748261 -0.03038051 -0.5322603 -0.4371513 -0.3862589 -0.02633623 -0.09673092 -0.1995831 -0.3807082 -0.3336321 0.02119329 
  -0.05320518 0.05990031 -0.09334465 0.04573341 -0.2389837 -0.1896811 -0.1365359 0.7831033 -0.2060824 -0.01208225 0.05362204 -0.2999943 -0.1758784 -0.0326861 0.003038903 -0.0009623167 -0.3367198 -0.0877109 0.07779834 0.02060505 0.1050479 8.462089e-05 -0.0208257 0.1880016 -0.1918488 -0.141297 0.1915729 0.03204732 -0.07372142 0.2929127 0.101309 0.09622385 0.4072589 -0.1257802 0.3874407 0.1574498 -0.6795004 -0.0161135 0.003086202 0.1211635 -0.3852854 -0.311844 -0.1367727 -0.07226583 0.3807656 0.2881822 -0.3830799 0.613281 0.1165982 -0.2404024 -0.6568141 -0.03370754 0.02853198 -0.2624263 0.1713264 -0.2891311 0.03163696 -0.03409852 0.2459685 0.100094 -0.238541 -0.1717602 -0.01538968 -0.2688954 -0.1198398 -0.3371138 0.06452894 -0.2248677 -0.3151173 -0.2398844 0.2427644 0.1780369 -0.1572623 0.133866 0.1200034 0.08764574 0.1815117 -0.0452269 -0.0376539 -0.2355663 -0.06851219 -0.2628081 -0.1192648 0.1951377 -0.03730009 0.2024253 0.414115 0.6562992 -0.0107259 0.03589827 -0.006269046 -0.4538769 -0.1234169 0.1142211 -0.1901449 -0.2380115 -0.01989081 -0.08216345 -0.1573052 0.07360638 -0.02271672 0.4867076 0.5068814 -0.1416061 -0.04755474 0.3959855 -0.02677424 -0.3826987 -0.2737766 0.3125674 -0.4686523 0.2109133 0.01049692 -0.6550369 -0.3987902 -0.1085199 0.5822645 0.04963201 -0.1967313 0.09953865 -0.1613524 0.1308087 0.4221419 -0.1383954 -0.4772902 -0.05508566 -0.3992489 -0.08987369 0.09508103 -0.1064127 0.09624764 0.1661128 -0.04146303 0.2641811 -0.1042637 0.4559842 0.02351234 -0.0366657 0.2472552 0.1642837 0.1266343 0.03323461 0.03695154 -0.001528356 -0.1419668 0.01632828 -0.07088289 0.1636196 -0.3453653 0.3359078 -0.05407821 0.1669385 -0.2829632 0.2293843 -0.09926615 -0.03370259 -0.17393 -0.03544372 -0.1293814 0.2449789 -0.1626615 -0.3734135 0.07469338 -0.001134686 -0.04697809 -0.01078087 -0.1611923 0.02195695 -0.03377081 -0.2796084 0.0429652 0.06848709 -0.3636264 0.1664636 -0.09295876 -0.3301077 -0.3471717 -0.1230676 -0.07851144 0.133267 0.2453658 0.3937001 0.2224267 0.1379188 0.2054425 -0.0365339 -0.01532976 -0.009677622 0.2538851 -0.07361288 -0.3515771 0.2905521 -0.2358246 0.1004767 0.1303642 0.3104526 -0.2487623 -0.02080324 0.006707276 0.5172081 0.2161956 0.2446882 0.2787751 -0.0357723 -0.06770075 -0.09603167 -0.1063366 -0.3658331 -0.1658394 -0.1334873 0.2310683 -0.1644659 -0.02348894 0.05728079 -0.5649147 0.1850411 -0.3647403 0.09494504 0.1017304 -0.2488941 0.6233046 -0.06168793 0.2098726 -0.06015693 0.008633625 -0.04535012 -0.350596 0.1526532 -0.1883491 0.4224602 -0.2901345 -0.3483647 -0.2800202 -0.1938806 -0.1754529 0.1539863 -0.09039217 -0.05097309 -0.0086625 0.3243273 0.199082 0.2627083 0.05238972 -0.1944913 -0.359106 -0.09466395 0.08006256 0.07930002 -0.006939327 -0.3402656 0.2870271 0.2700421 -0.04229525 -0.2473372 -0.01181467 -0.2279287 
  0.555399 -0.1700312 -0.3737153 1.136718 -0.003414331 0.03419377 -0.164698 0.03639008 -0.4697235 -0.1653097 -0.1643896 0.03775015 -0.3090426 -0.8231086 -0.2662628 0.0280177 0.6068681 -0.5036514 0.133425 -0.2272132 -0.07067785 -0.1994098 -0.2001726 -0.3991143 -0.2534853 -0.5189525 0.3047668 -1.208579 -0.06667556 0.1263678 -0.3391668 0.1190432 -0.2167417 0.2111399 -0.006247931 -0.4299144 0.7654279 0.5690409 0.06065055 0.267401 -0.5986072 -0.3094995 -0.1003279 -0.4365935 0.08020221 0.1453538 0.1304948 0.1492777 0.8691871 0.1308571 0.09086142 0.4763774 0.03458793 0.138504 -0.3250166 -0.2200041 -0.3000934 -0.1522077 -0.1194951 0.4264573 0.1650953 -0.01368809 0.3006218 -0.2164131 0.427867 0.4616971 -0.2294682 0.1232662 0.1586155 1.127566 -0.0388407 0.1680629 -0.06080964 0.133216 0.1188847 0.03112066 -0.08397724 -1.217153 0.2705299 -0.130777 -0.3905959 0.3416207 -0.2311244 0.5483564 -0.1322611 -0.06201851 0.02608626 0.169652 -0.008353852 -0.2336287 0.08582236 0.6926144 0.1758239 0.1861469 -0.07406661 -0.08632134 0.1712675 -0.2806205 0.1416773 -0.3636205 -0.06927291 0.4580421 -0.05523159 0.1794628 -0.400418 -0.1167479 -0.3406298 0.04630512 0.001404891 -0.4041487 -0.6080812 -0.3250187 1.168507 -0.1975339 -0.2794747 -0.6151532 0.1560714 -0.3292663 -0.1951142 0.1206384 -0.3317701 -0.007059521 -0.5415432 -0.3781342 0.2176603 0.2753309 -0.593395 0.2649356 0.08460361 0.7138036 0.07921652 -0.2907347 -0.1634712 0.3032867 -0.1485404 0.1593388 0.6141423 -0.229113 0.05647459 0.247111 0.6682325 -0.1349508 0.8509573 0.01167986 0.2303032 0.9953247 0.09095429 -0.3486163 0.02203294 -0.6407045 0.1686362 -1.050112 0.497309 -0.05545075 -0.002975066 0.1446637 -0.4215879 0.0363337 0.2957979 -0.03075863 0.09532316 -0.5414158 -0.1639404 -0.1502345 0.0702117 0.05833714 0.3365542 0.1853653 -0.1947191 -0.3041177 -0.1681555 0.2634695 0.04210494 0.03097953 -0.1740339 -0.1271833 -0.2690109 -0.2924241 -0.4977528 0.4587004 -0.2405027 -0.1716765 -0.1813009 0.3090396 -0.3731711 -0.1635484 1.250375 -0.4329118 0.1832181 0.4628842 -0.56279 -0.1227834 -0.2829584 -0.4612138 -0.2978735 -0.1640589 -0.2087596 -0.4143288 0.6776899 0.3129697 -0.09063493 0.2790197 -0.5257503 0.01363213 -0.07733209 0.09187935 -0.2227097 -0.2660519 0.1452345 -0.01729972 0.2656027 -0.2203713 -0.440393 0.1652066 -0.7028088 -0.1102277 -0.6839882 0.2335278 -0.006335685 -0.135993 0.09121183 -0.08957699 0.1394062 0.07825332 -0.4200421 -0.07447034 0.570825 -0.1036942 -0.3496524 0.7090498 -0.4640791 0.141127 0.3064428 0.9710687 -0.2463721 1.324797 0.09459777 0.4809936 -0.1444034 0.04515659 -0.3487253 -0.4347402 1.205117 0.3878354 -0.2326874 0.5679683 -0.2332952 -0.1206595 -0.7534397 -0.3142968 -0.6508996 0.2785273 -0.4811991 -0.005685432 0.0152552 -0.09642862 
  -0.187562 -0.3242988 -0.06187958 -0.2939188 0.004933712 0.04160604 -0.2720011 -0.6025448 -0.2939446 0.08924231 -0.03204878 -0.1813285 -0.125438 0.6999078 -0.03409961 -0.1517399 -0.1191578 0.08981892 0.1363964 0.2526046 -0.2878906 -0.04911187 -0.1847189 0.7340675 -0.3143781 -0.2557748 0.07270737 -0.04358213 0.06529034 0.3849957 0.08032005 0.2124798 0.04253141 -0.02743339 -0.02603815 -0.1188363 0.2969194 -0.2370095 -0.1158095 -0.5347711 -0.1932597 -0.1960566 0.1133192 -0.04439325 -0.8126645 -0.1032634 -0.1205925 -0.2544772 -0.09418521 -0.1215583 0.2525982 0.1689358 0.2941131 -0.3052972 0.09079286 -0.4443579 0.1218373 0.1209523 -0.125195 -0.1287602 -0.07753259 0.1730329 0.02331016 0.4803309 0.8165167 0.4366484 -0.2784423 -0.05954704 0.4351536 -0.01525924 0.2711464 0.1930022 0.2493163 -0.400126 -0.06016171 0.2391791 -0.009331664 0.1806494 0.1858479 -0.2820606 -0.4407956 -0.1106019 0.03247951 -0.1997775 0.07408727 -0.09400764 -0.6172072 0.1089289 -0.1215074 -0.144748 0.02047566 0.07742357 0.02084915 -0.2563859 0.02779273 0.1470592 -0.2740162 -0.4543852 0.1923811 0.1566266 -0.3858213 -0.2145701 0.09805437 -0.1109887 -0.2814726 -0.2348076 0.136564 0.3695181 0.001138973 0.05290804 -0.005887914 0.1046147 -0.02774175 -0.2445491 -0.1094202 0.03243146 -0.04709237 0.05278878 0.1073729 -0.1743007 -0.08422687 -0.01364615 -0.03252719 0.2530201 -0.4705123 -0.1085344 0.1786016 -0.1009026 -0.07789607 0.07155842 0.0830031 0.1415351 -0.245304 0.2678294 0.2140122 -0.04126075 -0.4907624 0.3071589 -0.1904584 -0.1392892 -0.2062022 0.03718286 0.03588213 -0.1213584 0.3268529 -0.3150711 0.0178781 -0.1355976 -0.1480478 -0.03807215 -0.8561928 0.1553195 -0.3208035 -0.154492 -0.1365577 0.01361533 -0.1214266 0.1013474 0.1100914 0.03369965 -0.597075 -0.09397081 -0.274543 -0.1725554 0.1220142 0.1960165 0.2785101 0.2427943 0.2218415 -0.3490894 -0.0928401 0.009059414 -0.3068594 -0.1601679 0.2670253 0.6014634 -0.1926515 0.1632504 0.05302291 0.1878404 -0.1161937 0.1575299 -0.07749734 0.03260592 -0.2812625 0.3993621 -0.5866895 -0.1766792 -0.1325882 -0.3697799 0.08734994 -0.4706962 -0.02551745 -0.08597051 -0.05565254 -0.03531912 0.07637391 0.1982535 0.04618353 -0.3630173 0.107018 -0.1935129 -0.04867528 -0.3452269 0.06849007 0.3587369 -0.2348685 0.1495933 0.05994548 0.3602997 0.02936223 -0.02286033 -0.07927908 -0.3495643 0.2472984 -0.4166971 -0.3750541 -0.6829122 -0.2095944 0.1207835 -0.5471395 0.04981614 0.001287987 -0.05812139 -0.3526448 0.4555858 0.256546 0.0754475 0.1045709 0.5996984 -0.1184592 -0.07933569 -0.1102203 -0.1574091 -0.3124819 -0.1066278 0.7818213 0.07192288 0.2472916 -0.2557645 -0.1794016 -0.03825572 0.04008486 -0.3180604 -0.2450312 0.008221935 0.05413717 -0.2578765 -0.04848216 -0.3357923 -0.2006533 -0.1852473 -0.1504252 0.06559904 0.6574357 0.2076578 
  0.4674819 -0.3058588 0.2603536 -0.1796032 0.1170588 0.1990511 -0.3163171 0.2479819 -0.1380574 0.2125981 -0.07441972 -0.2475081 -0.02541185 -0.5368361 -0.05290249 -0.4390645 0.09952471 0.2023481 -0.2962363 -0.3801478 0.7317121 -0.2504844 -0.3882616 0.0110045 0.1775594 -0.1159056 -0.4141757 -0.3220552 -0.04358299 0.3581412 0.4839768 0.1786435 0.1132934 0.2494417 0.02074856 -0.08756104 -0.2932159 0.285139 -0.2431793 0.02567405 -0.3582406 -0.1771561 0.01467641 -0.3611825 -0.03171539 0.2121578 0.01280378 0.1155406 -0.0388179 -0.02539329 0.2544548 0.1428386 -0.1590311 0.01063341 0.365642 -0.3045812 -0.04615628 -0.04376807 -0.05143644 -0.1326266 0.2625029 -0.2765069 0.2358524 -0.293431 0.1337209 0.08049426 0.149513 -0.01059224 -0.2508625 0.2691689 -0.04965565 0.2034178 0.4299382 1.369517 -0.1082481 -0.3067513 -0.2880599 -0.1178666 -0.3947231 0.002090845 -0.1682745 -0.282799 -0.1754675 0.4914305 0.1631776 0.800777 0.2086022 0.1274734 -0.1134269 0.4710608 -0.1832263 -0.05073878 0.1379519 0.3971838 -0.1236074 0.09703271 -0.06052235 0.08265081 -0.04795576 -0.07340372 -0.1358582 0.2777446 -0.009239675 0.07229169 0.014761 0.06928153 -0.2934033 0.2715407 0.2107931 -1.649523 -0.1232025 -0.3033983 0.377225 -0.176239 0.07074274 -0.2265725 0.1735191 -0.2459342 0.06131755 -0.5456147 0.1636867 0.1475087 0.08734405 -0.01757085 -0.1909174 0.09505066 0.3713743 0.1701334 -0.03641332 0.5974432 0.01445378 -0.2279397 0.2588971 0.04445478 -0.0003626196 0.5802941 0.6454523 0.03696849 -0.1425502 0.08797546 0.4267747 -0.3643776 0.1976113 0.2228587 -0.2947791 -0.4456151 0.0273841 0.1550177 0.1033456 -0.484661 -0.2072727 0.3215209 -0.06334517 0.3010485 -0.1556531 0.1363049 0.2556675 0.3305266 -0.1873515 -0.02927306 0.09001356 -0.5205939 0.04106355 0.1006657 0.01919406 -0.05185299 -0.124607 0.04183884 -0.19693 0.2005184 -0.02635924 -0.07612608 0.170107 -0.002637251 -0.1690889 -0.06702999 0.1990652 -0.03828931 0.02730307 -0.1228882 0.205185 -0.2202058 -0.1448273 0.278979 0.03221884 0.036762 0.3559079 0.5265592 -0.1199345 0.03614268 0.01057865 0.03693512 -0.09435867 -0.4309123 0.2533486 -0.529215 0.1158576 -0.196212 0.05649985 0.233415 0.005610507 0.09194238 0.07054591 0.1620944 0.321616 -0.1630505 -0.02773027 0.2313244 -0.2236199 0.07146867 0.2151757 -0.1949813 0.07524596 -0.07536953 -0.2211233 -0.5671952 0.1448205 0.02816069 -0.2196391 0.007005034 -0.424336 0.1164 -0.2044694 0.07665466 -0.2410267 -0.07580485 0.3265688 -0.09880123 -0.2228031 0.3485883 -1.204701 -0.2541912 -0.183043 -0.008652812 0.2896694 0.8492866 -0.1386217 0.03034965 -0.3666163 -0.1686148 -0.5874771 -0.4265042 -0.04102385 0.01558781 0.5203159 -0.1306082 0.06677839 -0.0622313 0.2450022 -0.09620149 0.1712968 0.1542549 -0.1297686 -0.01185054 -0.04651723 0.08081143 
  0.03160581 0.1488713 0.07390403 -0.0835286 -0.3902614 0.1455761 0.1532577 0.2631735 -0.09321094 -0.009502829 0.09202866 0.1329395 0.0484627 0.2369136 0.008139265 -0.06603798 0.2631647 0.4443482 0.07726587 0.113408 -0.042591 -0.04445368 -0.1014163 -0.05120331 0.1884398 -0.2392492 -0.08636275 0.2389108 -0.2028206 -0.02611919 0.007448846 0.06629679 0.5058782 -0.1026217 0.0884959 -0.03729234 -0.1410898 -0.06133253 -0.1277128 -0.05534412 0.03755556 -0.211783 -0.05358972 0.2096697 -0.1516459 0.6477739 -0.03368809 0.1644773 -0.002367884 0.2428969 0.05799728 0.09014452 0.03092222 -0.1490958 -0.09733379 -0.220613 0.01592618 0.1176667 -0.07304999 -0.1153686 0.1054819 0.07119174 -0.1183127 0.06021499 -0.169909 0.01207099 0.02695047 -0.2076257 -0.140769 -0.1342496 0.3778049 -0.04109806 0.2173826 -0.07202258 0.1089085 0.5120072 0.005420712 0.08129025 0.02025042 0.2000591 0.3084468 0.2296117 -0.2778935 -0.04943389 0.05490724 0.1108539 -0.000253735 0.08632551 0.1382949 -0.06975485 -0.160331 -0.003387761 0.06975523 -0.05089648 0.05415505 0.02062078 0.05449195 0.1195335 0.2325231 0.04502003 -0.06764292 0.07800019 -0.06891782 -0.2242449 -0.03967486 0.2597765 -0.0905897 -0.00577158 0.04160175 -0.1306882 -0.1389619 -0.02736901 0.1111755 -0.007701383 -0.03363225 -0.01937073 0.293427 0.09460964 -0.2085229 -0.1310973 0.03535182 0.0308143 0.1110838 -0.06272466 -0.3089855 -0.003157153 -0.2526325 0.08238216 -0.06061032 -0.3595443 0.09316456 -0.04070975 -0.1571659 0.06340195 -0.03823267 -0.19055 0.3286432 -0.004758092 -0.1125833 -0.13608 0.02052135 -0.288898 -0.1764259 0.117848 0.04358092 0.04013373 0.004103521 0.004687263 0.1375118 -0.1090468 -0.1319068 -0.1454712 0.1929879 -0.2093759 0.07564054 0.0694483 0.05226455 -0.2181686 0.1734665 -0.05019359 -0.1700986 0.06927627 0.1402427 -0.1779681 0.2421505 -0.05914497 -0.1308561 0.03993093 0.1318016 0.2247835 -9.714805e-05 -0.1258085 0.08380506 0.03203822 -0.6191282 -0.6733354 0.05210425 -0.06500356 -0.01638373 -0.114354 -0.1702558 0.04790536 -0.1631813 -0.1395839 0.182591 0.008846062 0.08299233 -0.008561946 -0.03444415 0.04717598 -0.04725436 0.07093754 0.1843481 -0.03946064 0.003967293 0.06716268 -0.4298534 0.3548384 -0.1012578 0.4255089 -0.2210382 0.05115439 -0.06260991 -0.006189617 0.01357981 0.05278127 -0.084401 0.2211301 -0.1070089 0.08481152 0.03213818 -0.01545316 -0.04206192 -0.113165 0.1684199 0.03221186 0.003364138 0.07290953 -0.05819443 0.01626146 -0.09596628 -0.07666719 -0.2117605 0.2838251 -0.1089298 -0.1100063 -0.004935547 0.2267659 0.03786382 0.2411988 0.06681578 0.02431131 -0.1181266 -0.2383492 -0.03456833 0.07665056 0.07951681 -0.0661428 0.009170614 -0.006926368 -0.06610785 -0.04568974 -0.106067 0.09018967 0.01134272 -0.06102139 0.04097397 0.01100378 0.06933698 0.0002054994 -0.09692235 0.1498799 -0.1814608 0.1793191 -0.3618294 0.05011996 
  -0.2906283 0.1455457 -0.05315784 0.1444063 0.1708124 -0.02950747 0.04925286 -0.5015535 0.07371287 -0.228676 -0.1870767 0.08065893 -0.113803 -0.2540414 0.1319392 0.1684186 0.009213732 0.3005771 0.2590543 -0.8736484 -0.2130416 0.4337761 0.1736829 0.001698785 0.02725303 0.01594217 0.1812939 0.05713603 0.09204142 0.2264665 0.05255822 0.03649835 -0.1740512 -0.06578182 0.2189686 -0.005733843 -0.4260769 -0.2097895 0.01599731 -0.1142638 0.1539636 0.008043697 0.1638208 -0.003356068 0.3098221 -0.3254167 0.08911981 -0.5949227 0.03274089 -0.08719299 0.07821193 -0.06123047 0.02370766 0.2062418 0.3285014 0.129851 -0.2071204 -0.1793918 -0.5001214 -0.121897 0.1621008 0.03867096 -0.2269749 0.2475497 -0.3398107 0.0156443 -0.7378101 -0.06693016 0.08113708 -0.216609 -0.3795585 -0.1139024 0.08090717 -0.3490494 -0.2370373 0.1580803 0.03782079 0.03100322 0.1646187 0.1156748 -0.3390562 -0.02609214 -0.2700444 0.06946775 -0.04754183 -0.06541397 -0.2972188 -0.3939661 -0.05172503 -0.008828712 -0.1078332 0.07189231 0.04173532 0.1406274 -0.3233419 0.4066783 -0.1186104 -0.9849142 -0.116736 -0.522029 -0.05222437 -0.2300561 0.4657581 -0.2323981 0.08071471 -0.4831589 -0.2434602 -0.06000581 -0.406992 -0.1386606 -0.03263636 0.03256278 0.004129546 -0.180897 0.07525638 0.3174489 0.1259036 0.04840589 -0.2393735 0.1380375 0.1208656 0.06876159 0.2088578 -0.08219377 -0.2241435 -0.4032335 -0.3114813 0.172531 -0.009627932 0.09828093 0.1176325 0.03592575 -0.05246598 -0.4098423 -0.04326516 0.1268678 -0.2535638 -0.03673289 -0.1599838 0.3405881 0.02903857 -0.4019007 0.3502557 0.2181103 0.02160862 0.4343057 -0.007866867 0.1142596 -0.07585755 0.1724633 -0.359864 -0.05824169 0.2010695 0.0993099 -0.01046901 0.1634678 -0.01106468 -0.3548839 0.0839267 0.1313698 0.03724773 -0.5263205 -0.1066905 -0.07851498 -0.1006769 -0.02332718 -0.1226444 0.1463012 -0.01678104 -0.4300468 -0.6742307 -0.2446662 0.07424765 0.619543 0.4413223 -0.5496134 -0.06102801 -0.3005856 -0.1390932 0.12074 -0.2839712 -0.02551582 -0.05313867 -0.01810589 -0.07528289 0.1110903 -0.6903058 -0.09561452 0.1506814 -0.2551549 -0.02545057 -0.02542475 -0.2653591 0.05396337 0.07742277 -0.4411194 -0.09712791 0.158673 0.1250758 -0.3271988 0.07170097 -0.1504253 -0.02683471 -0.8003284 0.03450914 -0.1226438 -0.09642836 -0.1062621 0.07196791 -0.1482792 0.1930755 -0.08096034 0.1757408 0.06813627 -0.09469251 0.01527201 -0.06993388 -0.2406925 -0.03773889 0.4947468 -0.01662484 -0.09212639 0.1025979 0.08096172 0.04348022 -0.2070649 -0.04852488 -0.2434533 -0.8081563 0.3304916 -0.04998043 -0.09081602 0.04942001 -0.1534188 -0.1500481 -0.2522233 0.04408454 0.3436161 -0.100004 0.4747331 0.01756595 -0.06019022 -0.2155168 0.1929295 -0.04173146 0.0381892 0.004247176 -0.0733195 -0.05733744 -0.1105516 0.08352032 -0.06818879 -0.2122958 -0.104958 -0.001156006 -0.03370347 
  -0.01433539 -0.539271 -0.1224363 -0.08326273 0.03782985 -0.4179745 0.1428362 -0.1273702 0.07527417 0.02499181 0.1283884 0.02887422 0.1604922 -0.1526269 -0.30353 -0.1139264 -0.08721154 0.4874066 -0.0135846 -0.1503466 0.118652 -0.07276811 0.04348931 -0.2859061 0.3211036 0.01980432 0.1840105 0.005259885 0.05434382 -0.1364397 0.03550614 0.08245465 0.02376701 -0.3759079 0.03833221 0.04502154 0.241332 -0.1265216 -0.07012039 -0.07684618 -0.03474902 -0.1700866 0.1171632 -0.1693687 -0.1564692 -0.2133704 0.01715518 0.08505453 0.02245166 0.3955679 -0.2877685 0.1554435 0.09665409 0.02894203 0.001493267 -0.01034192 -0.5481724 -0.2141586 0.1144319 0.1113531 -0.05856861 0.1489915 -0.2822887 -0.1900326 0.2564425 0.04181635 -0.6901391 0.1806726 -0.1387601 0.02225872 0.1622389 -0.289602 -0.0162431 -0.1430056 0.1785041 -0.05430013 -0.08535853 0.1113181 0.1074557 -0.05670948 -0.1797762 0.1892209 -0.06794288 -0.3565527 -0.1651101 0.3352948 -0.09718022 0.02988617 0.191213 -0.05399151 0.1199807 -0.1872919 -0.04643282 0.2115011 -0.04814925 -0.6114371 -0.004843917 1.081999 0.2765419 0.1829929 -0.03309167 0.02778852 -0.2934841 0.1587516 0.04163516 0.02887831 -0.02694034 -0.04685371 0.09717544 0.240321 0.3203324 0.02044623 -0.3352226 0.2900218 -0.05871071 -0.08487837 -0.005049856 -0.1535369 0.08788443 -0.201463 0.02242091 -0.28702 -0.03470949 -0.1425789 -0.05924401 -0.07874895 0.2220444 0.07603074 -0.03533033 -0.04454771 0.07804466 0.1127105 -0.1774912 -0.08135552 -0.0436346 0.1598321 -0.1810661 -0.2187007 -0.02539051 0.03426933 0.1012591 -0.3486536 0.08755141 0.02384738 -0.001397638 -0.1671844 0.09443703 -0.1288107 0.05507453 -0.1779829 -0.1011978 0.03539921 0.1415407 -0.176494 -0.1587948 0.2156068 0.1930364 -0.0416872 -0.1934099 -0.008770694 0.1134378 -0.2103263 -0.1161449 -0.03548838 -0.008789707 0.8806409 0.1515301 0.0212768 -0.06088468 0.08808168 0.0536072 -0.05696587 -0.1552337 0.1321899 -0.1050307 0.07367174 0.3396992 0.3992487 0.5309014 0.09666751 -0.03555878 -0.5187654 0.06247325 0.05365898 0.01003433 -0.05173349 -0.1938758 0.1576556 0.11364 -0.01789992 -0.1773932 -0.005406305 -0.2676263 -0.05989973 0.1122822 -1.87273 0.1064524 -0.05466039 0.01242033 -0.2048361 -0.1149335 0.06998935 0.02549315 -0.5588245 0.1443671 0.04348394 -0.2230647 -0.09438024 -0.1325186 0.0200651 0.02690119 0.1832441 -0.1492426 0.1485718 0.02577429 -0.1018598 0.07722122 -0.05164403 0.0167493 0.4908855 -0.05579649 -0.1971483 0.2250836 0.01212417 -0.03417026 -0.2115521 -0.1787855 0.01978793 0.152232 -0.2516358 0.1264104 -0.5492072 -0.03770585 -0.3395098 0.09762325 0.1540542 0.07138444 0.1268549 -0.08052117 -0.128042 -0.147127 -0.009791043 0.06877177 -0.02569892 0.2765051 -0.00831493 0.06189907 -0.2161134 -0.1031543 -0.2092818 -0.07955202 -0.4210945 -0.1960753 -0.008278551 -0.1180721 -0.03220098 
  -0.002579561 -0.2013122 -0.04756363 -0.05285803 0.03274739 -0.03893927 -0.07802376 0.02781651 0.04413522 -0.5193087 -0.3898145 0.177752 -0.06525402 0.07896096 -0.1509995 -0.3660792 0.05643323 -0.1199214 -0.1247669 -0.04020148 0.1833275 0.141607 0.2638805 0.1142896 0.1826013 -0.1095382 0.04132923 -0.2077768 0.08639082 0.02297798 0.124959 0.06766915 0.1156146 -0.3003978 0.1575394 0.1110473 -0.1519529 -0.05826677 0.0188411 0.08878975 -0.5755758 -0.2998697 0.001143238 0.1359945 -0.0522109 0.004065705 0.1905212 -0.03342599 0.01479869 -0.01859283 -0.1485189 -0.01626081 0.003795358 0.06657644 -0.07054111 -0.1478352 -0.1458432 -0.003624484 -0.05935229 -0.07611665 -0.1185193 -0.02330209 0.04338289 -0.04566053 0.009430382 0.02151892 0.1527395 -0.03152712 0.04079166 -0.08896482 -0.004317584 0.09892889 0.1618128 -0.08650523 -0.1730018 -0.1416165 0.05999931 0.04354389 0.1175518 0.02853828 0.03722333 0.08436267 -0.007318325 0.00690812 -0.2600112 -0.02249352 -0.1114307 -0.02154565 -0.1238071 -0.0421832 0.1404168 -0.2289586 0.08896955 -0.1897348 -0.05377424 0.185001 0.03988419 0.03609249 -0.05569991 -0.1160809 -0.05908796 -0.3149822 0.01236411 -0.001835654 -0.01459184 -0.02644656 -0.2152111 -0.01506453 -0.0307285 -0.02152525 0.2373257 -0.1138063 -0.2710039 0.01518034 0.02121153 0.06177684 -0.2722849 -0.1314518 -0.04870304 -0.05462684 -0.1271093 0.08998624 0.02233321 -0.01951168 -0.02187826 -0.01866053 -0.1945919 -0.130604 0.3175204 -0.03530184 0.16016 -0.04599452 0.08666032 0.03957155 0.003740693 0.2666296 -0.04548638 -0.0681442 -0.03976906 0.07221819 0.03704521 -0.07788983 -0.1391664 0.134968 0.08379731 -0.1570675 0.1490431 -0.1088673 0.08597499 -0.162809 -0.01857689 -0.2529801 0.2605152 -0.249282 -0.06944883 -0.05428819 -0.0863358 -0.2920836 -0.4067606 0.07929336 0.02245833 -0.3227071 0.06079633 -0.0910148 0.01102435 -0.1262334 -0.02194821 0.08932823 0.009320387 -0.02867858 -0.01845013 0.02308375 -0.04021895 -0.07418437 0.1454042 -0.1667633 0.1445686 0.004903987 -0.002097367 -0.01938157 0.2045058 -0.1049409 -0.02107233 0.03036957 -0.03446936 0.1844143 0.07173158 1.49324 0.1139975 0.2434112 -0.1479289 0.1511866 -0.133744 -0.01141747 0.02852998 -0.144866 0.04583045 -0.02705289 0.1789154 0.003640427 -0.1118523 0.05432265 0.2775833 0.02573881 -0.2609228 -0.1454418 0.01442104 -0.009594484 -0.1535906 -0.06020508 0.08061918 -0.1875228 -0.09658645 0.1729911 0.1267497 -0.02684497 -0.11681 -0.006594267 0.007176504 -0.03132186 0.1292098 0.01216768 -0.1180797 -0.04766527 -0.08476003 -0.02729256 0.0548604 -0.05398642 0.01342067 0.04853648 -0.2378451 0.0477595 0.09078476 -0.06299105 0.006714841 0.3985974 0.07579883 0.01039858 -0.1504836 0.1331049 0.07713265 -0.1143468 -0.1395193 -0.1320574 0.06337639 0.05890157 -0.04365031 0.002710502 1.109679 -0.01976647 0.2859987 0.2048628 0.1059005 -0.07088158 0.01334932 -0.01087963 
  0.04633776 -0.06897261 -0.2498861 0.109878 0.03352489 -0.3051892 -0.1053393 -0.1664674 0.006561239 0.02406466 0.04049091 0.2101112 -0.08411556 0.1414114 0.04922907 0.06109681 -0.3454088 -0.3428512 0.05729914 0.03626174 -0.1625392 0.07805181 0.2253171 -0.04983748 0.2042998 0.3591157 -0.04415809 0.1105441 0.1076086 0.04710976 -0.03253671 0.03645251 -0.1397998 -0.1768078 0.06410892 -0.01488773 -0.2961415 0.1991302 -0.2679434 -0.06476746 -0.2721973 0.2802105 0.01451171 -0.3497713 0.1542411 0.05046326 -0.1127396 0.2055347 0.01261635 -0.2792262 0.1121423 0.08905957 0.0596366 0.03567518 -0.1891679 -0.01297856 -0.008353927 -0.01031028 0.1640413 -0.192748 0.2183686 -0.0840937 -0.02907506 0.1326262 -0.006684002 0.4590046 -0.07640999 -0.09863109 0.2021372 -0.1202273 -0.02475485 -0.003069808 -0.07393862 -0.2358556 0.07364434 0.1981593 -0.0207503 0.1120735 -0.1562825 -0.1312599 -0.3375807 0.007987843 0.1954799 0.1245725 -0.1630594 0.01513313 -0.4539759 -0.05336754 -0.06763884 0.2357248 0.1125648 0.004340091 -0.2080926 0.4963457 -0.07045438 -0.02220827 -0.008671087 0.002993221 0.2166474 -0.1340114 -0.1091673 0.1665638 0.03744464 -0.2467768 -0.06125677 0.06955629 -0.1002212 -0.2257604 -0.09186155 0.09941212 -0.1019905 0.06336851 0.07103395 -0.1528316 -0.09515418 -0.1186051 0.5610841 0.04151802 -0.1574762 -0.3371827 0.2310311 -0.03951269 0.0244265 0.02170938 -0.2526368 0.1100093 0.2105308 0.152714 -0.03083145 0.2039909 0.03041562 0.3106074 -0.04049331 0.06409968 0.2313713 0.03899505 0.3186805 0.1391759 0.1298866 0.5983241 -0.006780924 -0.02041065 -0.3829146 -0.01457844 0.2203154 -0.1504528 -0.1179238 0.002952675 0.004895999 0.06877235 -0.1013222 0.1629773 -0.09009946 0.007145059 -0.1363059 -0.001716219 0.1256635 -0.08981906 -0.2372832 0.01681204 -0.1868131 -0.1297555 -0.2876411 -0.02107342 -0.3054619 -0.01142745 -0.1311561 0.06968203 0.4069813 -0.7814448 0.1383909 -0.0795522 0.1705832 0.00207794 -0.5124683 -0.01648341 -0.1224966 -0.04220996 0.03307964 -0.06569467 -0.3479824 -0.09562788 -0.09080849 -0.1564859 -0.1279122 -0.266776 -0.1423038 0.175109 -0.1749942 -0.338099 0.1482399 -0.1442523 0.06712543 0.04915385 0.01690421 0.04396194 0.3173314 0.04786682 0.3461415 -0.1863585 -0.09491257 -0.1197093 0.02976607 0.4355028 -0.1297047 -0.2605327 0.03582326 0.7295394 0.1730457 -0.4364402 0.2319324 -0.3164313 -0.1159279 0.03830299 -0.2547959 0.0189092 -0.08764449 -0.1378743 -0.2630676 -0.07072756 0.2151976 0.1850345 0.2913324 -0.03154706 -0.2192054 -0.1658385 -0.1019296 -0.02402747 -0.10498 0.1199292 0.1680142 -0.4141287 -0.06757001 0.1136883 0.0674193 0.05565357 -0.1582575 0.1429218 0.02167413 -0.28261 -0.395171 -0.1050615 0.3306904 -0.3423201 -0.07408471 0.0881301 -0.09191326 -0.01849684 0.2892527 0.07042194 -0.1611657 0.07247462 0.08818761 -0.1548422 -0.1558544 -0.2231194 
  0.3186085 0.4625694 0.1153247 -0.511804 0.3540011 0.1295426 -0.05363481 -0.6512288 0.1636794 -0.01466675 -0.6512147 0.883778 0.06737138 -0.5643575 -0.103361 -0.2470851 0.3914215 -0.06173927 0.919697 -0.2781272 0.53185 -0.1508955 -0.3463598 -0.1066235 0.4388945 0.4057538 0.1687584 0.2639066 0.06794562 0.1201385 0.1241209 0.1306209 -0.2143764 -0.3810617 0.1673069 0.1349165 -0.1740011 -0.5356734 -0.2566126 -0.3765154 -0.2751032 -0.4237461 -0.2692507 -0.3385633 0.01337069 0.09617022 -0.2625858 -0.1565094 -0.3016097 -0.06381737 -0.01524431 -0.1307037 -0.1424407 0.3267975 -0.04788828 -0.1526537 -0.4210045 -0.06256282 0.07162356 0.8203498 0.01261416 0.02575152 -0.1256038 0.322892 0.2274937 0.3850376 -0.0718148 0.01310492 -4.371455e-05 0.9796384 -0.2609683 -0.07169989 0.1572077 -0.1153284 -0.6534737 0.2670372 -0.08871543 -0.8691951 -0.08684661 0.05381014 -0.6964802 0.1657468 0.1306002 -0.3937145 0.1988552 -0.09710547 -0.4579247 -0.23186 0.08830129 -0.4054543 0.1388746 -0.04644376 0.1972365 0.08890679 -0.1406036 -0.599677 -0.1468302 -0.3023524 -0.4040065 -0.4440348 0.2330386 -0.6351848 -0.06101632 0.2248403 -0.02090901 0.2075661 -0.6828868 0.3693041 -0.2774485 -0.5244225 0.007776255 0.07527804 -0.2130966 0.1478961 0.02877265 -0.1759258 0.2247346 0.745364 -0.2894735 0.4173425 -0.04627183 0.4764755 0.09559766 0.08283812 -0.6961641 0.1688754 -0.3188448 0.09529058 -0.5340477 -0.10648 0.07837625 -0.406953 0.2452881 -0.4108705 0.1171193 -0.0926514 0.1808948 -0.2795504 -0.1003617 -0.03401649 1.343382 -0.5111523 0.1266613 -0.03843142 -0.2680476 -0.4384558 -0.5462983 0.1335668 -0.4742841 -0.1687695 -0.2988911 0.544167 -0.2528715 0.0306063 -0.2500259 -0.03799969 -0.2363607 0.1846834 -0.130959 0.2050327 0.10431 -0.09437466 -0.02842649 -0.1577689 0.06069475 0.1805906 -0.1883405 0.308851 -0.4533843 -0.1171751 -0.02858142 0.1391905 0.4086008 0.2363549 -0.09353833 -0.08998799 0.05381277 -0.6631799 -0.2480206 0.0934795 -0.2857926 -0.317873 0.2504738 -0.0893644 -0.590957 0.3683079 -0.2494484 0.01811884 0.08893257 0.2085143 -0.4007448 -0.179373 -0.06134553 -0.06201595 -0.4155977 -0.6473123 0.3175392 0.4308383 -0.6908442 -0.3038967 -0.1812804 -0.1724091 -0.5905339 -0.2745569 0.2148945 -0.4023134 0.6822892 -0.03123333 -0.08155837 -0.5204976 -0.3895456 0.7891591 -0.008164949 0.270733 -0.1896964 0.2074726 0.2471312 -0.07313041 -0.113364 -0.1912512 0.5886888 0.1616402 -0.2692544 0.07202921 -0.08485288 0.06179533 0.5478349 -0.2203324 -0.5186743 1.041872 -0.4083851 0.1462891 -0.1089597 0.005700808 0.01741234 -0.5944671 0.103975 0.4441769 0.01838673 0.2701147 0.09061769 -0.3016064 0.7955464 -0.05342283 0.4236474 -0.09197728 0.2434946 -0.4153651 0.06500386 0.1474738 -0.2046287 0.6060944 -0.03448946 -0.3026826 0.09388163 -0.4172849 
  -0.07255434 -0.3274728 0.2848817 -0.09860257 -0.0006843334 -0.0530749 0.0891564 0.1775102 -0.1328882 -0.1750818 -0.3315801 -0.2474592 -0.2006862 -0.2909308 0.06360917 -0.28649 -0.3400372 -0.4078737 0.04348186 0.2070475 0.09661882 -0.1019309 0.0753364 -0.1408263 0.1190796 -0.04212345 -0.005777734 0.1667861 -0.2051685 0.03856196 0.343157 -0.3682536 -0.03955598 -0.1040671 0.2588393 -0.07829873 0.2521877 -0.7155376 0.2427705 0.2825285 -0.311184 0.1255077 0.09613046 -0.1910613 0.01510305 0.07666375 0.4364577 -0.2989531 0.3991584 0.03153326 0.04632076 -0.05879364 -0.07467972 0.08414017 -0.1335165 -0.01377806 -0.1196581 -0.1764817 0.1199782 -0.0005491909 -0.1468126 -0.2394654 -0.2750892 0.01634882 0.1921327 -0.03371423 -0.06197203 0.003046313 0.06052031 -0.1562642 0.1873146 -0.06228243 0.006232878 0.2362788 0.2402975 0.2547395 0.07955467 -0.3272857 0.04464433 0.003208156 -0.2178081 0.07112738 0.01629979 -0.1271239 -0.3142122 0.2392261 -0.254961 -0.3447692 0.06910038 -0.02095652 0.2921287 -0.167831 0.211882 0.1390051 0.3159911 0.1669861 -0.0580329 0.1042498 0.01598703 0.08208215 0.1803379 -0.2816679 -0.4138633 0.4728747 0.1659177 0.0556874 -0.3285694 0.1200012 -0.1269253 0.221029 0.06208216 -0.32414 -0.3908594 0.1804164 0.1983224 -0.08697491 0.03326552 -0.3906988 -0.1376442 -0.0273427 -0.1039678 0.003282389 -0.03977978 -0.3322027 0.2152599 -0.1744062 -0.5507562 -0.2787867 -0.1044412 -0.1667338 -0.0226539 -0.2369185 0.05613462 0.08659688 -0.1483376 -0.1839233 0.2153077 0.2194981 -0.1137069 0.1568657 0.2348897 0.1027935 -0.02470346 0.2340913 -0.4022489 0.1197634 0.04136636 0.1929706 -0.001447275 -0.3441214 -0.1999522 -0.1159766 -0.1423235 0.01076798 -0.01585767 0.007989411 -0.1730575 0.4782698 0.1818274 0.09950271 -0.1699479 -0.2258263 0.1607264 -0.2538874 -0.09325799 0.07090662 0.0803898 0.1642726 -0.1307825 0.08397881 0.004367671 0.0184305 -0.2254547 0.1277468 -0.008847728 -0.02671128 0.07396184 -0.269091 -0.04655888 0.09477367 0.06120974 0.2975792 -0.09123123 0.3419263 -0.4098247 0.1016719 0.4067338 -0.294854 0.0405998 0.04837462 0.07490206 -0.06079143 -0.1524508 -0.08594631 -0.09895623 -0.02261245 -0.1663315 0.1295287 -0.2348336 0.142561 -0.184591 0.4224139 -0.04707548 -0.0251383 -0.2129895 -0.07001024 -0.03673969 -0.02116469 0.06867111 0.1117653 0.2793554 0.3100715 0.07611467 -0.3143901 0.03205559 0.05887453 -0.2310438 -0.223237 -0.1447377 -0.0007598594 0.03322261 0.1503545 -0.1424557 -0.03248914 -0.173986 0.005038979 0.1609966 -0.007608701 0.01462783 -0.2498633 -0.0006515225 -0.07642563 -0.3170659 0.433752 -0.3307976 -0.1129842 0.07613403 0.01807264 0.1641159 -0.1364957 -0.1304795 -0.1438525 -0.5384971 -0.1747578 -0.06989253 0.1670387 -0.2172584 -0.09338311 -0.788047 -0.05743333 -0.5429099 0.009313113 -0.06244912 -0.1399019 0.1078873 -0.1293549 
  -0.3567446 -0.2144029 0.1350053 -0.1567663 0.2043045 -0.4024537 -0.3951694 0.2924155 0.0525479 -0.7155418 0.2900488 -0.03989351 -0.1126128 -0.175753 -0.1921439 -0.07277235 -0.2061715 0.1023849 -0.8021571 -0.3391933 -0.6599414 0.1779195 -0.07619756 -0.09427042 -0.05907302 0.2831758 0.111828 0.180808 -0.01999466 0.04305435 -0.3313987 -0.1637031 -0.00214824 -0.019449 0.1403722 -0.1212967 -0.4548992 -0.218546 0.01797337 -0.08879887 -0.07362202 -0.3469177 0.03738952 -0.6029281 -0.2059935 0.1967656 -0.452621 -0.01893301 -0.3409293 -0.2695997 0.1530001 0.3632013 -0.07502216 -0.1716385 0.2398607 -0.138153 -0.4240751 0.052326 -0.3168554 -0.4462268 0.5073706 -0.360155 0.06375524 -0.02929385 0.2324218 -0.1297449 0.3163644 -0.7377877 -0.1007982 -0.1795125 -0.1406325 -0.5349079 0.1609655 1.16777 -0.009564966 0.001944714 -0.05335044 -0.3910609 -0.2860817 0.2427579 -0.2045787 -0.4895099 0.002753948 -0.2662185 -0.2694639 0.1989551 -0.5391051 0.07617291 -0.1108004 0.2249991 0.1792993 -0.2870494 -0.2596568 0.002023442 0.1655225 0.1303491 -0.05739227 -0.09910357 -0.6375571 -0.5104577 -0.2970159 0.01111029 0.200403 -0.100791 0.03348446 0.06641499 0.0748701 0.02003377 -0.2872913 -0.2949016 -0.1174258 -0.09389273 -0.0287238 0.4616763 -0.0007679634 0.2481975 0.373433 0.00940854 -0.1835559 -0.4516678 0.1261905 -0.2697043 -0.2091457 0.1559533 0.1271758 0.1688564 -0.4057793 -0.2630576 0.1090318 -0.372194 -0.10661 0.0395922 -0.3497629 -0.01119171 -0.1647006 -0.3766572 0.4730465 0.1037702 -0.3091253 -0.3065986 0.9824136 -0.5534158 -0.1383059 -0.244442 -0.4486391 -0.7768404 -0.0535892 -0.3249623 0.2222108 -0.1452008 0.3074418 0.1715311 0.1951022 0.3756982 -0.2842865 0.1352642 0.08032712 -0.9913079 0.04760639 -0.2945872 0.2706689 -0.5343654 -0.04679539 0.1793611 -0.2843174 -0.07300017 -0.1962403 0.1813569 0.04114771 -0.4209743 -0.214922 -0.321287 0.1060923 -0.1767069 0.2293519 0.01671707 -0.1554145 0.1430885 -0.02904934 0.0340199 -0.08571602 -0.434494 -0.05286008 0.261582 -0.2072495 0.3050669 -0.2060107 -0.6199093 0.2343699 -0.3295576 0.5576627 -0.09874693 0.1766504 0.08094811 0.4585911 -0.08897601 -0.1821563 -0.05159731 -0.7482569 0.4433736 -0.362129 -0.1776286 -0.4833107 -0.4462612 0.3481998 0.07328101 0.2183767 -0.3505953 -0.318178 0.4253643 0.253599 -0.1245235 -0.709857 0.6092311 -0.1036864 -0.268075 -0.03267023 0.06782069 0.1574668 -0.08446352 -0.2675518 -0.2426222 -0.505143 -0.5438452 0.008077479 -0.05471341 0.356304 -0.007658151 0.1144249 0.1822091 -0.1189174 0.1942128 -0.1412432 0.1395259 -0.3828075 0.4749427 -0.2658007 0.1149019 -0.1341618 -0.1817224 -0.05844761 -0.1983751 -0.2531584 -0.4158944 1.223354 -0.08225725 -0.1554917 -0.4714719 -0.5328607 -0.3629419 0.1053204 -0.3413924 0.566359 0.423955 -0.04756241 -0.1215521 
  0.8115737 -0.1135211 -0.0575625 0.5410248 0.04958746 -0.5768288 -0.3779556 -0.5449272 0.01772881 -0.4418008 -0.3864962 -0.3510202 -0.1318363 -0.5598693 0.145037 -0.04316392 -0.01340657 0.01728004 0.1492819 0.02374169 -0.6390409 -0.07022097 -0.4319135 0.1269802 0.1327651 -0.07005033 0.04579206 0.3078925 -0.201647 -0.572731 -0.528309 -0.09605704 -0.3172982 -0.3296687 -0.2062978 0.03388053 0.0656087 1.4973 0.2160282 -0.2252287 0.02906138 0.1261919 0.2030825 -0.4464036 -0.3917867 -0.1589196 -0.2256292 -0.03076361 0.4475214 0.03091562 -0.600327 0.2466529 0.2392758 -0.1077251 -0.03248389 -0.2950255 -0.1890677 -0.2506052 -0.1036167 0.08689714 0.09063138 0.09073201 -0.7264177 -0.17621 0.0516702 -0.09777285 -0.1262212 -0.1806062 -0.2744654 -0.4155335 0.2322357 -0.414753 -0.3536305 0.2682483 -0.2176724 -0.3038948 -0.1377794 -0.4243338 -0.09735344 0.04744085 -0.4543712 -0.07328294 -0.08324689 -0.1497319 -0.8307571 0.1268501 0.8280802 -0.4744317 -0.1107756 0.1343907 -0.3771934 -0.2936669 -0.1509064 0.3531268 -0.2506698 -0.0549397 -0.302072 -0.6669068 0.06773524 -0.03018501 0.06761777 0.2331942 0.008348503 -0.3471058 -0.2715252 -0.2854973 0.3706194 -0.03178348 -0.2579145 -0.4653559 0.2214813 -0.7692041 -0.2916153 -0.3258698 0.07900395 -0.2624594 0.2733896 -0.2580015 0.02923375 -0.2096772 -0.06132096 0.03491438 0.1095334 0.2202263 -0.07934669 0.1499556 0.01165217 0.2001194 0.02328348 -0.4901547 -0.4925868 -0.1414737 -0.1235223 -0.0101038 0.0619402 0.3365551 1.02063 -0.6742002 -0.228916 -0.3741312 1.027424 -0.991897 -0.252304 -0.1515969 0.200587 -0.2616549 -0.1607615 -0.4653062 0.1590608 -0.3374671 0.2622125 -0.1035341 -0.308164 -0.1922341 -0.1494381 -0.009708663 -0.5785235 -0.2226072 0.1994701 -0.02487758 -0.3647721 -0.2816076 -0.178683 0.522543 -0.03680867 0.2124204 0.3711101 -0.03650918 0.07107423 -0.2838857 0.02481993 -0.1865646 -1.008405 0.04341065 -0.1980761 -0.00920376 0.005767731 0.06132007 -0.06224194 0.05967188 0.293413 0.1441625 -0.07751566 -0.01961512 -0.7926084 -0.3716138 0.9506729 0.01743061 0.03187726 -0.248378 -0.2083479 -0.2161148 0.07818192 -0.07213125 -0.04793384 -0.1464049 -0.1834212 -0.04605155 -0.1334124 -0.1620908 -0.4954527 -0.04415422 -0.2120161 -0.04962073 0.007139654 0.05260086 -0.07277364 0.2042732 -0.04371056 -0.007717843 -0.00569333 -0.6346503 -0.1720069 0.08790006 -0.6290783 -0.4072783 -0.2811558 0.03254119 -0.1505472 -0.1567606 0.182367 0.03430451 -0.2330679 -0.1999085 -0.7609041 -0.1233588 0.6322986 -0.04718003 -0.006067529 -0.04860325 0.2343555 -0.3151056 -0.6742898 -0.2566218 0.008940659 0.4790089 0.09718224 0.1378282 0.09908107 -0.280785 0.08267583 -0.1654369 -0.9738055 -0.2121716 -0.06612604 -0.7416525 -0.1059834 -0.6609536 -0.1734693 -0.317875 -0.04957762 0.5251663 -0.1136608 -0.5648758 -0.07342672 -0.2276497 
  0.1958647 -0.0846334 0.2080301 0.2670099 0.2591383 -0.2931825 -0.07605856 -0.9687701 -0.07316976 -0.1901387 -0.4407744 0.1464058 0.01970494 -0.09162559 0.01121417 -0.1566013 -0.02190703 0.02109415 0.2671503 0.1066983 -0.5811831 0.04047954 -0.107492 -0.04134969 0.4931588 -0.4593526 0.3727418 0.1391338 -0.08155464 -0.1683955 0.2608361 -0.1455998 0.2269957 0.1164589 0.0621961 0.2787943 -0.5141573 1.576367 -0.3411257 0.3906637 -0.03079466 0.3240902 -0.2347278 0.01663508 -0.1461769 0.2621675 -0.3971 -0.1606455 -0.5820972 0.1816565 -0.8770753 0.2682056 0.01336968 -0.1052844 -0.05530018 -0.1608425 -0.05883767 0.4503987 0.03891283 0.2817393 -0.02840574 -0.1526211 -0.9014983 -0.301856 -0.1159397 -0.03991856 -0.2817591 0.2823472 -0.1461512 0.2456337 0.01217501 0.3254309 -0.0962808 1.082105 -0.2695804 0.3798371 -0.2463233 -0.1531339 -0.08022177 0.1590461 0.03359103 0.04686786 -0.2821721 -0.3723356 0.3817757 0.1694119 -0.1747117 -0.1069863 -0.09747749 0.6609337 -0.4576617 -0.4047735 0.1423751 0.1283988 -0.07402127 0.216088 -0.3283732 -0.04440366 0.1043137 0.007115794 0.08640678 0.5021928 -0.2317173 -0.6126488 -0.1445071 0.1008346 -0.2806696 -0.04121195 -0.3490693 -0.007583685 -0.176733 -0.08868453 -0.5862743 -0.0845385 0.1709237 -0.2050121 0.1381291 -0.4763085 0.1171788 -0.266155 0.05839255 0.01222179 -0.1878909 -0.3165816 0.4180554 -0.495703 0.2130392 -0.002730539 0.1802745 -0.5534738 -0.1873895 -0.1547797 0.05459326 0.1692504 0.1119216 -0.387723 -0.1517028 0.03172751 0.4594983 -0.362808 0.604817 0.09987415 -0.2649933 0.7864901 -0.3532091 0.3326289 -0.04556404 -0.2235465 -0.05103393 -0.5234336 0.1803299 0.08118892 0.3098118 0.267386 0.1584688 0.07752803 -0.2553053 -0.3702756 0.3060936 -0.2812868 -0.2204779 -0.47782 0.1640808 0.02098591 0.0240941 0.1717124 0.1181698 0.02221465 0.1622161 0.1630769 0.1687313 -0.183518 -0.5349712 0.04101922 0.1921795 0.4146794 0.106999 -0.04271318 -0.1862901 0.06561957 -0.1535634 -0.4224517 0.165104 0.05483594 -0.08541089 0.1664277 -1.061445 0.4636506 0.06192688 -0.2087072 -0.1083534 0.02699652 -0.4631321 -0.3299147 0.09453367 -0.1493531 0.1301802 -0.0890454 -0.5911434 0.3386676 0.1355061 0.1705479 -0.2633992 0.03896837 -0.004755146 -0.1940993 0.1823443 -0.05221778 0.2116863 -0.1567081 -0.3379837 -0.8684481 0.07580062 0.1441519 0.6966395 0.4274445 -0.2337355 0.3764797 0.06936662 0.1017627 0.01855564 -0.3178836 0.5871783 0.09922685 0.1086298 -0.4688841 -0.1282554 0.2930646 -0.4035585 -0.1093199 -0.3080463 1.191209 0.1306184 -0.1044868 -0.2919052 1.484159 0.06995495 -0.1408581 0.1136426 0.02551807 -0.2126971 0.006094367 0.1751442 -0.101454 -1.533204 0.05879343 -0.1378863 -0.2054189 0.4352123 -0.07239285 -0.09777215 0.01906534 -0.07327206 -0.04328443 -0.01325468 0.05899293 
  0.1423735 -0.03146964 -0.262808 0.1052477 0.7647187 0.5728481 -0.1414251 0.2382824 0.07753408 -0.1717567 0.1248619 0.5924554 -0.2028618 -0.1706318 0.3064236 0.1430714 -0.2410347 0.3498972 -0.02168929 0.1658877 -0.1753386 -0.02116572 0.2341534 -0.2941803 0.06148842 0.2427355 -0.3105122 0.09317625 0.3654296 -0.005059696 -0.2068142 -0.3818627 -0.2819887 -0.1435752 0.3082352 0.1346946 0.1593235 -0.04739687 -0.0508833 -0.0306534 -0.5823655 -0.1257655 -0.3405952 -0.2922587 -0.3133241 0.1842631 0.2584393 0.0004758669 0.2663747 -0.03170097 -0.140945 -0.1304359 -0.04327803 -0.3223541 0.005907959 -0.2049498 0.09991003 -0.03178566 -0.01692553 0.0463949 -0.2150636 -0.03517379 0.1135326 -0.1468682 -0.2485841 0.05388371 0.2605839 -0.03427645 0.2161106 -0.0682331 -0.005686862 -0.1312021 -0.3634679 -0.1213023 -0.2822299 0.02216381 -0.03178736 -0.2925259 -0.07623637 0.05550912 -0.1257597 -0.003679994 0.08612835 -0.2598982 -0.1940208 -0.03882802 -0.1337615 -0.6630055 -0.1862067 0.1938244 0.1992853 -0.224742 0.08777574 -0.1201986 0.07341695 0.3428726 -0.0176356 0.1019775 -0.03771967 0.1362059 0.3336005 -0.0817237 -0.1939696 0.03938727 -0.1118022 -0.0749925 -0.07383272 -0.183735 -0.4519069 -0.05853672 0.0008162419 -0.2983964 -0.2466757 -0.5270826 0.02369522 0.1479863 0.1795547 -0.3740022 -0.2495933 0.3734895 -0.06060511 0.1628261 0.4627749 -0.1518584 0.3813632 -0.07741113 0.2212364 -0.3680701 0.4682787 0.3546144 -0.1851027 0.01176484 0.02978314 -0.4608415 -0.147452 -0.452021 -0.05236917 0.02150291 -0.2353999 0.1307322 -0.3166941 0.634584 0.1433774 -0.1144414 -0.3481146 0.260509 -0.2003267 0.04176689 0.009769723 -0.3836505 -0.2643491 -0.8013363 -0.2405734 0.2585464 0.001676622 0.5579119 -0.317341 0.1121987 0.177919 0.1382906 -0.1304644 -0.2945674 -0.05023009 -0.155253 0.3625579 0.00328669 -0.3800213 -0.2991357 -0.205204 -0.435317 -0.2326691 -0.02985801 -0.4109348 0.08849571 0.02903484 -0.4363606 -0.1946224 -0.1813945 -0.3016463 -0.04202379 -0.1142796 -0.08695339 0.06263576 0.2251173 0.2387141 -0.251165 -0.1708225 -0.6540844 0.03185141 -0.1442412 0.2131269 0.0118605 -0.170893 0.2241179 -0.04777473 -0.07517383 0.4338923 0.05114355 0.08811367 -0.1080783 -0.03144654 0.4205788 -0.2100157 0.06325396 0.1749115 -0.004754933 -0.174925 -0.3309757 -0.1009821 0.2257197 -0.5990381 -0.2077066 -0.01598445 0.1101782 0.08343462 -0.00252178 0.1641497 -0.04965571 -0.46399 -0.109166 0.4940701 0.01417035 -0.1096166 -0.05137746 -0.1000772 -0.177501 0.05026559 -0.02290253 0.09161516 -0.0892125 -0.1118619 0.1121326 0.07734679 -0.6541201 0.04968554 0.2173565 0.2234178 -0.3255082 -0.1978738 0.08511277 -0.1755608 0.2333855 -0.1074734 0.2418732 0.1466623 -0.1069899 -0.2215933 0.05337803 -0.2356563 -0.0331095 -0.06060236 -0.3766076 0.0005205765 -0.09740958 0.1397266 -0.07070806 
  -0.3394536 0.03772606 0.3739816 -0.3738462 -0.02073945 -0.02978908 -0.5738985 0.1188774 -0.2094778 -0.07307982 0.1263861 0.1185693 0.06786109 0.1464084 -0.3232847 -0.2785858 -0.1829113 0.3946515 0.3172874 -0.6058952 -0.1101484 0.02208608 -0.1731225 0.07404529 0.3710295 0.009120538 -0.1233578 -0.136171 0.1258221 0.251619 -0.2612435 0.2398703 0.07165625 -0.1580839 -0.09200776 0.03111921 0.2086069 -0.8385162 0.0479078 0.03204598 0.6279514 -0.1194703 0.2014411 0.05745353 0.2396781 0.05838241 0.07013431 -0.2208835 -0.2987196 -0.1995883 0.4743251 0.1296098 -0.04830356 -0.1634446 -0.04494021 0.09571932 -0.4059691 0.3313728 -0.07283656 -0.3017541 -0.298067 0.1301001 0.2179253 -0.3811207 -0.366721 0.1668435 -0.162874 -0.4475688 0.2497477 -0.7855678 -0.3891109 -0.19589 0.09203927 0.7421932 0.13594 -0.05084553 0.2449733 0.345974 0.1577967 0.07012468 -0.0422148 -0.1715247 -0.2139321 -0.08005662 -0.2544471 -0.2020995 -0.0560427 -0.1340359 -0.258302 0.06820132 0.02080774 0.6160398 0.007889729 0.1239573 0.3265553 0.1885982 -0.04807073 -1.446582 -0.1634941 -0.005578296 0.2573558 0.05285281 -0.1358982 -0.1167359 0.4195581 0.22166 -0.0961169 -0.09848614 -0.2305865 0.03914618 -0.01796585 -0.4611634 -0.1024286 -0.08626861 0.2485345 0.01146762 0.6239924 -0.2188189 0.4218873 0.3787273 -0.3258198 0.427691 0.1603817 0.07407811 0.2580996 0.2155013 0.08084068 -0.2720857 -0.03446456 0.01887445 0.1858299 0.1116567 -0.2231364 0.2022009 -0.05301395 7.806873e-05 0.09225077 -0.1896751 -0.1324983 -0.1257586 -0.161016 -0.03200243 -0.3310775 -0.2252118 -0.01711351 -0.3686785 0.1971113 0.1163011 0.1622173 0.107565 -0.1568555 -0.08077478 -0.0353243 -0.1729927 -0.2674516 0.09926417 -0.3398632 -0.1700094 -0.4730687 0.2781628 -0.1204715 0.3345734 0.04436183 -0.9000785 -0.0117149 -0.3780911 0.1506425 0.4137405 -0.0647786 -0.1124631 0.1547723 0.08764887 0.3922972 0.008738899 0.2034398 0.01765611 0.0585768 -0.2219922 0.0871295 -0.07869587 -0.2379814 -0.2765931 -0.06039217 -0.04547608 -0.3932269 -0.04342056 -0.5020569 0.104081 -0.2086014 0.7592804 -0.2687691 -0.1811876 -0.03769481 -0.02410139 0.3218269 -0.2579733 0.0623445 -0.03216575 -0.01106473 0.1230584 -0.5425251 -0.03660822 0.0642928 -0.4263465 0.5942174 -0.07799254 0.1411261 0.2077338 -0.5053012 -0.1119074 -0.3175611 0.003690286 0.1227806 -0.06774693 0.4266146 -0.1692791 -0.06191879 -0.00502413 0.02963747 0.4522107 0.006067363 0.189351 -0.171525 -0.01630507 -0.7465854 0.5198962 0.1414422 -0.04858996 0.06485729 -0.02423505 0.05450306 0.355978 -0.01173151 0.01864224 0.3750874 -0.3881209 -0.2747259 0.09841269 -0.1903805 0.1016769 -0.2606647 -0.4024513 0.008586883 -0.1011961 0.01826941 -0.4764799 -0.2469172 -0.1240822 -0.06738796 -0.09849048 -0.2374717 -0.3293991 -0.5951579 -0.07800751 -0.2151289 0.8036965 
  -0.2573898 0.04026521 -0.0543562 0.03100607 -0.1938686 0.2322306 0.05904051 -0.3865737 0.0009242329 -0.1366488 -0.2254415 0.2913229 -0.07423863 0.03366768 -0.007410422 0.2746677 0.1403776 -0.07861097 0.1486975 -0.6921441 -0.1709777 -0.2283463 0.1943091 0.1012546 -0.03518508 -0.08498146 0.02041551 0.05245963 -0.4566858 0.2019365 0.03240454 -0.09241354 0.0558007 -0.3521519 0.4040435 0.09434008 -0.1828535 -0.1901192 -0.09882112 -0.3050875 0.2459214 -0.1297718 0.4927233 -0.01168359 0.2500571 0.5518577 0.1858905 -0.4643831 -0.1321526 -0.2334206 0.2144966 0.1483434 -0.08837587 0.08697699 0.1196803 -0.157162 -0.2407679 -0.2688202 -0.3989835 -0.248587 -0.1105223 -0.05759591 -0.2725736 -0.1600499 -0.1549691 0.07578347 -1.089149 -0.07201061 -0.1324242 -0.2083016 0.05153741 -0.2847677 -0.211116 -0.4500426 -0.1260677 0.4174826 -0.005671803 -0.03173304 0.182813 0.2369273 -0.4894772 -0.2892391 0.2354271 0.1131935 -0.123569 -0.2254625 -0.2653269 -0.2003937 -7.940117e-05 -0.224597 0.2078032 0.1633157 -0.126921 -0.05267665 -0.1604474 0.4830745 0.1454956 -0.4758095 -0.33334 -0.1762837 -0.07369193 -0.4295504 0.2910686 -0.08861874 -0.02176254 -0.003345958 -0.1687339 -0.2393479 -0.1795644 -0.2344596 -0.06782424 0.07459709 -0.1993203 0.01050948 0.2479443 0.2998662 0.03858815 0.2412786 0.002559282 -0.153058 0.1214316 0.2692971 0.3134774 -0.08616085 -0.2532316 -0.1003003 -0.1878495 0.1778862 -0.01003368 -0.05854592 0.02442412 -0.1200425 0.1133311 0.3782805 0.01792972 0.1061851 -0.07214347 -0.06937524 0.07510898 -0.2430076 -0.1029663 -0.01539745 0.2411816 -0.05403366 0.05675383 0.003934254 -0.02946269 0.2560358 -0.1398993 -0.01491552 -0.1260468 -0.0999983 -0.06655723 -0.1353256 0.09698341 0.1485839 -0.191803 -0.06161641 -0.08955155 0.009718989 -0.2145689 -0.2611521 -0.1058026 -0.01594066 0.0341908 -0.0216749 -0.1242773 -0.03240672 -0.02702427 -0.1656896 0.02245378 -0.2346406 0.1939345 -0.06452006 -0.2892375 -0.2047657 0.1937463 -0.2730371 -0.02916594 -0.2901872 -0.2025437 -0.04426531 -0.1155828 -0.09111783 0.07058907 0.05228856 -0.4142909 -0.01175665 -0.1722429 -0.1865455 0.03357718 -0.1909084 -0.1076579 0.04581496 0.189482 -0.5075921 -0.2233557 0.110173 -0.01693466 0.07118559 0.06196609 -0.2065324 -0.09765753 -0.8580986 -0.2150102 -0.1476706 -0.1745294 -0.0103184 -0.09734756 -0.2672007 -0.02094497 -0.2137253 0.1460975 -0.2763859 0.1672285 0.2121539 -0.264655 -0.02863874 -0.02028454 0.2014492 0.07147616 0.200485 -0.0926981 0.1764111 0.1761558 0.3338776 0.003660271 -0.1654395 -0.2085297 0.0802698 0.2276038 0.06604788 0.1042572 0.3851277 0.1077814 -0.1726155 0.1165555 0.01036294 -0.2268285 0.348372 -0.01894528 -0.06655575 -0.09401777 0.1725221 -0.07010455 -0.01897474 -0.1185184 0.08627303 -0.06912852 0.1978231 0.06636591 -0.1235878 -0.2618577 0.1577441 0.3383966 0.1586919 
  0.00397185 0.05527182 0.3172131 -0.1119997 -0.4918686 -0.03348341 -0.1127514 -0.0743222 -0.2492543 0.2520194 0.2324538 -0.1933416 -0.05617987 0.1293951 -0.1673569 0.1768755 0.1615027 0.2192816 -0.07949109 -0.09896429 0.24613 0.09155554 -0.02940561 -0.226403 0.1579717 -0.3446939 -0.01808007 0.003785597 -0.1154971 -0.2571037 0.02330484 -0.003802327 0.1971915 0.09075362 -0.2297023 0.1961832 0.2782297 -0.4307305 0.02709828 0.2256064 -0.1142775 0.04788795 -0.1870929 -0.07819155 -0.6295657 -0.3978009 -0.02791797 0.5714701 -0.2874686 0.1251988 -0.002508585 -0.00554245 0.1928907 -0.3212126 0.2166882 0.1213593 -0.02146441 0.1892101 0.3524658 0.2489631 0.06498177 -0.08057708 0.1628411 0.330812 0.08391203 -0.2795095 0.2237415 -0.02820755 0.1393258 0.009387622 -0.3674755 -0.2298171 -0.2653456 -0.2024457 -0.03128565 0.1937479 -0.222009 -0.02152797 -0.03081405 0.2405073 0.3834302 -0.2060236 0.1324565 0.003014134 0.1883602 -0.08486827 -0.2656348 0.2082302 0.09845123 0.04983458 -0.2557686 -0.150331 0.09613886 -0.3700953 0.0391974 -0.505537 -0.3997002 0.05348882 0.03485174 0.3597669 0.1820566 -0.2884221 -0.7559835 -0.08776461 -0.1684694 -0.06726944 0.01238459 -0.01680686 -0.02784589 0.1255301 0.169464 0.0497712 -0.2398423 -0.08598495 -0.2881477 -0.09196562 -0.6130739 -0.08146626 0.08571602 0.0287527 0.1187855 -0.1465459 0.08882721 -0.02790565 0.1277698 -0.1408679 0.2035003 0.009741359 -0.1800932 -0.2084365 0.05852114 0.0361018 0.6590843 -0.4890137 -0.2972259 -0.3354013 -0.1152456 -0.008751732 -0.1560732 -0.03325826 -0.2905315 0.002821906 0.07794829 0.09190594 0.2139023 -0.05670954 0.1754161 0.0005202329 -0.07786632 0.1185315 0.08724542 0.3425661 -0.1029532 0.01510509 -0.06749095 0.1754004 0.2350395 0.0681854 -0.00738964 -0.4250871 0.1531446 -0.4796728 0.07542881 -0.1338271 -0.1375761 0.07927383 0.1297963 0.3316786 0.04370546 0.1556262 0.1213929 -0.1463324 -0.3227343 0.09512704 -0.2021216 -0.3193389 0.02850357 0.1458388 -0.3341262 -0.4098238 0.05434303 -0.4521872 -0.1023598 -0.1815905 0.1655958 0.02794828 -0.2933196 0.1907934 0.03766514 0.3208011 -0.05145467 -0.1733637 -0.271544 -0.0351816 -0.0399709 0.007440896 0.1222905 -0.3475526 -0.03521423 0.3118423 0.0365507 0.04372376 0.1116267 0.06876028 0.001365633 0.2855109 0.02197944 -0.08786403 -0.04753789 0.04132475 0.1717269 -0.07544428 -0.09106702 0.1846854 -0.08280201 0.2316894 -0.08860964 -0.3611063 -0.2355779 -0.02983637 -0.2477898 0.03838975 0.07682204 -0.1404789 -0.07873237 -0.3157701 -0.0642098 0.9623333 0.007914151 -0.3384442 0.04354842 -0.05641035 0.03282569 -0.3576165 0.04650794 -0.1272138 -0.7125883 0.1670229 0.02904525 0.03152645 -0.06215594 0.006247887 -0.01875289 0.08478404 -0.02444579 0.03817434 0.08032922 0.1543025 0.08138587 0.04065211 -0.3117129 -0.1052922 0.01087099 -0.07865932 -0.03377432 -0.1137952 
  -0.05209013 -0.07469239 -0.0974286 -0.05727316 0.1228732 0.09687084 0.1516905 0.106324 0.2376888 0.2440719 0.2545326 0.4018696 -0.26575 -0.2275556 0.1199357 0.257982 0.1181232 0.04774382 -0.09704126 -0.2618585 0.1219058 -0.0712573 0.1797995 -0.5464994 -0.1792136 0.1106035 0.1425615 0.0424071 0.08718792 0.1851742 -0.1493455 0.3558874 -0.07886083 0.1238909 0.0113957 -0.02410713 -0.04980918 0.02898277 0.0165964 0.01705041 -0.2807785 -0.005006261 -0.2189636 0.06074905 0.05191178 0.2491647 0.1449056 0.05263774 0.1065351 -0.1758203 -0.1435139 0.04061805 0.01481993 -0.1998072 -0.08498403 0.09025448 0.1133861 -0.1097115 0.07053714 0.2232559 0.5712426 0.0294216 -0.1195543 0.2034097 -0.1327878 0.06200852 -0.04469814 -0.2161253 -0.208123 -0.03148617 0.04698669 0.004739353 -0.1489283 -0.2530971 -0.3068819 0.01502214 -0.01127377 -0.05421132 0.2407441 0.01666968 -0.1061859 0.1613847 0.1062083 0.06547977 -0.1664917 0.04312833 -0.1316058 -0.2854164 -0.2714058 0.2323866 0.3026817 -0.1874274 0.0124086 -0.04958529 -0.004218755 0.3077227 0.03140157 -0.5023177 -0.06484789 -0.01453448 0.2190945 0.09375949 0.4682554 0.06543786 -0.1604086 -0.07052693 -0.3409924 0.1045414 -0.2424165 0.2102815 -0.1136719 -0.2282211 -0.2597088 -0.0538709 0.07473335 0.02854168 -0.0169312 0.08710659 -0.1353615 -0.1285002 -0.3219754 0.03078304 0.1157559 -0.126238 -0.1877297 -0.2475768 0.2790661 0.03200547 0.3116056 -0.1379936 -0.1022427 -0.1282791 -0.1575406 -0.07951516 -0.01137418 0.01078004 -0.05315641 0.2130708 0.05379393 0.1306068 -0.07434226 -0.1680728 0.1229694 0.1222452 -0.08052659 0.1422781 0.1544165 -0.06845976 0.1347136 -0.06651247 -0.2144634 0.05695968 -0.1071135 0.3676108 0.04339973 0.1881051 0.0004888782 0.599089 -0.1222598 0.2778728 0.1248807 -0.5381197 -0.08277821 -0.04146728 0.0003940779 -0.004376166 -0.03807678 0.2905318 -0.02621661 -0.1791633 0.23152 0.153238 -0.2049327 0.1967605 0.182829 -0.04343868 -0.1677462 0.130816 0.0399978 0.2193303 0.07182045 0.02173304 -0.06044674 -0.3515149 0.1879736 -0.2559333 0.383966 -0.09330431 -0.03814276 0.1560957 -0.00865314 0.031703 0.162489 0.07763578 0.1880384 -0.06133979 -0.02862843 0.03824896 -0.01628799 -0.058798 -0.2194149 -0.06637797 0.1092845 -0.1939809 -0.2160283 -0.07039588 -0.06997002 -0.03023576 0.04183442 -0.09075604 0.08728175 -0.1755415 0.07697866 0.07594365 0.2590707 -0.1971739 -0.06508806 0.1240405 0.04152076 -0.1214208 -0.2644885 0.3458054 0.2833336 -0.01285677 0.03860537 0.2008535 0.1602001 0.01507977 -0.3944437 -0.02914363 -0.01786075 0.1161053 -0.2228194 0.231157 0.07385226 -0.1971862 -0.07792807 0.4476205 -0.1027918 0.04845522 0.1354488 0.1019383 -0.06235845 -0.07122929 -0.01809983 -0.1829989 0.05714052 -0.09063049 -0.03452974 0.2633206 -0.3111334 -0.3195945 0.03435694 0.08770127 -0.1853908 -0.01019925 
  0.3346308 -1.128194 0.007690325 -0.01037094 -0.1239921 1.132777 -0.2887726 1.076145 -0.2648927 0.3519272 0.1076221 -0.8109633 -0.356263 0.76508 -0.1994736 -0.5711135 0.4330637 -0.1249833 1.836123 -0.5869838 1.086312 -0.2276386 -1.009908 0.2242035 0.2733107 -0.8245038 0.3772658 -0.2905033 0.3174319 -0.6436094 -0.1122642 0.1647332 0.5040065 -0.0224385 0.5423189 0.8372227 -0.06515294 -0.223524 -0.1015287 0.7169462 -0.5666114 0.3850053 -0.4571123 -0.8124608 0.06302939 0.1421072 -0.02954299 -0.6123042 0.173171 0.01062886 -0.6443704 0.4898455 0.320726 -0.1560011 0.03718558 0.2689596 0.1293201 0.02874446 -0.1350088 0.5785987 -0.03434884 -0.1479107 0.1050842 -0.2629862 -0.5106872 0.05437272 -0.4133718 -0.3757665 -0.2398938 0.3627103 -0.1303686 0.1183122 0.1681951 0.4876198 -0.01769563 -0.05633841 -0.500694 0.09722413 0.3057975 -0.245701 -0.593071 0.03888818 0.03154096 -0.01270705 -0.09401334 2.031929 0.4044919 -0.1898635 -0.7991936 0.8829759 -0.4109591 -0.4018254 -0.04046422 -0.4106396 -0.9692822 -0.09075823 -0.6128985 0.5837322 -0.3023598 -0.1297989 0.1322909 -0.1198104 -0.2937336 -0.940684 -0.3240331 -0.2916865 -0.6653633 -0.3703417 0.07459256 -0.2920372 -0.01048259 -0.4452395 -0.005444228 -0.2585315 0.4067854 0.1209507 0.1019611 0.2649247 0.1119376 0.1962186 -0.2144322 -0.5383536 -0.07468541 -0.2008371 0.2224404 0.1886861 0.744321 0.3649586 -0.2266663 -0.321805 -0.03361814 0.08192186 0.125143 0.1258616 -0.4706721 0.2667511 0.08530483 -0.6005491 0.3419549 0.1212757 -0.2405034 -0.1905647 -0.1468959 -0.5208765 -0.06725334 0.02012274 0.1504934 -0.4825366 0.4265175 0.2794992 -0.200689 0.300577 -0.1805649 -0.9996137 -0.1629204 0.4796824 -0.1368487 -0.08762044 -0.732711 -0.240698 -0.5335457 -0.113883 0.01531281 0.2473592 0.099028 0.0696019 -0.1532883 0.6228551 0.3029682 -0.2977015 0.0687933 -0.02214211 -0.02139742 -0.4863597 0.1088012 -0.05752469 0.1329676 -0.04301855 -0.3113877 -0.354492 -0.1757498 0.07284117 -0.02485096 0.2019249 0.1835104 0.9896772 -0.3142109 0.003016119 0.2313554 -0.7198988 -0.2745986 -0.1322353 -0.2691219 0.04329586 0.3897811 0.3412716 0.3302748 0.1092616 -0.1791214 -0.6583152 0.04925834 -0.442544 0.04672543 -0.451723 -0.513874 -0.6047798 -0.2511998 0.07865894 -0.2080343 0.3200895 -0.03120562 1.588223 -0.1509217 -0.2955671 0.3986247 -0.2095312 0.1529344 -0.01085311 0.06982897 0.276975 0.03939603 -0.07205424 -0.09766125 0.2253704 -0.1790362 -0.03030723 0.02043643 -0.001325209 -0.08745134 2.290527 -1.476394 0.1473018 0.3879977 -0.4758125 0.05885957 -0.3633686 -0.6986582 -0.06928618 0.07490851 -0.5670667 0.2516826 -0.2943589 -0.1335776 -0.3439448 0.6712026 0.258998 0.1458813 -0.1027514 -0.004101278 -0.1764201 0.2322882 0.5880347 -0.09501477 -0.1167092 -0.3831362 0.2184141 
  0.3185011 -0.3018339 0.3337772 0.234889 0.5842251 -0.1976784 -0.1656879 0.3162176 0.2122987 0.3560295 -0.2137491 -0.06644493 0.1366874 -0.7550485 -0.8083329 -0.3058165 -0.2166141 1.081089 0.08251407 -0.07284962 -0.6211505 -0.3929013 -0.3722142 0.1699377 0.2761601 -0.3107647 0.1171456 -0.1245496 0.1754761 0.04200058 5.651666e-05 -0.8488443 -0.08410275 -0.04678126 0.4234996 -0.305341 0.1239593 0.7840707 -0.3272154 0.2664131 -0.6600688 -0.3479234 0.08669446 -0.3331528 -0.109177 -0.001252091 -0.5006091 0.441958 -0.808221 -0.3358658 0.3891076 -0.06908264 -0.6079059 -0.1119167 -0.1120224 0.09749144 0.001811747 0.3029767 -0.1540602 -0.03788137 -0.09212264 -0.3973074 0.1725032 0.04251978 0.02609953 0.2921314 0.3994534 0.1802758 -0.02205717 -0.02690519 0.7291602 0.1476211 -0.6060346 0.616916 0.6142147 0.5367573 -0.006854782 -0.5093864 -0.01941411 0.07951851 -0.4755032 -0.1483987 -0.02898241 0.2798809 -0.3637004 0.1806052 -0.1193174 0.5336022 -0.3407463 -0.05181622 0.42571 -0.317632 0.1098086 -0.2052674 -0.1099823 -0.147123 -0.6400872 -0.4724818 0.06362113 -0.1640702 0.03073078 0.4083014 -0.04163402 0.1696828 -0.0181326 -0.1910959 0.4493895 -0.2097131 -0.5345195 0.009115424 -0.155284 0.006784771 -0.03373095 -0.4387435 -1.109455 -0.2263809 -0.005145912 -0.1201221 -0.1171211 0.3967577 0.05522553 -0.1893567 0.1354236 -0.3059775 0.5051221 -0.0946667 0.2252785 0.2521004 -0.5573052 0.6736442 0.001702659 -0.0003866697 -0.2655375 -0.1513887 -0.168132 -0.5122207 0.4035934 -0.1916999 -0.1356928 -0.1409692 0.03523422 -0.135411 0.4840215 0.02358841 0.3253983 0.007760244 -0.4824034 -0.08328062 -0.1103841 -0.3274636 -0.2861498 0.1146897 -0.03205344 0.04335331 -0.1795839 -0.6340152 -0.248414 0.01557822 -0.0563424 -0.09435976 -0.2070564 -0.4448564 -0.6850259 0.003207313 0.1021237 -0.009124797 -0.09083537 -0.3990569 0.1174647 -0.225398 -0.1454893 0.350299 -0.4721221 0.009961572 0.07840541 0.2658026 -0.8838692 -0.0139785 -0.398959 -0.3123518 0.2994486 0.1084894 0.6226304 -0.1895262 0.4113328 -0.7338386 0.8337865 -0.5618504 -0.1242636 -0.01001123 -0.07247524 -0.04229747 -0.3312843 0.3335398 0.05019898 -0.04959568 0.1754373 -0.06894525 0.1100701 0.290299 0.1862387 -0.1264624 -0.3811414 0.01852976 0.1717085 0.4281423 -0.3215851 0.3870617 -0.1616684 -0.2472056 -0.02358376 0.03575629 -0.1935045 -0.1342857 -0.2825888 -0.5344207 -0.02075414 -0.2467109 -0.1060517 -0.06630226 0.7287224 -0.5143974 -0.1613396 -0.4086404 0.1488209 0.01044285 -0.4232185 -0.02034378 0.02184268 -0.1626882 0.3617113 0.4153714 0.3061145 0.3544398 0.3676563 0.3366894 -0.3311973 0.8844395 -0.1697787 0.6088701 -0.2403082 -0.1423039 -0.7110988 0.2236722 0.0004247473 0.06921733 0.02620813 -0.3478671 -0.6431406 -0.1755399 -0.5909914 -0.4280214 -0.4128959 -0.4612221 -0.01532561 -0.18631 
  -0.4049373 0.08296445 -0.5341234 0.08800989 0.2081156 -0.06870064 0.1490703 -0.4896919 0.06805583 -0.311008 -0.1483385 -0.08356655 0.2046569 -0.1349183 0.3373731 0.1396746 -0.06019535 0.2073405 0.159245 -0.7415375 -0.4730607 0.3948012 0.1080964 -0.2079523 -0.1644882 0.09307834 0.3105563 0.04939422 0.2078809 0.2133888 -0.07505268 -0.1708707 -0.04012182 0.03818212 0.4413711 -0.0839796 -0.3560276 -0.3811569 0.1372633 0.02937789 0.5171785 -0.02894914 0.1811901 0.179538 -0.1405824 0.6467468 0.1762097 -0.4952376 -0.1027482 0.04848179 0.1977964 0.07131625 0.1846586 0.2965684 0.2597686 -0.1633452 -0.09606753 -0.1702856 0.2918224 -0.02850964 0.0765216 -0.1186646 -0.9327269 -0.2839177 -0.5349293 0.1051883 -0.6367148 -0.1814697 -0.03731604 -0.3386169 -0.7417952 -0.1093928 0.181081 -0.1821868 -0.1228335 0.1114275 -0.1732874 0.01619934 0.05013876 -0.2953932 -0.2431437 0.1230704 -0.1174278 -0.1085299 -0.3870782 -0.4251242 -0.5020702 -0.08238602 -0.2015225 -0.06973385 -0.1629427 0.5135915 0.1380361 -0.1047441 0.1688318 0.5335729 -0.141401 -0.6909372 -0.2298896 -0.1122961 0.1183864 -0.362886 0.9100105 -0.03399636 0.158563 -0.5522152 -0.3034275 0.1941146 -0.3992914 -0.1283581 -0.1113742 0.07692187 0.09190125 -0.1439881 -0.01226123 -0.02588844 0.05697352 0.1511923 -0.1978104 0.3020174 -0.1833498 0.2609811 0.06164623 -0.09925997 0.07846192 -0.2708864 -0.1948415 -0.06709266 -0.09717465 0.1688643 -0.04689121 -0.01548728 0.04266011 -0.1577237 0.126246 0.1532939 -0.5125266 0.0006958805 0.04636315 -0.005989784 -0.03590143 -0.02757219 0.09600448 0.3374011 -0.03218251 0.3000168 -0.1125966 0.0485931 -0.2037141 0.02895754 -0.2313763 -0.3290384 -0.1381352 0.08749407 -0.1611211 0.06953072 -0.236113 -0.4808954 -0.06182479 0.052751 -0.1546232 -0.4965419 -0.1222729 0.08824127 0.1415534 0.09595212 -0.4514836 0.3722306 -0.08271585 -0.6974028 -0.4273293 0.10524 -0.1496598 0.3933248 0.1109543 -0.7721338 -0.2354393 -0.3859501 0.06463101 0.09335743 -0.07111862 0.05624992 0.1524966 0.05102432 -0.06300063 -0.01399072 -0.9336897 -0.2605525 0.1368049 0.3449394 0.1549026 -0.1115601 0.4976645 0.1029 -0.08237757 -0.2478134 -0.149034 0.1882295 0.4362283 -0.2583397 -0.09668499 -0.1209584 -0.05616979 -0.7327104 -0.2763081 -0.1088441 -0.2444405 0.2826338 -0.04450592 -0.2732841 0.2456017 -0.1618444 0.1355794 -0.4613477 -0.1809314 0.1584093 -0.03361589 -0.1193135 0.03123498 0.4262052 0.03777577 0.1630797 0.07479978 0.02731379 -0.03753509 0.3243335 0.103301 -0.1161018 -0.9596137 -0.06930507 0.2265234 -0.2535762 -0.1481127 0.0008425461 -0.1345089 -0.1498767 -0.2720672 -0.430763 -0.1165056 0.2784988 0.1388259 -0.07601567 -0.2543226 0.01513726 0.02317372 -0.1550524 -0.1095118 -0.2184144 -0.1668947 -0.07392842 -0.103403 0.06046741 0.2343178 0.1388375 0.1448739 -0.1228948 
  -0.1418159 0.02393118 0.1181541 0.07654008 0.01691173 -0.1019894 -0.169532 0.2942597 0.4086271 0.100684 -0.02659847 0.04841938 -0.2777597 -0.126854 0.1257015 0.01693666 0.04235481 0.4826601 -0.02759352 0.01071221 0.1638227 0.1603626 0.2567185 -0.1448174 0.3078997 -0.3433912 -0.007653106 -0.04467048 -0.381035 -0.1481035 -0.1717872 -0.01805555 -0.2086428 -0.2744764 -0.009837536 0.1093145 -0.237187 0.08052402 0.1124081 0.003277923 -0.05248618 -0.2079006 0.313351 -0.2885051 -0.0179992 0.1458978 0.01393972 0.04308257 -0.1136739 -0.1670337 -0.02311702 0.1016793 0.0553908 -0.02369653 -0.2933984 -0.05893047 0.1589432 -0.04314451 0.2262241 -0.02461243 0.1735688 -0.06879158 -0.1809026 -0.01267661 -0.4090708 -0.1084778 0.2089105 0.0557484 -0.2615199 -0.2540705 -0.06917705 -0.1385753 0.07441513 0.006380039 0.03915011 0.1827294 0.1875509 -0.3288239 0.2597911 0.03097768 -0.24676 0.1914973 -0.07967613 -0.2570709 -0.2177704 -0.1007167 -0.2391845 0.05930488 -0.08382586 -0.2098101 0.004613597 -0.1360206 -0.1377373 -0.04105821 -0.110306 0.1093318 0.09194332 -0.1165965 -0.03383929 0.4205542 0.2326661 -0.1203885 0.1444029 0.3808668 0.1617994 -0.05239421 -0.1737943 0.1757334 -0.07515255 0.08487585 -0.07622366 -0.1988758 -0.1332317 -0.04036921 0.01201324 0.1620503 -0.3802783 0.1476833 -0.008981893 0.8605993 -0.2055355 -0.01446673 0.003847942 -0.1395544 0.2107837 -0.275248 0.1249675 -0.3363358 0.08518458 0.005086711 -0.01531399 -0.0176378 -0.1360128 -0.01488965 -0.1394992 0.1186282 -0.1662587 -0.02367872 0.07775308 0.2410639 -0.1495099 -0.1478912 -0.07037681 -0.05352449 0.07557455 -0.2111154 0.1648399 0.1564427 -0.1651064 -0.07208826 -0.05757863 -0.1616311 0.08552545 0.08794886 0.148392 -0.1133366 0.1346005 -0.08950888 -0.1538634 0.03785107 -0.07398912 -0.6167674 -0.178157 0.02573493 -0.2725701 -0.07916908 -0.4244194 -0.1450354 0.03775124 -0.135451 0.03221492 -0.1818821 -0.008472975 0.1070202 -0.3014441 -0.4926258 0.1406093 -0.2617417 0.1435206 -0.03290218 -0.05896343 -0.1995827 0.1426849 -0.02514349 0.09080651 0.0338251 -0.1544569 0.1057557 0.1270567 -0.3274654 -0.1332269 0.2424909 -0.2126892 0.01954738 0.1190025 0.2455095 -0.4713297 0.05909697 -0.1921832 -0.2608342 -0.1590832 0.1015947 0.1912051 0.03043617 0.1676071 -0.2236142 -0.1313567 0.1214483 -0.185038 -0.1808539 0.02056276 0.09928436 0.1986596 0.1526862 -0.1009727 0.1615837 0.06001999 0.2591915 0.169929 -0.2478906 0.113471 0.07158133 0.2332695 0.2849528 -0.1794058 -0.3523631 -0.2428542 0.08823819 0.5381466 -0.202251 -0.1265095 -0.2067982 -0.04542552 0.05389377 0.4439119 -0.263947 -0.07929572 -0.002658165 -0.04925769 -0.2135217 -0.2130368 -0.01354602 -0.08222733 -0.1654305 0.04294543 -0.1399756 0.1184517 0.04084932 0.1271534 0.252773 -0.03845037 0.1094773 -0.08657277 0.01994925 -0.3343593 -0.04107501 
  -0.2919124 0.05119365 -0.1671027 -0.09791245 0.04452076 0.1740308 0.2544402 -0.3407632 0.02441711 -0.2411552 -0.3603726 0.3648356 0.2456419 -0.05225442 0.05129098 0.4678243 -0.1721163 -0.2318209 0.2386607 -0.9438118 -0.2721092 -0.4726673 0.1279869 0.1257937 -0.3469254 -0.2774375 0.1514893 0.07378711 0.223704 0.05603063 -0.1483442 0.190922 0.04834043 -0.1189756 0.3586007 -0.1120031 -0.432709 0.03588448 0.01099093 -0.2317574 0.1273721 0.1132073 0.2132549 0.04378363 0.2566814 -0.08651682 0.1819975 -0.5548112 -0.001305303 -0.5063366 0.2344588 0.2887445 -0.03486904 0.1629445 0.1671285 0.2758973 -0.1649267 -0.4472795 -0.07737385 -0.1334103 -0.1791476 -0.1483741 -0.2507238 -0.2860357 -0.4075181 -0.1044713 -0.9456443 0.02136095 -0.1269964 -0.4476929 0.1205809 0.09152187 -0.0814192 -0.2584152 -0.06078096 0.1974723 0.1629437 0.295213 0.08192717 -0.04100363 -0.3085138 -0.237693 -0.04492372 0.02435203 -0.217352 -0.220425 -0.3071598 -0.3145454 -0.1020867 -0.09019832 -0.1201827 -0.02990773 -0.1055339 -0.1467896 -0.02499411 0.7515285 0.03448669 -0.6858166 -0.3696282 -0.0140447 -0.1938836 0.1013056 0.09870724 -0.3170293 -0.1044304 0.02441115 -0.01632438 -0.1828396 -0.709689 0.04662015 0.01520825 0.05106932 0.2001446 0.04381794 0.02243633 0.2337167 0.2333727 0.2190405 0.01712548 0.5256312 -0.1690782 0.3224582 0.2064947 0.04086182 -0.3105134 -0.1968683 -0.2403138 0.181665 0.01245944 -0.1739241 0.06451543 0.04523263 0.2069492 -0.1051003 0.2009939 0.1444665 -0.2016619 -0.1154069 0.05543269 0.08947925 -0.248624 -0.1908792 0.300144 -0.1119091 0.08480264 0.2084608 -0.01988772 0.321397 -0.1955728 0.1295719 0.08125702 0.1704626 0.2122583 -0.1182197 0.06376808 0.0137015 -0.2807258 -0.5356991 0.02288022 -0.2450229 -0.3772875 -0.3391298 -0.1698465 -0.1210819 0.1359125 0.09316402 -0.1423306 0.02044741 -0.06492917 -0.4008164 -0.6146714 -0.1200599 0.176696 -0.4744713 0.1409381 -0.6501969 -0.1244342 -0.384807 -0.1139222 -0.1037146 -0.3839575 -0.0417424 -0.01283833 -0.03485391 0.06538418 0.1292777 -0.5098138 -0.1619551 0.02695584 0.1066 0.004814863 -0.1027334 0.2912582 0.03341992 0.1972918 -0.4199556 -0.1176161 0.1280929 0.0673029 0.2644643 0.0839211 -0.2387767 0.06610292 -1.049737 -0.2795613 0.3211289 -0.1296012 0.1663574 -0.2561034 -0.1204453 0.1956365 -0.4564317 0.2687495 -0.241032 -0.05354652 0.02930146 -0.1320089 -0.209295 -0.04543306 0.3820851 0.1552618 0.1430255 -0.1332544 -0.5109944 0.05437255 -0.06830326 0.05814116 -0.3540978 -0.9688803 0.3186226 0.0654346 -0.00457596 0.0158411 -0.02681001 -0.2657872 -0.2970916 -0.09366316 0.121791 0.07266569 0.322122 -0.07891544 0.04266695 -0.06219323 -0.09527615 0.01457025 -0.01122333 0.1035105 -0.1237696 -0.1137768 0.1084809 0.1033038 -0.2716238 -0.1259656 0.1768049 0.2380755 0.4031989 
  -0.1961103 0.09385118 -0.1960418 0.006474894 0.08610684 -0.1341337 -0.2236383 0.2087449 0.1267296 0.08705271 0.03984359 -0.1811554 0.05084215 0.312358 -0.1183013 -0.08425733 0.01926093 -0.02822176 0.0509724 0.04265028 0.1373423 0.08056592 0.1665194 0.2872515 0.04458916 0.1677359 -0.2971994 0.05044935 -0.5313565 0.09996054 -0.1480814 -0.2428806 -0.6463129 0.01929076 0.1027997 0.1478947 -0.05711357 -0.1308087 -0.01663943 0.07606997 0.07089891 0.2138371 -0.1114054 0.1768493 -0.08687583 -0.01605255 -0.1295765 0.001075497 -0.1724903 -0.07320161 0.3954396 0.2355098 -0.005088862 -0.2402243 0.2234298 0.0264348 -0.1751326 0.01636354 -0.06372973 -0.1823357 0.03558186 -0.0704995 -0.04290186 -0.1440514 -0.01606759 -0.7970976 0.2191877 -0.02876855 -0.07800541 0.1134749 0.1537762 -0.005040204 0.109278 0.1654393 -0.1398873 -0.1710329 -0.1926675 -0.4627424 -0.0643713 0.1580703 -0.30296 0.08405442 0.7196537 -0.03794205 0.07866973 0.1295544 -0.2747077 0.1506772 0.1371574 -0.02186815 0.1780192 -0.09276882 0.2127368 -0.1366145 -0.1548493 -0.1491286 -0.03505936 0.1486139 -0.1640597 0.05335709 -0.05628129 -0.4298362 -0.009153093 -0.1184708 0.0631878 0.1022774 -0.07480972 0.03614832 0.0412661 -0.04274544 0.03368402 0.181025 -0.07743472 0.1127842 0.1777518 0.05431995 0.207194 0.1445227 0.1406327 -0.5515043 -0.1288253 0.1497346 0.1575757 0.05826253 0.101745 0.1205137 0.2175602 -0.05575253 0.06869637 0.162288 -0.1248267 0.1795951 0.06891073 -0.05646786 -0.05356073 -0.2401216 -0.003011623 0.0228749 0.1041691 -0.1899379 -0.05371591 -0.05114106 -0.5630629 0.05288185 -0.2360103 -0.1175681 -0.2523184 0.03653542 -0.1213396 0.1522848 -0.03117472 0.1720268 -0.2827156 -0.0005286005 -0.04426718 -0.0504877 0.2600114 0.1142414 -0.1071962 -0.1428589 0.04654336 -0.4756291 0.1103391 0.09174304 0.1379302 0.01698277 -0.2862576 -0.1225122 -0.01980135 0.06505753 -0.2576893 0.05595541 0.126379 -0.3037297 -0.2998596 -0.7873946 -0.03113448 -0.04611808 -0.1268359 0.0414173 0.09024645 0.0751716 -0.2602908 -0.0747759 -0.08964221 -0.1055175 -0.1856027 0.1221678 0.1542518 0.1826388 0.2064311 0.6625811 0.1877648 -0.03950114 0.07710185 0.06374528 0.7864243 -0.1341428 -0.06026392 0.6701547 -0.0618702 0.1161707 -0.05398856 0.03169581 0.2113189 0.2155162 0.0683988 -0.5344201 -0.1139621 0.0085947 0.4620074 -0.1828221 0.2635465 0.05614229 0.1465915 0.05676212 -0.09274618 0.1336 0.1619793 -0.003444466 0.0437581 -0.02369127 0.10657 -0.5927905 0.03661522 -0.4529474 -0.07039391 -0.05229403 0.1008124 -0.1270272 0.1991618 -0.2527217 -0.07197359 -0.546993 -0.2328843 0.06846715 0.1230109 0.2045104 -0.1017747 -0.08076747 0.498546 0.0404269 0.1371041 0.1486025 -0.1151885 -0.08026558 0.2167468 -0.03705847 0.09521737 0.07653487 0.06200077 -0.1068878 0.2902403 0.0908247 -0.4209151 -0.1513688 
  -0.02999328 0.04446996 0.07749131 0.02025585 -0.1756189 -0.09177744 0.03471824 0.03887264 0.7904938 -0.1699917 -0.1558497 -0.1482009 0.08725586 0.2670822 -0.08255496 0.05246794 -0.2281744 -0.2817811 -0.171768 -0.1182715 0.1027112 -0.2052267 0.08086691 0.01480967 -0.2874752 0.07718822 0.07757047 -0.07893297 0.1051866 0.3120784 -0.1454352 -0.07515702 0.0144291 0.1469006 0.1045947 -0.04322909 0.0347777 0.2302387 0.127514 -0.1692926 -0.08940224 -0.3369303 -0.08879125 -0.01646928 0.1409422 0.2046508 -0.2188253 -0.6685647 -0.004251867 0.6074445 -0.5012402 -0.03487711 -0.5380947 0.1461036 -0.2066663 0.06593221 -0.001081339 -0.1052885 0.08356424 -0.01255376 -0.3056098 -0.01252021 -0.07023103 -0.113829 -0.1420168 -0.0100028 0.1201763 0.1337326 -0.1530899 -0.1355821 -0.1041637 -0.0845083 -0.02132867 -0.06894167 0.0281941 0.01963656 -0.03315908 0.2437762 -0.06777311 -0.07277592 0.1174345 0.01769814 -0.01321812 -0.3055046 0.2566096 -0.02968502 -0.1692535 -0.0007442547 0.217521 0.1173265 -0.2764724 -0.1962971 -0.2430355 0.0003448145 0.02269812 0.06687637 -0.02045587 0.061093 -0.06954761 0.05235186 -0.1451775 0.004246094 0.06308819 -0.1892004 -0.1118123 -0.02469058 0.08317308 0.6252689 -0.0681526 -0.5659373 -0.03105329 -0.1452113 0.08941749 -0.04038598 -0.2039626 0.2618691 0.6158574 0.08454011 -0.1232959 -0.1166449 -0.06568854 -0.06944944 0.3089317 -0.1910148 -0.7749423 -0.05262465 0.09369729 0.350902 -0.07729393 0.5778888 -0.09287206 0.2379414 -0.3250854 0.01865892 0.3856063 -0.01503466 -0.3667896 0.005615651 0.1702226 0.3137074 -0.07149056 0.1490185 -0.01748754 0.2565717 0.4235477 -0.3720246 0.0004538756 0.02516345 -0.02331664 -0.1013701 -0.07563593 -0.7928389 -0.4114409 0.03525838 -0.0988648 0.1690909 -0.0575551 -0.1609444 -0.04646325 -0.05527525 -0.1428894 0.04679057 -0.3511587 -0.1254714 0.263055 -0.02289819 -0.011338 0.06750794 0.09737911 -0.106444 -0.07087914 -0.04616019 -0.2989888 0.04913718 0.07237611 0.1629022 0.4723266 -0.06318225 0.10683 0.006954343 -0.0719119 0.1279788 0.2633751 -0.0364996 -0.2842979 -0.2575373 0.02405074 -0.2774096 -0.3581479 -0.03986292 0.185127 -0.08629696 -0.04829478 0.06816287 0.1700729 0.1849302 0.1971151 -0.003015219 -0.04830111 -0.02010416 -0.08852957 -0.03950947 -0.03251189 -0.08646107 0.2075271 -0.1017337 -0.180385 -0.3152701 -0.1186568 -0.1631481 -0.2090901 0.01775816 -0.2182076 -0.03215164 0.07552607 0.03596777 -0.1632093 -0.1151093 0.1208518 -0.220459 0.2232339 0.2844271 0.0812807 -0.09219445 -0.2601644 -0.1455443 -0.1504579 -0.04686553 -0.1177065 0.01730666 -0.260833 -0.0006905492 -0.347093 -0.4822213 -0.1762987 -0.023726 0.0104558 -0.1877176 0.08930736 0.04693935 -0.1337127 0.1599163 -0.04702103 -0.0625851 0.08440351 -0.4357238 -0.2000949 -0.2099935 0.1811507 -0.146153 -0.1436228 0.09844202 0.01831567 0.03247836 0.171222 -0.01276293 
  -0.07000393 0.05611481 -0.08264825 0.1164191 -0.02826883 -0.3732298 -0.1204477 0.06561991 -0.0621953 0.07451682 0.1670278 0.0001695551 0.01009851 -0.0326594 -0.2308143 0.2526926 0.02091115 -0.3433518 -0.1052288 0.0274217 -0.1646072 -0.1016644 0.2668976 0.1140002 -0.07394964 -0.1371252 -0.2365869 0.1489829 -0.06385747 0.1884276 0.02211743 -0.04807059 -0.06342129 -0.2338984 -0.06105698 0.00656327 -0.01187401 0.07568055 -0.24538 0.1408804 -0.6680002 -0.1634865 -0.149856 -0.3133451 0.08221596 -0.09343076 -0.08085387 0.008046744 -0.1290395 -0.06599446 0.08379311 0.07676914 0.01445075 -0.005919172 0.006722694 0.2374759 0.2856615 0.1317687 0.008730077 -0.06961778 0.009988638 -0.000763222 -0.008621786 -0.00875541 0.49902 -0.09798592 -0.1669061 -0.08292855 -0.02101312 -0.2176183 0.04228624 -0.04693417 0.05945697 -0.05786073 -0.2922146 0.1306059 0.1763865 -0.2010934 0.03151758 -0.05108121 -0.2658837 -0.1519228 -0.03266463 -0.02757054 0.1502484 0.02003472 -0.1101395 0.05365852 -0.4455323 -0.1149568 0.007177401 0.1371296 0.01567215 0.1898439 0.4106719 0.03147705 -0.1515082 -0.06460053 -0.05365626 0.05459559 0.003287676 -0.3421994 0.02023421 -0.1556476 0.07961066 0.03650156 -0.02591993 -0.09206658 -0.08843181 0.02905117 0.01173267 0.05286485 0.04518186 0.2118118 -0.003045853 0.053461 -0.4119242 -0.3409946 0.006191354 0.08357898 0.07163978 0.3091781 0.01917697 -0.09000282 0.07775075 0.07936464 0.2093977 0.2533035 0.3202936 0.442596 0.1900998 -0.4347797 0.1302164 -0.09700385 -0.05548985 0.07100992 -0.1267702 -0.02678182 0.1403914 0.02043307 0.02562664 -0.02571304 0.2705285 -0.2008584 -0.3438958 -0.1381868 0.1808916 -0.07740372 -0.1757958 0.1977406 0.1085581 -0.01943096 0.126443 -0.1108858 0.1259568 0.03258623 0.09564402 -0.1922604 -0.1322036 0.1836555 -0.0442706 -0.5701192 -0.1187487 0.2474063 -0.09116004 0.07169149 -0.1721297 -0.07491329 -0.453803 0.217831 -0.1303272 -0.04539742 0.2478389 0.0978701 0.1433134 0.04756524 0.1900929 0.09244999 0.0678906 0.1438691 0.1100252 -0.0001833385 0.01125534 0.06854627 -0.04109541 -0.2141468 -0.03986757 -0.06947988 -0.1796209 0.4282836 0.1495165 0.03084524 0.07790553 -0.0180973 -0.04592798 -0.05365834 -0.304187 0.1030687 0.2600251 -0.147016 0.02332651 -0.05117104 -0.07472141 0.1386203 -0.01304345 0.0690413 0.09858283 -0.01064216 -0.03875368 -0.1139565 -0.09181306 -0.02976163 -0.08924899 -0.04821844 0.2244321 0.2359095 -0.1502466 -0.2099858 -0.01184756 0.08421487 -0.1961847 0.3946652 -0.1224576 0.06304034 -0.06605545 0.1258994 -0.006377542 0.03316926 0.01436974 -0.1875326 0.1229709 -0.09644713 -0.01752187 -0.05089194 0.018599 -0.005601801 0.04220729 0.0272679 -0.2170854 0.1303649 0.1294565 0.4179609 0.2996356 -0.03802366 -0.00161081 0.2564813 0.05084909 0.01892528 -0.04882467 0.01847151 -0.0475072 -0.1467475 -0.07092376 -0.07950331 -0.05491941 -0.2408028 
  -0.01046008 0.01951725 0.1274746 -0.03652888 0.07831039 0.1788771 -0.2152359 0.1045462 -0.1329407 0.01331769 -0.1781326 0.01373482 -0.1124364 0.005973427 0.1619756 -0.06213706 0.293476 0.007279818 -0.05253759 -0.163204 0.1394394 0.1684334 0.1427632 0.07194033 -0.1685208 -0.05697758 -0.167806 -0.07510069 -0.07455476 0.1054903 0.151536 -0.1795486 0.04497847 -0.1946328 0.4164894 -0.05573928 -0.294151 -0.03245382 -0.08734208 0.04531367 0.1820888 0.3489569 0.3556325 -0.2395316 -0.1644754 -0.002344142 0.06923031 0.07364561 0.3076172 -0.001774446 0.01313885 0.1028321 0.1125071 0.1562321 0.7119074 0.03302087 -0.01381916 -0.02378082 0.07195984 0.2514848 0.1279578 0.06225068 0.1912918 0.04846324 -0.06832333 0.02625062 0.2161676 0.1786443 0.2322188 -0.1553258 0.0285721 0.3424282 -0.1646238 0.04086874 -0.0968969 -0.01768923 -0.06032366 0.2904994 -0.0378463 0.01611485 -0.03093306 -0.07123949 0.03089205 0.08044676 -0.3487462 0.1484057 0.1281554 0.2485788 0.02367986 0.04151317 -0.1011642 0.09809668 0.2429703 0.2727882 -0.2100379 -0.2542561 0.1518985 0.1626247 0.05990477 -0.2385603 0.08759113 -0.3227664 0.1219398 0.1497936 -0.02641723 -0.09349076 -0.1577841 0.1424073 0.2774913 0.2574231 -0.1127307 0.08726148 -0.1711741 -0.04121307 0.03911986 0.116626 0.02581754 -0.08036737 -0.03970821 0.2323686 -0.05862627 -0.04768224 0.02102469 -0.1063809 -0.04518235 -0.1794296 0.05926169 -0.08090755 -0.1863764 -0.06420794 -0.2855708 0.0699259 0.08034234 -0.01429703 -0.2923895 0.07292327 0.02086653 0.0753437 0.03120338 -0.03214035 -0.2265151 0.02366081 -0.07073115 0.09431892 -0.1821609 0.1266495 -0.08813937 0.07181346 0.05720935 0.1236603 0.09110843 -0.01282942 0.1713917 -0.2764425 0.1780093 -0.1475826 0.02747792 0.3249041 -0.03610367 0.005357538 0.1304653 -0.2246265 0.2651956 0.1121582 -0.1546025 -0.01503648 -0.1829954 0.1493007 0.006026594 -0.1217694 -0.07567662 -0.07718099 -0.129612 0.2306251 -0.0994838 0.040596 -0.1105295 -0.1285993 -0.01693613 0.06837969 0.4258311 -0.349522 0.1857097 -0.07705215 0.02909351 0.1360778 -0.07435749 -0.2218932 0.08579694 -0.2564041 -0.1752712 0.1605261 -0.2949349 -0.04155565 0.02377301 -0.03358428 -0.2180582 -0.12673 -0.1604374 0.2102889 -0.07252776 0.06490348 0.0442726 0.1212276 -0.1819256 0.1854329 -0.06699241 0.2148642 -0.1037226 0.02722327 -0.02060157 0.2099636 0.08986367 -0.1541089 -0.04279425 0.1043498 0.06259713 0.08265319 -0.09898219 0.1225678 0.03185777 0.4681339 0.3633621 -0.0101205 -0.03268709 0.1219928 -0.02596586 -0.2220633 0.09513726 0.135055 -0.1984479 0.08129135 0.2946125 0.1563659 -0.03266572 -0.05199367 -0.1728287 -0.05773694 0.1331656 0.1537125 -0.2031524 -0.1269665 -0.1093332 -0.2655113 0.04359334 -0.1213696 0.0385791 -0.1708311 0.08115147 -0.1445019 -0.2217981 -0.1488851 0.1047869 0.3559887 -0.1879554 0.04853635 
  -0.09518649 -0.1761527 0.1069851 -0.2585858 0.05035801 -0.005697028 -0.06714045 -0.2163786 0.196817 0.3393191 0.09534587 -0.1901147 -0.08170071 0.1430276 0.05164979 0.148821 -0.03730556 0.5367485 -0.07386481 0.1667929 0.004327523 0.5872583 -0.04644192 -0.229519 0.14779 -0.3392049 -0.04855922 -0.04717668 -0.07510086 -0.1212835 0.04096232 0.04211793 -0.4041477 -0.4738858 0.0317742 -0.09958624 0.114448 -0.3334089 0.09435067 -0.09078155 0.1911802 -0.1152615 -0.7731377 0.01944759 -0.6982017 -1.421527 0.1136594 0.1213122 -0.1202462 0.26066 0.234219 -0.2244056 -0.03019261 0.03597108 0.01935889 -0.1384925 -0.05325038 0.02084702 0.1043941 0.03775296 0.1031738 -0.05662056 -0.4700238 0.5659449 0.03197466 -0.3525907 0.419707 -0.2954809 0.1776734 0.04292369 0.2290165 -0.1166316 -0.05603307 -0.5302269 0.03892281 -0.4393092 -0.1034183 0.3883474 -0.2136586 0.06517794 0.3478462 0.1163432 0.004491407 -0.05967024 -0.1324758 0.107133 -0.2987378 0.4232194 0.07378336 0.0731381 -0.02695141 -0.395974 -0.1562765 -0.4497838 0.04087928 -0.8405919 0.05214766 0.5303664 0.4072641 -0.1417321 0.1246822 -0.3531241 -0.5104141 -0.3186054 0.4523199 -0.2190908 0.08087499 0.01716112 -0.5803698 0.2643541 0.06968005 0.2262579 0.02152252 -0.01928748 0.04980129 -0.3469469 -0.4012861 0.1952276 0.02645855 -0.5469142 0.002985907 -0.02955122 -0.05959235 -0.08482545 -0.1579933 -0.1755155 -0.1510531 0.1410834 0.04514595 0.05933284 -0.01781481 0.2883175 -0.02989277 -0.7196215 -0.2425293 -0.03145862 -0.2142547 -0.09293132 -0.2831634 -0.01752411 -0.1949865 -0.1214568 0.1518666 -0.02116352 0.1856326 -0.2661787 0.1200148 -0.08169687 -0.1143677 -0.01742708 -0.01474364 0.07911537 0.222487 0.5190822 -0.07995058 0.02963206 0.5091925 -0.07780459 0.04186281 0.03916653 0.0008592203 -0.4145088 -0.06653585 -0.0990945 -0.6447612 -0.00596777 0.1133459 -0.5698897 0.1612276 -0.08818075 -0.3252628 0.1662458 -0.2052049 0.07376658 -0.05854307 0.5090312 -0.002980305 -0.05442137 0.3528494 -0.2137476 0.4675349 -0.1652074 -0.04025653 0.02534891 -0.01743155 0.2575138 -0.06595851 0.07022712 0.2349206 -0.04646533 -0.2570645 0.2069861 -0.1599415 -0.02061659 -0.01961144 0.1944153 -0.01800968 -0.1324249 0.04259294 -0.2786135 -0.02694211 0.2924431 0.1199969 0.02655079 0.4536188 0.1401149 -0.07684185 -0.8668179 0.2181207 0.03484536 0.0424317 -0.05776664 -0.06879794 -0.3957394 0.003139868 -0.1871881 0.1030637 -0.2929619 0.03515727 -0.3250253 -0.03285652 -0.02140282 0.1773871 -0.3210868 0.06197298 -1.213467 -0.4636785 0.2587967 -0.60004 -0.4865544 -0.2707666 -0.34216 0.1593953 -0.4073981 -0.01391292 -0.1108625 -0.2636344 -0.1746581 -0.04562175 0.5164093 -0.3679982 0.04716305 -0.08749691 -0.04723946 0.1252435 0.0459928 -0.02361421 0.3049495 -0.07746355 0.2526297 -0.0748979 0.1808334 -0.5418462 -0.1651371 -0.03572901 -0.6713949 
  0.1060739 0.3225077 -0.08918681 0.03602104 0.01937951 0.1863199 0.09811096 0.04083262 0.2618213 0.1435329 0.06432469 -0.4887816 0.2872653 0.1103818 -0.2481648 0.1431099 -0.0763882 -0.1301586 0.05617718 -0.2287882 -0.01835145 0.06098546 0.2053295 -0.04567568 0.1127051 -0.2447246 -0.02082999 -0.03611971 0.004924905 -0.04420111 0.07550179 -0.673426 0.1048931 -0.2236491 -0.1366673 0.01384236 -0.3013777 -0.01169896 0.03173677 -0.1424775 -0.1702121 -0.2166318 -0.2576139 0.1781483 0.03948217 0.1279088 0.1393092 -0.3145087 -0.3475506 0.4703331 0.2544195 -0.07735552 -0.3599876 0.08397277 -0.02335071 0.02227862 -0.1472344 0.1424783 0.01403965 0.009866794 -1.098555 -0.08237468 0.1247768 0.1436727 -0.1097885 -0.05095928 0.07894088 -0.2443233 0.1319208 -0.2194335 0.1785165 0.06288385 -0.1553223 -0.07702845 0.05431951 -0.1214828 -0.07703158 0.2055111 0.0328512 0.02106976 0.2356891 0.1582164 0.07805796 0.7706705 -0.03280265 -0.07129718 -0.1812519 0.945888 -0.06207591 0.05311519 -0.225316 0.06040813 0.05324718 -0.1704731 -0.1912271 -0.2804667 -0.1593608 0.01179708 0.2726624 0.1086314 -0.0358939 -0.3531545 0.8746757 -0.1415502 0.04996849 -0.1006313 -0.06270468 0.1746211 0.09375633 0.2258137 -0.07038681 0.1396883 -0.195144 -0.03147247 0.04754541 -0.004985728 -0.09826197 -0.0119396 0.04373672 0.007719028 0.0861 0.1524506 -0.1977337 -0.07492186 0.0615917 -0.1669654 0.2796185 0.1967719 -0.09478579 -0.0129596 -0.1258033 0.04661906 -0.1080631 0.07450259 -0.5709456 -0.07027307 0.01324879 -0.3838025 -0.07831824 0.2855673 -0.0539638 -0.07997643 -0.3345958 -0.008347883 0.05690348 -0.1590644 -0.057779 -0.2936284 -0.09146635 0.1171243 -0.2155837 -0.2876791 -0.01577768 0.005704343 0.003864259 -0.0754155 0.1579693 -0.07572219 -0.2020085 -0.117856 -0.4188523 -0.36604 -0.1839429 0.09607679 -0.2957669 0.2167044 -0.1657366 -0.02603932 0.0595803 -0.03636272 0.02277464 0.1864743 -0.1380185 0.06133587 0.05559675 0.161806 1.067778 0.2518867 0.1653067 -0.3741907 -0.2007387 -0.05768858 -0.1896616 -0.3296317 0.06839132 -0.8023603 -0.007669071 0.06754526 -0.001859462 0.1405898 -0.05867533 -0.01930383 -0.0771196 -0.04298443 0.07316159 0.0003196577 0.06232592 0.08547599 0.01064619 -0.3540719 0.02948515 0.1998825 0.008421961 0.01482726 0.1654301 -0.1401528 -0.1052035 0.05880752 -0.1062284 -0.08102603 0.06845114 0.03666652 -0.1157267 -0.009825277 0.06674559 0.1136582 -0.05017776 -0.09377326 -0.03490371 0.1320443 -0.1871139 -0.1195397 -0.08136362 -0.04148353 0.1732245 0.0151931 -0.2593008 -0.1069399 0.06752371 -0.4792794 0.2083015 -0.07219042 0.1285652 -0.7495371 0.1894878 0.1447288 -0.03895918 0.133221 -0.05952804 0.2238321 -0.02571086 -0.1508569 0.3439133 -0.05328465 -0.01221183 0.3057441 0.1148036 -0.09655501 0.05433853 -0.2243983 -0.05112663 0.1571668 0.3592626 -0.1266453 -0.3688388 -0.1079102 
  0.027901 -0.2965187 0.1807967 0.08534783 -0.07330436 0.4575529 0.1480776 -0.05888218 -0.1320084 0.132502 -0.08758163 -0.07738094 -0.07499596 0.04935994 -0.2693448 -0.3122703 -0.2589335 0.5113487 -0.1469011 -0.2530998 0.2828889 -0.1715461 0.2334376 -0.2681456 0.3403115 -0.2619316 -0.2158684 0.09595502 0.2060054 -0.07409056 0.08020549 0.3630551 0.1439572 0.2826705 0.03970154 0.4005687 0.07649589 0.1965528 -0.07190453 -0.08646294 0.05189382 -0.1620021 0.07197039 -0.2772233 0.4765926 0.03028465 0.04937451 -0.2885283 -0.1417716 -0.3923061 -0.4924222 0.1101603 -0.2140569 -0.01681957 -0.184895 0.06298283 0.1342201 0.1993691 -0.2080657 -0.06937919 -0.1836886 0.2728968 0.1550988 -0.081333 -0.005097582 0.2893859 0.002925011 0.04761521 0.1121726 -0.1211692 0.1826624 -0.2122243 -0.4056512 0.1233448 -0.2135553 0.3914755 -0.126377 0.007707371 0.2441854 -0.1504185 0.01570205 -0.02556388 -0.1275304 -0.508169 0.1663212 0.1025305 -0.446675 0.1075792 -0.1618438 0.02191363 -0.1954398 -0.3601934 -0.3955081 0.02343247 -0.182354 0.1938149 -0.6037119 -0.03049701 -0.01501683 -0.02880052 0.5054852 -0.3295191 -0.2433785 0.07655881 0.070061 0.04948558 0.1689145 -0.017496 -0.5344903 -0.1657335 0.1047906 0.001800356 -0.01330845 -0.1190117 -0.1830394 0.1582902 -0.08354419 -0.01174493 -0.1962908 -0.03375818 -0.1380864 -0.1136352 -0.2659976 -0.09928027 -0.1207647 -0.0002790335 0.04311205 0.1770201 0.1994858 0.01948396 0.1355695 -0.02679926 0.2190607 -0.2366388 -0.1410624 0.1181327 -0.06728961 -0.10992 -0.2586811 -0.3592859 -0.02470292 -0.3849081 0.5225504 0.03637719 -0.04001389 -0.02836278 0.03994475 0.2018256 -0.09661052 0.2133424 -0.1781062 -0.03580087 -0.4530194 0.04513684 0.2813679 -0.1901632 -0.1780029 -0.0408418 -0.3504735 -0.08246139 0.242137 -0.5828324 -0.110167 0.00876706 0.04414462 -0.02187588 -0.05263304 0.1913848 -0.2392887 -0.1752745 -0.1738943 -0.1493839 -0.2792033 0.1196928 -0.1706116 0.3473993 -0.0368829 -0.1880889 -0.05859274 -0.1232616 -0.2039184 -0.1064314 -0.02204457 0.2364938 -0.07060419 0.04695877 -0.1562938 0.3220483 0.3218179 -0.3333954 -0.0267732 -0.1525085 0.09957143 0.08163854 -0.007121471 -0.06878383 0.2330791 -0.04777175 0.4572187 0.2995697 0.1824396 0.1598524 -0.05817614 0.3086465 0.2752452 0.0109455 -0.2501639 -0.1823329 0.08683353 0.03435687 0.1990371 0.1218628 0.03874149 -0.2807059 -0.2783674 0.05903979 0.08921035 -0.1543619 0.1218028 0.005134232 0.4102812 0.007453368 -0.09878395 -0.12567 -0.215251 -0.1715971 -0.01531065 0.02438257 -0.1198739 0.003837944 -0.04251151 -0.03018708 0.3877857 -0.2415294 -0.1658986 0.05087137 -0.5684922 -0.223429 0.06310345 -0.1198695 0.1742521 -0.153109 0.2470874 -0.1841172 0.07869629 0.2194347 -0.01492115 0.254559 -0.1811176 -0.1116374 -0.1908384 0.04162301 0.000531207 0.2588341 0.2628682 -0.08763152 
  0.05981121 -0.1537542 0.2116153 -0.1793547 0.03524213 -0.3724947 -0.1107531 -0.1669043 -0.1844395 0.2744827 0.1247708 0.06124182 -0.1340695 0.3758342 0.2413514 0.6698574 -0.24437 -0.05299838 -0.08033869 0.1696306 0.3610322 0.2282281 0.05383102 0.08297732 -0.2717928 -0.03307661 -0.1011354 0.1884006 0.1056636 0.08322789 0.1096018 0.03521464 0.1381493 0.1680282 0.249703 0.1011666 -0.3354125 0.04228927 -0.09807009 -0.02235325 -0.09244707 0.2849196 0.141601 0.001856363 -0.02253662 -0.01355159 0.2665976 0.1981191 0.1447127 0.2442466 0.05746469 -0.1184516 -0.01488308 -0.06906641 -0.02255911 -0.1159408 -0.4878689 -0.1452091 0.04539781 -0.03239372 -0.1531292 0.08080199 0.2264282 0.0366554 -0.2309886 -0.04577641 -0.2090923 -0.4167481 0.1118896 -0.09603168 -0.0121966 -0.1945625 0.01080604 -0.3843604 -0.3062686 -0.1537272 -0.03126767 -0.06828943 -0.3277611 0.03639181 -0.2824997 -0.1054523 -0.02077194 0.4040617 0.5675358 -0.2160988 0.01035913 -0.06575971 0.04231574 0.1862972 -0.0862842 0.1637411 0.05755075 0.04768841 -0.09634137 0.04138828 -0.01698081 0.1090367 -0.008853103 0.05830548 0.1304166 0.03279311 0.2335363 -0.003346704 -0.01325339 -0.05035463 0.1181038 -0.0875064 -0.09072069 0.04870022 0.2355754 -0.1387231 -0.3318098 -0.1860099 0.07062631 -0.1466929 0.03567513 -0.119193 -0.02099033 -0.002530326 -0.0848945 -0.251512 -0.1434782 0.1438024 0.1306018 0.00790861 0.4657257 0.04705535 0.09573111 -0.2288007 0.006646441 -0.05369356 0.02200647 0.08466543 0.1498976 0.2161086 -0.1341126 0.02486715 -0.09786748 -0.1163746 0.08573867 -0.06213731 -0.1656762 0.1446501 -0.06065065 0.004537328 0.2708624 -0.1215177 -0.025281 -0.2350184 -0.02076203 0.006390747 -0.1986815 -0.23029 -0.5106856 0.07835753 -0.2076794 0.2131283 0.003612972 0.04488722 -0.117473 -0.2634913 0.0365313 -0.02960047 0.07020229 0.01096688 -0.1533962 0.07056684 0.1357386 -0.07765749 -0.02674839 -0.08714504 -0.1646808 -0.1449994 -0.145266 0.1378508 -0.1323241 0.01878862 0.1005246 -0.09635979 0.2664398 -0.102985 -0.1640878 -0.4392668 -0.1468978 0.1477257 0.002233328 -0.7923841 0.01171819 0.05693757 -0.02238695 0.1158998 -0.05963965 -0.1176163 0.120189 -0.1257529 0.1139481 0.3479738 0.2760092 -0.2265437 0.06655179 0.3342223 -0.05397847 -0.2702234 0.01485394 -0.2191798 -0.04553683 -0.02819952 0.02795704 -0.1012161 0.1287901 0.1176005 -0.1735486 -0.004847534 -0.02739085 -0.1000107 -0.3173081 0.05668462 0.03012196 -0.04587884 0.1574835 0.0504062 -0.005191309 0.0628115 -0.0584287 -0.04000024 0.03237215 -0.07056705 0.06694251 0.01244409 -0.0839297 -0.1200194 -0.2388033 -0.08401107 -0.04909512 0.03826719 0.04921323 0.140236 0.02484217 -0.08955438 0.02295379 -0.06117968 -0.001784596 -0.1740436 -0.03123786 -0.124888 0.03759348 0.006568069 0.5221252 -0.07589283 0.1536732 0.1451373 -0.06552991 0.08878848 -0.1297897 -0.07096156 
  0.04970309 -0.1258669 -0.2460992 0.004326504 0.3727755 0.2413856 0.1908437 -0.04596159 0.1377871 0.141566 -0.06764313 0.2060161 0.1330957 0.1753382 0.1877422 0.06202006 -0.03333379 -0.07908067 -0.04889169 -0.001273618 -0.06766808 0.1622436 -0.06571096 0.1280087 0.1775576 -0.1632077 -0.08053333 -0.069309 0.1170016 -0.1424385 0.07202956 -0.03787821 -0.08689108 0.03040483 0.2929016 -0.07162146 0.1576033 0.1316959 -0.04955499 0.03269303 -0.1093677 0.1441699 -0.1426561 -0.08761059 0.0846612 0.4412826 0.04825914 -0.02713529 -0.07806537 -0.07568908 0.008782464 0.02207293 0.03134806 0.03621076 -0.157077 -0.03199035 0.03795568 0.0502665 -0.6088923 -0.1130475 0.1407361 0.05199593 0.05075783 -0.05406614 0.08261342 -0.08696416 -0.02549774 0.0455131 -0.05515946 -0.05369858 0.8882506 -0.05480363 0.3986706 0.09735382 0.03520078 0.0917471 -0.0736332 0.3638279 0.03967417 -0.3844056 -0.0944294 0.08916882 -0.1640514 -0.01749733 -0.08555386 0.04444992 0.1011121 -0.02830428 0.08204165 -0.08949252 0.02455417 -0.02498725 -0.2755965 0.035052 -0.03376587 0.01314233 0.08707211 -0.019954 -0.03116945 -0.06187979 -0.1699408 -0.119937 -0.2050465 -0.1040593 0.00386673 -0.07951071 -0.05740987 0.1182145 0.05711687 0.03187577 -0.04332477 -0.1181032 -0.1393888 0.1193686 -0.4233589 -0.5745932 -0.1035026 -0.02895615 0.101188 -0.1688455 0.05525216 0.04313351 -0.5529424 0.01310976 -0.07290026 0.08627355 0.03579949 -0.1241003 0.01504372 0.1479897 0.04632013 0.07016195 -0.2485452 0.5764579 -0.1240101 0.08081516 0.1680173 -0.1990911 0.3543605 -0.01332967 -0.01993613 -0.09815855 -0.2707591 -0.03051347 0.1050506 -0.1160157 0.1085995 0.1256099 -0.07247737 0.2879654 0.06330897 0.1033143 0.259872 0.001681876 -0.05046691 -0.05958771 0.02331507 0.04931514 0.01398948 -0.1526462 -0.3409728 -0.3328679 -0.1528006 0.1093724 -0.8115862 -0.1377365 0.07618527 -0.1728076 0.01033313 0.01012295 -0.1033666 -0.04320554 -0.01589716 -0.1400987 -0.04810856 0.09406371 -0.2193807 -0.1213399 -0.08656222 -0.0483595 0.120737 -0.1818871 0.1127907 -0.1083715 0.0479047 0.1157796 0.02503236 0.005127213 -0.1444959 -0.002848177 0.06574634 0.3228809 0.08146461 -0.08860122 0.0348656 0.009242777 -0.07388276 -0.04999629 0.07489064 -0.01039335 0.1267166 -0.02249512 0.08989061 -0.04298552 -0.0570115 -0.09768882 0.02501593 -0.3568428 0.112652 0.02158745 0.01981078 -0.2084791 0.06249546 -0.2260749 0.05355961 0.1268642 0.3781515 -0.009041686 0.07526057 0.0765928 0.197022 0.04912977 0.1506448 0.0087341 -0.04270714 0.5889999 -0.07986265 -0.007522643 -0.08017555 0.08919849 0.007598887 -0.1041797 0.1084757 -0.1653643 0.0376357 0.1252522 -0.3118284 -0.1421048 -0.1152261 -0.1488003 -0.03914166 0.2041337 -0.02803883 -0.06672005 -0.02939322 0.1271597 -0.1147576 0.1590865 -0.08105983 0.09192249 -0.03561511 -0.1857554 -0.04412279 0.2759081 -0.05724088 -0.02420814 
  0.3589922 0.4850764 0.6689433 0.5187613 0.3259609 0.27253 -0.2120692 0.8335352 0.002335156 0.05567012 -0.1478076 -0.1142414 -0.04324055 -0.6581216 0.539266 -0.1371711 0.08580591 0.03953282 0.02772327 -0.5552125 0.4650142 -0.02969464 -0.4162281 -0.2800637 -0.03818503 0.0001644991 -0.168833 -0.4864801 0.5737488 -0.169818 0.2416101 -0.2529545 0.3752483 -0.08681914 0.4537754 0.185941 -0.2195018 -0.04178513 -0.1177119 0.01564633 -0.2532352 -0.2523288 0.04560182 -0.07374174 -0.383992 0.1690999 -0.219992 -0.1048207 0.1717326 0.5557985 -0.3277856 -0.1223063 -0.005777426 -0.243543 -0.1575204 0.2396062 0.2587686 -0.3904694 0.1545509 -0.218461 0.2873372 0.7540274 -0.2286127 -0.2088658 -0.1206011 -0.1471491 -0.0435039 -0.2764416 -0.05011287 -0.9633825 0.002635403 -0.173059 0.1132949 0.9838142 -0.5291308 -0.2386678 0.0005566397 -0.6181949 -0.08550487 -0.2637988 -0.243325 0.3413548 0.1242841 -0.3663099 0.04340169 -0.6884557 -0.4140718 -0.1877039 -0.2169697 -0.07504094 0.1613668 0.003089994 0.09819927 0.3236494 -0.4563591 0.09579858 -0.02319554 -0.2710894 -0.1913695 -0.23784 0.1108699 -0.359136 -0.06170925 -0.2539689 0.255828 -0.1786138 -0.08055763 0.04958319 0.04574924 0.3474317 -0.1329236 -0.09593749 -0.2078431 -0.4062894 -0.03755082 0.1178732 -0.3179541 -0.7158956 0.1528762 0.217745 -0.3040953 0.922545 -0.4091551 -0.0009815462 0.1207906 -0.08066483 -0.5785183 -0.3447952 -0.1776756 -0.04651684 -0.2722457 -0.124824 -0.05439395 -0.2110593 -0.187844 0.003618314 0.05731109 -0.1287143 0.1321149 -0.232595 0.05824933 -0.0896035 0.1655108 -0.2665817 -0.4966488 0.6166542 0.05578084 -0.3753009 0.1590694 -0.0814056 -0.3219483 0.4254031 -0.0668557 -0.3473521 0.1258383 -0.1129808 -0.6682625 0.1889133 0.1886776 -0.2740906 0.01899296 -0.2308221 0.9763213 -0.03318123 0.03329247 -0.2881087 0.1447992 -0.2999077 -0.2240425 -0.54652 0.1074015 0.4814413 0.08201254 0.2209862 0.1257639 0.01813044 0.2203069 -0.7242256 0.05363787 0.4640637 -0.4567092 -0.03308005 0.04522191 -0.40501 -0.4899998 0.2844456 -0.4995044 0.04713363 -0.2652349 -0.1555911 0.1993488 -0.3062806 -0.1765855 -0.150166 -0.3612384 -0.5600592 0.2928655 0.2522244 -0.6590528 -0.1566843 -0.9227265 0.1630846 0.04489382 0.05270325 -0.6070392 -0.57544 0.4491647 0.1461986 -0.3175068 -0.1259507 0.5476864 0.7469081 -0.1560521 1.137153 -0.1928993 0.03827577 -0.3016748 -0.2636337 -0.01963565 -0.2420168 -0.06277981 0.1627154 -0.08939579 0.1902333 -0.6283188 0.06948847 -0.2386571 0.2738584 -0.1472314 -0.7349384 -0.601396 -0.06956899 -0.2263636 -0.3224274 -0.3982671 0.007165444 -0.1004329 0.6295637 -0.2511099 -0.1449914 -0.298302 -0.17793 -0.2017051 -0.1330398 0.325516 -0.550854 -0.1351037 0.1127849 0.07147211 0.1344135 0.1429614 0.3784812 -0.2641186 -0.1798541 0.3252817 -0.2401956 
  -0.1358998 0.1966802 0.225102 0.2519388 0.001500394 0.08579462 -0.2703353 0.01720952 -0.1311513 0.2748576 -0.05638235 -0.08518143 0.2962771 0.06361326 -0.4458209 -0.1703716 0.03600753 -0.06498314 0.1861586 0.2107051 -0.01195313 -0.0770084 0.101894 -0.2516413 -0.2765847 0.1326948 -0.1792523 -0.1145346 -0.03130583 0.1946318 0.2026365 -0.04817517 -0.2217739 1.384061 0.01882629 0.002548926 -0.3587407 0.03116146 -0.07021589 0.07978782 0.3232532 -0.228231 -0.1237507 0.001322645 -0.06852592 0.1406592 0.4501572 -0.1462377 -0.291863 0.1791669 -1.032493 0.1131542 -0.04428205 -0.3680257 0.2449324 -0.1947231 -0.1093705 0.2179305 -0.1750171 0.04804681 -0.211225 -0.01498615 -0.1837742 -0.2087544 -0.08937983 -0.1674117 -0.2384176 -0.8518569 -0.2445637 -0.3578581 -0.02821785 0.06807051 -0.2236592 -0.2751991 -0.1299691 0.3250784 -0.005893764 -0.1465155 -0.4458724 0.07166854 -0.1416939 -0.3836366 0.3060808 -0.08035274 0.1094383 0.3815407 0.03236754 0.00201187 -0.04753277 0.1730004 0.9408267 0.1594085 0.0705744 -0.7217537 0.00451406 -0.2128615 -0.01130253 -0.5865709 0.0724642 -0.2684807 -0.4692817 -0.3809736 0.03340989 -0.05579535 0.09774728 0.2244051 -0.1849757 -0.08437439 0.4275664 0.04548291 0.08778851 -0.03001793 -0.007496634 0.0680491 0.5330057 0.1209112 0.4868053 0.1730458 -0.2002847 -0.3056026 0.2027336 -0.1564641 0.03906661 -0.1220621 -0.4547401 -0.2879615 0.002266627 -0.02663417 -0.1061125 0.3216599 0.007823268 0.02230969 0.1610091 -0.4645452 0.1360435 -0.1767363 0.1581199 -0.1503907 0.1790192 -0.2910684 -0.1351375 -0.3203871 0.6727746 -0.01629696 0.1202883 -0.1697595 -0.07937624 -0.1440693 -0.1234291 -0.2132677 -0.1137304 -0.1797058 -0.1488894 -0.01265753 -0.01508544 0.7046749 0.4387419 0.05604954 -0.175659 0.2317884 0.2819076 0.131812 -0.02090506 -0.03181974 -0.08055728 0.06185241 -0.05810674 -0.3634273 0.1052679 -0.4783992 0.1354425 -0.4261886 -0.2619199 -0.04610297 -0.03901882 -0.4677657 -0.08155709 0.1349846 0.08017876 -0.2523496 0.7316773 -0.076778 -0.3111129 -0.1359317 0.1794282 0.03251744 -0.1606767 0.004393255 -0.219948 -0.1045892 -0.05921803 0.2059917 0.9371809 -0.1042128 0.152117 -0.03088867 0.1597762 -0.002951112 0.2521406 -0.04664057 -0.01054352 0.08670986 -0.1577156 -0.3933609 -0.0360149 -0.3995438 -0.06220737 -0.1164467 0.1693465 -0.01893014 0.05228736 0.02139339 0.02756435 -0.2938972 -0.7311337 0.04742106 -0.03945576 0.323474 -0.05727174 0.2394275 0.6198595 -0.2593843 0.3804546 -0.5114285 0.1335311 0.1003094 0.003634492 -0.0899873 -0.2356035 -0.03106941 -0.08278945 -0.03444837 0.1875604 0.9195607 -0.04276269 0.06390563 -0.3310401 -0.5263441 -0.05263041 -0.05408201 0.06730773 -0.1069022 -0.208548 -0.01345202 0.04741642 0.04355098 -0.3323702 0.3932563 -0.1805385 0.01941731 0.05983919 0.2155758 0.06677462 -0.1895015 -0.4952168 -0.3031172 
  -0.01655783 -0.04580683 0.008346696 -0.108314 0.1181101 0.8129601 -0.06434056 -0.07742722 -0.01110375 -0.1318293 -0.1980442 -0.1287268 -0.003365312 0.133649 -0.07127434 -0.0009839523 0.005648265 0.1172836 -0.1412587 0.9267752 0.1535194 0.1332903 -0.3461375 0.03182268 -0.01925971 0.1595993 -0.07920636 0.0316231 -0.111984 0.05084445 0.1774813 -0.3810401 -0.002702452 -0.4262472 0.3000777 -0.04142044 0.07545406 0.3847934 -0.08109347 -0.2408984 -0.3179725 0.1695577 -0.03789343 -0.1852242 -0.2588259 -0.04450566 -0.07637814 0.3231038 0.2306047 -0.12774 -0.004828053 -0.01123637 -0.4542655 -0.07521201 -0.2861277 0.1820506 0.08737876 -0.1845262 -0.2602127 0.134444 -0.2714657 -0.1498623 -0.2698275 0.08863188 0.01603915 0.2317662 0.1093697 0.3568564 -0.2066374 0.1254627 0.09787165 0.1725086 0.6292002 -0.04662298 0.4662955 0.2036526 0.06441403 0.1907938 -0.07418274 0.04064989 -0.02869773 0.005829178 -0.1899651 -0.01171652 0.0622668 -0.256483 0.1155836 -0.2126753 0.4340316 -0.2606212 0.01721754 -0.002196084 -0.00731146 -0.1906321 0.1551372 -0.1327673 -0.3804321 -0.02840035 -0.1324954 0.09109951 -0.5287779 0.2364158 -0.3737855 0.05605632 0.3432746 -0.05296832 -0.4146095 -0.3733203 0.1511409 -0.004220698 -0.001740352 -0.1289238 -0.113046 0.02161675 0.1612079 0.3460208 0.01319517 -0.3004573 0.3733728 0.3544255 0.02942823 -0.1235925 0.01504188 0.1139936 -0.1626955 0.1246316 -0.223478 -0.04117193 -0.5495605 -0.273 -0.1395078 -0.01348957 0.004443205 -0.1289404 0.1113588 -0.002733137 0.0721852 0.1325869 -0.1486003 0.2466082 -0.05071048 0.2100381 0.09538589 0.1992505 -0.1382809 0.325119 -0.4348213 0.1627623 -0.1061285 0.07639643 0.08655185 0.7130964 0.02885822 0.01476804 -0.09896525 0.09103677 0.005146762 -0.07381704 -0.133203 -0.06569414 -0.2782256 0.09254345 0.1444001 0.002966367 -0.2023422 0.04480781 -0.07135405 -0.2264173 0.04677393 0.4569909 0.07679633 0.05978274 0.05449939 0.210135 0.2089159 0.1976119 -0.2302342 -0.02361262 0.1160724 -0.1964146 0.1819109 -0.03749491 0.006376867 0.2584288 -0.1830342 -0.120716 -0.0218345 -0.0582291 -0.1307767 -0.1118353 -0.05537574 0.1632264 -0.09558409 -0.3252275 0.09058435 -0.02576462 -0.02601763 0.09784099 0.05406985 -0.2596869 -0.002998044 0.0303378 -0.3698505 -0.4387707 0.1138277 -0.05447663 -0.03180167 0.1083324 0.06433792 -0.2990424 0.2537037 -0.3919401 -0.04896112 -0.1538008 -0.02794539 -0.3678286 -0.251375 -0.2491828 0.04325655 0.01709279 0.1264193 0.1966702 0.04495391 0.03589185 -0.1561217 0.02085487 -0.2855044 -0.02032759 0.08250856 0.3442294 -0.1631778 0.07114779 -0.1128505 -0.1826902 -0.4161409 -0.1558378 0.2799428 -0.2368831 0.0509531 -0.1369203 0.2071508 -0.5126815 0.0548029 -0.11546 -0.1741634 -0.1487694 -0.1179642 0.04276778 0.1059344 -0.2447495 -0.1188057 0.4234362 0.1573888 0.2208401 -0.05381119 0.1668853 
  -0.0596718 -0.01380827 -0.07119913 -0.1251714 -0.6062431 -0.3099465 -0.06699098 -0.04504436 -0.3550226 -0.3639254 0.2742659 0.140318 -0.2161889 0.5028623 -0.3897824 -0.218345 0.1844429 0.1581999 0.02714882 0.2195307 -0.2814213 0.3080628 0.09507612 -0.1011226 -0.2349659 0.3452367 -0.02147897 -0.2601538 -0.0459943 0.1751559 0.2781254 -0.1143133 0.002443798 -0.1967425 0.2079069 0.3639487 -0.1995928 -0.3057815 -0.2364904 0.2773955 -0.2092817 -0.03251453 0.1330081 -0.07161316 0.2101191 0.06610288 -0.1888118 -0.3705569 0.06641469 0.02401855 1.000043 0.01846302 0.07163467 -0.06557599 -0.2367025 -0.2384385 0.1603951 0.2821607 0.05149429 0.1160174 0.1068381 -0.004076138 0.3942068 0.08955204 0.1581078 -0.1249194 0.06718847 -0.156907 0.05292231 -0.3945844 -0.2414221 0.1173566 0.1120925 -0.0167886 0.1955785 0.02688586 -0.1153735 0.110385 -0.1289061 0.05211296 -0.1100481 -0.05652115 0.2343746 0.1482577 -0.05147198 0.1732181 0.6950482 -0.3841803 -0.2027885 0.08882556 0.3361516 -0.3538433 0.1097807 0.132186 -0.1064189 -0.04511452 0.1952522 0.02576401 0.01353955 0.03528858 0.4169897 -0.02232738 -0.1647285 0.2477618 -0.01276663 -0.1597414 -0.4936005 0.05312955 -0.07482498 -0.3014669 -0.1845658 0.2380022 -0.2090464 -0.4164363 0.8333381 -0.3458305 0.6444891 -0.103823 -0.04101173 -0.06508871 -0.07785732 -0.07045879 -0.3479704 -0.0554048 -0.4598783 0.1762608 0.2135751 0.6767511 -0.1314279 -0.1760517 0.001842526 0.1036485 0.04990377 -0.4802288 0.4047265 -0.1234918 -0.399799 -0.04375424 -0.1863989 -0.4292101 -0.06352003 0.04033633 -0.446291 0.009601035 -0.07939277 -0.2515342 -0.1967042 0.125852 -0.1332351 -0.009031698 -0.2155211 -0.630154 -0.2235806 -0.3493359 0.0266559 -0.4823718 -0.07110584 -0.310614 0.02808396 -0.05769989 -0.1252433 -0.6664191 0.8021465 -0.05066498 -0.2712049 0.05769665 0.09478968 -0.1738653 0.2141134 0.07877617 0.04589977 0.1655642 -0.4764751 0.05140738 -0.5086235 0.7469198 0.4172265 0.1776312 -0.02633207 -0.0669017 0.2172339 0.1381962 -0.03431758 0.02726978 0.1774915 0.04875368 -0.1153992 -0.461649 -0.5417032 -0.1272664 0.0365297 0.161034 -0.1597989 0.01094469 -0.1069346 -0.05521472 -0.7089002 -0.1859422 -0.5654179 -0.02677106 0.03311984 -0.1338157 -0.2487019 0.09724835 0.02796695 0.6672774 -0.0633866 -0.1470561 0.3033892 0.0979654 0.1850678 0.0443228 0.2651388 -0.201215 -0.1670434 0.2403437 -0.333028 0.03200967 -0.04975235 0.1098597 -0.3357551 -0.1510494 -0.005256018 -0.3038772 0.3326754 0.05573081 -0.1451962 -0.3932233 -0.01896217 0.1607947 0.3203866 0.1494449 0.3530621 0.8399826 0.05908445 -0.1377431 0.1964768 0.09147658 0.4710289 -0.1426679 0.1380335 0.09979339 0.503807 0.1314953 -0.1255153 0.3921602 0.02929658 -0.01366547 0.09527279 -0.1811618 0.07412342 -0.09504641 -0.3344664 -0.06897178 -0.1732025 0.08612233 
  1.040609 -0.1877788 -0.1674473 0.1911324 -0.04928637 -0.5635176 0.05402376 -0.6836134 -0.3456063 0.02992508 0.003765516 0.02195363 -0.2926352 0.3282409 -0.0547412 -0.1352243 -0.05621457 -0.01308097 -0.3602156 -0.243411 -0.1450218 -0.1713651 -0.7166229 0.1455681 -0.1782295 -0.2077517 -0.06056869 -0.5958041 -0.04806284 0.6364115 -0.2057832 0.2044966 0.09390432 1.693138 -0.1786914 -0.06452275 0.0100915 -0.433484 -0.0545867 -0.2054791 -0.7509876 0.1609487 0.05234046 -0.06586181 -0.1371891 -0.193101 -0.2118 0.09844545 0.1762858 0.00228667 1.158413 -0.01641305 -0.1180696 0.300839 -0.0248186 0.296492 -0.02829559 0.2182143 0.08445915 -0.142897 0.1109394 0.04633874 -0.1455604 -0.05163288 -0.1753118 -0.13108 -0.6125162 -1.006239 -0.110013 -0.0614443 -0.1353937 -0.03679387 0.054578 -0.101514 -0.2669208 -0.2477075 -0.03140744 -0.5266483 0.2617569 -0.2242567 0.5960831 0.1288238 0.06061859 -0.2314787 0.09544832 -0.08482695 -0.3536258 -0.03188099 -0.1228427 -0.147512 -0.1516917 -0.1881396 0.004664952 -0.1840358 0.02961458 -0.1719237 0.1748408 -0.3847091 -0.1864582 0.2214977 -0.2043328 1.243225 -0.2737463 0.6405509 -0.1473186 -0.04733984 -0.3857356 -0.1044546 -0.3251272 -0.1816978 -0.5447648 -0.0810725 0.2577556 0.1483193 -0.04232835 -0.2359657 0.4272884 -0.2111436 0.1118136 -0.05508046 -0.3115708 -0.4253553 -0.2177855 -0.1606491 -0.05262912 -0.1872961 0.2267028 0.3781219 -0.03690493 0.843202 -0.1818403 -0.1156136 -0.05907018 -0.3863413 -0.2557713 -0.4435593 0.05684533 0.04969751 -0.02853615 -0.2164355 0.6364581 0.06081486 -0.7524151 -0.1873443 -0.05829403 0.4788014 0.08047679 0.2373861 0.007200679 -0.08686423 0.2174247 -0.4562567 -0.06727619 -0.07748158 -0.2568768 -0.009122752 -0.2718988 -0.3122777 0.152982 0.5493168 -0.2512012 1.28953 -0.158288 -0.1062503 -0.05062032 -0.1603898 0.009932232 0.1069772 -0.07927574 -0.6908787 0.04048255 -0.2612521 0.01336393 -0.09467528 -0.2289389 -0.3677513 0.121755 -0.1472722 0.0794956 -0.02739853 -0.04531152 0.3374968 0.139337 -0.1716226 -0.254663 -0.2508097 0.2314596 -0.4035387 -0.3023935 -0.07048468 0.609059 -0.1719331 0.0107691 -0.2773652 0.7019912 0.3909052 0.06749213 -0.0699204 -0.7422487 -0.1296562 0.2164314 0.1180098 0.02440592 0.2512328 -0.1752674 0.2491745 0.2402705 -0.2850847 0.4480039 -0.412604 -0.008053233 0.1129508 -0.5644699 0.06063555 -0.2244475 -0.375298 0.304854 -0.2177125 -0.143533 -0.1990999 -1.371717 0.09625933 0.1468626 -0.2801385 -0.1845935 -0.4080583 -0.2310683 0.05966326 -0.2288089 -0.4479368 0.01971477 -0.5905261 -0.2524089 0.1434771 0.1887643 0.4374665 -0.1538496 -0.05719097 0.01682502 -0.2440753 -0.1424379 -0.02860964 -0.1114755 -0.07736834 -0.523289 -0.06006008 0.04375492 -0.258553 -0.1848427 -0.2517722 0.5914073 0.628758 0.1459306 -0.005194264 -0.2624915 -0.6246564 
  0.06277361 0.005021601 0.03048176 -0.000662434 0.1412868 -0.2106656 0.3004252 -0.04369072 0.1100012 0.09526279 0.2996867 -0.2740703 -0.03307903 0.0212146 0.008076394 -0.1365587 0.2461914 -0.07759861 -0.09349414 -0.1365391 0.05014614 0.2351335 -0.09969624 -0.4084152 -0.1085344 0.09535354 -0.493704 0.3103572 0.1472194 0.02679149 -0.06273976 0.2269107 -0.1374449 -0.2072028 0.06571244 -0.0665357 0.002347833 -0.3172285 0.01132235 0.2067545 -0.4454474 0.03992012 -0.02336391 0.6804527 0.3131736 -0.02261798 0.1993709 -0.05325849 -0.0596172 -0.1783418 0.1079669 -0.07097187 -0.1290758 -0.2408219 0.02707927 -0.3266031 0.06888405 -0.0358816 0.2383139 -0.1847908 0.266372 0.01999593 -0.05354517 -0.1605928 -0.1147293 0.1490519 0.1061484 -0.1193883 0.1764309 0.5013583 0.13057 0.0394795 0.02119355 -0.3381794 0.2474941 0.359969 0.009169885 0.4159683 0.0592688 -0.03636597 0.04555008 0.102238 0.1674974 -0.2839125 -0.318834 -0.1245199 -0.2201058 -0.0203892 0.2535361 0.1106751 0.1380134 0.1923891 -0.1626763 0.0004536702 -0.2576313 -0.1410315 -0.07956286 -0.2123671 0.0471005 -0.003188042 0.01630763 -0.04599822 0.0869661 -0.06824749 0.5220701 -0.05737053 -0.09688018 0.2358428 -0.01567459 0.1435329 -0.08662692 -0.3173547 -0.02783011 -0.01822164 0.1066563 0.097687 0.03830953 -0.1461062 -0.1463534 0.01063317 0.1133917 0.3477957 0.06668898 0.1000097 -0.3330239 -0.0001601914 0.3139037 0.2362114 -0.1133376 -0.1892023 -0.002501477 -0.2009784 -0.1218033 0.1885072 0.02697773 0.01047341 -0.05167734 -0.18369 0.08360954 -0.1971598 -0.04909755 -0.05093784 0.09696057 -0.1074255 0.1996237 0.02418312 -0.3367325 0.1460515 -0.1914772 -0.1134429 0.09529999 0.218445 -0.1092819 -0.363524 -0.2958353 -0.2003602 -0.1207497 -0.1329559 0.04583931 0.1541014 0.1145496 -0.2405816 -0.1066582 0.8467247 0.1570177 0.03220418 0.1305276 -0.1844254 -0.1516985 0.4574399 -0.06831428 -0.3070625 -0.2514794 -0.1106648 0.001994391 0.08911175 0.004881342 -0.3280157 0.101782 -0.1748776 0.08084056 -0.2540343 -0.2367724 -0.2314342 0.3728926 0.01833963 -0.2631402 0.009056471 -0.1884925 0.4622554 -0.09445898 -0.1252325 -0.02459813 -0.2066087 0.2405117 0.2013444 0.2557768 -0.0239067 0.1153097 -0.5150012 -0.2536629 -0.0955082 -0.375404 0.03308696 0.1288775 -0.2868182 -0.4065257 0.04352355 -0.2025962 -0.2141076 0.1904012 -0.09267768 -0.1099917 0.1112073 -0.1257027 0.202291 -0.2256408 0.1356736 0.07850824 -0.1196838 -0.003751257 0.03523541 0.1081705 -0.1453537 -0.1882051 -0.009403336 0.0632274 0.1600187 -0.0450376 0.1937402 -0.3454484 -0.02782378 -0.165921 -0.1314644 -0.2600576 -0.258089 -0.3206318 0.1713147 0.20875 -0.1284993 -0.3980547 0.06832964 0.1414063 0.06515389 0.07631252 -0.07309125 0.01680628 -0.1868132 0.126235 -0.04701598 0.06915167 0.1542577 -0.2151906 -0.1869816 -0.03514719 -0.1128671 
  -0.1046271 0.2647639 -0.1549405 -0.03014969 -0.406209 0.2901626 -0.00471006 -0.3589701 0.135808 -0.04612084 -0.16868 0.009820282 -0.09038431 0.1574617 0.03079046 0.04049853 -0.0212947 0.003287848 0.08468056 0.1104633 -0.0507374 0.01022577 0.003172433 -0.161351 -0.3859993 0.05722548 0.03816449 -0.03386233 -0.5231501 0.0316966 0.04657594 0.1046338 -0.2195773 -0.1048243 0.09442963 -0.05250988 0.02966332 -0.4680885 0.2630889 -0.06637715 0.06227452 0.1368886 0.2471472 0.05026244 -0.04212551 -0.2950662 0.04150465 -0.3845318 0.1374162 0.08477572 0.17935 0.2082595 0.3206779 0.005153879 0.08956109 0.1188739 -0.007427 0.09957875 0.05207646 0.07561628 -0.10929 -0.09068873 -0.1182562 -0.01131653 -0.3858343 -0.2421801 0.0113819 -0.1076838 -0.04398625 -0.07085956 -0.4468442 -0.001286914 -0.01580605 -0.1101455 -0.01084813 -0.1092273 0.04485935 0.1426536 0.12485 -0.180896 -0.03781381 0.1779366 -0.1297856 -0.1916547 0.03576324 0.009915202 -0.3240708 -0.1286528 -0.1088227 -0.1308632 -0.272201 0.05832392 -0.05042788 -0.05106911 0.09301197 0.3481852 -0.3131264 -0.04371039 0.06347392 -0.05012306 0.109909 -0.529276 0.121964 0.02719676 0.003112519 -0.1715599 -0.1411507 0.1453243 -0.5080276 0.01466238 0.1231925 -0.08438764 -0.2021575 0.04671491 0.6041363 0.158588 0.300837 0.1761882 -0.001381626 0.1181504 0.1539768 -0.2074983 -0.2188579 -0.1684021 -0.03319711 0.01998947 -0.07395989 -0.02404878 0.05018907 -0.1822448 -0.1418293 0.1872117 0.03055342 -0.168026 0.3574071 -0.02286141 -0.2606864 -0.1326441 -0.3715758 -0.03159267 0.09484059 0.07864825 0.2441552 -0.354403 0.1556329 0.1979181 0.2177307 -0.09536887 0.08299495 0.1346076 -0.0332973 0.1730916 0.1624855 0.02459047 0.04680164 0.1807582 0.1015256 -0.2624255 -0.02895151 0.008131308 -0.06334032 -0.3529078 -0.3155233 -0.001398221 -0.07495298 -0.1715313 -0.4031939 0.2718396 0.113383 -0.6903625 -0.005949134 0.005472775 0.02501955 0.2226702 0.918484 -0.5258592 -0.219223 0.01020625 -0.145988 -0.3152972 0.1275117 0.00254022 0.01792682 0.1920959 -0.02927753 -0.1348417 0.132268 -0.04996448 -0.04637751 0.128965 0.04631712 -0.1052248 0.2826862 0.1282965 0.03824659 -0.09362807 0.3108852 0.03552184 0.323448 -0.1259175 -0.03376684 -0.04663658 0.2117283 0.1409113 0.1351331 -0.01589193 -0.05722352 -0.4898871 -0.3113104 0.134098 0.1597138 -0.07821357 0.1731384 0.01898375 -0.08833719 -0.02927046 0.3651731 -0.1330149 -0.03739087 0.01122284 0.07633196 0.2359973 0.1398635 -0.2337335 -0.1131543 -0.1896949 -0.1471808 -0.2986747 -0.09987934 0.09118344 -0.0427096 0.04445333 -0.008104184 0.1089396 0.0698073 0.1267139 0.04621227 0.5602206 0.04988599 -0.00967952 0.02206851 -0.1701309 -0.2334135 -0.1394613 -0.0917193 -0.1977728 0.08966251 -0.194744 0.09483954 -0.2808593 -0.05041719 0.004335329 0.1275473 0.0368305 0.002190088 -0.1226179 
  -0.236179 -0.06320085 -0.09226698 -0.1070681 0.01589997 -0.05372553 0.2727503 -0.3940814 -0.3436183 -0.02033647 0.0834986 0.06479721 -0.198462 -0.004587301 0.04631997 0.1877929 0.1111831 0.3037356 0.1965945 -0.2033564 0.06747143 0.03474172 -0.006821681 -0.2489183 -0.09859172 0.0839396 0.04579838 -0.08885969 -0.2491162 0.2784043 0.2452628 0.1073964 -0.07884878 -0.003044493 0.3408328 0.2094639 -0.3248211 -0.3183275 0.0818885 -0.222611 -0.2617011 -0.03456601 -0.002708473 0.2287281 -0.1675676 -0.06622565 -0.08487103 -0.1269599 0.02230503 -0.09791312 -0.08181788 -0.11987 0.01166397 -0.2741034 0.1360603 -0.1586162 -0.03213267 -0.02216898 0.02138996 -0.06527837 -0.2322684 0.01614691 0.5410824 0.1277077 -0.4106215 -0.111967 -0.0759826 0.2445332 -0.06754962 -0.2103172 -0.09512302 0.3266038 -0.003775808 0.1667367 0.03285508 -0.3812874 0.02985236 -0.3003309 -0.6810366 0.0138351 0.03856227 0.07889096 0.202511 0.06630691 -0.1240141 -0.176363 -0.1310557 0.1025296 -0.3594705 -0.1717634 0.06720861 -0.3287047 -0.5423433 -0.129797 -0.03021938 -0.03948506 -0.2479499 0.1422714 0.05132663 0.1578247 -0.08051877 -0.2285866 -0.05555686 -0.1339676 -0.0854593 0.1304729 0.2736321 0.2905289 0.267933 0.3176903 0.1241856 -0.207935 -0.1319925 0.1165269 -0.1403723 -0.1964024 0.1620066 -0.4209864 0.3646843 0.05884034 0.4942777 -0.4303287 0.1883444 0.0761378 -0.4464319 0.1110243 -0.1711884 0.1876944 0.2279679 -0.04117822 0.1407882 -0.1296937 -0.2703263 -0.1362361 -0.05781378 -0.09500735 0.3437973 -0.1244377 0.7141817 -0.3426208 -0.2505807 0.05385761 -0.223571 0.1879266 -0.04878066 -0.03341097 0.08388678 -0.1445569 -0.001011461 -0.02065683 -0.5228763 0.06816421 -0.08657339 -0.03209863 -0.1975975 0.2232731 0.165223 0.2215815 0.08439893 0.2320092 0.003241208 -0.5063937 -0.0624701 -0.3029884 0.02822803 -0.0919115 -0.1751529 -0.2180208 -0.2554893 -0.2087745 -0.1954193 -0.2003018 -0.158848 0.05354735 -0.06284361 -0.3831775 -0.1707805 -0.02445072 0.3130015 -0.09699862 -0.3175257 -0.06362964 0.04019713 -0.0670737 0.09473941 -0.4821065 0.03440904 -0.01050745 0.2936999 -0.1784895 0.2086917 0.1867855 -0.1878308 -0.2449681 -0.09445244 -0.1011431 -0.3675258 -0.2657757 -0.7227213 0.3602468 -0.08849429 -0.1024799 0.05350353 -0.2476611 0.1016842 0.2683456 -0.01437952 -0.1320078 0.6265444 0.01016029 -0.1686217 0.03320067 0.05395178 0.3793599 -0.4039021 -0.4040755 -0.1510384 -0.05320191 -0.1631136 -0.1261212 -0.2895077 0.2440393 0.05711233 -0.2343026 0.1628468 -0.2352832 -0.1465169 0.1835716 0.2329475 -0.1568313 -0.05864015 -0.05774193 0.2722631 -0.8278568 -0.04760446 -0.285499 0.01987354 -0.1584143 -0.08070682 -0.1061039 -0.4263732 0.2243968 0.08423285 0.1730824 -0.2562683 0.4106753 -0.2506346 0.2212059 -0.1140277 -0.04908071 0.04616867 -0.2591394 0.00397277 0.03705517 -0.1775436 0.324615 
  -0.1551062 -0.06817668 -0.01417738 0.1046232 0.03226151 -0.2103535 0.3137254 -0.4276532 -0.2933673 0.2823277 0.3769262 0.2444206 -0.07596071 -0.187998 -0.2909135 0.2533655 0.02704815 0.2183979 -0.01970335 -0.2329517 -0.1610528 0.03448229 0.05369721 0.2551791 0.5728434 0.2200868 -0.05970352 -0.01442324 0.02763678 0.04292703 -0.1176819 -0.1957046 -0.004167476 0.1346729 0.02408453 -0.1282536 0.1993763 -0.03114325 -0.08870188 0.01254467 -0.1127331 0.3841779 -0.0991649 0.4733203 -0.1203406 0.1041727 0.2282351 0.3927815 0.2452173 -0.3733235 0.2875975 -0.02954527 0.05647076 0.0235614 -0.1135651 -0.08116186 0.03321502 0.0801789 0.03571176 0.4966623 -0.4112773 0.2511749 0.07703065 -0.04192346 -0.1472723 -0.002235682 -0.264902 -0.3240035 0.2688864 0.3565921 0.1229531 0.05808845 -0.2397334 0.06482921 -0.0518382 -0.01200738 -0.06515934 -0.257284 0.09471538 -0.1258746 -0.1477357 -0.1561108 -0.03017963 -0.0824756 0.2346501 0.1308934 -0.2967692 0.2926004 -0.184678 -0.06106129 0.2925319 -0.0900399 -0.1696294 -0.3064385 -0.1096088 0.00316846 -0.06778292 0.3803238 -0.07964031 -0.1644475 -0.3412523 -0.04175716 0.2264489 -0.1631864 0.07893544 -0.2117509 -0.07535546 0.01441134 0.2103957 0.03833241 -0.07053167 -0.2028133 -0.214597 -0.08266282 0.009509703 -0.09974591 0.08624339 -0.4234522 -0.294169 -0.08733114 -0.1715951 0.2172406 0.1306899 -0.0102087 -0.2466094 0.1764339 0.0006408226 0.07506512 -0.4026877 -0.210792 -0.03883593 -0.5269175 -0.03305754 -0.01436469 0.4196643 -0.1042219 -0.2042603 0.1356685 -0.3265866 -0.06803069 -0.2042609 -0.1406678 0.03171016 -0.2338313 -0.3137163 0.03844823 -0.05157497 0.1312855 -0.06041936 0.1371611 -0.04836013 0.2377543 0.4360155 0.05790485 -0.02715654 -0.4653703 0.1831149 0.2040232 0.1392138 0.08854394 -0.1764712 -0.3542623 -0.08333623 0.019707 0.1144715 -0.1161576 0.01361115 0.2575118 -0.1756918 -0.1557814 0.1423384 0.1875344 0.2268835 -0.2303849 -0.01571329 -0.1859881 -0.3085268 0.05870325 0.01296932 -0.09339391 0.1687559 -0.1333772 0.280412 -0.3473406 -0.5044719 -0.1011387 0.07726724 0.1711681 -0.1438157 -0.08520687 -0.1677579 -0.06552726 -0.01612774 -0.3454584 0.01343479 -0.1021231 0.1309672 -0.129687 0.2416141 -0.4570398 -0.168479 -0.1718123 -0.2749162 -0.1480055 -0.1161104 0.05134841 -0.1267569 0.1490468 -0.03064041 -0.118488 0.1376615 -0.2699605 0.06734724 -0.03893775 0.2302355 0.01217824 0.4485728 -0.01336677 0.2617833 0.1344827 0.07919246 0.1453402 -0.04959676 0.05849966 -0.3092593 -0.05081503 0.05122257 0.05900784 0.05033989 -0.101798 0.162247 -0.1682705 -1.114158 0.2678015 0.6694829 -0.08001534 -0.2049122 0.3424295 0.03230834 -0.2322784 0.2799004 -0.3488924 -0.111428 -0.001946825 -0.1446768 -1.038913 -0.08055694 -0.02932044 0.1216545 0.04752003 0.05623034 0.1083334 0.2283947 0.02314565 -0.06164496 -0.08371592 
  -0.2324378 -0.2217174 -0.2430857 -0.06924678 0.0078264 0.08151643 0.9495031 -0.4465793 0.3574188 0.001601812 -0.006488454 0.1519707 -0.1253736 -0.1324355 0.2138121 -0.1878142 0.1550132 -0.04796682 0.186181 0.1887239 0.05073817 0.03156424 0.2121121 -0.5001248 0.3066401 -0.100066 -0.4198758 -0.2088179 0.4837029 -0.2644795 -0.1712121 0.06479149 0.2719942 -0.1361392 0.1379095 -0.1006987 0.1508719 0.1165496 0.3277912 -0.1098928 0.4184912 -0.3685534 -0.1739644 -0.05895333 -0.199202 -0.09975719 -0.1841417 -0.1958061 -0.2227073 -0.03848656 -0.2990355 -0.0157573 -0.08261774 -0.02856353 -0.1494647 -0.1286214 -0.07484662 0.0730961 0.298924 -0.2556749 0.1890999 -0.1588996 -0.2391201 -0.07152774 -0.2525087 -0.6683437 0.1015818 -0.0003585738 0.05995038 0.1117183 0.3091856 -0.2335375 0.3230002 -0.2168663 0.1745255 0.06338587 0.2885477 0.02865212 -0.2108923 0.2970895 -0.3364024 0.1159247 -0.01029773 0.1278028 -0.03526451 -0.03645436 -0.5601245 0.3595693 0.2730704 -0.02846161 -0.09167586 -0.2063105 -0.01490108 -0.2285105 -0.09255971 0.1891823 0.02994276 -0.1852931 0.01771339 -0.2162908 -0.1982289 -0.03399075 0.04733932 -0.1184284 -0.1587694 -0.1854279 -0.09517577 -0.07283567 -0.5459353 0.2349203 0.1266692 -0.147745 -0.2764625 -0.337741 -0.139928 -0.04982689 -0.08327084 0.1858738 -0.1641926 -0.2233961 0.1122306 0.04393511 0.05355 0.03775269 0.03884446 -0.08484083 -0.3043477 -0.09667098 0.1598882 -0.2509902 -0.08003271 0.1815518 0.03902118 0.1210296 -0.269808 -0.3153438 -0.01568857 0.0487355 -0.07636108 -0.265811 0.05811336 -0.1401195 -0.1324099 0.3476191 -0.03932713 -0.06790329 0.2199857 -0.104438 -0.05726806 0.1025856 0.1186492 0.08715264 0.03567404 -0.105397 -0.2115226 -0.08336984 -0.08604545 -0.003517017 -0.395735 0.130227 0.0981474 -0.07071693 0.207667 -0.146822 0.1304722 0.009137715 0.1110549 -0.3754348 0.004516982 0.08766065 -0.1660246 0.02379995 -0.1184392 0.1211417 -0.2354661 -0.4212191 -0.09083362 -0.06229512 0.2086448 0.03650559 -0.05225233 0.001250694 -0.1284195 -0.3359646 -0.02876104 -0.1575587 -0.08973047 -0.3663864 -0.09163237 -0.01926728 -0.1856681 -0.4164527 -0.08353055 0.04754116 -0.1201089 -0.04050681 0.3425351 -0.3320584 -0.3591318 -0.2860059 0.08980217 0.0006679732 0.637556 -0.1182058 0.07390189 -0.1918827 -0.03810231 -0.3909185 0.2560603 -0.05424297 0.5117839 -0.02208173 0.2595614 0.2013751 -0.4202668 0.2013929 0.2726036 -0.1493478 -0.7449995 0.1221759 -0.4944642 0.6582342 0.3421953 -0.3036374 0.2497294 -0.1316833 -0.161494 0.07755329 0.1676961 -0.2193401 -0.03261765 -0.2305794 0.1395268 0.1856333 0.08783595 -0.1046023 -0.047166 -0.002463098 0.5427986 0.1220627 -0.391715 -0.3403115 0.01941666 0.04438046 0.06434163 -0.04918084 -0.4490809 -0.03698249 -0.03369016 -0.2078221 -0.0763218 -0.06344131 0.6087793 -0.1752465 0.1376635 -0.4120045 
  -0.2606089 0.3005423 -0.1762461 0.2624968 0.2856266 -0.1757396 -0.1451147 0.03171195 -0.2175004 -0.1750401 0.1463169 0.3820608 0.5547327 0.3315473 -0.3509667 -0.03395482 -0.2577413 0.0377073 0.09969205 0.2166315 0.3294801 -0.06054023 0.1950287 0.0450495 -0.361119 -0.00153127 0.1703301 -0.1286779 0.2071036 0.2780744 -0.0295895 -0.3422411 -0.05301471 -0.09270021 0.2245634 -0.1687637 0.09971004 0.1780344 -0.1695453 0.06355986 0.1593068 0.05535677 0.1750463 -0.1150104 -0.2090752 -0.2191219 -0.202062 -0.5345257 -0.2601345 0.1752275 -0.2954824 0.06322557 -0.5106306 -0.4222801 -0.3407926 -0.1905996 -0.1610403 -0.04814087 0.2281478 -0.04654366 -0.1026912 0.06663032 -1.419731 -0.01564266 -0.2329848 -0.5488799 -0.06409077 -0.04521595 -0.08186664 -0.3407466 -0.1571182 0.02317957 -0.1543187 0.1746126 0.03502734 -0.4134969 0.1660188 0.02203459 8.905401e-05 0.2252368 0.1568292 -0.2180876 0.512905 -0.1189114 -0.3664421 -0.2829875 0.7738733 0.1080898 0.7661721 -0.06078742 -0.1559234 0.3335425 -0.1992742 -0.5090091 0.004096118 -0.09919284 0.2047071 -0.05821496 0.1584052 -0.03191467 -0.02697265 -0.1508517 -0.3938084 -0.1962543 0.08300614 0.2440639 0.1120882 -0.01872289 -0.4020966 -0.06216402 0.240942 -0.1338154 0.01964056 -0.4173473 -0.2129808 0.03491526 -0.2849399 -0.09805678 0.121161 0.0395158 0.1450825 -0.02384324 -0.06373003 -0.1869555 0.1148662 -0.1922017 0.1133905 -0.02778644 0.2642922 -0.4263083 0.2339549 0.07971559 -0.4881299 -0.5782279 -0.03915261 -0.1624518 -0.1849259 -0.02306581 0.07828513 -0.2412718 -0.007821189 -0.2034689 -0.1217305 -0.2221422 -0.2192823 0.4122125 -0.1521833 0.2764505 -0.04115096 -0.03135452 0.1882004 -0.4022405 -0.7779387 -0.06665617 -0.08372679 -0.03699823 -0.4917527 -0.2781905 0.04162763 0.02347926 -0.5051564 0.166568 -0.03872146 0.2229735 0.02300915 -0.07886189 -0.002195672 -0.1638426 -0.2607364 -0.2336092 -0.2956905 -0.03906661 -0.1428247 -0.3345104 -0.08016367 -0.1549006 -0.03763798 -0.1731093 0.06889147 -0.2892166 0.2690163 0.133258 -0.03918542 0.3001986 0.07583461 0.2254832 0.1660223 0.08253064 -0.08518975 -0.2426597 -0.4176353 0.006578776 0.2831299 0.1542785 -0.1000682 -0.05482638 0.1023725 -0.2970068 -0.6042308 -0.143899 -0.09974328 -0.0789409 -0.06755768 -0.2458751 -0.3506764 -0.2176316 -0.2023968 -0.6792067 -0.4360333 -0.03025242 0.05244926 -0.1243416 0.06767616 0.09819216 -0.08513588 -0.1333044 -0.2365654 -0.128164 -0.2580284 0.215624 0.5298659 -0.2712113 -0.3075626 0.06855306 0.005237604 -0.495947 -0.1179406 0.0911924 0.110849 -0.2722989 0.1504638 0.3700374 0.3642317 -0.2812245 -0.3645111 0.264088 0.3964632 -0.5900996 -0.06816274 -0.06191435 0.3471372 0.2482275 -0.1174488 0.2067319 0.03147877 0.2738386 0.4029411 -0.4323429 -0.2648709 0.2035701 -0.1016075 -0.01410927 0.2203209 -0.08876589 0.1192085 -0.2478519 
  0.3225666 -0.09359801 -0.3595743 0.2470901 0.1463625 0.3874695 0.09370092 0.636398 0.1801793 -0.2135113 -0.1840247 -0.04190423 -0.1771321 -0.2742675 -0.03660843 -0.1668843 0.01928469 0.05501233 0.01688102 -0.1469118 0.8541752 -0.005780132 0.08041715 0.5221877 -0.1246959 -0.1385236 -0.5300663 0.01061271 -0.1577672 0.4418353 0.1176209 -0.1480741 -0.1764762 0.6878771 -0.4135803 0.163682 0.2553431 0.4056747 -0.2863326 -0.03510221 -0.06379961 -0.1467489 -0.05825193 0.3770757 -0.07765352 0.06019802 0.004322991 -0.1161576 0.08686281 0.2152993 0.5175061 -0.05125597 0.04224313 -0.07274549 -0.1865151 -0.1836728 -0.05762203 0.05625935 0.06738202 -0.699273 -0.02663344 -0.2585846 -0.02873527 0.1015706 -0.03353781 -0.1655158 -0.187074 0.4022664 -0.03703019 0.6348012 -0.2653658 -0.1780951 -0.0227694 0.5922201 0.1509285 0.05017053 0.2602723 -0.2506331 0.01273771 -0.113111 0.06111144 -0.01241862 0.07206434 -0.02674088 -0.2709818 0.01971829 0.142854 -0.06698623 -0.08258514 0.4473915 0.03078609 0.1833915 -0.2759334 -0.3087461 -0.09953274 -0.07580557 0.06523328 -0.3854235 -0.1242896 -0.05192377 -0.1863592 -0.09961855 0.04060329 1.114447 0.4987958 0.083381 -0.09739911 -0.1276829 -0.3073148 -0.2512408 0.3360249 0.5978296 -0.1805994 -0.2220688 0.004538467 0.04083628 -0.1848072 0.2663344 -0.206822 -0.07913402 0.3757628 0.2271449 0.03393614 -0.1628407 -0.3468804 0.01702711 0.06602226 -0.231081 -0.327257 -0.38349 0.0480951 0.05391634 -0.1552234 -0.256507 -0.2268557 0.08088785 0.0540491 0.1562521 -0.2030419 -0.1527424 -0.2363104 0.3308688 -0.4665911 0.176862 -0.100454 -0.06701688 -0.5079402 -0.5463161 1.436606 -0.06804716 0.1158872 -0.311266 -0.7303062 -0.002895662 0.05282904 -0.006290274 0.1596953 0.3249136 -0.1079113 -0.1049511 0.05580631 0.6726683 -0.5382767 0.02937747 -0.1054996 -0.09465872 -0.3561494 0.2909499 -0.03825574 -0.08724915 -0.0352948 -0.04925897 0.2411196 -0.03144222 -0.04769837 -0.3333894 -0.1169044 0.195114 -0.01545674 0.07650013 -0.1517393 -0.2698691 0.3072522 0.3844397 -0.2222097 0.1135474 0.5565662 -0.1355507 0.1007804 -0.1616886 -0.1078976 -0.1733314 -0.04375521 0.04235044 1.029723 -0.3001713 -0.0287287 -0.06138713 0.57945 -0.8300769 0.4588977 0.1118669 -0.3871976 -0.09052838 0.09384453 0.1731063 -0.0966045 -0.2981892 -0.07942024 0.6480669 -0.06711581 0.429248 -0.1827907 0.1084935 -0.6045993 0.1034383 -0.5407169 -0.1430777 -0.08369683 -0.2129812 0.4954997 -0.08536083 -0.119407 0.112487 0.4272283 -0.2214815 0.3731906 -0.1613675 -0.09414306 -0.1736672 0.05540202 -0.137517 -0.06840938 -0.1231196 -0.1368564 0.827691 0.117266 0.08356153 -0.2021906 -0.1076931 0.07872029 -0.4312935 0.2982239 -0.1243885 0.2383657 -0.2391108 0.06894623 -0.05276239 -0.102325 -0.05125993 -0.05726232 -0.4537072 0.1098161 0.5572504 -0.0759217 -0.2134101 
  -0.3849755 -0.04797548 0.3399662 0.3723448 -0.2924812 -0.3678176 -0.1527126 -0.2569891 -0.268439 -0.1039245 -0.2517313 -0.2660522 -0.2733288 -0.03463645 -0.11206 0.3058696 -0.1194958 -0.5481394 0.06328896 0.4936106 0.5373533 0.3214716 0.2623957 0.1769331 0.2033163 -0.2995235 -0.4504246 -0.1739716 0.1294248 0.3279353 0.1368617 -0.447819 0.09528421 0.2526515 0.2039073 -0.002930716 -0.0007092358 0.3509717 -0.3576144 0.7189817 0.1590741 0.03175504 -0.07827648 0.1080515 -0.2624616 0.1056603 0.03941286 -0.004394619 -0.1787803 -0.338112 0.5964204 0.1075984 -0.08811751 0.3262549 -0.4146006 0.07300115 -0.008834426 -0.06148612 0.1666461 0.3472735 -0.4277649 -0.007988672 -2.519105 0.1858486 0.05124385 -0.2191117 0.4041343 -0.6971692 0.1123359 -0.4308392 0.02285084 0.07704873 -0.2629351 0.2302511 0.05089003 0.08197352 -0.1545048 -0.2419583 -0.5231193 -0.1416405 -0.1455196 -0.1208966 -0.1269622 -0.01096177 -0.04019196 -0.1591819 0.6654702 0.0524458 -0.1239428 0.109599 -0.366734 0.1158568 0.2050906 -0.6144357 -0.3430142 -0.01433557 0.1795462 0.2000214 -0.0814064 0.01711125 -0.1736029 0.1771301 -0.009526124 -0.3606668 -0.3344588 -0.3657375 -0.0008902011 -0.1675885 0.0567054 0.3092965 -0.7346738 0.04171043 -0.233812 -0.1929787 -0.8841297 -0.03757863 -0.2823969 -0.1653637 -0.3559876 0.0003171755 0.01847514 0.1132176 -0.306828 -0.2691986 0.1524634 0.3572399 -0.1420972 -0.1373053 -0.1395166 -0.3683658 -0.05966655 -0.1259227 0.247865 -0.1591415 0.1587843 -0.3898039 -0.6770685 0.2058055 0.08516704 -0.03641807 -0.08036449 0.1824517 -0.04491739 0.3789729 -0.02218084 0.2762103 0.04213801 -0.09846652 0.05113168 0.7777523 -0.04449415 -0.3752325 -0.4419723 -0.4795788 0.1332917 -0.08353037 -0.2628995 0.2624352 0.4661279 0.109458 -0.2446777 -0.2876542 1.056789 0.06650114 -0.1218956 -0.2315033 -0.4999314 -0.4051482 0.1671909 0.5676037 0.262889 -0.3005196 -0.2752219 -0.1053135 0.1488419 -0.09285496 -0.2744895 0.2177861 0.04321123 0.1932205 -0.1841238 -0.2143965 -0.4980858 -0.234976 -0.1053796 0.2671149 -0.05102912 -0.05422204 0.25801 -0.3194036 -0.4149043 -0.2065857 -0.3922314 -0.04473364 -0.2699949 -0.1473111 -0.1114929 -0.1061155 0.0498645 0.3962546 0.04400403 -0.2562916 -0.01353842 0.03675076 -0.1512228 -0.1390362 0.1403104 0.1433746 -0.1976491 0.5354774 0.2971657 0.477242 0.0384661 -0.200767 -0.1713351 0.2544647 -0.243571 -0.01345738 0.006790353 0.1629429 0.5073798 -0.1650165 0.1976505 -0.07093205 -0.3764674 -0.2843366 -0.9245101 -0.3124878 -0.2484695 0.02491875 0.3248546 1.180086 0.3699231 -0.1091376 0.6402276 -0.3780294 -0.03112396 -0.1351604 0.06803922 -0.07173418 -0.46568 -0.3201271 -0.333146 -0.2747435 0.09260578 0.4749331 0.2021784 0.07108283 -0.2230393 0.4702439 0.05154829 0.3841443 -0.3146922 -0.4273696 -0.3500528 0.01689595 
  0.4311908 -0.09151982 -0.05887726 0.7047507 -0.0657106 -0.04095238 0.05924237 0.07444245 -0.2475246 -0.3184878 -0.1617732 0.2226896 -0.3612745 -0.06119618 -0.3217698 -0.1220809 0.1684188 -0.04519956 -0.3344406 -0.48239 -1.096724 0.03699194 -0.08059054 0.1171399 -0.3923679 0.1503161 0.1387694 0.09917435 -0.2200043 0.6542987 0.2418587 -0.1070874 -0.1469043 -0.7311335 -0.06319296 0.04706253 0.632856 -0.01583624 -0.1333823 -0.2399067 -0.1331063 0.0511089 0.004097771 0.07092484 -0.4121197 0.0498594 -0.1102179 -0.3588236 -0.1885632 -0.3648644 -0.4647743 -0.1810186 0.01966379 0.03793034 -0.2371025 -0.01697867 0.04404669 -0.2768195 -0.04725932 0.1128344 0.07092068 -0.02195582 0.3325411 0.1927883 0.02353729 -0.2345642 -0.3514846 3.193005 0.3141373 -0.01399148 -0.01828982 0.01691698 -0.08081231 -0.5605224 -0.6417893 0.2027885 0.1912869 -0.4280195 0.1681393 0.1010411 -0.2046846 -0.3289099 0.001879419 -0.1062281 -0.4089696 0.03357768 0.6304432 -0.04679443 -0.2525352 0.3031014 0.07472069 0.1100869 0.3379488 -0.01637377 0.02216954 -0.1696065 0.09770681 -0.1257965 -0.1685399 -0.1015447 -0.03431124 1.020138 0.2585964 1.013807 0.3125854 -0.09030014 0.2396053 0.1050835 -0.1242805 -0.2416558 -0.2121761 0.1024425 0.714313 -0.07535185 -0.09437933 -0.1163898 0.07719021 0.3475911 -0.08600824 -0.009559397 0.1128915 0.1533048 -0.1253632 -0.2517015 0.5349113 0.02829026 0.04909738 0.1978024 -0.1820798 -0.2443361 -0.1272439 -0.141421 -0.1152328 0.2080022 -0.134611 0.306464 0.5201101 0.1413948 0.2487956 0.07559869 0.06746798 -0.03499296 -0.1834579 -0.09132729 -0.08829303 -0.3789245 0.1080531 -0.30436 -0.1897382 -0.3333147 -0.01580443 -0.1925483 0.08138953 -0.303214 -0.0636906 -0.6730645 -0.3540328 -0.3615169 -0.3101214 0.3583025 -0.1645135 0.06890453 -0.2198955 0.2644944 -0.1733014 0.2991942 -0.1209424 0.01395658 -0.04563004 -0.3834665 0.0226305 -0.3581914 -0.5351004 0.1873478 0.1269813 0.01893603 -0.1714432 -0.4433939 -0.08056384 -0.06808203 -0.09332051 -0.2056329 0.1987233 0.2406663 0.01952692 0.02075635 0.2120065 -0.06323258 -0.3199962 0.1783524 -0.0464158 -0.0006668237 0.0004472713 -0.1762411 0.3118467 0.2015162 -0.1777116 -0.4580171 0.2714487 -0.04382714 0.1526259 -0.2582698 -0.06092989 -0.7919741 -0.1022084 0.1415819 0.09128785 0.05006274 -0.2080441 -0.08793844 -0.1671847 -0.2131822 0.4346404 0.0873189 -0.377664 0.0230229 -0.0173514 0.07146704 0.1619859 0.02502789 0.2571798 -0.4005921 -0.2951293 0.05044985 0.2220808 0.01523433 0.06660554 -0.1375692 0.02421082 0.4193769 0.01287487 0.1214731 0.474207 0.05150199 -0.003515764 0.2412059 -0.08428236 -0.09641232 -0.4829627 -0.1306445 0.3456265 -0.2225754 0.01456128 0.1057287 -0.4140347 0.6543294 -0.2618935 -0.128939 -0.4916798 0.2704919 0.00584237 -0.3092121 -0.2842429 0.04951721 0.015037 -0.3312638 
  -0.08981998 -0.006051002 0.3487177 0.0130257 0.1084988 -0.4281114 -0.09155843 -0.1520463 -0.2579821 0.1711446 0.06037585 -0.03316427 -0.2511271 -0.0586722 -0.2296347 -0.1789637 0.1131431 -0.1275162 -0.002481405 -0.09820779 -0.1373738 0.1529973 -0.1353074 0.1480458 -0.1317022 0.03706232 -0.0399072 0.1064418 0.2944354 -0.1142602 -0.1222616 -0.08882599 0.2499483 0.01205746 -0.0006333318 0.1966273 -0.3016945 0.01630064 -0.1609418 -0.04372518 0.06421658 -0.0747624 0.1996434 -0.2795515 -0.1536111 0.04191484 0.160731 -0.2028662 0.08020763 0.06762724 0.02402544 0.03233152 0.05434477 0.06081167 -0.2900016 0.2571906 -0.03132062 0.07861497 0.2955666 -0.3482332 0.06101739 -0.1522595 -0.03571504 -0.1305227 0.1993266 -0.1884987 0.1688237 -0.08824757 0.1748967 -0.03589541 -0.08302324 -0.03825931 -0.4782787 -0.1030587 -0.1141748 0.06834329 0.3390093 0.7047254 -0.03383148 -0.007073396 -0.3059917 -0.03111929 -0.04422206 0.1136146 0.2055956 0.01851373 -0.2798453 -0.2484535 -0.3403768 -0.07957882 0.0535644 -0.1258489 0.2254408 0.5805194 -0.1670564 -0.02064564 -0.09063508 -0.09939556 0.1469899 -0.07458381 -0.05703894 -0.03337771 -0.139723 -0.1286045 0.03740038 -0.1379238 -0.1480889 0.1212512 -0.1567195 -0.008904225 0.08447614 0.01906765 -0.4516457 -0.05951482 0.04516665 -0.1226863 0.07152505 0.5434516 0.5182067 -0.135257 -0.2546441 0.3981773 0.1971097 -0.1210288 0.3536196 -0.007203986 -0.1402729 0.3508293 -0.1492745 -0.05930427 0.03869456 0.1024877 0.09626221 0.006667151 -0.1642288 -0.1954452 -0.1675459 -0.07336235 0.09862945 -0.2710092 0.05889956 0.1066367 -0.08174054 -0.01477331 0.04824249 0.02955395 0.09129203 0.03825133 -0.09571318 -0.05485237 -0.04244268 0.2474691 -0.1093864 -0.225789 0.1641349 0.2589842 0.03310628 0.4016953 -0.2118646 0.03644963 -0.1762501 0.1673742 0.3043105 -0.0577843 -0.04476094 0.09913514 0.1069785 0.1762263 -0.08795086 0.1404217 0.03689824 0.330655 0.02231264 -0.2102984 -0.1318286 -0.1140957 0.06343991 0.01279726 0.2558098 -0.2429381 0.01243488 0.4491263 0.06264795 -0.06907522 0.3045172 0.1150102 -0.3597778 -0.1436796 0.009668492 0.189314 0.07218055 0.1994122 0.1611362 0.00655657 -0.1293861 -0.05392419 0.1823784 0.07842649 -0.3543404 0.1662992 0.2417723 0.05402172 0.08580317 -0.126864 -0.1018625 0.1637757 -0.1882948 -0.42913 0.2787103 -0.1206004 -0.3108794 -0.1248725 0.05437835 0.4154435 0.451866 0.03565447 -0.3510394 -0.04390146 -0.1667428 0.04985041 -0.01200534 0.04335777 0.07180989 -0.03020317 0.166968 -0.2281417 -0.09349938 -0.08143499 0.1423019 -0.4420255 -0.2567039 0.238498 0.1900654 0.05310673 -0.06679523 -0.1443841 -0.002924438 -0.1561524 -0.03296511 0.06656867 -0.08654169 -0.2079601 0.3114605 0.1859468 -0.07447676 0.1559721 -0.1185285 -0.08464611 -0.208675 0.07303348 -0.08015988 -0.06452673 0.1122703 0.1965623 -0.1800438 -0.007887411 
  -0.1552355 0.03554511 -0.237786 0.000504612 0.3543893 -0.9696172 -0.1191406 -0.1883243 0.02783692 0.1144384 -0.195647 -0.08243544 -0.1568993 -0.3264213 0.3411624 -0.1520164 -0.4550748 0.257204 0.07935274 -0.1241848 -0.08654232 -0.5163947 -0.01980004 0.100383 -0.1248532 -0.1646829 -0.3213187 -0.04856621 -0.2851775 0.02089407 0.1092491 0.3324127 -0.4615886 -0.04129574 0.255109 0.04033974 -0.08216427 -0.1212194 0.06698843 -0.3489552 -0.2819519 0.1350998 0.05434804 -0.2936926 -0.1018579 -0.1973026 -0.03072315 -0.1317362 -0.2231395 0.3984006 -0.4030305 -0.02473558 -0.02838599 -0.04348175 0.1196357 -0.2588708 -0.08426269 -0.241775 0.02233205 0.2536349 -0.131861 0.06127412 -0.05973458 0.02855885 0.1037173 -0.3542025 -0.08982255 -0.1788711 -0.00328184 -0.1650369 0.03298642 0.3265433 -0.07597715 -0.1525599 -0.1965048 -0.2022563 0.1086065 -0.7729025 -0.2963349 -0.1212398 -0.1510005 -0.3755903 0.2175084 -0.8560727 -0.07690766 -0.1033094 -0.4611802 -0.2916349 0.5852647 -0.1527046 0.3823472 -0.05137114 -0.3712408 -0.06377437 -0.2059474 -0.2749738 0.1992369 -0.2839926 -0.07950608 -0.1114326 0.1964777 -0.3907191 -0.273928 -0.1235002 -0.1650114 0.1590484 -0.2230798 0.2297874 -0.4358935 0.3922065 0.06733552 -0.1371644 -0.3162648 -0.07465162 0.4584174 -0.7064732 0.03450085 -0.1245106 -0.3333566 0.08420465 0.409702 -0.1720249 -0.4312346 0.04650657 -0.3009189 -0.2804591 -0.9379723 -0.3369027 0.2252475 -0.8077156 0.02579938 -0.09606102 0.07386743 0.08484203 0.08032419 -0.3206867 0.04923597 -0.2526789 0.01635042 -0.3821513 -0.1435219 -0.00165889 0.07320945 0.2251314 -0.5848718 0.3027474 0.2102376 0.0508591 0.2080256 0.0483936 -0.07779194 -0.3044701 -0.05740279 0.192046 -0.3248166 -0.4394447 0.06800957 -0.1965001 -0.2529828 -0.4172671 0.241379 -0.2983483 0.03183997 0.205717 -0.1351107 0.1969552 -0.1950509 0.43383 -0.2951404 -0.2049523 -0.3288331 0.6092283 -0.1359669 -0.2836447 0.08287138 -0.6317906 0.4424192 0.02738019 -0.1895671 0.2182687 0.2507325 -0.005311634 0.2125048 0.01354838 -0.2023042 0.006742145 -0.4278416 -0.09494337 -0.00405203 -0.001995363 -0.06892742 -0.3106492 -0.07583971 -0.03480154 0.2183107 -0.2039294 -0.06859257 -0.1458538 -0.3588891 0.04003138 -0.3443215 0.2733018 -0.03906408 0.08604091 -0.4088984 0.02239257 0.03905547 -0.01439101 0.3040418 -0.2337787 0.4439467 -0.08218017 0.1735808 0.2578531 -0.1778659 0.04432463 -0.185839 -0.09278853 -0.03361315 0.3102312 -0.09711091 -0.07340015 -0.3094723 -0.01931244 0.1004079 -0.7477993 0.06284846 0.0191418 0.5486491 0.09598476 -0.01506533 -0.124428 -0.2860276 0.2886766 -0.3069836 -0.08592687 -0.1165192 0.08204486 -0.1465829 0.2847271 -0.710281 0.2675811 -0.1104211 0.1981583 -0.1613672 0.07668105 0.3656146 -0.03765836 -0.2878563 0.3426429 0.01468451 0.235927 1.040554 0.04773853 -0.1540604 0.3428116 
  0.05181408 -0.1418078 0.1699446 0.2047512 0.115638 -0.2146255 0.01294247 1.557797 0.1715287 0.1037231 -0.09994558 -0.1752362 -0.1714037 -0.1990644 -0.1040207 -0.2267456 -0.3755969 -0.3635992 -0.626118 -0.1097723 1.558549 -0.5326174 0.07978559 -0.1257758 -0.08218559 -0.08567138 -0.6442556 0.07872327 0.07224767 -0.3155742 -0.09905677 -0.005459342 0.1725212 0.8254404 0.5784731 0.2221291 -0.2960613 0.1737268 0.3386182 0.2163788 -0.5963526 -0.2100869 -0.08741754 -0.1780086 -0.02234807 0.1125265 0.2045618 0.09503078 0.6723465 -0.03346006 -0.05214116 0.4304817 0.05637201 -0.08567347 -0.1422234 -0.2709659 -1.024995 -0.2756976 -0.1086787 0.3983925 -0.2436762 0.1000672 0.5549405 -0.07170298 -0.2288048 -0.08818759 0.3949004 0.06069845 -0.02775291 0.7128683 0.1870908 0.1362147 -0.2670621 0.3081926 0.3829442 -0.05506712 -0.2991889 0.1091676 0.2412046 0.01802875 -0.1557219 -0.1790489 -0.1105591 0.2909094 -0.2642521 0.7340717 0.041032 -0.01421394 -0.03006743 -0.3954919 -0.4736072 -0.05343679 -0.2881393 0.2136548 -0.1672609 -0.08006813 0.001243472 0.2439557 -0.01908638 0.01042417 0.3867352 0.7055584 0.2040259 -0.4849257 -0.1950326 0.133832 -0.01391435 0.01618115 -0.008548098 -0.1026364 -0.01581383 0.07865984 0.9313665 -0.3427022 0.2712731 -0.1065506 -0.1136964 0.1478292 -0.1982665 0.2186293 -0.5838437 -0.8527841 0.07983981 -0.2339935 0.3278663 -0.03053304 -0.04876133 0.06412105 -0.05905198 0.1987142 -0.04587264 -0.09542084 -0.1252182 -0.0390627 -0.1238008 1.020503 -0.2501147 0.143322 0.07167418 -0.01689509 0.6550337 -0.2978396 0.3080574 0.1257585 -0.09217171 -0.1214085 0.1925127 -0.3882785 -0.139311 0.2145838 0.1645753 0.238707 -0.07524202 -0.1962817 -0.3166072 -0.4492176 -0.1515019 1.403494 0.4382691 0.1511488 -0.3241421 -0.7324115 -0.08244152 0.03970832 -0.07844459 0.2691538 -0.05941331 0.1458938 -0.2233056 -0.04163983 0.2207597 -0.03771044 0.02157397 0.01593459 0.03670828 -0.04266768 -0.06831651 -0.9043167 -0.2002044 -0.2960192 0.1642992 0.3229215 0.1248748 0.547677 0.1013812 -0.06055057 -0.05797664 -0.1501758 0.08918 0.5327156 0.7600567 0.09572905 -0.1981504 0.2983737 -0.5745112 -1.114543 0.1747752 -0.09806961 -0.3668789 -0.02612772 -0.2306327 0.1340243 0.1112497 -0.3716615 -0.004901707 0.04570526 -0.1140509 -0.1994153 -0.2098121 -0.1702798 0.1121867 1.50287 -0.7246485 0.1828392 0.1017271 0.2733677 -0.2275698 -0.01923965 -0.2183259 -0.2071673 -0.5408747 0.09714287 -0.3735576 -0.1065846 -0.05309328 -0.08260898 0.003733882 -0.1197021 -0.1964195 0.7162668 -0.2505199 0.009049519 0.07404415 -0.1346493 -0.2958329 0.294002 -0.02666526 0.2824334 0.1140114 -0.1464026 -0.403539 0.04265139 0.2133684 -0.3362447 0.9697026 0.5200041 0.1041582 -0.1873966 -0.1752214 -0.2074744 0.3702078 -0.3539394 0.105829 -0.13491 -0.147945 0.2842157 
  0.8489007 0.3820647 0.1911748 -0.2580203 -0.01437515 -0.2341628 -0.2358845 -0.7742421 -0.004517702 0.03820732 0.002752445 -0.8042382 -0.3634558 0.7422134 -0.3544822 -0.1957324 0.2398312 -0.4502931 0.6050342 -0.2426063 -0.8201885 0.03835333 -0.1851934 0.07614831 -0.0283382 0.07660645 0.09352296 0.2477754 0.017815 -0.3656854 0.04777883 0.07281041 -0.1971765 0.4258374 0.06412223 -0.1825386 0.2124344 0.925703 0.1010654 0.0527273 0.01978963 -0.02551967 -0.04818009 0.3840359 -0.3995186 -0.4996904 0.3983763 -0.486836 0.6831706 -0.3238065 -0.5458931 0.6594237 -0.001444836 0.1880116 -0.07955386 -0.5813264 0.1951177 -0.3355347 -0.3049751 -0.2397539 -0.1140935 -0.3721907 0.3455405 0.2044129 -0.3110023 -0.2277229 -0.01823138 0.2824205 0.247704 -0.3754682 0.04714767 0.3965672 -0.3533627 -0.511053 0.2086284 -0.08222955 0.1076189 0.02505009 0.247165 -0.1865338 -0.3252309 -0.1327259 -0.00163099 -0.3524386 0.2222507 -0.1702604 -0.2740515 0.06889833 -0.1611593 -0.07526615 0.1298595 -0.3074439 -0.2273068 -0.2927672 -0.2414968 -0.1068437 0.5783459 -0.0007315701 0.08179147 -0.1333178 -0.2363585 1.069585 -0.1785503 -0.1169328 -0.09893794 -0.28058 -0.0989486 0.1676868 0.07994126 -0.1698526 0.3718578 0.175473 1.736453 0.06972584 -0.320839 0.1591097 -0.3172078 -0.3267609 0.04617144 -0.4200143 0.2626008 -0.09365879 0.3964408 0.278945 0.3642208 -0.4250649 0.2625189 0.3334052 0.1287636 0.9785691 -0.04537066 -0.02694155 0.06804495 -0.3514003 -0.335769 -0.1736516 1.824716 0.2624506 -0.0494528 0.06041357 0.4057876 -0.1462278 -0.228038 0.6470997 0.03646789 -0.3400514 0.2043268 -0.5911833 0.5275579 0.1273501 0.01555356 -0.3724463 0.05038417 -0.1596509 -0.3865868 -0.1519553 -0.5667737 -0.02240929 -0.2220372 -0.1989707 0.0238886 0.09487588 -0.2535092 -0.2779207 -0.05913366 -0.3309248 -0.495338 0.1465915 -0.05769157 0.3784748 -0.2115138 -0.223327 -0.1408775 0.01030766 -0.203916 -0.3468237 0.3380005 -0.548603 -0.3113518 0.01222247 0.06538582 -0.1499649 -0.09208754 -0.3484123 0.1853893 -0.04648617 1.369424 -0.07657949 -0.1323489 -0.0389168 -0.4005706 0.2590104 -0.1984111 -0.1631618 0.265422 0.0870964 -0.04087395 0.2157229 -0.4821468 -0.3058314 -0.006906117 -0.04869533 0.1426871 -0.07291901 -0.2384674 -0.1332803 0.05500397 0.008893504 0.2382341 -0.6361632 0.3275593 -0.410428 -0.4358351 0.2003123 -0.04650914 0.0118757 -0.1761572 0.09941737 0.5583263 -0.07882828 0.6008765 -0.1719072 0.07621722 0.04940647 0.1115441 0.1132891 0.004447912 0.5098401 -0.4379362 -0.3364359 0.9162496 -0.1223323 -0.1340415 -0.3226088 -0.2418817 -0.4413873 -0.5908159 -0.2577341 0.2261871 0.238479 0.00865665 0.1305764 0.1350715 0.04284498 0.178289 -0.2019842 0.003039296 -0.2447012 -0.6357943 -0.1875967 -0.05500298 -0.06746361 0.1393817 -0.4288035 -0.07462028 0.03678057 
  -0.01608521 0.2914178 -0.1941615 0.09321593 0.1274765 0.2644413 -0.251308 0.4818083 -0.008426388 0.2540226 -0.1213123 0.3649284 -0.5799774 0.09984676 0.290291 0.1139648 -0.2300349 -0.163379 -0.002168814 -0.22799 -0.003328603 0.0001003211 0.1094785 -0.0459551 0.2539596 -0.2341084 -0.001599229 -0.005622416 0.3907699 -0.08405767 0.1049086 -0.5032709 -0.1628521 -0.1038584 -0.1485523 -0.2644781 -0.6041946 -0.06031777 -0.1711364 -0.07272028 -0.2303931 0.1529117 0.3034651 -0.3000659 -0.01574265 -0.127221 -0.2075704 0.0114103 -0.4196418 -0.2984252 -0.04991379 -0.3471131 -0.02101831 -0.1803551 -0.1716297 0.05891624 -0.3902852 -0.2381779 -0.1590302 0.1851756 -0.1276586 -0.03624743 0.2548252 -0.08038623 -0.04004351 -0.2152252 -0.1715972 0.1460952 -0.1250012 0.5283176 -0.05437827 0.08039032 -0.4655109 0.1997682 -0.6543596 -0.05617922 -0.3874813 -0.2578765 -0.3331071 0.03563995 -0.1226551 0.3440467 0.06889746 -0.2306117 -0.4989843 -0.007420704 -0.09095574 -0.1626442 -0.2841118 0.1805346 -0.06873862 0.1810324 0.1260601 -0.4272493 0.00489558 -0.3660944 0.4106486 -0.2601322 -0.03111406 0.1866316 -0.3756253 -0.2661284 0.2131767 -0.1558363 0.05184672 0.04021392 0.1440251 -0.02986193 -0.1860841 -0.08896642 0.08743727 -0.04034353 -0.3309034 -0.1671122 -0.2009965 -0.265367 0.1117311 -0.1089441 1.116373 -0.3285191 0.1387248 0.07493608 -0.2021479 -0.5144737 -0.2021907 -0.250663 0.002318724 -0.1300365 -0.05550678 -0.1918909 -0.06067674 -0.02118191 0.0641145 -0.1309329 0.3613562 0.04892964 0.0822676 0.2174295 -0.1091575 -0.1317618 0.3064289 0.2799126 -0.1198415 -0.4071211 -0.1098639 -0.02669865 -0.0667146 -0.1198109 0.06430507 0.268093 -0.330837 0.04998871 0.1473208 0.1705977 -0.2673136 -0.4673096 -0.2868094 0.06314732 0.1474639 -0.1823667 0.1303282 -0.03806961 0.2232144 0.08401383 -0.06382951 -0.277689 -0.251237 0.1449982 -0.05638437 -0.1277037 -0.3188094 0.09845722 -0.03472501 -0.0222628 -0.2906601 -0.1654812 -0.351124 0.1523932 -0.15254 0.2437482 0.3123822 -0.1290736 0.1843503 0.2256697 -0.113301 0.0685339 -0.1387663 0.08112212 -0.67373 0.1918582 0.05911778 -0.02588597 -0.1021429 -0.01697999 0.5662558 0.003675321 0.05212608 -0.2991601 0.1427198 0.2980011 -0.1169735 0.03288116 -0.2205007 0.2376422 -0.2195933 -0.1788391 -0.2342977 -0.0956555 -0.2800536 0.5201846 -0.04330863 0.4128134 -0.1926644 0.07406878 -0.1603449 0.2853098 -0.1436425 0.01661849 -0.1928306 -0.07802384 -0.1548751 -0.1733794 0.6997866 -0.2138994 -0.153952 -0.2013473 0.139716 0.2063602 -0.3017098 -0.002778403 -0.08288205 -0.1893282 -0.2100825 -0.162949 -0.1435212 -0.107019 -0.04859571 -0.3779738 -0.02573575 -0.4823382 -0.1473247 0.4000278 -0.01405057 -0.4339864 0.5362948 -0.1098198 0.0913679 -0.2023882 -0.2861711 -0.121083 0.2154952 -0.186616 -0.227738 0.04075962 -0.2328745 -0.4626361 
  -0.03604714 0.2228505 -0.117657 0.07136551 -0.01613143 -0.1147147 0.3596284 0.07983208 -0.2887644 0.5919452 0.3847349 0.2542533 0.2883647 -0.1706041 -0.3678119 -0.5643682 -0.8254839 0.006624144 0.006361598 -0.3956133 0.1570877 0.00844084 -0.2526662 0.2259436 0.004470404 -0.120448 -0.2503641 0.2084331 -0.1141746 -0.3341717 -0.2998779 -0.07435883 -0.3113906 -0.1348004 0.1094837 -0.8328495 -0.4839523 -0.05951798 -0.58987 0.2326618 -0.1665844 -0.4932241 -0.03772029 0.05515991 0.3300986 0.05320263 -0.2853423 0.1858206 -0.1107591 0.2708966 0.6943102 0.4249992 0.3399315 0.08804117 0.04276124 -0.1595998 0.1552425 -0.2290809 -0.07089313 -0.2114465 -0.08836547 -0.3560877 -0.05255883 -0.03818009 0.1513354 -0.1389351 0.002447783 -0.1758072 -0.3604156 -0.2747508 -0.1420544 0.02510589 0.1434405 -0.2377804 -0.9056221 0.04662367 -0.3414765 0.1521723 -0.6492463 0.3859632 0.03620148 -0.08004145 0.07370961 -0.3749271 -0.06435934 0.1561497 0.03810258 -0.3976708 0.1809738 -0.4008 -0.5505168 0.1328723 -0.322681 -0.008342979 0.1402081 -0.1023212 -0.1194108 0.06383129 0.05699757 -0.005896101 -0.2078109 0.2218949 0.1617506 -0.3486183 -0.4878259 0.08472514 0.03302048 -0.3101671 0.1145669 0.2928791 0.02039024 1.275726 0.1915982 -0.2641923 0.05260156 -0.1660346 0.07263475 0.4661665 0.007936291 0.02209197 0.02590268 0.1839984 0.008690258 0.2072203 -0.4425275 0.4104536 0.08531697 -0.5137414 -0.1132487 0.1832156 0.4854298 0.9481016 -0.1769608 -0.2511384 -0.1754995 -0.01476919 0.06978472 -0.710228 0.4624166 -0.03620102 0.0908909 0.1698257 -0.3039465 -0.2530628 -0.111933 0.08078894 1.131373 0.04542661 -0.298073 -0.1293117 0.1702658 0.1688686 0.1105148 -0.02049123 -0.03634873 0.451342 -0.2255392 0.1030969 -0.2155261 -0.2712778 0.3150897 -0.1188878 -0.1270028 -0.2350427 -0.1897123 0.1376187 0.02715402 -0.07041538 -0.01720198 -0.2429946 0.0534632 -0.502975 0.06792134 -0.03539571 -0.3498682 -0.1211562 0.0567601 0.3658059 -0.3222299 0.005528677 -0.190612 -0.1813795 0.3219599 -0.3991378 0.002382251 0.1352623 -0.1284251 -0.1435466 -0.2864692 -0.491734 -0.1282769 -0.1141581 -0.1481763 0.2270374 0.4243834 0.1766901 0.1402977 -0.1739256 -0.07528076 -0.3807591 0.1714673 -0.3237278 0.9672006 -0.2097044 0.1503244 0.04740676 0.09153116 0.06765954 0.2287751 -0.7628589 -0.3977801 -0.2075997 0.102145 -0.02742054 0.04833672 -0.1580986 0.6382661 -0.284706 0.1777532 0.1518415 0.1301887 0.2965352 0.2894336 0.1685621 0.4048047 -0.1765396 0.03935064 0.540718 0.1779524 -0.2234878 -0.02742131 -0.1718289 0.4992461 0.2066189 -0.3715906 -0.1915121 -0.08660529 -0.2713589 0.04958377 0.2955651 0.03875467 0.1303606 0.5025032 -0.07251194 0.03432739 -0.4305147 0.09942964 -0.3748616 0.2959519 -0.0586361 0.07534521 -0.03356389 -0.0315834 0.1855406 0.03749597 -0.007203359 
  0.3794329 -0.1132213 0.142087 -0.1216734 0.005535811 -0.1603529 -0.03799701 0.4614063 -0.1462844 -0.1831982 -0.04353617 -0.01926521 -0.2614774 -0.2500943 0.2906968 -0.2397733 -0.2235901 0.4938367 -0.7919578 0.08224796 0.2451655 -0.2013822 -0.1422278 -0.3230952 0.02897714 -0.07888835 -0.2408704 0.1386436 -0.001233766 -0.02468941 0.1939373 -0.06446705 0.2821338 -0.1146292 0.01818136 0.104608 0.3692233 -0.06837633 0.0223834 -0.05552326 -0.1540648 0.1815168 0.09013682 -0.2218166 -0.07643598 -0.1334457 -0.04829234 -0.01391964 0.1361673 -0.01336977 -0.4345266 0.01611653 -0.1466032 -0.06753627 0.17874 -0.07442524 0.1489169 0.1670862 0.01627286 0.2878049 -0.2619251 0.03681181 -0.1633267 -0.2495552 -0.5787406 0.2186341 -0.4479658 -0.5486141 -0.06759065 -0.2399333 -0.08570206 -0.2470914 0.2467486 0.3329207 -0.2149143 0.0904521 -0.08718302 -0.4029396 -0.217055 -0.1813122 -0.151599 -0.1210193 -0.07730102 0.08776248 0.2274957 0.1722874 -0.2642166 -0.02602275 -0.03721968 -0.1254159 0.1345699 0.2229724 -0.09332737 0.01427624 -0.1289378 1.383555e-05 -0.09169167 -0.3462209 -0.4824738 0.08669972 -0.02384786 -0.368221 0.2644048 0.2157985 -0.2257044 0.03279113 -0.04187411 -0.04822668 -0.07700122 0.09782936 0.05892663 -0.3070722 -0.3091971 -0.09328946 0.01545535 0.1382626 0.4009341 -0.3991674 0.02877816 -0.0699565 0.09015831 -0.2241552 -0.02965426 -0.06266139 -0.03759873 0.1776365 0.03072058 -0.538284 0.02774902 0.01147744 -0.1475832 -0.2302982 -0.2155334 0.2598644 0.2853221 -0.02076504 0.4759009 -0.1559935 0.0166959 0.6168831 0.7598686 -0.3628757 -0.3400542 0.09504791 -0.4353294 0.5881988 -0.07931316 0.2132552 0.08950541 -0.332463 -0.1497957 -0.08252282 -0.3105207 0.1134831 -0.5446005 -0.3930276 -0.2362211 0.08444282 0.2413286 -0.06713811 0.3093525 0.2050005 0.1258192 -0.06762264 -0.07049836 -0.584789 0.0001871597 -0.127704 -0.1958076 0.006200173 0.00548151 -0.0122784 -0.05130653 0.06388891 0.1377975 -0.03056594 0.1533338 -0.4594894 -0.01026093 -0.1476281 -0.5809067 0.1546438 0.09319633 -0.05565532 -0.1746161 -0.1882631 -0.2370812 0.001186443 0.05049562 -0.1943489 -0.1292339 -0.1376058 -0.1710179 -0.1501664 0.04307176 -0.1273768 -0.104307 0.04609192 -0.6285485 0.1328124 -0.2362181 -0.1783895 -0.2679517 0.08676029 0.06481696 0.2897039 -0.1792511 -0.09491018 -0.1676551 -0.4378455 -0.1046709 -0.04359973 -0.1100833 0.01475497 -0.1632381 -0.183862 -0.2918149 -0.1990411 -0.2382055 -0.1919363 -0.1608247 0.1739236 -0.05573244 0.2103432 -0.1552843 -0.01813451 0.5825143 0.02242889 0.03375868 -0.2180615 -0.129795 0.0007549743 0.4649134 -0.03414684 -0.001112776 0.8828806 0.1909667 0.1272801 0.016433 -0.01344233 0.2102903 0.00581032 0.07342632 -0.1097206 0.1381253 -0.1168173 0.2128176 -0.1886378 0.6152954 -0.07199791 0.2786267 -0.2793413 -0.2392464 -0.1055764 -0.05475032 -0.2577494 
  -0.3338086 -0.213954 -0.1080928 0.05986879 -0.3606702 0.1170675 -0.1203157 -0.1249931 -0.1004001 -0.0002922211 -0.236542 -0.4788112 0.1976332 0.1493527 -0.3615635 0.1040149 0.2124829 0.2162476 0.06454512 -0.267189 0.04982439 -0.2581896 0.0390818 -0.3419655 -0.09728908 -0.2536718 -0.04376603 0.008722923 -0.1160857 0.1137369 -0.01985441 -0.6330209 -0.1504327 -0.2061355 0.3335538 -0.467282 -0.349063 -0.3723694 0.3721562 -0.06949387 -0.1781901 0.3906711 0.002537908 0.2232996 0.09210122 0.1182806 0.127768 -0.3455627 0.1164686 -0.3241879 -0.06798985 0.1216214 -0.2789161 0.2784712 0.3616002 0.266888 0.1012865 0.3498834 -0.1612271 0.4761184 0.4540381 -0.1116633 0.253449 0.09245811 0.3621241 -0.2974411 0.1076128 -0.016298 -0.06458761 -0.0400793 0.3622675 -0.1272679 0.3822991 0.1735406 0.2834214 -0.2242946 0.3805962 -0.2003958 0.01240249 0.2644939 0.4413993 -0.3136112 0.03394195 0.4398944 -0.06882073 -0.1727722 0.06061703 -0.1048226 -0.4810753 -0.1040749 -0.1503423 -0.6808514 0.0673249 0.2132145 -0.03253743 0.2933444 -0.5880175 -0.01905387 -0.04457308 -0.03591891 -0.5579621 -0.09669387 -0.6690512 -0.4776355 0.4516342 -0.01100278 -0.06191519 -0.3206899 0.0646239 -0.4045361 -0.08900308 -0.1356873 -0.1920166 -0.1579647 -0.07389066 0.4991974 -0.09052179 0.3478689 0.1301222 0.0894089 -0.03096655 -0.1234951 -0.08596431 -0.0310899 -0.07389834 -0.2167663 -0.3364385 -0.04337228 -0.5202422 0.3117306 0.05421249 -0.07342429 -0.4758317 0.2176394 0.03558599 0.0780497 0.1064137 -0.4784517 0.136374 -0.1791911 -0.3048638 -0.3936401 -0.4662525 0.1047128 0.183428 -0.07635386 -0.5227054 0.1513072 0.2697237 -0.1225729 0.1588403 0.07884696 0.04320002 -0.1368896 -0.02205318 -0.1652283 0.9005985 -0.3370608 0.39456 -0.005180534 -0.2644638 -0.3031191 0.2497864 -0.2630109 -0.09998509 -0.2491973 -0.0240827 -0.1881987 0.1025934 0.2083429 0.2304855 0.2897128 -0.1730428 0.003321105 0.02716746 -0.1654633 0.1739436 -0.1847298 -0.02249664 0.4956487 0.1095275 -0.09491526 -0.1819944 0.1208047 1.190792 -0.09737969 -0.2067842 -0.1038593 -0.07827414 0.1092674 0.4111674 0.1882713 0.07709158 0.6449373 0.1555392 0.1142436 0.1382315 -0.1217446 0.2138174 0.4206048 0.09906841 -0.05167696 -0.3775693 0.2598222 0.1518195 0.2682256 -0.1070296 -0.07654483 0.01686721 0.1964525 0.07204048 -0.06873479 0.1023796 0.2467357 0.07964991 -0.3581775 0.8765955 -0.2409724 -0.07770542 -0.1380845 0.2469007 -0.282391 -0.03976385 0.02953619 0.2755846 -0.01982065 0.06879618 -0.08493262 0.3363893 0.2401041 0.2098697 -0.05793666 -0.1012958 -0.3902619 -0.3198639 0.09644524 -0.5611541 0.07740952 0.09918579 0.2777816 -0.3739606 -0.2588066 0.1783015 0.1997919 -0.0829661 -0.2944463 -0.07569858 0.1134108 -0.07385987 -0.01263191 0.03372409 -0.3114 0.4822567 0.2267131 0.1378396 0.008107574 
  -0.02456904 -0.1825377 -0.07978172 -0.00228733 0.4493964 -0.06753612 0.1098139 -0.4822189 -0.5134645 0.01471514 -0.3494284 -0.295598 0.1716665 -0.1075602 -0.3179938 0.0364381 -0.02016079 0.08127493 -0.2535654 0.05570048 -0.1695335 0.1199754 -0.1438871 -0.09742156 0.007446583 0.02852024 -0.004936702 -0.1040863 0.1317566 0.09888666 -0.06004101 0.04125418 -0.03806549 -0.1652021 0.3709717 0.2157013 0.241997 0.03109763 -0.1429233 -0.02023644 -0.1869154 -0.2659416 0.06667618 0.04067533 0.2381265 -0.03284723 0.06781517 -0.3034632 0.1152492 -0.07683639 -0.1953263 0.05010509 0.9802908 -0.1804516 0.3502209 0.01367084 0.09373107 -0.08804451 -0.1863212 0.05658311 0.2308107 -0.1021739 -0.2086844 -0.09150243 0.0501718 0.2417749 0.3485409 -0.04436343 -0.003547608 -0.09096227 0.06029222 0.07374483 0.3191428 -0.1409391 0.08401788 0.08185069 0.04487995 -0.1449313 0.009335448 0.005649523 0.05696773 0.3420538 -0.02175008 -0.4692749 0.4276846 -0.07022741 -0.2303092 -0.2120025 0.07378919 0.1434521 -0.1035841 0.1691372 0.1103267 0.0003479903 0.02322326 0.01095974 0.06132565 0.1576016 -0.01349449 0.08476724 0.1658632 0.1411768 -0.06754862 0.06847033 -0.01978059 0.1016211 0.0977168 1.261636 -0.004780312 -0.3247169 -0.02600024 0.1093462 0.03494913 0.01521353 0.03775828 -0.006327577 -0.0103564 -0.05194491 0.1807303 -0.1211763 -0.0723963 0.005285301 0.1849107 -0.06325373 0.0746943 -0.04176624 -0.2823782 0.309128 -0.4045298 0.3459927 -0.03288329 -0.003703257 0.09258599 0.008639192 0.1327616 0.1225453 0.06961347 -0.004208602 -0.3245971 0.1391155 0.04897211 0.4206761 -0.05701749 -0.07454617 -0.1532051 -0.2243037 -0.2253762 -0.001806998 -0.01248944 0.03013723 0.1062011 -0.401032 0.02016315 0.1050789 -0.1622346 0.05961187 -0.1070215 -0.1289742 -0.4486602 -0.08123305 -0.004265286 -0.1962654 -0.01697653 -0.08861502 0.181434 0.09642446 -0.04847991 0.02333966 0.151123 0.2349595 0.1153269 0.03103833 -0.278516 -0.0939006 -0.02514891 -0.07832761 0.4088135 0.01082281 -0.07437875 0.13264 -0.2298746 -0.1088429 0.1006831 -0.274217 -0.7115364 0.03409921 -0.01761439 -0.02600855 -0.498997 -0.1187958 0.1106993 -0.1197409 -0.1850285 -0.1495107 -0.05600099 0.09975579 0.002356058 0.1614366 0.06847534 -0.03425299 -0.09272578 -0.06393319 -0.2706307 -0.1164449 0.1567234 0.2407683 0.02707218 0.0679353 0.08744053 0.006295481 -0.03951957 -0.1399001 0.06329296 -0.0331617 -0.2918111 -0.1060505 -0.4680815 0.08148285 -0.1515675 -0.1267353 -0.02467798 -0.1447094 -0.1128607 -0.01492356 0.1057059 -0.1106697 -0.2406052 -0.1023013 -0.1143566 -0.1222342 -0.2397582 0.05375772 -0.5733929 0.2809784 -0.1365902 0.1251054 0.08557248 -0.05653345 -0.1040145 0.1395842 -0.03108508 -0.4205719 0.4030115 0.06141404 -0.008003329 -0.1012035 -0.1416871 0.0316162 -0.1784645 -0.002979923 -0.2118016 -0.4140378 0.09633643 -0.1119596 -0.01823528 -0.05137377 
  -0.1034366 0.2314251 -0.2041261 -0.05054326 -0.02150296 -0.2329281 0.1297514 0.08561926 0.4272984 -0.04021765 -0.07132875 0.04621288 0.1190186 -0.9916165 -0.2179861 -0.3939743 -0.03482853 -0.1437981 0.1145995 -0.01511077 -0.2852494 -0.1560325 -0.1287665 -0.123992 -0.7608624 -0.2065961 0.002170042 0.08387411 -0.004604461 -0.3749245 -0.3585484 -0.2164974 0.06913779 -0.08175468 0.1937436 -0.2280081 -0.128046 -0.04847277 -0.007440905 -0.03935489 -0.4083083 0.7622387 0.0800953 0.4370878 0.0574317 -0.0008555641 0.2063778 -0.1455377 -0.126177 0.04530688 -0.08983708 0.05167459 0.2725343 0.03595809 0.01013278 -0.104329 0.1946799 0.09603084 -0.04782087 -0.1210203 0.06853631 0.1854065 -0.02665319 -0.1751041 0.2229598 0.1266487 0.02908524 -0.2640156 0.1769575 0.2057923 0.04389055 -0.00341588 0.1539403 0.1896203 0.07856156 -0.04162929 -0.01651517 0.3645378 -0.4022499 -0.1477842 -0.3751441 0.04962111 -0.1313806 0.1547754 0.1320721 -0.1232902 0.07462382 -0.01073155 -0.1985858 0.1023574 0.1131752 -0.2227428 0.3224191 0.1121297 -0.2276628 -0.142901 -0.05922611 -0.01919499 -0.05573294 -0.1109344 -0.2604635 -0.05770816 0.04109394 -0.3694881 -0.1244465 -0.07284557 -0.004117219 0.1649723 0.003434552 0.0622614 -0.05241127 -0.1491063 -0.4082784 0.0121555 0.04934156 0.1232937 -0.1771918 -0.03333332 -0.1132173 -0.03864215 0.09685533 0.1217434 0.09332958 0.05161759 -0.1096541 -0.05914375 -0.01217563 0.5047976 0.05430412 0.0280231 -0.06842388 1.253227 0.2265149 -0.05646685 -0.008252933 -0.09533012 -0.1410754 -0.02469473 -0.08425649 -0.03086079 0.02774143 -0.1052346 -0.01405441 -0.401099 -0.6193694 0.1611094 -0.2692564 0.1657974 -0.1572676 -0.1095812 -0.05449076 0.1471635 -0.1266372 -0.133164 -0.03424675 -0.1747067 0.2473086 -0.1607547 -0.1529072 -0.04777649 0.00945412 -0.2134318 0.01586131 0.1151599 0.1233974 0.06585171 0.2732008 -0.0004779019 1.083085 0.3811814 -0.01887288 -0.1248528 -0.04130062 -0.06256528 -0.1284307 -0.1044956 -0.06672621 -0.2030958 -0.01531185 -0.05554754 0.154994 -0.08325667 0.165322 0.001535038 -0.105966 -0.4720025 -0.1312816 -0.02152198 0.1399154 0.2386759 -0.0471869 -0.01845195 -0.0031476 -0.02303464 0.2451859 0.0751408 -0.1069109 -0.1354411 0.1971836 0.2124365 -0.3816625 0.1166102 -0.5618765 -0.01709097 -0.0831622 0.05315515 -0.01166156 -0.03408322 0.09619027 -0.1866824 -0.08127808 0.1474731 -0.07608768 -0.01391592 -0.1317369 -0.1509715 -0.1610691 -0.115048 0.2186697 -0.05870824 0.09990045 0.01316379 0.1116299 0.02819473 0.008649561 0.03297391 -0.005211381 0.01776968 -0.01099044 -0.03114028 -0.2715797 -0.2426823 -0.5027202 0.1615929 0.06341647 -0.3893908 0.2426565 -0.07340235 -0.2803051 -0.04197034 -0.09746242 -0.1742267 0.1655354 0.04406785 -0.1069963 -0.2145268 0.02868739 0.03239777 0.3665715 -0.1187947 0.2129129 -0.09446363 -0.0578392 -0.07062049 0.134677 0.04081116 
  -0.1500584 0.0921545 -0.0501228 -0.01739053 -0.04649899 0.01796384 0.498239 -0.1674042 -0.1418185 0.05995862 0.2243421 0.2697683 0.3823734 0.2473059 -0.2872294 -0.07691358 0.2638311 0.1480962 -0.2628834 -0.08399145 -0.1802064 0.1804965 0.1408016 0.07955244 0.08163872 0.01176596 -0.05958067 -0.2581736 0.03895405 -0.1496649 0.1395563 0.1990054 0.0131999 0.07057816 0.1353166 0.0932437 0.03192798 0.2601781 0.4132311 -0.1644045 0.2787981 -0.05419382 0.02614241 -0.177572 -0.3503306 -0.2733175 -0.253314 0.007244113 0.03615294 0.2313745 -0.1612977 -0.01948349 0.07686664 -0.3473241 0.1979379 -0.09711567 -0.04878399 0.1652166 0.06075443 0.2177188 -0.07809315 -0.03168694 -0.09715132 -0.003473351 0.286472 0.02457385 0.1382083 -0.1721609 -0.1427105 -0.06930418 -0.04352166 -0.01846901 0.4039178 -0.1248133 -0.1604265 0.08647834 0.04093114 0.1075552 -0.1158098 -0.01317402 -0.04572942 -0.07454699 0.138807 0.2346995 0.2498601 -0.101064 -0.4125646 0.1296062 0.2027501 -0.2655669 0.3913698 0.2249834 -0.223761 0.2840899 -0.2306886 0.1503297 -0.04778787 -0.02988299 -0.2892619 0.003788213 -0.1183299 -0.2353195 0.04236318 -0.3928618 0.1090791 -0.1393295 -0.07767345 0.03134914 0.2210723 0.2674074 0.2395246 -0.1103968 0.01013588 0.04458435 -0.2070401 -0.01988076 0.06350183 0.1004165 0.1065473 -0.2111732 -0.1550153 -0.1291444 -0.147312 0.1121438 0.1690881 0.1409266 0.0006890332 -0.06905141 0.03304655 -0.3737563 -0.1436156 -0.1180376 -0.09783576 -0.01903385 -0.03960572 -0.1441867 0.03513255 0.1430856 0.02100794 0.12111 -0.2907439 -0.4553493 0.06702511 -0.2021769 0.3254904 0.05584495 0.3574494 0.01032064 -0.05932702 -0.2682658 -0.1657831 0.57818 0.4385255 -0.3638734 0.0007509214 -0.02389281 -0.02966819 -0.142664 0.06952039 0.1183135 0.01835254 -0.7253345 0.006058577 -0.3309584 0.1383836 -0.08608244 0.0965621 0.03916394 -0.1936967 0.3607903 -0.2422586 0.1856994 0.06039971 -0.07242785 0.3280768 0.02830079 0.3003445 -0.07135853 0.31207 -0.1389034 -0.08763749 -0.2386331 -0.09860115 0.05583036 0.22831 -0.009064759 -0.05745035 -0.5252652 0.1757804 -0.1954744 0.01830181 -0.2359838 0.1274401 0.1973888 0.09762403 -0.08050136 -0.2979622 -0.1377796 0.08088065 -0.1301992 -0.256022 -0.05579994 0.1989392 -0.2406234 0.1775943 -0.05726689 -0.05971498 -0.01585709 -0.05100019 -0.007622892 0.2220831 -0.2769309 0.2760052 0.07617136 -0.05779761 -0.06094681 0.1947929 -0.128712 0.3540622 -0.04511883 -0.2053213 -0.1095237 0.121338 -0.1627467 -0.2672833 0.006516928 -0.2571551 0.4595138 0.01320735 -0.1412263 0.01227855 0.1006123 0.01154409 -0.3041014 -0.2343728 -0.358254 0.1345647 0.1641044 -0.2697655 -0.01832668 0.006107599 0.1229119 -0.05253484 0.1661456 0.0197299 -0.1705021 -0.100331 0.1466535 -0.1446072 -0.1259925 0.02449553 0.1817691 0.09716412 -0.1458492 0.03090888 -0.1666294 
  -0.1857251 -0.04298299 -0.1888897 -0.02729758 0.07874696 -0.0307224 -0.2103839 0.04294147 -0.08960702 -0.2722266 -0.02098412 -0.04488727 -0.1072645 -0.07525415 -0.0967579 0.2422736 0.2626371 -0.4195088 0.2550953 -0.5477952 0.2547836 0.2366363 -0.04044433 0.3543338 -0.07649934 0.3315563 0.6650707 0.0839793 0.2780872 -0.05938868 -0.1214724 -0.02941462 -0.1001762 0.3062737 0.2087349 0.03896236 -0.3409887 -0.4836505 0.09879396 -0.2669332 0.2508298 0.1212779 0.1029793 -0.1831031 -0.01832587 0.07305742 -0.1560844 -1.04618 -0.08370783 -0.1493485 -0.2369936 0.02884628 -0.0281539 0.09519798 -0.04697667 -0.09520476 -0.008601152 -0.09288401 0.1590113 -0.04086094 -0.08556372 0.05864048 -3.122076 0.0557249 -0.1022181 -0.1044275 -0.9548821 -0.007844543 0.4208634 -0.09267252 -0.2123322 -0.3397089 0.1953903 -0.2242815 -0.1531284 0.1811435 -0.2581504 -0.124086 -0.0887562 -0.04082822 -0.3639854 0.07036982 -0.04290497 -0.3931354 -0.4154896 -0.03304231 0.8207893 0.002703907 0.06373197 -0.4285795 0.03306377 -0.3567997 0.162322 -0.2461176 -0.1586148 0.5150973 -0.1470809 -0.5511521 -0.04924224 -0.5375563 -0.1251523 -0.08245602 0.1865063 -0.1201515 0.04154957 -0.2366101 0.3165372 0.133561 -0.1929016 -0.1496103 -0.1354834 -0.07019968 -0.02482187 -0.09661394 -0.08658944 -0.1688015 0.04223799 0.109736 -0.3646824 0.06570154 -0.5555087 -0.2120411 0.1343846 -0.1156194 -0.09056795 -0.425219 0.1914098 0.05266643 -0.1588752 -0.200362 0.1048711 -0.05059951 0.05668652 0.1194169 0.1612755 0.5889062 0.0296952 0.08986417 0.1069763 0.1462481 -0.464271 0.1085623 -0.1576772 0.165528 0.275499 -0.01434431 -0.03456714 0.1040295 -0.07855693 -0.03548363 -0.251419 -0.2045752 0.08324343 0.7516112 0.4499424 -0.1236187 0.2214599 -0.486879 -0.06010797 -0.4421526 -0.3253173 -0.07777741 -0.2089391 -0.01873903 0.1745859 -0.2441003 -0.0652711 0.09234034 0.02671039 -0.4178555 -0.2361859 -0.2892151 0.2349302 0.03043897 0.2890142 -0.4364453 0.008613823 -0.2168957 0.1091019 -0.1169621 -6.219326e-05 0.2162456 -0.053696 0.1652997 0.2267188 0.1655847 -0.3161431 -0.04717144 -0.01381572 0.1743477 0.1337175 -0.2225132 0.144463 0.00437367 0.1639528 -0.4464512 0.2679455 0.2581553 0.1949981 0.3387189 -0.07631133 -0.07799404 -0.1682787 -0.8748658 -0.2335206 0.08642552 0.03832537 -3.244051e-06 0.006677428 -0.1597446 -0.1780629 0.266795 0.1531201 -0.8019311 0.09142087 0.4327737 -0.02510192 -0.0004654583 -0.0581089 0.2958014 0.654056 -0.1003197 0.003497294 -0.1144872 -0.0588988 0.07126856 0.2663157 -0.2209822 -0.4502089 0.4869551 -0.05653103 -0.295651 0.2986151 -0.09056426 0.1254755 -0.3425531 -0.2981913 0.1244672 0.2067633 -0.08154357 0.1760266 -0.03107247 -0.2141342 -0.1359106 0.2234891 -0.0353566 -0.009577003 -0.4659245 -0.3197242 0.2693664 -0.0005800478 -0.07263009 -0.141853 0.1653354 0.10965 -0.2750892 
  0.1484905 -0.1203005 -0.01649165 -0.2579275 0.06388413 -0.1959304 -0.08512028 -0.05704407 0.008506378 -0.1410923 0.02849292 -0.1633673 0.2296135 -0.09992642 0.218619 -0.2501678 0.363073 0.1101338 -0.1879914 -0.318691 0.0523628 -0.01293495 0.0784105 -0.2168769 -0.02490992 -0.001005033 -0.3166048 -0.2334214 0.04724451 -0.08512186 0.06394339 0.5973069 -0.01624127 0.1554687 0.05886466 -0.253725 0.2107956 0.2591753 0.4824961 -0.1042604 0.3130557 0.02323205 0.1218504 -0.217328 0.1191357 0.005831378 0.1094099 -0.02122664 0.02019441 -0.2119546 -0.3501266 0.05017978 0.1041962 -0.1669389 0.2170687 -0.1755813 -0.1406131 -0.05233857 0.1153657 -0.4198279 -0.13433 0.2097403 0.03248604 -0.01550677 -0.272933 0.3627297 0.0560491 -0.0921895 -0.02026611 -0.1970681 -0.1242376 0.1437956 0.1395994 -0.03680955 -0.04749895 0.01757525 0.05859388 -0.1130901 -0.01308591 -0.2309752 0.04097636 0.06904381 -0.00665846 -0.0966151 0.1208739 0.03659124 0.0367582 0.2237866 0.2336479 -0.04160221 0.0101447 -0.08726177 0.1046562 -0.05296489 -0.1132247 -0.07093254 0.1311842 -0.1037581 -0.2279242 -0.185811 0.0384773 0.06110883 0.1294498 -0.06289253 0.02102214 -0.02596455 0.3872434 -0.1815761 -0.2025476 -0.05825761 0.3200119 -0.5313448 -0.3307208 0.2509091 -0.01931284 -0.215431 0.3786354 -0.04434229 0.2667364 0.0868892 0.2524948 -0.146073 0.01357484 0.2244817 0.3497051 0.07326839 -0.1800788 0.2250106 0.3237934 0.04942988 0.1579495 -0.2842955 -0.0814551 0.1135878 0.1232045 0.2490089 -0.1069043 -0.02882855 -0.453012 0.1009425 -0.1096743 0.1438362 0.06499211 -0.1388547 0.2324385 0.05014103 0.2018682 0.1152206 -0.08587836 0.03412509 -0.354983 -0.2194763 -0.05158162 0.0477768 -0.4391348 0.005440117 -0.1051917 -0.3961862 0.4822653 0.130907 0.163453 -0.0136302 0.1323394 -0.1218541 0.1700185 0.1666391 0.03322266 -0.1083284 -0.1515507 -0.1298839 -0.1994952 -0.1475559 -0.1743874 0.08025376 0.1069004 0.1532457 0.5466821 0.129258 0.1250334 -0.01072444 -0.002046174 0.5641817 -0.05893052 -0.5437986 -0.4770232 -0.2376059 -0.2986338 0.1019204 -0.2810325 -0.2481165 -0.000584635 -0.1664235 0.0182185 -0.2854831 -0.1259669 -0.08362536 0.09873468 -0.126463 -0.4878184 -0.6588126 0.2387118 0.06607292 0.1620898 -0.3015337 0.1748821 -0.1327402 -0.01749936 -0.0287874 -0.01599625 -0.08074351 0.3145263 -0.07347649 -0.05817382 0.2383891 -0.04508284 -0.2132858 -0.5884539 0.07879512 -0.1034069 -0.08652446 -0.1960338 0.3161825 0.06887268 0.05342193 -0.6102542 -0.08065382 0.1901371 0.02837709 0.03659832 -0.1980735 -0.09723335 -0.03077627 0.04537586 -0.3117243 0.01374704 -0.02410194 0.08905016 -0.09302187 -0.05000238 0.3334035 -0.08716276 0.07953195 0.3170663 -0.1991738 -0.229872 -0.3202778 -0.4009462 -0.3754109 -0.1907734 0.01131896 0.201922 -0.01083568 -0.09532454 0.01226433 0.5038325 0.1293769 
  0.1927774 0.168716 -0.04949564 -0.2675941 0.01925074 0.02509491 0.001851186 0.1513221 0.1511693 0.06990278 0.1821631 0.03261517 0.01992581 0.130073 0.1256488 0.03675713 0.02668828 0.1645887 0.1438225 0.01244477 0.1266039 0.08813519 0.0002849093 0.1292673 0.1002049 0.05024169 -0.1251374 -0.02351722 0.0390799 0.06201765 -0.2667712 -0.02703679 0.07545363 0.2151969 -0.8067608 0.04360437 -0.03294263 -0.03629491 0.1049872 0.02880562 -0.07770284 0.008414761 0.003561562 0.0554047 0.08532158 0.001251843 0.09454236 0.04059568 0.08899138 -0.04639916 -0.319656 -0.2145146 -0.0881903 -0.06875785 0.06457466 0.07647227 0.1171494 -0.09946533 0.1053622 0.1577716 0.03614232 0.02902844 0.02217741 0.06972133 0.03850594 -0.04857672 -0.1717999 0.131268 0.1160312 -0.09101586 0.01923264 -0.01452877 0.1386823 0.2074355 0.2763806 -0.07871488 0.008304527 0.0443316 0.04486021 0.02325102 -0.06452194 0.01923122 0.0584976 0.129956 0.1903517 -0.041378 -0.09854873 0.01185137 -0.1491961 -0.2839573 0.08940641 0.02438035 0.02077612 0.01120566 -0.06040362 -0.0567789 0.007657757 -0.1471244 -0.1171081 0.007348991 -0.005336324 0.2007721 0.06756534 -0.1429242 0.05891747 0.151584 0.08300696 0.09832687 -0.002781717 0.004915716 0.4671233 -0.04043029 -0.1043203 0.1666902 0.05295734 0.03030614 0.1869175 -0.06360132 0.0761182 -0.02237539 0.2297763 0.02266094 0.02189941 -0.4034708 0.03723701 -0.09918503 -0.01260414 -0.02145098 0.07912619 -0.3218685 -0.02767914 0.05952247 0.04163664 0.01497659 0.2330677 0.2492551 -0.0166023 0.11551 0.0574864 0.09531793 -0.1561062 0.01936516 -0.1254409 -0.1101801 0.04954384 -0.01214114 -0.006726075 0.4823429 0.1334017 0.07201429 0.1118466 -0.0288986 -0.07150858 0.04237637 0.2118967 0.06054194 -0.07730547 -0.04396322 0.00544201 0.1149635 0.02950318 0.1528026 0.1553371 0.09621671 -0.05761832 0.6578307 -0.5090562 -0.00350514 0.0233975 0.01320047 0.1236286 0.07785741 0.0430793 0.02733027 0.09467027 0.03653173 -0.04578229 -0.5706235 0.1421805 0.08094688 0.04899932 0.005315089 0.06372316 -0.04222913 0.08014427 -0.02626427 -0.0572823 0.07766001 0.1085891 0.04566706 0.01665953 0.1562039 0.1607808 0.05344789 -0.2864964 0.07873588 0.0156024 0.1010806 0.1586332 -0.3060388 0.02435265 0.1404661 0.05576424 -0.03805037 -0.03662155 -0.1138802 0.07045624 0.01989446 0.4951024 -0.007598133 -0.06975234 0.1151317 0.3400603 -0.08207766 -0.1593713 -0.04411811 -0.07295443 0.04373416 0.1235653 0.1292721 -0.1023596 0.1101386 0.06812416 0.07255761 -0.03782659 0.1096275 -0.06155433 -0.02198552 -0.01040526 -0.2213055 -0.03958287 0.0766703 -0.03677542 0.02271595 0.01553891 -0.006803288 0.03727267 0.04085225 0.03447022 0.1066921 0.1409345 0.1050394 -0.03743191 -0.06124237 -0.03660912 -0.03206236 0.1575025 0.01045205 0.1419302 -0.02288062 0.263135 -0.04218608 -0.1380108 0.2225789 -0.002367433 0.02707638 
  0.01986677 -0.2699595 -0.04729389 -0.461956 0.2314835 -0.06876648 0.1605677 0.3154421 0.1246474 0.07863428 0.1021425 -0.1336277 0.06276488 0.3638151 -0.1839503 -0.3419358 -0.02068431 0.5850443 -0.234381 -0.07835712 0.1163439 -0.3168406 0.0190733 -0.2218371 0.1236031 0.1067479 -0.0711864 -0.1394394 0.2093952 -0.3879096 0.09374812 -0.004845042 0.06446012 -0.2245306 -0.1432579 0.1780475 0.3103701 0.07425568 -0.1693682 0.1230232 -0.2416186 0.06824754 -0.4273928 -0.2436739 -0.3789667 -0.04370051 -0.07245505 0.1418949 -0.1564172 -0.1658621 -0.1122643 -0.1139527 -0.004246071 -0.003626924 -0.1473299 0.1710876 0.1213093 0.1974821 0.05870494 -0.01798525 0.06806774 0.08349757 0.1755127 -0.01595383 0.5350343 0.02720384 0.3176363 0.1146473 0.005955718 -0.1219733 0.06324092 -0.2202497 0.05879842 -0.1417388 -0.04847565 -0.2075896 0.1352558 0.05928627 -0.0006463649 -0.07954025 0.05836033 0.106228 0.03050818 0.1276244 0.02290534 -0.09202693 0.3504636 -0.1317428 0.09388593 -0.03818634 -0.2286223 0.0803958 0.06642251 -0.03213714 -0.1239699 -0.5515629 -0.1959628 0.3247045 0.0894233 0.2610628 0.05772053 0.02720535 -0.3057163 0.01945563 -0.1510043 0.07477277 -0.1811092 0.3061675 -0.02578781 0.06600454 0.3131909 0.07791349 0.1097968 -0.04624337 0.04472518 -0.02869962 0.4754373 -0.145369 -0.02991743 0.05326988 -0.1321661 -0.1892465 0.05795041 -0.1353544 -0.24381 0.648506 0.2641314 0.09830324 0.08113886 0.08423113 0.0220404 0.1219173 -0.1299223 -0.344548 -0.1687117 -0.1445226 -0.09810495 -0.06297584 -0.03238053 0.254653 -0.133111 -0.2032238 0.2836392 0.293588 -0.1426711 -0.3651944 0.00267209 -0.2850564 -0.1014015 -0.2212599 -0.2366882 0.2539268 0.1740265 -0.04134207 -0.07978934 0.1545535 0.05787965 0.01777883 -0.02107618 -0.04596728 0.495525 -0.03344318 -0.1250848 -0.03184335 0.2586486 -0.2152247 -0.1636897 -0.05095574 0.1521473 0.01280843 0.1752062 0.2706099 0.02977887 -0.1151923 0.009476467 -0.2601585 -0.05952854 0.4010464 0.1160532 0.449358 -0.2448248 -0.2163841 -0.007404017 -0.01744189 -0.06662393 -0.1975951 -0.245577 0.01066639 -0.005361912 -0.6499071 -0.3896911 0.1185546 -0.7455728 0.07169539 -0.229346 0.07563788 0.08974059 -0.1006802 0.2514977 -0.4045329 0.04782021 0.212025 0.04678983 -0.1102736 0.03933631 -0.05081175 0.1272256 0.2083208 0.07346737 -0.1828968 -0.3702744 0.3232915 -0.1253304 0.0084246 0.1455789 0.04826226 0.3675354 0.023264 0.05338782 -0.2161665 -0.4439953 -0.1049437 -0.05991083 0.07582291 0.04886386 -0.3370071 -0.245007 -0.1723416 0.2325766 -0.2298242 -0.1191789 0.1840249 -0.06920589 0.02396019 -0.08940779 -0.07963576 -0.8319586 0.1754562 0.2563492 0.02673371 -0.009505868 0.05134961 0.2730455 0.07844313 0.01726837 0.08860678 -0.1014142 -0.447284 0.02104138 0.5151167 0.2000129 -0.1869105 -0.5846533 0.2083074 -0.09933924 -0.07939337 
  -0.235474 0.05447294 -0.01581771 -0.0773055 0.05612243 -0.1182115 0.03592059 0.8451313 -0.1307645 -0.4993623 -0.1158867 -0.5731759 -0.2291299 0.2365288 0.01210967 -0.4336472 0.2646927 -0.1131496 -0.08470809 -0.1845503 0.02477598 0.172813 -0.3097214 -0.6024576 -0.3532418 -0.05421637 0.3636731 0.1963171 0.06570138 -0.6073616 -0.09768832 0.1741715 0.3229699 0.1366324 0.0564607 0.005323623 -0.008964333 -0.06643673 0.4149826 0.4638278 -0.1345605 0.4770448 0.2475166 0.0903964 -0.2054812 -0.2115351 0.01454395 -0.01906695 0.1355398 -0.4417511 -0.1540167 -0.06512979 0.1561733 -0.0725817 0.2174202 0.342246 -0.482609 -0.423576 0.03344918 -0.337463 -0.04853213 -0.04745136 0.6740651 -0.05879715 -0.5089217 0.2864247 -0.5483 -0.005471445 -0.2252953 -0.4927106 0.07820787 0.04071098 -0.2325141 0.677651 0.155203 -0.2109403 -0.191423 0.09505208 -0.407055 0.1326473 -0.06235872 -0.1191442 -0.1203323 0.1802021 0.255975 0.1388226 0.3002726 -0.04648058 -0.1010567 -0.3873498 -0.1514296 -0.09866841 0.1225795 -0.2326525 -0.1635576 -0.1088917 -0.08905649 -0.2204943 0.218047 -0.2091002 -0.1547527 -0.5379677 0.1570475 -0.3064443 -0.1939233 -0.06595014 -0.1955769 -0.3483769 -0.0838938 -0.09448786 0.02767708 -0.4233156 -0.2989508 -0.130674 -0.2172436 -0.1035449 0.1970004 -0.1322123 -0.2114663 -0.1954733 0.05108551 -0.2868624 0.09970117 0.1190243 0.1481526 0.3815291 -0.1145254 0.3066365 0.2429809 0.2581539 -0.7686843 0.0171398 0.1793159 -0.2400509 -0.08471061 0.5647956 0.08993424 0.1933674 0.2495587 0.1452113 -0.298174 0.1994746 0.03872776 -0.5760462 0.001651183 0.6145434 0.2682043 -0.1217933 -0.1925983 -0.6709405 0.1624381 -0.04716147 -0.2068636 -0.3934902 0.02918731 0.02035102 -0.1533714 0.1389621 0.008551632 0.1299565 -0.02736726 0.1907381 0.4653142 -0.1584607 -0.04963173 -0.08096407 -0.3192521 -0.2842667 0.1084477 -0.008997822 -0.1435376 0.1532311 -0.4781837 -0.3340351 -0.1031372 -0.2565981 0.03656014 0.05410292 0.01374757 0.1198122 -0.06194147 0.1275215 0.2030978 -0.5952505 -0.1306958 -0.2877255 -0.2016316 -0.07706377 -0.1947163 -0.3284171 0.08151929 0.1130984 -0.4188917 -0.07957064 0.4039363 -0.3495263 -0.06605007 -0.6599314 -0.09592625 0.5314683 0.2625249 -0.2805513 0.4712178 -0.03566901 -0.1174788 -0.3027835 0.4104338 -0.0239213 -0.4892636 -0.1642965 0.03794704 -0.4407683 -0.05936537 0.0001425881 0.2477259 -0.23643 -0.864486 -0.03238549 0.1645645 -0.2428477 -0.1621972 0.34908 0.1083553 0.2073467 0.113092 0.202378 -0.3734365 0.245524 -0.02669379 -0.5463132 -0.2014262 0.1116165 0.1729328 -0.09816521 -0.2867567 -0.4949812 -0.199883 -0.4083579 -0.1661782 0.06189302 0.113396 0.2880756 0.0169438 -0.3570147 0.2097672 0.2439357 0.2685479 0.0467975 -0.1925347 0.05416138 0.3122356 -0.3625468 0.1447227 0.2130511 0.1210557 0.1752952 
  0.08832666 -0.1665611 -0.03151986 -0.1187914 -0.04295087 -0.2917708 -0.01285272 0.01178535 -0.3799796 0.04816977 -0.09071021 -0.05989252 0.3993527 -0.2631814 0.2082583 0.01918477 0.08749621 0.1547195 -0.08579602 -0.3884753 0.006158359 0.1429353 -0.02984804 0.2912227 -0.2810994 -0.1076463 -0.1791888 -0.06725379 -0.1390965 -0.2521163 0.08605903 -0.2470446 -0.2474931 -0.02573836 0.0554742 0.1768828 0.2321957 -0.1691415 0.09646162 0.5775315 0.0941692 -0.311089 0.3343002 0.01456188 -0.8803313 -0.2053392 -0.1898164 0.5921904 0.2349473 0.01747608 -0.1305709 -0.008274551 0.1272067 -0.183945 -0.1106274 -0.03214419 0.1172179 0.2182313 0.06469444 -0.01434957 -0.02419939 -0.09025002 -0.116764 -0.249701 -0.2519084 -0.1367993 -0.1093261 0.09861887 -0.09678899 -0.1165464 0.1204214 0.1048415 0.1407327 -0.1732542 -0.09241667 0.1409907 -0.111235 0.1845216 -0.2047238 0.1207809 0.2793198 -0.06283574 -0.1290825 -0.2716397 0.1342583 0.1727613 -0.2132727 -0.1196404 -0.2118974 -0.0411796 -0.03857809 0.1355114 0.3129894 -0.01556734 0.3222334 -0.7286992 -0.02843202 0.1886649 0.06601026 -0.005170448 0.1248889 -0.05092197 0.1314437 -0.1228586 0.1096419 0.6358443 -0.04270225 0.3419135 0.2750031 0.02882377 -0.03655227 0.03176011 -0.3340535 0.2109771 -0.01955955 -0.2498211 0.0985822 0.05579259 -0.01539108 -0.07890903 0.05040481 0.123158 -0.0611083 0.01681101 0.06086694 0.0219351 0.03083477 -0.1782499 0.07191971 0.2184709 -0.07614061 -0.1006341 -0.03778423 0.205313 0.1536061 -0.2038247 0.1202687 0.07365048 0.157597 -0.3480821 0.0580605 0.2993801 -0.1970523 -0.04756511 -0.2219294 0.1460088 0.0030461 0.1804292 -0.2050601 0.1983091 0.06802227 -0.2635455 0.01688139 -0.3653124 -0.1138915 0.6118911 0.2460497 -0.2194079 -0.1384163 0.008159449 -0.01786081 -0.1072478 0.1870954 0.06240566 0.06655272 0.004720919 -0.2126566 -0.1794438 -0.07227693 0.03667306 0.2975648 0.2787153 -0.05939427 -0.6574391 -0.5010249 0.08511069 -0.06558497 0.00805154 -0.07942679 0.02040726 0.1902293 -0.01267182 0.343926 0.2359695 -0.005054358 -0.07839587 0.1950057 0.03990085 0.1070343 -0.291518 -0.4987136 0.05223331 -0.07693775 0.03458181 -0.01241874 0.1776163 -0.03652977 0.08712079 0.001782206 -0.06282847 0.1157584 0.428331 0.1677104 -0.0912979 0.3029881 -0.1202253 -0.1059371 0.02741075 0.1026851 0.6252859 -0.1986631 -0.03769601 -0.1356724 0.08406964 -0.4307353 -0.08167154 0.1033119 0.07001761 -0.1301706 -0.02417842 -0.3187188 0.09175225 0.1237152 -0.2032475 0.0140448 -0.1955605 -0.2836496 -0.02413174 0.27878 -0.2002099 -0.4562589 0.02057926 -0.004727234 -0.2013726 0.1746537 0.09375561 -0.4668593 -0.2855568 0.01521427 -0.3217649 -0.247587 0.04540221 -0.2230605 0.3766128 0.1080527 -0.1341103 0.1307072 -0.1790399 0.04088496 0.001068224 0.05988067 0.4604618 -0.05240741 -0.4420832 0.2479563 -0.4452597 
  0.09939718 -0.05044663 -0.3653071 -0.1278384 0.06684788 -0.37657 0.1187441 -0.7396266 -0.1516394 -0.2497151 -0.5996964 0.4496344 -0.5651571 -0.2171098 0.1608235 0.1390655 0.2480194 0.2468199 -0.2330735 -0.808701 -0.5140294 0.07455595 -0.2493173 -0.02702288 -0.2243472 0.6103768 -0.5578109 -0.2028619 0.002095334 0.2007969 -0.04524049 -0.2385104 -0.2019555 -0.4116471 -0.1899434 -0.04576749 -0.5181637 -0.5814298 -0.2600944 -0.2827982 -0.8047663 -0.357534 0.09254434 -0.1080076 -0.01169489 0.007566735 -0.1316356 0.02142487 0.01565456 0.0100837 -0.6850446 -0.1558849 -0.3110024 0.1459893 0.2306939 0.1507361 0.18743 -0.6346502 0.2471909 0.3339552 0.2837007 0.6875061 0.09117974 -0.04413194 -0.2809592 0.3267862 -0.530719 -0.5408862 0.343109 0.1185092 -0.08096828 -0.1540517 0.3691634 -0.2690596 -0.6887501 0.1613051 0.04852287 0.09340491 0.182936 0.1773763 -0.4307489 -0.3198096 -0.07533339 -0.1276056 -0.5203399 -0.1697144 -0.50204 -0.2305473 -0.3774432 0.69968 0.1464049 -0.03491657 -0.0305085 -0.08939248 0.03220475 -0.3672464 0.2045226 -0.07912878 -0.1732997 0.1214567 -0.1634227 -0.3790161 -0.3171844 -1.099649 0.3058532 0.1437231 -0.05694713 -0.3081324 -0.8077188 -0.5145378 -0.2045392 0.32619 -0.4662885 -0.03392477 0.002744298 0.07572731 0.2510877 0.4759855 0.2619929 0.1272139 0.03204125 -0.1885983 -0.2651246 -0.03389528 -0.1272655 0.1683291 0.2371005 -0.03034086 -0.4980806 -0.383622 -0.09847096 -0.3157753 -0.0539068 -0.1853983 -0.2144201 0.763709 -0.5540197 0.5304499 -0.1566395 -0.2018054 -0.6132144 -0.4711699 -0.1826552 -0.3771926 -0.4809591 0.2901581 -0.5512381 0.3159218 -0.3320284 -0.1022275 0.04801151 -0.7765591 0.04034908 0.06526206 -0.4221888 -0.2902858 -0.1247172 -0.4127034 0.5712632 -0.6371211 0.0572407 -0.4126269 -0.3649213 0.2586123 -0.004472122 0.8283266 -0.5675523 0.0223677 -0.278147 -0.4649882 0.2122196 -0.1683531 -0.006369459 0.2023243 0.6745734 -0.02386586 0.08352454 0.1004024 0.2628308 0.02683545 0.006552508 -0.7952276 0.5470547 -0.1111495 -0.3673936 0.2376763 -0.7778962 -0.1329214 -0.5399975 0.3568233 0.5746081 -0.03901301 -0.1438992 -0.04231281 0.0602516 0.1710092 0.2833351 -0.4014822 0.1988122 -0.1427564 0.2629014 -0.1471388 -0.5767242 -0.42722 -0.2555135 -0.1151262 2.066032 -0.2109674 0.05768109 -0.341279 -0.2467711 0.0152247 0.1957009 -0.3188776 0.2189271 -0.6674921 -0.1729152 -0.230509 -0.347716 0.1274879 0.05989721 0.1151518 -0.2994114 -0.05243399 0.454608 0.2806459 -0.255568 -0.2297369 0.1217002 -0.1476843 0.1213721 -0.5107906 0.1036014 -0.002952134 -0.02273137 -0.1777071 -0.4302077 -0.04648055 0.02710225 -0.0321729 -0.1338724 -0.4156929 0.09844235 -0.3483801 -0.2831268 0.06400906 -0.08413921 -0.250828 -0.1628372 0.3540296 -0.08995686 -0.4461723 -0.4398669 0.2826193 0.1327516 -0.5884699 
  -0.03586637 0.3638527 -0.07238977 -0.09984273 -0.01993578 -0.5606353 -0.1085258 0.05786141 0.04229689 0.1008546 0.02336218 0.03886261 -0.23976 0.7980699 -0.1289886 0.1651572 -0.7328798 -0.2243779 -0.08676362 -0.09362586 0.05521962 0.4775408 0.005271748 0.1107009 0.4140771 -0.0674167 -0.004788158 0.3605997 -0.3092356 -0.0674591 -0.1026804 -0.05810416 -0.2263287 0.1551394 0.1695354 -0.1165821 0.008643529 -0.1671377 0.2046279 0.3043243 -0.5509152 -0.2198099 -0.1092392 -0.338874 0.004881018 -0.04584869 0.1203837 -0.03041275 0.1904913 0.1429962 0.2343805 -0.149899 0.01795154 -0.1400174 -0.04152498 -0.1054572 0.01155574 0.06621402 -0.159776 -0.07651983 -0.03422548 -0.08667567 0.01290694 -0.1643796 -0.02251397 0.5382449 0.1974284 -0.3208892 0.008559301 -0.05899932 -0.06901962 -0.1465499 0.2102747 -0.2025809 -0.0333985 -0.0509548 -0.1220922 -0.5254629 0.08314441 -0.1925576 -0.2839132 0.3127847 -0.08631875 0.194765 -0.06935784 -0.01296085 0.3538334 0.1319856 -0.2758014 0.00242635 0.0108519 0.03246355 -0.154552 -0.1525496 -0.06678475 -0.0995762 -0.2116991 0.09938171 0.002874604 0.1465424 0.01457222 -0.3528908 -0.02019488 -0.2521881 0.1927688 -0.2043027 0.162913 0.1872028 0.5104484 -0.001731393 -0.1745699 -0.1464656 -0.437622 0.281957 -0.09504601 -0.01180087 -0.2150472 -0.1607455 0.1498534 -0.04280379 -0.296512 0.1139695 -0.09913649 -0.1284807 -0.7489396 0.2474484 0.03277265 -0.2135484 0.2018252 0.6962856 0.1423443 -0.1303266 -0.1730575 -0.06741347 -0.0444455 0.2562461 0.3199848 -0.03026824 0.07847492 0.6678326 -0.04340494 -0.2342624 -0.06068727 -0.1494835 -0.1723644 0.01265274 0.1503101 0.1529368 -0.04014126 0.01264108 -0.05557509 0.06693549 -0.3549594 -0.3364149 0.03527293 -0.1560413 -0.1734694 -0.1735052 0.1625448 0.09217644 -0.3929083 -0.001047534 0.03836955 0.06300389 -0.1203142 0.1692784 -0.1042142 -0.06811427 -0.31036 -0.1107227 -0.006490137 0.004319156 -0.07794936 -0.05695016 -0.4086348 0.06397434 -0.02422486 -0.09557914 0.05234041 0.03234485 -0.1594111 0.2877164 0.01808734 0.08485345 0.05631565 0.1016966 -0.2113267 -0.314139 0.2804074 0.2004446 0.2166413 0.02909663 -0.08407947 0.002012011 0.1609043 0.04097172 0.183117 -0.02181743 -0.07942051 0.4905415 -0.1314766 0.1472504 -0.1462807 -0.1296085 -0.1982285 0.2295907 -0.007124385 0.9807905 -0.1033721 -0.3235299 0.1228989 -0.1551851 0.1301556 0.05365803 0.3372566 0.08604527 0.01024576 -0.07209235 0.05237798 -0.008366182 0.008173779 -0.4647521 -0.1572829 0.007690189 -0.2485186 -0.1077871 -0.107287 -0.2822982 0.09725633 0.1728347 0.151603 -0.387818 0.05899505 -0.3134513 0.2611098 0.01885249 -0.006754615 0.1790121 -0.06695142 0.08089392 -0.269871 0.04961378 -0.07103528 -0.07673977 -0.02995444 -0.3770843 -0.08650953 -0.09642412 -0.3254826 0.1039564 0.483495 -0.1897195 -0.2427167 0.002995591 -0.2986085 0.1522986 
  -0.2985037 -0.04378088 0.2324067 -0.04067188 -0.3348041 0.1080559 0.1063979 -0.5896097 -0.06185086 -0.5801648 -0.6554399 -0.5721692 0.1514661 0.2590815 -0.1303362 -0.4445827 -0.0119742 0.1923088 -0.1121277 0.457157 0.1930676 -0.04609462 0.09907543 -0.2991739 -0.04698418 -0.04186659 -0.1958174 0.05585938 0.07194044 0.003026702 0.05936741 -0.02159347 0.01784714 -0.1280905 0.1377051 -0.3095722 -0.06380089 -0.0979023 0.05551444 -0.1527261 -0.2650901 -0.1366799 -0.1350926 0.2018924 -0.08281875 0.2056639 0.2442381 -0.4627715 0.04229959 -0.09405684 -0.1421238 -0.202811 0.09308962 0.1726874 -0.08616369 0.4028843 0.01237558 -0.1528064 0.2037181 0.1217896 0.1352945 -0.2444162 -0.06000886 -0.09502888 -0.08619208 -0.0245189 0.1017273 -0.1926373 -0.1182202 -0.1634998 0.1254775 0.1935918 0.5057492 -0.03456808 0.02987459 -0.252112 -0.03934851 -0.477658 0.1434565 0.2031885 0.2395883 0.1691538 -0.1956191 -0.02297571 -0.08325482 -0.1111186 -0.08800298 0.197731 -0.1874701 0.1664784 -0.09456479 -0.1775082 -0.00350175 -0.1295525 0.179682 -0.2934568 0.3911288 -0.1480357 0.04935195 -0.2207688 0.03225356 -0.09106912 0.1486809 0.1861754 -0.1794664 0.09161337 -0.2005106 0.4049703 0.296183 -0.5364326 -0.04956998 -0.1385152 0.2495594 0.01343832 -0.4095844 -0.1308973 0.3474616 -0.4299485 -0.1362523 0.01733973 -0.2112427 0.2442308 -0.2803185 -0.04863565 0.1147892 -0.1093485 -0.1070553 -0.1131645 0.0924072 0.04382627 0.02450312 0.2239117 0.9506782 0.1465553 0.5414591 -0.2277241 0.01406711 -0.07313842 -0.3450398 -0.1073866 0.04247989 -0.1997581 -0.2637412 0.1334141 0.2027808 -0.3104575 0.02893864 0.1781728 -0.144942 -0.0005677612 -0.1878573 -0.6260745 -0.443728 0.132595 0.05110073 -0.1842844 -0.3074991 -0.02564059 -0.3051446 -0.3334172 -0.1252272 -0.1647726 -0.03897461 -0.1830207 -0.1729552 0.002206733 -0.01959199 -0.02832261 0.09181343 -0.2560779 -0.01615959 -0.008980088 -0.01044105 0.0157135 -0.05903823 -0.02763391 -0.1058752 -0.04378127 0.0973241 0.1978531 0.1174445 0.1809408 -0.0788266 -0.3790778 -0.2048895 -0.2118489 -0.2701659 -0.1336024 -0.2445051 0.1080993 -0.01454194 -0.3448726 -0.01860589 -0.2904726 0.126026 0.1528761 0.3909698 -0.03187789 -0.0308379 -0.07462885 -0.2057669 -0.3025795 0.2495785 -0.09356189 -0.09484039 -0.3182564 -0.2661538 0.1342542 -0.09269899 0.2830997 -0.07308652 -0.07387321 -0.09102528 0.08794091 0.09724484 -0.2738652 -0.2628755 0.1658263 0.02158949 -0.1426268 0.09072968 0.01687156 0.1472868 -0.1010197 -0.398721 -0.1652057 0.07671726 -0.1246027 0.1116672 -0.2610789 -0.05847253 -0.3316678 -0.08675285 -0.4033141 0.08421206 0.02744384 0.3478916 -0.01397293 0.1433511 0.0304452 -0.1863413 -0.1914979 -0.4169605 -0.003586695 -0.04283909 -0.04997245 -0.2999097 0.02451655 0.01000412 -0.1158642 -0.4131413 -0.4543771 -0.07376294 0.364311 -0.03835152 0.04018743 
  -0.05781376 0.01957875 -0.02386983 -0.08643539 0.01139402 -0.2316818 0.08514901 0.3470143 0.3172623 0.01197506 -0.2289608 -0.1267653 0.1343681 -0.0807858 0.09565441 0.4760136 0.01821426 0.5156752 -0.05751768 -0.04657834 -0.01523901 0.4964415 -0.04644014 -0.2099069 -0.0249955 0.1148604 0.01793484 0.09549667 -0.0874558 0.1242066 0.1712355 0.1832426 -0.03228316 0.1738145 -0.2313613 -0.1129505 0.2380801 -0.192396 0.2327403 0.1961849 -0.01823764 0.3538712 -0.1757111 -0.1073752 0.2951903 -0.1114057 0.06988119 -0.09521548 0.08094161 -0.1790781 -0.03940792 0.2175135 0.06751505 -0.2174469 -0.1140324 0.3136606 -0.370869 0.4826786 -0.03122547 0.1645603 0.2761584 0.1602687 0.09585947 0.001282188 -0.2475736 -0.02782256 0.05228711 -0.03090554 -0.04624331 -0.02861331 -0.02827402 -0.07543625 0.2655037 -0.3867646 -0.04622816 -0.2049802 0.3027586 0.2193868 0.08167974 0.1423968 0.236102 0.1014326 -0.08581161 -0.162201 -0.04887789 0.2443529 -0.002256892 0.1898021 0.1632387 0.1356065 -0.00630633 0.1452196 0.002118797 0.03785151 0.3416794 -0.3760129 -0.06810457 -0.005993881 -0.06328139 0.1096468 0.02552967 -0.4139957 -0.05117377 0.09761759 0.3214838 -0.1183794 -0.219482 0.3212975 -0.2010176 0.2292014 -0.2955497 0.06626947 0.3007258 -0.02455449 -0.05276525 -0.3458721 -0.8002199 -0.1154862 0.180001 -0.2279605 0.1037799 -0.5113698 -0.4253093 0.0503177 0.1553175 0.3897264 -0.01385633 -0.2975948 0.00502512 0.106383 -0.05104991 0.1201067 -0.3738043 -0.237259 0.07606645 0.2938625 -0.1593039 -0.2134751 0.06135715 -0.2379601 -0.07283882 0.1974774 -0.6893026 0.3571168 0.2634785 -0.05776764 0.2166475 0.2418022 -0.1104405 0.1720644 0.005074968 0.4254717 -0.05804497 0.642527 -0.2238341 0.07000979 0.2555014 -0.2233471 0.6853053 0.0328014 -0.0403377 -0.02839523 0.05142581 0.06919554 -0.09765724 -0.0419312 0.3940031 0.07469649 0.29887 -0.1156182 -0.04489638 0.1794631 -0.2877391 0.003339128 -0.01087298 0.09439642 -0.1518983 -0.2362224 0.1567231 -0.04982368 0.3457588 0.6700065 -0.06263218 -0.1192845 0.009483106 -0.04057945 0.01832413 0.217881 0.3020913 0.3238626 -0.4487838 -0.05348297 -0.1226591 0.1191289 0.1791702 0.1099592 -0.1225778 0.2075038 -0.09000366 -0.1364127 -0.2636885 0.1407975 0.115454 0.1202538 0.2246452 0.2688552 -0.02647506 -0.1449059 -0.1608878 0.2162826 -0.04290459 -0.01844118 0.03124796 -0.02515211 -0.2052796 -0.3761463 0.2885789 -0.09413682 0.1121663 0.1609713 -0.06977408 0.1120292 0.1688138 0.2444521 -0.03552417 -0.02897754 -0.152293 -0.1008934 -0.2736242 0.2548088 0.1779046 0.1780523 -0.1632323 -0.09828697 0.4743606 -0.1841956 -0.1333029 -0.1245837 -0.06617586 0.160014 0.1743733 -0.04793886 -0.01796912 0.1190053 0.2935047 0.2138267 -0.0938696 0.1475686 -0.006103872 0.2523597 -0.02649409 -0.4631326 -0.2214152 -0.1634625 0.4191263 -0.2603326 
  -0.2064695 -0.2317566 -0.1278059 0.08399302 -0.1394626 0.02686927 0.1160702 -0.08466078 0.1418066 -0.01701101 -0.3182601 0.04605671 0.5616254 0.121081 0.1852827 0.03918562 -0.1379427 -0.218644 0.078398 -0.3306164 -0.06508495 0.1188648 0.03008078 -0.09512381 0.01245941 0.4110826 -0.283363 -0.225892 -0.255178 0.3507476 0.2410235 0.03631715 -0.3178834 -0.2411111 0.2315393 -0.1223566 -0.4887041 -0.02343417 -0.07521094 0.05430606 0.07591262 0.1036066 0.5670532 -0.09269394 0.2421658 -0.3630937 -0.4752525 -0.2549302 0.452643 -0.4930658 0.3179038 0.1141128 -0.1222036 0.2477006 0.008577062 -0.3916273 -0.1170734 -0.1434382 0.1572416 -0.199616 0.01829821 -0.03546277 0.003797121 0.03351545 0.007288625 -0.4220783 -0.09702247 0.02011426 0.01669513 -0.05696355 -0.2450788 0.04030744 0.01338342 -0.1447092 0.03438244 -0.1206123 -0.002284358 -0.4427264 0.2540466 0.06383295 -0.04197715 -0.2024628 0.6120936 -0.04096111 0.1245634 -0.03594684 -0.1371434 -0.211884 -0.06930933 -0.2181145 0.3665077 -0.1932497 0.02250792 -0.4304432 -0.06915731 0.2959361 -0.03151856 0.2274281 -0.101042 0.0799014 0.220966 -0.2547797 0.2728972 0.2578117 -0.1086227 -0.2665501 -0.633347 -0.007560915 -0.1445326 -0.09741286 0.1362963 -0.09140467 0.08217749 0.8823119 -0.4628367 -0.1614167 -0.02757582 -0.07673054 -0.001447908 -0.7558731 -0.07312573 -0.06553764 -0.1883416 0.06708483 -0.1257213 -0.06748935 0.3037177 -0.2784045 0.013934 0.4622049 0.1424531 0.003652819 -0.2484833 -0.01207846 -0.1002862 0.01561996 -0.1883702 -0.0204509 0.08737835 1.083084 0.05372362 0.01473402 -0.09188637 -0.09425213 -0.07970989 0.3542784 -0.1190291 0.1990989 -0.1804883 0.175299 -0.1666689 -0.4186314 -0.7196031 -0.02845678 0.05017989 0.4805775 -0.1821593 0.05590723 0.1645589 0.09103403 0.03881609 -0.3384638 0.09068274 -0.09799026 -0.3059548 -0.01258842 0.04537308 -0.008510293 0.009011694 -0.3089934 -0.1872766 -0.1888085 0.3357754 0.1246154 0.04870605 -0.6720527 -0.2841671 -0.01257115 -0.1678643 0.1217096 -0.4090859 0.6623725 0.1581721 -0.1963489 -0.1200558 -0.184816 0.1802395 0.1506851 -0.4361513 -0.1225369 -0.2008088 0.3985651 0.1828025 -0.04053347 -0.02139103 -0.03349221 -0.2948165 -0.22983 -0.2440765 0.08090899 0.09870613 -0.05913929 -0.1609246 0.5669118 -0.262782 -0.02145138 0.04841404 -0.5171546 -0.1998382 -0.1855959 -0.5382584 -0.1281978 0.07565068 -0.2175486 0.2544442 -0.1555939 -0.3486446 -0.226681 -0.1178267 0.1114083 -0.342203 0.1827099 -0.05523457 -0.2083305 -0.007441602 -0.333767 0.02438332 -0.1186252 0.1649984 -0.1978917 -0.08775359 -0.4292315 -0.3047654 -0.03305009 -0.2678813 -0.3222035 -0.1748215 -0.7861632 -0.001608366 0.06868408 -0.1850572 -0.01691161 0.02637223 0.2496665 -0.279912 -0.2837572 1.271956 0.1746663 0.3559953 -0.1706164 0.4035816 -0.2844392 0.06207916 -0.217516 0.06659652 -0.06890449 
  0.03350226 -0.240218 0.04252493 0.822048 -0.3428613 -0.7769949 -0.3074201 0.447329 0.239778 -0.5112623 0.3530253 -0.1270605 -0.278806 -1.23327 -0.1343654 0.7645283 -0.9727568 0.2575484 0.2686431 0.6038235 0.1667207 -0.02036713 -0.3213395 0.04264334 -0.5008222 -0.4292929 0.1976704 -0.4253909 -0.005824522 -0.5413041 -0.1711979 -0.9796146 -0.1501776 0.08816778 0.008384478 -0.3948643 0.5887433 0.1041939 0.9061605 0.009177119 -0.1094875 -0.5427216 0.03271241 -1.260186 0.1049966 -0.3556763 -0.9195337 -0.2197056 1.665476 0.4813542 0.169973 0.2464412 0.07386443 -0.5053929 -0.5868573 0.1805244 -0.3201165 -0.06903239 -0.3670155 -0.03938004 -0.3797428 0.1987143 0.0004993024 -0.3046871 0.05441222 0.2551742 -0.3642274 0.01651781 0.06547963 -0.168629 -0.1156039 0.1427909 -0.3522241 -0.2356796 -0.006717507 -0.1230765 -0.3161785 -0.3631347 0.5778729 -0.3257933 -0.003113121 0.04113466 -0.2044026 -0.3259573 0.4226625 -0.04767716 0.2642926 -0.1961594 0.314826 -0.4917042 -0.02014497 0.04822046 0.2242491 -0.236961 -0.6956806 0.05432009 -0.2422415 -0.2924918 -0.3797923 -0.3371447 -0.788224 0.3387754 0.05300672 0.8082651 -0.2015134 -0.2372012 0.5891388 0.2759191 -0.2546159 -0.1129523 -0.2238212 -0.9279804 0.03311987 0.3952435 0.551647 -0.5747449 0.5530381 -0.5843833 -0.2708649 -0.129075 0.01731105 0.08326074 0.05415378 -0.4728451 0.3336173 0.4859179 0.4116736 -1.326749 -0.4588862 0.01765145 -0.3288287 -0.6690409 -0.1225285 -0.05334703 -0.0986499 0.1067849 0.8867788 -0.06452908 -0.2701906 -0.06361044 -0.5032883 0.04280648 0.002777416 1.158641 0.2813189 1.459204 -1.165675 -0.02642337 -0.2634213 -0.1768944 -0.5817447 -0.4827952 0.05986791 -0.4510648 -0.02030046 -0.1405658 -0.1059399 -0.1507041 0.08300951 -0.05723671 -0.3496074 0.477753 -0.5475973 -0.07570685 -0.3200673 0.09113768 0.1298862 -0.03452275 -0.6669316 -0.15326 -0.1159168 -0.3457582 0.3990407 -0.2734624 0.1747355 0.2940133 -0.9603638 -0.9089512 0.08150423 0.1928451 -0.1829088 0.3602129 0.03492977 0.08795367 0.6062712 -0.2644494 0.6418187 -0.201294 0.1560983 -0.4257843 -0.04484251 -0.4771731 0.1056247 -0.05188144 0.3991005 -0.09008749 -0.1256458 0.2003314 -0.788146 -0.08420186 -0.05368298 0.1109952 -1.203439 0.3262182 -0.1863556 -0.6020571 -0.266164 -0.01660211 -0.5219166 0.05968052 0.0906699 0.02825188 -0.4034713 0.1896321 -0.08341651 -1.417398 0.01919553 -0.3945574 -0.5182732 0.1185112 -0.1572122 -0.6909869 -0.1788528 -0.1108119 -0.7247649 -0.2985158 0.03257506 0.1574711 0.006700496 -0.1742176 0.2220012 0.3154358 -0.9465829 0.09138305 -0.03979515 0.4488114 0.3946021 0.03178439 -0.1464374 -0.4969892 0.1162557 -0.0753607 -0.2496192 -0.05234924 -0.1920744 -1.343632 -0.1372777 0.2810622 -0.5553687 -0.1026425 -0.6754842 -0.3569627 -0.03643432 0.5738764 -0.2752895 0.001993916 
  0.09241287 0.1114608 0.2782564 0.2324053 -0.333471 0.06972973 -0.07699386 0.2873497 -0.011529 0.1317216 0.09703968 -0.7063234 0.3478953 -0.1572672 0.01650303 -0.004517136 -0.289468 -0.005323542 -0.02256439 0.388384 -0.06063968 -0.07933144 0.0409237 -0.2054524 -0.1135267 -0.155809 0.0458156 -0.5322129 -0.08012222 0.01235803 -0.2995737 -0.1574405 0.005162087 -0.1754078 -0.04109951 -0.3045815 -0.1860492 0.080704 -0.04168937 0.2564052 0.1549549 -0.2412285 -0.07941707 -0.1195851 -0.1645635 0.08551061 -0.3316678 -0.01688936 -0.1631339 -0.00219029 0.07613825 -0.1244499 0.2303641 -0.1148934 0.1563756 0.002556175 -0.02966875 -0.4285671 0.2990389 0.3537064 0.215275 -0.1550001 0.07614283 0.07192145 -0.0576558 -0.02727816 -0.01878564 -0.2084755 0.02243211 -0.1560202 0.3293507 0.01369598 0.03562725 -0.1427396 -0.2360118 -0.1942857 0.320326 -0.09263977 0.2437819 0.008658549 -0.8194708 -0.1452621 -0.2035269 -0.345076 0.4217762 0.1956208 0.3504017 0.2951128 0.176611 -0.05190773 0.02238084 -0.291068 -0.1694622 0.05112625 0.06946629 -0.1604101 -0.1603915 -0.2259418 0.04553853 -0.09219935 0.04510245 -0.1293956 0.1471463 0.2199807 -0.05726301 0.1823983 -0.09866181 -0.2049317 -0.03720631 -0.5022536 0.2558128 0.1593824 -0.0239942 0.006020428 -0.1820052 -0.1224921 -0.06223572 0.3126417 0.3566108 0.1355745 0.1162643 0.05282899 0.07957713 0.1321752 -0.1882367 -0.1147261 -0.149765 -0.6183577 -0.3905196 -0.351751 -0.1261529 -0.1671498 0.0487518 0.1299953 -0.2942878 -0.4045112 0.05298318 -0.1443387 0.2066561 -0.3063215 0.04282231 -0.1184143 -0.1349849 -0.0653516 0.2041347 0.2441944 -0.3467564 -0.001541943 0.08621677 -0.1800282 -0.01596241 0.3366944 0.2308737 -0.06708912 -0.08719135 0.0637136 0.009817195 0.2672267 -0.0005030363 0.07331818 -0.0727476 -0.2576296 -0.138064 0.01447858 0.002786549 -0.1747582 -0.009661674 -0.1222223 -0.202539 -0.1241791 0.05701033 -0.1482589 0.1347039 0.001322594 -0.0379791 0.07268123 -0.06118753 0.1041456 -0.03584439 -0.02890674 -0.04776471 -0.5498081 -0.04000131 -0.04959165 0.2106036 -0.2134703 0.04987171 -0.2637147 -0.3223947 0.07113594 -0.04328413 0.01910139 0.3804623 -0.1127663 -0.08224395 0.02505342 0.002971724 0.1857046 0.04421245 -0.1004209 0.0312962 -0.1938343 -0.6349693 -0.1477355 -0.01750795 -0.05457452 0.2458213 -0.1281697 0.05675111 -0.3796832 -0.1370053 0.04728295 0.2270382 0.03098397 0.3001008 0.05712458 0.001716978 0.08952623 -0.2356413 0.09361397 -0.1218651 -0.09149136 0.1442224 -0.01265262 -0.2429665 0.05074581 0.1389288 0.1116458 0.1512506 0.205934 -0.05686697 0.1358353 0.03463066 0.3525613 -0.2337036 0.4947871 0.3859045 0.00129953 -0.2164454 0.07048034 -0.05337276 -0.1592629 0.08141333 0.2343366 -0.0284044 0.2171869 -0.01158541 0.1758215 -0.1672687 -0.1708134 -0.1933426 -0.6161792 -0.1922993 -0.07522723 -0.119146 0.1395763 
  -0.6717898 0.3961588 -0.2717175 0.05105779 0.1845053 0.3429235 -0.02454263 -0.1807154 -0.3240385 0.8633696 -0.1652395 0.0646107 0.3024144 -0.1950455 -0.1809621 0.5698058 0.3407808 -0.2184227 -0.473962 0.4640499 0.425286 -0.1895248 -0.2222316 -0.2542301 -0.7146177 0.1256224 0.02509074 -0.2290632 0.2932101 -0.4005876 0.525937 0.197295 0.3658523 -0.3213151 0.6426231 -0.003363478 -0.03968138 -0.05135879 -0.3234389 0.2544615 0.4358031 0.5925685 -0.1335425 0.01497438 0.2084363 0.001212528 -0.1102026 -0.1984237 -0.3922305 0.2327681 0.18903 0.5199189 -0.186594 0.08872613 0.02541446 -0.004057048 -0.2648088 -0.2528588 0.01519795 0.0188926 0.009805564 -0.006081878 0.08023793 -0.05536113 -0.03585574 0.01060562 -0.4042206 -0.6533807 -0.1140986 0.1324399 -0.1862668 -0.3265862 0.1173921 -0.2437022 -0.3813352 -0.003219452 -0.2006722 0.07374465 -0.7904535 0.03659467 0.3496263 -0.4416643 -0.2275958 0.2461211 -0.5241335 -0.362459 -0.1857584 -0.06582036 -0.4748011 -0.2381559 0.09536245 0.2450387 0.2707681 -0.2245914 0.2566982 -0.1042207 -0.1452741 0.1737669 -0.1012304 -0.1849384 -0.1848735 -0.2937405 0.1393383 0.07413901 0.144814 -0.0142561 -0.03875842 0.1321441 0.03394096 -0.4670409 0.09257625 0.01727849 -0.07786042 0.2226126 -0.1003951 0.01533426 0.4868217 0.04145847 0.3170193 0.04425587 -0.1348646 -0.3015437 0.07951391 -0.1492234 -0.2356626 0.2144637 -0.1961275 0.2389496 -0.04331983 -0.2187172 1.059636 0.1733435 -0.4063296 -0.0368897 -0.04982647 0.008550205 -0.5136026 -0.107055 0.1356501 0.07946427 -0.01808265 -0.1948167 0.03677632 -0.4497868 -0.1698257 -0.3631422 0.08292365 -0.126174 0.102176 0.0132127 0.2440927 0.4417524 -0.1514736 -0.4066691 -0.2163853 -0.4270096 0.325551 -0.1065337 0.4682126 -0.2395421 -0.02163373 -0.5277393 0.07543132 -0.1335446 -0.05358996 0.2176685 -0.2415249 -0.2002525 0.1785409 0.1701402 -0.07126907 -0.2074065 -1.041301 -0.4083969 -0.137143 -0.1602203 0.2376442 0.2888262 0.03818462 -0.1385095 0.08350386 0.1897809 -0.0762839 -0.008901487 -0.1074827 0.1399184 -0.1576888 0.1656635 -0.09220365 -0.1303295 0.3972833 -0.0138916 -0.2128122 -0.2915066 0.2881994 0.5302501 -0.01182904 -0.06067434 -0.07656166 0.1892986 0.1949451 -0.1693933 0.2004603 -0.1639341 0.2422657 0.2595314 -0.1680631 0.3972224 0.0135745 0.4072909 -0.1636098 -0.07232146 -0.4008205 -0.1207065 -0.3557466 -0.2228501 0.1245964 -0.1152754 -0.1409098 0.07011782 -0.2121316 0.3191589 -0.7106892 -0.1603672 0.02344115 0.1462749 -0.01308603 -0.1634114 -0.3282746 -0.1773375 -0.1676811 -0.2674226 -0.07537524 0.04853556 -0.1173964 0.2009137 0.1129552 0.0199195 -0.2663165 0.07262901 -0.03236144 0.06997705 0.2155747 -0.1919188 -0.1123372 -0.02957605 -0.1526338 0.2416328 -0.2059984 0.002362312 0.2817954 0.2415832 -0.03056541 0.1596179 -0.2452208 -0.04943293 
  -0.05430021 -0.2636937 0.06673685 0.1983701 0.1910542 -0.7230644 -0.122012 0.5366767 -0.5076123 -0.3110291 0.3311173 -0.3591047 -0.08750438 -0.2376313 -0.2418798 -0.2272711 -0.2976398 0.5100176 0.08580843 -0.533338 0.02110167 -0.1002964 -0.1209425 -0.09830552 -0.293091 -0.1254666 0.30293 0.359227 0.13698 0.0002947259 -0.2325292 -0.1753188 0.1884989 0.06604155 0.1795494 0.2137169 -0.2672596 0.004625424 0.05479438 -0.200765 -0.6423126 0.2554764 0.2880562 -0.2075087 -0.3981866 0.06788727 0.2468164 -0.04304614 0.2583287 -0.2770377 -0.3377232 0.02889262 -0.08531068 0.1417453 -0.09026383 -0.01033587 0.2538857 0.1691683 0.1558509 -0.1152345 -0.0745185 0.06173087 -0.03293683 0.02277685 -0.03586622 -0.1899441 -0.1860564 -0.06154686 -0.1505508 -0.2495737 0.2191453 -0.351093 -0.1582465 0.116096 0.5511447 0.113062 0.2528253 -0.4253631 0.3082986 0.157822 0.3786612 -0.01825783 -0.2682342 0.07567217 -0.07916909 0.3951121 0.4236695 0.2401488 -0.3575929 -0.4159218 -0.1944021 0.2654489 -0.6038855 0.3816057 -0.4419416 -0.1392396 -0.1774695 0.07200966 -0.01599493 0.03352761 -0.03273243 -0.1089323 -0.05500559 -0.06327151 -0.2659189 -0.2824308 0.1091214 0.1503767 -0.1618818 -0.5562412 -0.09368113 -0.7685443 -0.08881369 0.09785146 -0.1562274 -0.2383921 0.677563 0.1623414 -0.1805005 0.1086767 -0.4608194 -0.03638314 -0.1471641 -0.3000149 -0.2315417 0.03625249 0.08963358 -0.8462678 -0.05504046 -0.9137211 -0.02839246 -0.1471739 0.04825105 0.2594148 -0.1534479 0.02580477 0.1472294 0.4917077 -0.1676516 -0.2841116 0.08787377 -0.1541082 -0.1513886 0.1440916 -0.3829181 0.02811406 -0.2725986 -0.7066492 -0.3400771 -0.3672917 0.2889814 -0.2560552 -0.3654023 0.03672126 0.2227005 0.2088727 -0.6312487 0.3647893 -0.09604893 -0.2766409 0.1997706 -0.1870894 -0.006912109 1.000043 -0.1907184 -0.3812976 -0.1649082 0.1947981 -0.2771235 0.3718326 0.08489706 0.3375118 -0.2834784 -0.655055 0.1321092 -0.4349985 -0.3009412 -0.3661048 -0.8027853 -0.0103347 0.08731673 0.164786 0.1734849 -0.1610432 0.2215084 -0.6785158 -0.1149709 -0.192612 -0.1593207 -0.1919419 0.09014893 -0.08333247 -0.008058059 -0.1768975 0.04409463 -0.545669 -0.1449863 -0.3640842 -0.07039958 0.2971039 -0.01631023 -0.1719942 -0.4196567 -0.3004697 -0.2344096 0.07290067 0.1100081 -0.2148446 -0.2370466 -0.2645816 0.4025301 0.1493336 0.2220196 -0.1636249 -0.01927545 0.05609936 -0.2992292 -0.1449645 0.02284653 0.1720012 -1.257463 -0.1842685 -0.2727769 -0.09491908 -0.4138964 0.03186676 0.05162897 -0.3561499 -0.1654458 -0.6384652 -0.01475127 0.3226059 -0.8763301 -0.6503708 -0.2121619 -0.3084735 -0.4032585 0.07293718 -0.08928337 0.1348891 0.4271899 -0.1174516 -0.04631159 -0.2254986 0.4469095 -1.032901 -0.1301738 0.2247037 -0.2729844 0.06820267 -0.2233036 0.6077731 0.1820692 0.25308 -0.1629711 0.3730644 
  0.2597863 -0.2100205 0.01781263 0.003542115 -0.03397314 0.0880084 0.03588145 0.2859616 0.1195345 0.08729041 -0.08722808 -0.02985303 0.1573981 -0.1425301 -0.1331965 -0.07567158 0.06568989 0.1039153 0.05441655 -0.02061097 -0.01592121 -0.1169028 -0.06104043 0.1566808 -0.1320433 0.1257567 0.1460519 -0.1347324 -0.1408547 0.2556724 0.1816832 -0.07306661 0.1383957 0.3748996 -0.07457898 0.02360108 0.07051503 -0.1135489 0.007748239 -0.2746578 0.09808751 0.07835793 -0.05008654 0.2544245 -0.1431848 0.2644927 0.2544831 0.1387966 0.1284387 0.06037433 0.05928443 0.02097097 0.02417488 0.08860549 -0.01939662 -0.1251795 -0.17104 -0.05478679 0.03159443 0.2631546 0.1180042 0.2038212 -0.07162421 -0.04432538 -0.1850296 -0.01844653 -0.0724877 0.02423273 -0.1026315 0.03390652 -0.1429864 0.04212797 -0.09925615 -0.03138128 0.08288945 0.3850429 -0.1224895 -0.04170387 0.1114857 0.1207499 -0.4035854 0.2911918 -0.2704314 0.1139905 -0.1013042 0.2175524 0.04400426 0.09703889 -0.1420747 0.2641435 0.2266237 -0.02587761 -0.00566413 -0.1258971 -0.1795546 -0.0830691 0.2666835 0.06084253 0.006857642 0.1193223 -0.1318446 -0.16187 0.09479034 -0.123535 0.02776497 -0.1812283 -0.09353337 0.08865085 -0.1333007 -0.1419998 -0.01966746 0.1336177 0.03877199 -0.1307493 -0.03280606 0.09471809 0.03126298 0.01098055 -0.2372978 0.3844771 0.1034708 0.1465996 -0.0005209309 -0.1046919 -0.2408431 0.1663998 0.2154112 0.03583977 -0.005203792 -0.4290347 -0.06936937 0.05694176 0.09317409 0.2375349 0.1402125 -0.01150931 0.1044864 0.1919951 0.1745897 0.2609553 0.06587671 0.1970875 -0.1378413 -0.3389929 -0.07802742 0.05047091 -0.00574585 -0.1751522 0.003880848 -0.2101033 0.06247663 -0.02177577 -0.09641494 0.03787734 0.01759139 -0.1174169 -0.1316811 0.06284514 -0.04487782 0.2338932 -0.1364655 0.2415087 0.147011 0.007740533 -0.1333989 0.0505136 -0.03547421 0.1074331 -0.0484971 -0.04636751 -0.2550564 -0.009229909 -0.04598839 0.04785236 0.2703784 0.0003281189 0.03491252 0.1752268 0.1060537 -0.2201895 0.3896258 0.3524416 -0.07161931 0.09914776 -0.1541413 0.06421692 -0.3189933 -0.1685466 -0.09983836 -0.2833459 -0.2308567 -0.07533038 0.083175 -0.02380562 -0.1604181 -0.1251469 -0.2617766 0.0673385 0.02489993 -0.254991 0.07627528 0.08637225 0.096708 0.09970297 0.05308068 -0.1995343 -0.1631824 -0.1052454 0.562609 -0.2500733 -0.1669483 0.3536822 -0.1077392 0.008950097 -0.261372 0.01114254 0.07489959 0.009459222 0.1248375 0.02064438 -0.2526523 0.004393228 0.02764799 0.03568646 0.01467669 -0.09343755 0.07601393 -0.04108908 0.06775609 0.07265618 0.08428639 -0.0901828 0.143257 -0.2486867 -0.2287733 0.1932211 -0.1637511 0.07784839 0.04151619 0.04974147 -0.07165494 -0.05811182 -0.0503338 0.2997891 -0.005125326 -0.0005898044 0.07562497 0.05516218 -0.1421439 -0.01760452 0.02452658 -0.2046227 0.03294652 -0.3176335 -0.1685003 -0.119337 
  0.0297527 -0.02351074 -0.2084518 -0.1697565 -0.1807355 0.1794811 -0.1406645 -0.6630884 0.09715696 0.04069494 -0.07448106 -0.01210853 -0.2827235 0.1249568 0.003655269 -0.2949921 -0.2295413 -0.1094303 -0.002382167 0.09261654 -0.2193342 -0.1375554 0.003839405 -0.05268791 -0.007712801 0.2222418 0.05338388 -0.1080018 -0.03207727 0.2735671 0.08444855 0.0283712 -0.07285864 -0.104395 0.1243777 0.01167955 0.02520716 0.1092252 -0.1211378 -0.2004237 -0.007245992 0.1177641 -0.1308976 -0.0852003 -0.226627 0.06122368 0.1244395 0.2164286 -0.03621956 -0.2577478 0.2015602 0.4848063 -0.06761403 0.0588886 0.06113666 -0.2174294 -0.2239637 -0.2480964 -0.0530034 0.2075783 0.1802687 -0.05775835 -0.06428291 0.06242187 -0.2962432 -0.1360028 -0.1533935 0.1891076 -0.002789716 -0.3375084 -0.06505884 0.08077674 0.08385058 -0.2562 -0.1015068 -0.03889967 -0.3910417 -0.2695619 -0.005661708 -0.05818998 0.4842441 0.01207166 0.1291729 -0.2566909 -0.2267682 -0.1314377 0.2181689 0.05976807 -0.007117238 0.1695194 -0.0207917 0.02012025 -0.02188471 -0.2639996 -0.2296256 0.2358752 -0.1141499 -0.2224299 0.06349456 -0.01854341 -0.1497773 -0.1650039 -0.04685905 -0.004545068 0.06202066 0.06658194 0.1195131 -0.1180059 0.04660292 -0.1079159 0.4320601 -0.005687916 -0.09932234 4.944688e-05 0.09171003 -0.03227738 -0.1540273 -0.3707494 -0.2874534 0.1310868 0.4089893 0.350442 -0.1087691 -0.02077613 -0.2046122 0.1634955 -0.04559601 -0.3357853 0.07922423 -0.3899889 -0.1714792 -0.05751555 -0.05192356 0.266612 -0.1404017 0.1685594 0.1224053 -0.2485819 -0.1433761 0.140022 0.049875 0.5713177 -0.6377041 0.09540145 -0.2783053 0.1042279 0.0277048 -0.2519741 0.1628023 0.2719042 -0.2557322 -0.2646318 -0.6815422 -0.121934 -0.08506452 -0.2746077 0.288669 -0.2199658 -0.3018801 0.02270031 -0.5477076 -0.274641 0.1192277 -0.1694078 -0.123039 0.1915067 -0.1362603 -0.2638788 -0.1231957 0.1483775 0.066003 0.07753666 0.1166371 0.09676719 0.08777114 0.1680254 -0.01130948 0.1236272 -0.1126041 -0.08412697 -0.2072809 0.1629836 0.08560309 0.0796341 -0.02070035 0.1335646 0.1080129 -0.2067563 -0.183298 -0.4427496 0.9067052 -0.1057471 -0.08851108 -0.1513642 -0.04491302 0.1384539 0.2030515 0.141777 -0.09335493 -0.07055306 -0.02451849 0.2393506 -0.01253769 0.1260341 -0.1602115 0.01521372 -0.3185227 -0.01509387 -0.06667208 -0.02124185 0.1593905 -0.1299117 0.222562 -0.2226683 0.1171605 -0.01416542 0.04569584 -0.3095805 -0.1599758 0.0669364 0.1500456 -0.08571956 0.1203297 -0.01106782 -0.2472329 -0.04861946 -0.001735341 -0.08715524 0.1856713 0.181232 -0.1681325 -0.3568638 0.06374907 0.2352768 -0.2353954 -0.1047352 0.02061604 0.2474423 -0.4748875 0.02979591 -0.01914137 0.2747026 0.1077587 -0.0610875 0.06826103 0.05352111 0.01028988 0.2184542 -0.340744 0.2420127 -0.2465736 -0.007469609 -0.02592087 0.4078017 -0.1088627 0.257169 
  -0.2552641 0.2046386 -0.1594986 -0.01528978 -0.003669741 0.09170683 -0.1615584 -0.5631362 -0.07260021 0.03457139 -0.05647479 0.09919829 0.09441141 0.2295883 0.133828 -0.0720126 0.09514207 -0.1062498 -0.003819034 -0.1187019 -0.1844267 0.08896403 -0.04108952 0.02480327 -0.04867709 -0.07994264 0.1805171 -0.1035303 0.003474664 0.01549519 -0.003801616 -0.07482655 -0.2280847 0.03120479 0.008809335 -0.07851288 -0.1616543 -0.1560453 0.1234571 -0.0406194 0.03993016 -0.02311407 -0.09184492 0.0116244 -0.3600475 0.7335735 -0.04497895 0.2948995 -0.1005818 0.04059083 0.01274771 0.3587356 0.003065282 -0.2749042 0.1139274 -0.5542376 0.1825875 0.2319079 0.3068404 0.009003265 -0.2984858 0.02231833 -0.02456507 -0.05587848 0.01183569 -0.075058 0.03660483 0.09458713 -0.02366739 0.2355738 -0.2316904 0.06767404 0.1845255 -0.2105497 -0.1013742 -0.2494222 0.04526241 -0.1679527 0.08275233 -0.3784115 0.1183983 -0.06882599 0.1806757 0.00750488 0.03462577 -0.09230293 -0.1215819 0.0002112745 -0.02260788 0.1439577 -0.006306102 0.2970617 0.1389556 0.03944701 0.1213524 -0.09987975 -0.0209415 -0.1092561 0.01108824 0.2860439 -0.1203175 0.01836986 -0.2068323 -0.3566862 -0.03300411 -0.02822278 -0.119543 -0.01186448 -0.09198862 -0.03019922 -0.001275538 -0.1481241 0.00213967 0.1097361 -0.3008944 0.1057661 0.006700801 -0.06901498 0.07190187 0.7044873 -0.08701773 -0.06174085 -0.3975247 -0.05975788 -0.04464905 -0.1225759 0.3068522 0.07738096 -0.002831609 -0.1510386 0.0443665 0.02448406 0.04573109 0.4047505 -0.1059087 -0.1228858 0.04534425 0.07209179 0.01511612 -0.3419025 0.09211255 0.2714265 0.07578392 0.1627788 0.09794339 -0.1006896 -0.05036485 -0.004488304 -0.1953446 -0.03904793 -0.4916562 0.09843688 -0.03417308 -0.1341465 0.06848218 0.04699875 0.106023 0.01681883 0.2557595 -0.1301777 0.2900346 -0.3500762 -0.1621531 0.5952761 0.155393 0.05845581 -0.09197184 0.2030088 0.05498051 -0.5099258 -0.1421699 -0.05445859 -0.08545043 0.1230976 -0.640608 -0.5393836 0.02043782 0.127279 -0.2288926 0.4610193 -0.05627925 -0.219585 -0.1304216 -0.009338356 -0.0666971 -0.0912338 -0.2708713 0.007210638 -0.04610436 -0.04954383 0.1167514 -0.3358346 -0.03127281 0.04160155 0.2196546 0.1017018 0.04076206 0.005604939 0.1493253 0.1478014 0.02571881 0.2365572 0.02307538 0.1884039 0.04182705 -0.1516984 -0.08639619 0.1010485 -0.06849895 0.2722984 0.08180474 -0.2432259 -0.02057572 0.1683864 0.06380593 0.1010004 0.2376698 -0.1358427 0.1514084 0.234234 -0.04315062 -0.08058571 0.03499752 -0.1293587 -0.1140578 0.2814917 0.07904415 -0.3136628 0.773529 -0.1903625 -0.08336862 0.1541521 -0.01964072 -0.08071351 0.1889187 -0.009790679 -0.3197122 -0.5101423 -0.02391936 -0.299819 0.1474517 0.009706822 -0.05092618 -0.1959532 0.02205413 -0.06080405 -0.1061704 -0.09251007 -0.03194902 0.04978134 -0.2253821 -0.3244438 0.08475899 -0.046384 0.01304601 0.02945046 
  -0.1212374 -0.1548796 -0.2485316 -0.4409168 -0.051865 0.009588448 0.1622343 -0.4539217 -0.1206558 0.02542249 0.6077628 0.1417687 0.03218078 -0.1497412 0.1700986 0.1320565 0.2100265 -0.01398247 0.1999768 -0.1487258 -0.05368827 -0.3059372 -0.02726443 0.03485843 -0.4326046 -0.4236669 0.124269 0.07522957 -0.2933871 -0.1765672 -0.09769841 0.0006548276 -0.284931 -0.1265676 0.1417824 -0.07726227 -0.5823476 0.274597 0.237775 0.09325624 -0.1086886 -0.4343613 0.5998327 0.07603844 -0.09738316 0.2304875 -0.161097 0.156073 0.02347861 0.01729545 0.2315156 0.1400511 0.125329 -0.08005962 -0.01915612 0.08106034 -0.2407607 -0.1083717 0.2002069 0.0687632 0.2894402 0.174323 0.0007943778 -0.3122864 -0.173291 -0.1965055 -0.4089075 -0.4571469 0.2548059 -0.3019254 -0.4359717 -0.1085334 -0.1261555 0.1204047 -0.1208364 0.2561817 -0.1023897 0.2261338 -0.07068773 0.1560769 -0.2658148 -0.3799418 0.1617576 -0.0173924 -0.07955445 -0.1686817 -0.3526179 -0.04894154 -0.04069183 -0.1430555 -0.2423527 -0.1749741 -0.0344625 0.09424607 0.02476818 0.03288804 0.0291576 -0.1260188 0.3123332 -0.4350058 0.009809699 0.114948 -0.1931988 -0.02641796 0.08993103 -0.2611309 -0.1065601 -0.1573467 -0.4461926 0.03917532 0.2887348 -0.07057079 0.2183024 0.2472181 -0.1795155 -0.05625208 -0.2039134 0.0673673 -0.02832331 -0.4526288 0.4760568 0.03577809 -0.2754765 -0.2097535 0.09045035 -0.3951159 -0.2647672 0.2293234 0.1239291 -0.01157271 -0.179387 0.01099493 -0.01333934 -0.2992014 -0.1192427 -0.3212112 -0.1468616 -0.09761079 -0.05579579 -0.04395998 -0.2964654 -0.2963907 0.2527629 0.2607578 -0.000826249 -0.2220775 0.1453508 0.02504733 -0.2160456 -0.1257959 -0.1218918 -0.06068278 0.04775692 -0.113584 -0.0926853 0.3605201 0.01638794 0.1240754 0.02533157 -0.01250767 0.2209353 -0.859364 -0.07315536 0.1744437 -0.03541549 -0.06378936 0.006224167 -0.3326741 -0.2890193 -0.02011144 0.5990978 0.08129393 0.2974003 -0.1158204 -0.2439805 -0.3456835 -0.07720008 0.05111121 0.3506775 0.2006384 -0.4503483 -0.04473853 -0.0733319 -0.194526 -0.2041442 0.003776696 -0.3525694 -0.3374439 0.3443181 0.2221401 0.02898702 -0.3347489 -0.2803938 0.1562861 0.1647213 -0.2538038 0.2058551 -0.2796282 -0.110383 0.08670312 -0.0859855 -0.2103842 0.1600398 -0.1534296 0.0475131 0.05818562 -0.01661149 -0.156128 0.6009191 0.1258148 -0.7433122 -0.2758904 -0.06187898 -0.09995148 -0.08609326 0.03390875 0.06783557 0.10186 0.1280305 -0.07428527 -0.04402828 0.008856092 0.01214682 0.05971363 0.07587599 0.04234585 -0.2078393 -0.357553 0.2542624 -0.2620717 0.09299929 -0.09382411 0.2397864 -0.4551422 -0.3103039 -0.232943 -0.0482042 0.1267295 -0.03763287 -0.3683759 -0.006159785 -0.04719857 -0.06119474 0.005190752 0.1162559 0.1112304 0.1301259 -0.1213743 -0.1613321 0.1455969 -0.2055213 -0.3185439 0.3451905 -0.1012257 0.1135298 -0.1735302 
  0.1682926 -0.05143131 -0.1733767 0.1892286 -0.01531203 -0.03505453 0.2012592 -0.4718772 0.5490733 -0.1193823 -0.01980114 0.1410908 0.03036774 -0.1407062 -0.3358874 0.27845 -0.188369 0.2216735 -0.04522334 -0.222424 -0.08666284 -0.08032167 0.3121645 -0.1625309 -0.283607 -0.1237643 0.1822582 0.3862278 -0.1520921 0.2069401 0.07754868 -0.1855061 0.01931956 0.4854459 0.1943133 -0.04039869 -0.3007537 0.2871544 -0.1552065 0.002463039 0.1241171 0.155504 0.05786448 0.2042929 -0.09192108 -0.02079397 0.246257 0.06744289 0.07632837 0.2256354 -0.08250802 0.05119731 -0.266314 0.1250464 0.2808477 0.06975518 -0.004766489 -0.1166641 -0.06539134 0.4723015 -0.1051017 -0.02678387 0.04827442 -0.005764662 0.1032742 0.1088659 0.1087139 -0.1943211 0.229111 0.01813831 0.102378 -0.03617182 0.009819523 0.1798223 0.2779753 0.06132082 -0.1068323 -0.3684171 0.006575327 0.02659813 -0.0939783 -0.002310529 -0.115648 0.2012819 -0.2943808 0.1205897 -0.001273315 0.2392921 -0.04898651 -0.2484183 0.02717849 0.02530748 -0.02177313 -0.1548676 6.213334e-05 0.06335421 0.01980065 -0.01491486 -0.2858329 0.1129338 -0.1413034 0.1186226 -0.01995952 0.01802919 -0.07479934 -0.1404881 -0.1229086 -0.0539162 -0.07385908 -0.01187957 0.06964081 0.1109083 -0.3232888 0.2403521 0.05324098 -0.07988004 0.2933995 -0.05932105 -0.01429194 0.09950219 0.1797688 0.05366767 -0.04116533 0.2210259 -0.4360055 0.2182977 -0.03419896 -0.1334188 -0.06077676 -0.2114291 -0.1907444 -0.07978976 0.1344137 -0.03551324 -0.3864925 -0.1809548 0.1784797 -0.248998 -0.2307715 0.04724171 0.1422201 -0.02814373 0.1589849 -0.0780341 -0.09638935 -0.358214 -0.1662062 0.09321196 0.01538232 0.04381404 0.01273285 -0.05721322 -0.05376846 -0.3326364 -0.4731774 -0.1000115 0.1958847 0.05948247 -0.1576738 0.206755 0.06612553 0.3842909 -0.5662044 0.04918525 0.09267842 -0.1123113 -0.09536662 -0.2757549 -0.4472899 0.1133717 0.01785438 -0.1444398 -0.2687939 0.05790265 -0.1480118 0.1521752 0.1102974 -0.06252024 -0.01171104 -0.1672975 -0.1554863 -0.1150224 -0.08939502 -0.3723678 0.1200182 0.1961115 0.08775495 0.3286518 -0.03846486 0.329045 -0.1672512 0.023763 0.07313048 0.04387591 -0.1484394 0.01542678 -0.102969 -0.07056233 -0.01153411 0.1431919 -0.3332157 0.009322509 0.003061408 -0.07037908 -0.4905028 -0.009886636 0.146022 0.07635514 0.0530066 -0.04791506 0.08553432 -0.03079863 -0.001310282 -0.1070748 0.1481618 -0.2039791 -0.1650306 0.06684928 -0.07959415 0.1396216 -0.1790759 -0.2648131 -0.07946318 0.02471928 0.03750168 0.07038594 -0.09544184 0.05582345 0.07088909 0.2937601 -0.1695696 0.1525555 -0.2178453 -0.3073691 0.03608645 -0.06355363 -0.2160727 -0.0688191 0.2752974 -0.09742238 0.3738773 -0.08367424 0.3823863 -0.01915084 0.05799347 -0.4721811 -0.1052801 0.1688846 0.08461905 0.1003564 -0.08102499 -0.08429585 -0.2390304 -0.02411704 -0.02653922 -0.1785674 
  0.0759858 0.384111 0.1135814 -0.1317789 0.1114589 0.09625995 -0.004083953 -0.4097322 -0.0933209 0.135507 0.1406459 -0.2629782 -0.2050401 0.1195293 0.0332889 -0.2744477 -0.02379339 0.10737 0.08395454 0.05023012 -0.06159825 0.07664206 0.121526 -0.243521 0.2208704 0.1839674 0.1865998 0.1639565 0.1684325 0.0481302 -0.2224274 -0.1459777 0.2382515 -0.47064 0.09572693 -0.2203648 -0.5283564 -0.2543209 -0.01281827 -0.3710418 0.09468906 0.2966489 -0.09853584 -0.3508738 0.06207242 -0.0440153 0.2765065 0.3374724 -0.1247014 0.1223124 0.1414486 -0.1121021 -0.06653531 -0.2200708 0.5218284 -0.3376744 -0.02450542 -0.1505944 0.2135244 -0.2792944 -0.04596501 -0.1329744 -0.1712746 0.1635521 -0.0150301 -0.1518445 0.1668795 0.2027094 0.3139313 -0.1853562 0.1837908 0.000966201 -0.02821084 -0.3561406 0.08227623 -0.08777583 0.1539297 0.2498148 0.04102927 -0.02744956 0.0243022 -0.03182195 -0.01769052 0.1378001 0.1683056 0.185397 -0.05344973 0.01481664 0.205652 0.3662407 0.2776953 0.1784371 -0.03539933 -0.4504294 -0.3653914 -0.02322155 -0.2088075 -0.0258371 -0.139885 0.1360981 -0.2746368 -0.429032 0.1608873 -0.5046515 0.1267538 -0.2295572 -0.1304227 -0.4445916 0.03367352 0.02275495 0.2080495 -0.07936037 -0.5147625 0.08291716 0.3391421 -0.2798303 0.4991646 -0.1620346 -0.1488889 -0.219802 -0.1087886 -0.350314 -0.3719727 -0.08821174 0.01917676 0.1039401 0.5916294 0.493448 0.007284948 -0.1141819 0.179954 0.08136981 -0.2089005 -0.02280385 -0.2873311 -0.04645946 -0.1989925 0.1966814 -0.1940287 -0.1942579 -0.2230725 -0.3219609 -0.1316125 -0.1829429 -0.07902778 0.1028672 0.1783931 0.01322651 0.3236165 -0.2767058 -0.2531252 0.07307275 0.3976644 -0.335417 -0.08371563 -0.02585152 0.005333923 -0.08004994 0.004872599 0.09295863 0.02696372 0.02395122 -0.2701723 -0.1583075 -0.1502694 -0.1072265 -0.08048471 0.289948 0.192854 -0.1489999 -0.1078616 0.05525467 0.3011526 -0.09768364 -0.5420877 -0.2741608 0.08309389 0.2103091 0.1364488 0.1952392 0.00484154 0.316102 0.09664072 0.03352656 0.07219757 0.2235623 0.06906396 0.1123227 -0.384362 -0.1257467 0.2277416 0.1313619 -0.06081397 -0.02773494 0.03340318 0.04805238 -0.1483608 -0.008196166 0.01187575 -0.2240487 -0.007532427 -0.04294369 0.1533478 0.001322503 -0.2092416 0.2151201 -0.4237033 0.09917559 -0.3005003 0.04040594 0.4742377 -0.1600374 0.01282958 -0.000989313 0.1688261 0.01302282 0.5570293 -0.1257631 -0.1136283 -0.1726796 0.1338205 0.271959 0.1005092 -0.0822525 0.04013179 -0.3369127 -0.04912578 0.01098348 0.1519298 -0.2763324 0.04852926 0.2863115 -0.03227695 0.3044983 -0.2612752 -0.1969071 -0.1616664 0.2040274 0.06678296 -0.1345477 0.5358808 -0.09363391 -0.03156649 -0.1823007 -0.1865574 -0.0008443207 -0.1163241 0.468536 0.1315864 -0.1107332 0.1286067 0.01010426 0.005790655 -0.1876738 0.04317506 0.09107959 
  -0.08916108 -0.173903 0.3871229 0.1694611 0.07876533 -0.1990929 0.4247903 0.06393714 0.1620753 -0.1702518 -0.7041902 0.05632702 -0.1452167 -0.1861709 0.1135542 0.07377234 0.07724863 0.2662323 -0.1445057 -0.154957 0.09818646 -0.02072582 -0.0947531 0.1539112 -0.4946955 -0.1152914 0.2784634 -0.09080699 -0.2238366 -0.02462743 -0.01717345 -0.115023 0.7007312 -0.1535649 -0.1424425 -0.06509216 -0.06157496 0.1987915 0.02203235 -0.3089634 -0.05005578 -0.2667522 -0.1921378 -0.2621846 0.2366467 -0.1631511 0.1157854 -0.2536405 0.06918611 0.01968585 0.2151276 -0.1234893 -0.1285578 -0.02992128 0.01184666 -0.03690688 -0.03887486 0.04111285 -0.4260701 0.4193122 0.006094199 0.2540774 -0.1018163 0.01347692 -0.06515282 -0.01506256 -0.01380782 -0.1595775 -0.2630147 -0.1787232 -0.2001459 -0.08917085 0.2915368 0.01008089 0.1326438 0.0774363 0.2101707 -0.1875731 0.3717424 0.05339845 -0.1594124 -0.09703671 -0.1471979 -0.4724917 -0.1235911 0.07425396 -0.8609219 -0.2584586 -0.02797667 -0.1998297 -0.1911174 -0.204606 0.3620074 -0.2566063 0.05795355 -0.01015577 -0.002682573 0.06958097 0.2142885 0.2283188 -0.06163578 -0.1321273 -0.267027 0.03833411 0.05120754 0.02304257 0.0448006 0.16643 -0.01047947 -0.2034818 0.07173352 -0.07654874 -0.1973181 -0.09654043 0.05726492 0.0543601 -0.1502679 -0.6714389 0.07915536 -0.2745784 -0.1303427 -0.102427 -0.1324311 0.008758185 0.1415365 -0.1197897 -0.2059499 -0.1824785 -0.1589165 0.1962906 -0.04730258 -0.46094 -0.04876685 -0.2424637 -0.1432871 0.02225736 -0.003912183 0.03278046 -0.003795949 -0.2807395 -0.0003968937 0.3629601 -0.108979 -0.08568621 -0.4356384 0.3479072 -0.3356519 -0.06829175 -0.1293297 -0.06103171 0.3015437 -0.4986969 -0.276662 0.3876207 0.09572227 -0.2536606 -0.02239179 -0.1406083 0.1047109 -0.1686532 0.3352858 -0.3974077 0.1890103 0.1700479 -0.4077014 -0.2415482 -0.226053 0.3303697 -0.6806119 0.005122222 0.274695 0.2136836 -0.1990481 -0.06529171 -0.3580199 0.010452 0.08097104 -0.017523 -0.2395632 -0.001086111 0.2592506 0.09085342 0.06621369 0.2095586 0.03041913 -0.1756152 0.01634739 0.183896 0.08956432 -0.4777098 0.08228637 -0.102168 0.08158234 0.3205203 -0.05700009 -0.04163709 -0.4406292 -0.2826987 -0.0371605 -0.01009537 0.3205152 -0.009344208 -0.1117465 0.01309281 -0.1171655 0.1142348 0.1197567 0.05864959 -0.2365337 -0.06056808 -0.5410443 0.02825041 0.07569394 0.1620309 -0.05828074 0.1742333 -0.08809028 0.1629477 -0.1115156 -0.03924595 0.02651876 -0.4470303 -0.004183562 -0.03619839 -0.1071641 0.1732888 -0.1252891 -0.1598401 -0.1547077 -0.2975 0.1909397 0.04837504 0.3469963 0.212003 -0.2041994 -0.08520265 -0.1626713 -0.3934928 -0.6898849 0.004669845 -0.1691921 0.213099 0.02410716 -0.06239711 -0.03089457 0.2475398 0.1230884 -0.08795317 -0.4089119 0.1353627 -0.2262278 -0.1897251 -0.3266248 -0.0959868 -0.290654 0.1027005 
  0.4239157 0.2223105 -0.06025574 0.0749153 -0.3221709 0.07972445 0.2648567 -0.05965726 -0.1371679 0.4126745 0.5415602 -0.2799533 -0.112143 -0.447199 -0.004653217 0.1055656 -0.4588001 -0.1142851 -0.155435 -0.05694626 1.327014 -0.3319429 0.2845547 0.1874519 0.2116939 -0.008204116 0.4245604 0.01201221 0.3139506 -0.401953 0.1948103 -0.2262155 0.1166459 0.138037 0.2463536 0.06306121 0.1826589 1.256163 0.6938188 0.1332265 -0.3968285 0.1172383 0.1191966 -0.6576281 -0.08112673 -0.1840385 -0.2135849 0.1259216 -0.1160653 -0.2641838 1.090208 0.835906 0.0321625 0.2479154 -0.3685545 -0.2954668 0.0993541 0.1740915 -0.09303999 -0.0332285 -0.3644554 0.2054395 0.3371115 0.106947 -0.2752074 -0.1855384 0.4540486 -0.02115836 -0.2381714 1.28044 0.4021096 -0.7667447 -0.4001768 -1.276559 0.222173 0.1906318 -0.3762338 0.1879252 0.1323922 -0.009970695 -0.1206818 1.004531 0.351818 0.2146012 0.8559158 0.3693105 0.02375595 -0.01974584 -0.1507073 0.3062103 -0.2129153 0.04781406 0.02129778 -0.3111124 -0.4544764 -0.2493056 -0.26746 -0.2583015 0.2183887 -0.1057883 0.2900525 0.6068518 -0.03897678 0.5362427 0.05532559 -0.6595649 0.09948892 0.3357109 -0.3554321 -0.1354515 -1.13386 -0.3816235 0.5504664 -0.139428 0.01214404 -0.5451915 0.3957067 -0.3405109 -0.1535825 -0.04377844 -0.3266694 0.3095078 0.2026305 -0.4794748 0.271363 0.09718953 -0.2311751 -0.4429517 -0.02196609 0.1552628 -0.6987881 -0.3292361 -0.1322025 -0.02448247 0.6562142 -0.4891091 1.012143 -0.3568282 -0.1139392 0.2135103 -0.1218951 0.2033305 -0.4997804 0.4295855 0.3154556 0.4958514 -0.1456628 -0.0267995 -0.2763751 -0.6620853 -0.09206326 0.1995646 -0.4298328 -0.1945589 -0.06807754 -0.5324864 0.4250981 -0.02540873 -0.1849013 0.05457747 -0.2112677 0.4750728 0.4253582 -0.1025157 0.2733108 -0.6983152 -0.1344647 -0.195478 -0.01208497 -0.4021618 0.01110657 -0.2569301 0.4443994 -0.07576811 0.04808465 0.03962598 -0.1245144 0.4447477 0.1667242 -0.1117553 -0.009338151 0.1657133 -0.5788592 -0.1138818 -0.4874593 0.0314724 1.432365 0.4768968 0.4261162 -0.9199531 0.2310245 -0.04661138 -0.2069013 0.1561083 0.1997769 0.05047423 -0.3112387 0.360829 -0.9317939 -0.1477134 -0.2843859 -0.03210937 -0.143357 0.05358494 0.06721733 0.1555227 -0.2856048 -0.01585082 -0.5146078 0.4747059 -0.3250088 1.023229 -0.286571 0.2140038 0.3657001 0.1153265 -0.1026444 0.4995766 -0.1712061 0.01907895 0.26271 0.4423165 0.5567437 -0.02787301 -0.2131173 0.1819953 -0.3820197 -0.06196185 -0.2988914 0.8158096 -0.299881 0.1778316 -0.2115736 0.8430256 -0.02717604 0.8175587 -0.1379957 0.2357936 -0.2268298 0.5356199 0.2632528 -0.2386544 0.003719886 -0.07463376 0.4450706 0.1498785 0.3621148 -0.4347551 0.6115534 -0.05723193 0.7673384 -0.697993 0.01051192 -0.1752892 0.2607326 -0.01413657 
  0.1096162 0.04888679 0.07895315 0.3839676 0.03337646 0.2922512 0.1044223 0.555657 -0.2263515 0.0317723 -0.3515384 0.004093088 -0.2415166 -0.2510256 0.1887788 0.0527865 -0.03375402 -0.5706308 0.4472292 -0.4606004 0.3272041 0.4604638 -0.2862997 -0.3474166 0.05556557 -0.2861347 0.2394919 0.05784857 -0.1311745 0.0971601 0.07994532 -0.3550791 -0.2324994 -0.3123726 -0.3009664 -0.01088628 0.05702451 -0.5478076 -0.1638174 -0.1795605 -0.06486625 -0.5083965 0.194264 -0.1824844 -0.1974835 -0.007685696 -0.05370421 -0.1768981 0.1528737 0.1430876 -0.352994 -0.1030768 0.01732441 0.04347325 0.2367547 -0.3477736 -0.3821365 -0.2531294 -0.166942 0.3345991 0.1792538 0.391436 -0.3858648 -0.1403254 0.02387781 0.311517 -0.554364 0.08902107 0.004420744 -0.6008813 -0.2619748 -0.3072115 0.2770405 0.1036597 -0.5590539 -0.139024 -0.495287 -0.414474 0.17399 -0.1014585 -0.2878982 -0.2325497 0.1367514 -0.07252573 -0.2042141 1.434252 -0.5845298 -0.02006714 -0.2343556 -0.1736736 -0.1065065 -0.239808 -0.009983933 0.09528679 -0.1319491 -0.06622581 -0.1836489 -0.01810147 -0.1939692 -0.07649217 -0.03528749 -0.1500924 -0.0403116 0.2169394 -0.03254449 -0.05430423 0.6561464 0.248045 -0.1773055 0.2147563 0.05236876 -0.3186182 -0.2109753 0.1079441 0.03532138 -0.08296962 -0.06293739 -0.8593931 0.1082284 0.2312137 0.07910752 0.1584033 -0.118937 0.09156019 0.06434863 -0.4675633 -0.3848091 -0.1181996 -0.01787473 0.2601453 0.3314601 0.1607664 0.145743 -0.4500861 -0.1300283 -0.230367 0.2037875 -0.08046461 0.04922263 -0.08106975 0.4800661 -0.3585435 0.2066568 -0.1641258 -0.3150014 0.2753142 0.126578 -0.4365854 -0.05640437 0.06929113 0.4168853 -0.1144717 -0.07286217 0.1839738 -0.2794847 -0.3714224 -0.6085851 0.2511887 -0.1992528 0.6540669 -0.2844155 0.5703544 -0.08925083 0.1138967 -0.07589619 -0.1317127 0.08418557 0.6829609 0.1374565 -0.2221185 0.006490693 -0.01848483 0.2101317 -0.1801289 0.06995097 -0.1970565 -0.03771273 0.1029633 0.01258888 0.09700792 -0.06578585 -0.1002515 -0.1075226 -0.1498404 0.4253789 -0.2020021 -0.511892 -0.1823164 -0.1818321 -0.2079836 0.06249875 -0.1313099 -0.01512993 -0.1264053 0.4418831 -0.6701774 0.006147062 0.08980099 -0.4384407 -0.2983625 -0.1527542 0.1677968 0.1847029 -0.6685403 -0.2595543 -0.001428765 -0.4147922 0.07572663 -0.2845447 -0.4601815 0.06260075 1.206305 -0.5082003 0.7208034 0.3369628 0.4617813 -1.315618 -0.1828831 -0.129576 0.001730038 -0.03220626 0.1340425 -0.01041114 -0.1396174 -0.3851101 -0.46349 0.1654133 -0.1234145 -0.3396495 -0.251329 -0.2610593 -0.0863825 -0.4113795 -0.2237978 -0.5122415 0.2109778 -0.2930293 -0.1186811 0.2097009 -0.2714169 -0.2689984 -0.02234179 -0.269057 0.2384565 1.070389 -0.3472164 -0.2139799 0.04550513 -0.0940799 -0.255069 -0.7280049 0.5116544 0.04079756 -0.02224978 -0.1660275 -0.05947406 
  0.1685609 0.03269437 -0.03725576 -0.1512436 0.05542936 -0.1224425 -0.04339114 0.1118414 0.08361103 -0.1098807 0.2431145 -0.128503 0.486376 -0.1452158 -0.2701879 0.2562385 -0.08316161 0.5243096 0.01205874 -0.1297375 0.04198726 -0.03613651 0.09165584 -0.1023256 0.1393403 0.2394797 0.05550472 -0.05179906 -0.2969679 -0.3141205 -0.004029761 -0.1793929 -0.050374 -0.009063397 -0.1121448 0.1147805 0.193369 -0.3083458 0.08033519 -0.1218884 -0.1230852 -0.03828585 -0.1989278 0.1329448 -0.8138379 -0.5745872 -0.1250014 0.3743519 0.1559293 0.1927837 0.1750454 -0.02141401 -0.09398305 -0.3064384 -0.0760727 0.5164762 0.02945693 0.2030305 0.05400662 0.02359083 0.04301574 -0.2479622 -0.2409508 -0.02123457 0.005252987 -0.05826494 -0.02700257 -0.0938282 0.1347354 -0.1606324 -0.4006194 -0.2189533 -0.1403425 0.1690848 0.04236679 -0.06982961 0.06346702 -0.2207055 0.01366377 -0.3965025 -0.2937557 -0.02050487 -0.1238193 0.3379439 0.181851 0.02753606 -0.270106 0.07689006 0.1808531 -0.007427181 -0.1328352 -0.214788 -0.1451306 0.5184699 0.07944792 -0.2654234 0.3460368 0.2966452 0.1290294 0.3990186 -0.02464304 -0.2344394 -0.1848838 -0.31759 0.07100428 -0.08462512 -0.05365289 0.008790154 -0.5750758 -0.06964027 0.05710744 -0.1214123 -0.04105915 -0.09683638 0.07574945 -0.08582094 0.06071427 -0.02831557 0.04631303 -0.182001 0.1939975 0.1164564 -0.2571937 -0.1241517 -0.2396154 -0.1939775 0.1909957 0.1547238 -0.01127443 0.6527014 0.05621014 0.1167222 0.01496736 -0.05663546 -0.07125277 -0.1576044 -0.3739827 0.2145549 0.04435164 0.05731556 0.07113336 -0.1946137 0.2034912 -0.01001574 0.1722161 -0.05299282 0.05482037 0.08050637 -0.009923602 0.2845276 -0.01399717 0.03443754 -0.1910241 0.1577578 -0.04892076 0.07491447 -0.02190574 -0.1023912 -0.4222301 0.09637663 0.3261993 -0.2052201 0.1219356 0.04393674 -0.2348174 -0.2492097 -0.1168757 0.3018021 0.1372299 0.07756482 -0.08261263 -0.1496399 -0.1253784 -0.0389716 0.01540753 -0.2184852 0.1468236 -0.1230158 -0.3300671 -0.1346686 -0.05265457 -0.262792 0.3228454 0.260092 0.08787209 -0.0405188 -0.2855588 0.1229026 0.1806627 -0.3389741 0.0922657 0.06011328 -0.2012034 0.1528632 0.05761283 0.04582519 -0.2334511 -0.01215536 0.006205827 -0.2126849 0.03485066 0.3942421 -0.06154275 -0.0833447 -0.009087724 -0.05225515 0.004718522 -0.3176561 -0.0314251 0.09875637 -0.2401123 -0.1392999 0.03796777 -0.004013695 -0.2364477 -0.08613553 -0.005092623 0.2466352 0.1324233 -0.1724268 -0.1103291 -0.09227355 0.08453691 -0.09623425 0.1263993 -0.244986 -0.08037315 0.1055861 -0.2341574 -0.4612094 -0.132897 -0.05695149 -0.1733527 -0.1969407 -0.0008718302 -0.1329478 -0.1488247 -0.00797396 -0.05132224 -0.4186216 -0.1259651 0.03821187 0.09523318 -0.08668575 -0.1014861 -0.03777701 -0.04800799 0.01739349 0.1520796 0.1324005 -0.2089107 0.3362883 -0.06523342 -0.05931571 -0.1526928 -0.0230403 
  0.4675101 -0.01048681 -0.09348083 1.425389 0.07443615 -0.7475186 0.02023568 1.27071 0.1281513 0.4951447 -0.4194958 0.3571008 0.4899211 0.03085164 -0.005926381 0.1655016 0.3743546 0.09353576 0.2663801 -0.950726 -0.3035472 -0.3107409 -0.06384998 0.006982953 0.3888785 -0.06831551 0.3815736 -0.08294659 0.06276602 0.161922 0.2604303 -0.1652596 -0.02471685 -0.4100945 0.1629121 0.2259842 -0.5262799 -1.318288 0.1551097 -0.2907125 -0.05954939 -0.06056285 0.06592429 -0.07115225 0.4985291 0.06373123 0.5839503 -0.6608828 0.5469117 -0.20216 -0.09097355 0.5793962 0.3390741 0.1570989 0.1827928 -0.4335647 0.1893881 -0.1579345 -0.07373469 0.2216801 0.1493259 -0.06141188 -0.7466491 0.4999501 -0.4148355 0.2454252 -0.4669557 -0.1733438 -0.1871235 -0.02821456 -0.5387654 -0.4702914 0.07679933 -0.7299808 0.277541 0.225987 -0.03184644 -0.1932127 0.03712367 -0.1515904 0.4932118 0.6167739 -0.3756095 -0.1542774 0.5398335 -0.1742704 -0.5327051 0.05414496 -0.7779188 -0.6619462 -0.1762532 -0.2472015 0.1936636 -0.1232766 -0.2740514 -0.5833055 -0.3779769 -0.207968 -0.4880784 -0.385012 0.1444678 1.662248 0.1832637 -0.1642338 -0.08727016 0.2786224 -0.04789361 0.5274491 -0.02414675 0.2168383 -0.332095 0.04805396 -0.3128856 -0.04118861 0.2853419 -0.6246909 0.1458099 0.07758576 0.3146591 0.1957241 0.09928964 0.1346354 0.2488442 0.8055699 -0.3280025 -0.04154735 0.3714387 0.2006707 0.1626786 0.2469427 -0.2496127 -0.1805254 -0.009225523 -0.1403524 0.3776932 -0.03041339 0.5103325 0.1637646 -0.1606385 0.4493789 -0.4462049 0.4217682 -0.110947 0.8423586 0.1476346 0.7221693 0.07962658 -0.8016407 -0.2081289 -0.4596139 -0.8068987 -0.2111844 -0.112869 0.1336628 -0.3053093 0.1618343 0.08973169 -0.1509731 0.2235026 -0.06232899 -0.29015 0.1856141 -0.3254814 -0.3629197 0.1979275 0.4101771 0.06272065 0.1977991 0.09226886 -0.3460689 -0.4301177 -0.2253761 -0.7077571 0.1647935 0.001535923 -0.0409523 -0.200627 -0.009859608 -0.2512371 -0.1791845 -0.3149224 0.1103932 0.467202 -0.2658307 -0.0400131 -0.03104923 -0.7831464 0.2215406 -0.2102605 0.2886493 0.4098735 0.135439 -0.01099785 -0.009152064 -0.1387835 -0.2565739 0.2247888 0.2129017 0.1972097 0.1044093 -0.0524222 0.0861332 -0.09060993 0.2548621 0.3126492 -0.2615224 -0.5099804 0.2281469 -0.003106199 -0.02658633 0.5222842 0.05704647 0.4289025 0.09341586 0.07798827 0.4245549 0.01078254 0.2655658 0.03291103 -0.8519489 0.2808396 0.1818503 -0.1456373 -0.04509457 -0.07670718 -0.04886626 1.143312 -0.3614537 -0.4237779 -0.122988 0.2225416 0.3094491 -0.07215711 0.307485 -0.1671283 -0.6414445 -0.5316703 0.3229331 0.1412991 0.04013496 -0.3510418 0.3316219 0.08413384 -0.3886591 -0.3042828 0.4414299 -0.06705076 -0.2732147 0.4149935 -0.05017031 -0.07709607 0.1688688 0.2597279 -0.2359048 -0.6526352 -0.6697401 
  0.003200842 -0.1209126 -0.04855443 0.117345 -0.03099212 -0.2831732 0.02025634 -0.4220259 -0.0248441 -0.001682951 -0.3854648 -0.2012842 0.183902 0.4200054 -0.08537367 -0.254807 -0.03482118 -0.1294854 0.07294029 0.0009523481 0.1523458 0.1653843 -0.001125448 0.1894509 0.8730078 0.05295877 -0.2408508 0.09457559 -0.2421526 -0.09083138 -0.2131347 -0.010603 -0.2913069 -0.1900424 0.03794332 0.0571943 -0.2803848 0.4732722 0.006319489 0.1242561 -0.06674382 0.3586113 -0.2429847 -0.1719113 0.04532371 0.06822608 -0.1500605 0.6000135 -0.233934 -0.05682851 0.002207383 -0.1019045 -0.1212465 -0.005805897 0.1717621 -0.04108728 0.032254 0.09979144 -0.005659816 -0.106123 0.1616143 -0.2235319 -0.3078913 0.187544 -0.2596862 0.2346383 0.2790972 -0.1877878 0.3487459 -0.2584358 0.01099866 -0.1298161 -0.133508 -0.2868145 0.1479888 -0.1097079 -0.1886183 0.051051 -0.1226935 0.04692551 -0.2969177 -0.5825354 0.1712002 -0.7278777 -0.4410586 -0.28858 -0.4288049 0.06637627 0.2233161 -0.06097091 -0.0212504 -0.1037187 -0.5699241 0.03430555 -0.1431898 -0.1914875 0.02370152 0.1367154 -0.1208393 0.1289963 0.1833272 -0.1138927 0.1001943 -0.0351861 0.1844123 -0.2115725 -0.4442722 -0.2089852 0.01205495 -0.3209777 -0.1007314 -0.02883222 -0.1548594 -0.1719003 0.07708633 0.08888301 -0.04173918 -0.1254715 -0.128817 -0.02234909 -0.3958842 0.1528954 -0.08431013 -0.1843241 -0.1203226 0.04611465 -0.3253366 -0.3056444 0.05117499 0.3809272 0.1829545 -0.06224627 0.1618941 0.1030357 -0.5949938 -0.02100975 0.131955 -0.1428557 0.352695 -0.01168195 -0.04821046 -0.1511415 -0.08894715 -0.1956411 -0.1741386 -0.2637105 -0.08080512 0.1213668 0.0554192 0.08651007 -0.3408584 -0.05508757 -0.0759656 0.172252 -0.1543911 0.0284436 0.3348454 0.2739038 -0.5612816 0.1325033 -0.1032278 0.07604605 -0.02560427 0.00678291 0.02125092 0.04026165 -0.4136255 0.009201614 -0.2401447 0.1708504 -0.09663056 0.2972611 0.02237985 0.1143875 0.06499965 0.3126347 0.05456961 -0.1249502 0.1131009 0.09012121 -0.1182521 -0.4348111 -0.4682023 -0.02473272 -0.5696011 -0.06187072 0.1150998 0.2580064 -0.08213902 -0.07144732 0.06933439 -0.1416877 -0.1939713 -0.1461378 0.1259304 -0.0995803 0.05276358 0.1152044 -0.2537857 -0.08603871 -0.1426878 0.1571189 0.1198266 -0.1842536 0.2189822 0.2294718 -0.2987722 0.04648645 -0.05686386 -0.5684187 -0.03203907 -0.163699 -0.1148687 -0.06159026 -0.1452795 0.03927545 -0.5714857 -0.1592025 0.4410819 -0.1652503 0.009052621 0.4646115 0.06598286 -0.05419046 -0.02718489 -0.04345519 -0.1310854 0.006707072 -0.08301031 -0.2388641 0.2653444 -0.1616427 -0.2416032 0.2040463 -0.04178487 -0.04759035 -0.2895391 0.03865297 -0.2310637 0.2232519 -0.1829943 0.2060077 0.002849665 0.3389362 -0.1212955 -0.2736788 -0.1420394 -0.05185619 -0.3340011 0.1239756 -0.3006891 0.1641851 0.1067998 -0.0712955 -0.354622 -0.1875789 
  -0.2593862 -0.06738699 0.1436581 0.1851836 -0.1440819 -0.09161491 -0.06410848 -0.03787664 0.1812159 -0.1000697 -0.05364619 -0.180683 0.1675755 -0.07074241 0.3262886 0.155843 0.3088133 -0.01579907 0.08639147 -0.5944762 -0.008435363 0.04390011 0.1995828 0.2009369 -0.1087968 -0.2693921 0.06549141 0.08182299 -0.2826562 0.192599 0.0217136 -0.1478084 -0.3074804 -0.2907501 0.3498535 -0.02965616 -0.1798927 -0.08432148 0.1371433 -0.1556035 0.2093061 -0.2239435 0.2581287 0.0447272 0.3122881 -0.2454425 0.07442374 -0.5441052 -0.103788 -0.1870431 0.05169442 0.2297786 -0.004150446 0.3096889 0.001624837 0.1199277 -0.1269561 -0.1897368 0.7176899 -0.2452116 0.3442358 -0.1451157 -0.7036665 0.2694761 -0.202738 0.1280737 -1.033107 -0.1230651 -0.02259326 0.1044804 -0.9928927 0.08804491 0.2026435 -0.2586089 -0.2539867 0.1806587 -0.06819445 0.09896073 0.2696486 -0.05746349 0.2081201 -0.008866342 -0.006384583 0.1726482 -0.02446796 -0.1427298 -0.263214 -0.2949207 -0.2534761 -0.2235669 -0.1583561 -0.2444379 0.1009427 0.04252706 -0.05129052 0.4297651 -0.2010258 -0.8780274 -0.09521188 -0.3063555 -0.03065697 -0.4039234 0.2837432 -0.03086201 0.141659 -0.09911378 -0.08214515 0.05003334 -0.075153 -0.02114187 -0.1787009 0.1328023 0.05840885 -0.3799725 -0.1126914 0.3387982 -0.2731036 0.260939 -0.1771124 0.4029655 0.126859 0.009334255 -0.4537782 0.1718522 -0.1039701 -0.1381256 -0.301321 -0.01850597 0.09045087 0.2038815 0.08447054 -0.1178323 0.1986828 -0.01593484 0.1932333 0.4069484 -0.181247 -0.1120704 -0.2969722 -0.2537826 0.009794802 -0.2690044 -0.5866731 -0.4678712 -0.03212491 -0.2389447 -0.05594355 0.09160981 -0.01191269 0.1667341 -0.1061621 0.3008019 0.05303373 0.1429843 0.1089154 0.2113949 -0.2884521 0.1340825 -0.05251145 -0.2167986 -0.1346887 -0.498922 0.1419136 0.07571032 0.03865736 -0.06763134 -0.3118928 -0.0580979 -0.03009642 -0.5679571 -0.4654876 -0.2491787 0.08918142 0.2872515 0.07780585 -0.5227143 -0.2633907 -0.3029589 0.007973332 -0.1130942 -0.2143637 0.02029034 -0.05061999 0.2302505 -0.05534196 0.04969508 -0.4652925 -0.00180461 -0.005104371 -0.146077 0.07508229 0.02890249 -0.003239006 0.180453 0.282364 -0.5517367 0.06617487 0.07430924 0.08083759 0.1541344 -0.002782283 -0.2489513 -0.01777116 -0.7996567 -0.01654712 0.03623263 0.05140055 0.3127289 0.1079473 -0.1899186 -0.07193336 -0.1547329 0.1863223 0.2738846 0.1022297 0.1467999 0.1845135 0.05515942 -0.0398426 0.2078909 0.2192564 0.05121683 0.09950843 0.09001604 0.1915141 0.3901712 -0.08627014 -0.216709 -0.5086244 -0.2098172 0.006521522 -0.3253502 0.1225034 -0.5690811 0.5567436 0.09757908 -0.1611308 -0.1303702 -0.1049808 0.01980056 0.03884864 -0.062901 0.09007522 0.13302 0.01043468 -0.06143428 0.01870596 -0.02577299 0.02960825 -0.07403143 0.004972575 -0.1883244 0.2391042 0.09401729 -0.02834321 -0.03504732 
  -0.162688 -0.05239268 0.06806974 -0.1987254 -0.02192391 -0.3465655 0.07211724 -0.1848548 0.09333805 -0.1799095 -0.2392005 -0.1306753 -0.01179867 0.02460491 0.05456637 -0.03930636 0.07131416 0.2149285 0.01217341 -0.6989303 -0.0995513 0.2652202 -0.01493632 0.1722462 -0.2169857 0.07726396 -0.2619569 -0.09431481 0.2267071 -0.241225 0.07951577 -0.2261968 0.1241804 -0.5851116 -0.3116882 -0.0267178 0.3129575 -0.003670585 -0.03016671 -0.08917948 -0.4160005 0.2290634 -0.09639717 -0.01518928 -0.1404274 0.04002504 0.1617489 0.1079133 0.01745822 0.01571524 -0.3176711 0.3154477 -0.002637589 -0.08752625 0.2342649 -0.02537848 -0.4480639 0.1835168 0.03308817 -0.00611893 0.3440933 -0.1310079 0.1822941 -0.09901201 -0.2976387 0.1799279 -1.51108 -0.1559422 -0.04849354 -0.3746253 0.08835459 0.02355142 -0.007384859 -0.1932493 -0.3968324 0.1758374 0.138135 0.1275695 -0.06176491 -0.1580247 -0.232968 -0.1655456 -0.1849844 -0.2986381 -0.3545885 0.1703574 -0.2739409 -0.2012172 -0.3441251 -0.2684898 -0.04556902 -0.125513 -0.001765494 -0.01992876 -0.530188 0.3361086 0.05470953 -0.03161823 -0.04252236 0.0672814 -0.1766567 -0.09255387 0.05756199 -0.05297115 -0.05284038 -0.09172183 -0.08392867 -0.1567314 0.07846313 -0.3048679 -0.1124583 0.04200337 -0.2119082 -0.2773079 -0.05927702 0.107436 -0.2536924 -0.1188563 -0.121391 0.08906511 0.06208168 0.03896749 -0.1671974 -0.1440861 -0.7960876 0.03725266 -0.2192923 -0.01223345 0.04045342 -0.581058 0.1087728 -0.07238653 0.1695476 -0.08369618 -0.202003 0.2415429 0.07083171 0.02451823 0.01996377 0.2764062 -0.2229155 0.8611167 0.401832 0.25686 -0.06608356 -0.006138111 0.1259666 0.1677048 -0.07130008 0.05131049 -0.09417151 -0.3862474 -0.04299161 0.3185164 -0.1894644 -0.2706433 -0.01012123 0.07983077 -0.2501795 0.03134531 -0.1739814 0.1504198 -0.2124259 0.05889533 -0.1007904 0.2769256 0.05567827 0.01036583 0.1246687 -0.3412966 0.07585651 0.1479629 -0.1462263 0.2027198 0.1985551 0.1635374 -0.05626322 0.07018159 0.217656 0.1595459 -0.05656917 0.06630763 -0.1774641 0.03340215 0.08218534 -0.003927574 0.08213034 -0.2227917 -0.1501109 0.1192252 -0.1301437 0.1316755 -0.08844931 0.1397843 0.007266792 -0.0544026 0.06755488 0.1051447 -0.2381432 -0.7767414 -0.08139856 0.08321083 0.04904811 -1.190537 -0.291214 0.07423686 0.02028958 0.03158443 0.05307747 0.05886802 -0.02877763 -0.0402973 -0.1199425 0.1672581 0.1470936 0.1063829 0.008409144 -0.03951145 -0.1748912 -0.4935336 -0.0975196 0.0597684 0.1121145 0.06122505 0.1702383 0.02017211 -0.1337777 -0.03387189 0.05069571 -0.2431398 -0.02315235 0.2498769 -0.1404266 -0.1078276 -0.1222155 0.2666587 -0.2288525 0.1099855 0.1082992 0.1668038 0.01345954 0.1127503 0.03737913 -0.2499405 -0.224937 -0.1347397 0.1491672 0.05015958 -0.3830857 0.127243 -0.09586871 -0.216286 0.1023514 0.1868446 0.1300062 -0.08328515 
  -0.3573402 -0.1809689 0.1348371 0.1532647 -0.04360974 0.2089275 -0.08030786 -0.3149015 -0.07500017 -0.4879415 -0.2865438 -0.100361 -0.04789938 0.1154719 -0.5650491 -0.3068208 0.07177247 -0.3838784 -0.004057973 -0.2132406 0.2314484 0.07515156 -0.1999012 0.218718 0.3305896 -0.002542981 -0.1597168 -0.1737821 -0.02944857 -0.3747593 0.2848257 -0.4328991 -0.07557355 -0.3940285 0.06175507 -0.007412234 0.1931296 -0.2689263 -0.3750108 0.1693167 -0.1211393 0.1033844 0.0408819 -0.02615806 0.1292046 -0.09847318 0.1056175 -0.08592192 -0.1386763 0.2888936 -0.2369417 0.2487408 0.3761221 -0.03145108 0.1048784 0.2483741 -0.04033734 -0.1105568 -0.05054689 -0.09201385 -0.2776062 -0.2137529 -0.3778017 -0.04010653 0.2912073 0.1854791 -0.0277623 -0.03312753 0.1412447 -0.3554375 0.0294178 0.04417233 0.1540628 0.03443583 0.7146276 0.1413509 0.101521 0.3448965 0.04667323 -0.07941505 -0.4697146 0.1600504 0.2404812 -0.02008298 -0.3756304 -0.03679016 -0.3592751 0.08624011 -0.06821039 -0.007176048 -0.007131862 -0.06734665 0.153347 -0.1054142 0.146873 0.1898423 0.003170538 -0.06472588 -0.1098566 0.07115886 -0.1432757 0.3193368 0.01541009 0.2597507 0.0511883 -0.07630781 0.186063 0.413575 0.09752364 -0.1206792 0.09188288 -0.02828839 -0.4029781 -0.02958102 -0.03167005 0.03254164 0.03396064 0.008037728 -0.003629992 -0.1266739 0.1456898 0.006141417 0.1030422 -0.3161911 -0.2458626 0.07980261 0.03075509 0.2218182 -0.2578166 -0.349583 0.2099569 0.02967864 -0.1225837 -0.187196 0.3121276 0.1696185 0.06343065 0.09014177 -0.1102504 0.02623849 -0.08627576 -0.1025637 -0.2403923 -0.1101755 0.2428699 -0.1746882 0.01267878 0.1456373 -0.1260066 -0.09596591 0.2513321 -0.1624286 -0.2707227 -0.1385934 -0.1912544 0.07930207 0.1560073 -0.02500091 -0.411789 0.2204863 0.01800018 -0.4211313 -0.005415448 0.2503901 0.0003677892 -0.1132989 -0.1820973 0.02006768 -0.01421622 0.06706513 -0.01494534 0.00213323 -0.03191916 -0.1695887 -0.1629707 -0.3268907 -0.07249998 -0.04186585 0.1665937 0.2845158 -0.07406215 -0.168075 0.07161186 -0.1289182 -0.1118223 0.1341844 -0.06159134 0.04040202 -0.03758414 -0.3946238 -0.1572339 0.1950954 -0.05890248 -0.360775 -0.05947056 0.0125799 0.1680122 0.04504102 0.5260461 -0.4477681 0.02345187 -0.02007633 -0.1362729 0.3125316 -0.257056 0.00790353 -0.1045161 0.1484687 0.1163998 -0.1703324 -0.3873913 -0.259388 0.1304771 -0.102737 0.03484657 -0.2963541 -0.310192 -0.1911813 -0.01045172 -0.2482055 0.5175359 -0.1266797 0.08182169 -0.06828882 -0.001231311 -0.01260132 0.1106534 0.4122829 0.07338706 0.4128136 0.03104201 -0.4676219 0.02804209 0.0951106 -0.1759152 0.1357468 0.01829727 -0.02795078 -0.02152871 -0.3042551 0.2105118 -0.5246287 -0.1034918 0.3105378 -0.1525449 0.2372738 0.3446505 -0.02292166 -0.1679056 0.0455212 -0.1639733 -0.00469687 -0.08889893 0.06357173 -0.05047194 0.1571251 
  0.1052975 0.02829417 -0.100526 0.188526 0.5360559 0.158939 0.1287363 -0.1459792 0.1795128 -0.1651226 0.03321511 -0.2158719 -0.05894404 0.0959335 -0.03526634 -0.2104013 0.05051478 0.2293333 0.0972002 0.1404686 -0.3169228 -0.02433082 -0.06098993 0.1842286 -0.02723386 0.2066417 0.06471714 0.01261628 -0.6852263 -0.1751875 -0.1334302 -0.4058829 -0.1395403 0.1993155 0.1201464 -0.4397179 0.2032863 0.07033665 -0.0004396987 0.09458552 -0.1346792 -0.0725846 0.009509124 -0.1014024 0.009664125 -0.1012925 0.1106187 0.05411056 -0.2520767 -0.01283794 0.09315044 -0.01779261 -0.0597993 -0.02727605 -0.3627663 0.02473017 0.08430114 0.00217818 0.07990901 0.2611517 0.06689762 0.09308728 -0.1754524 -0.054682 -0.1463045 0.1868427 0.1204268 -0.006511869 -0.1420541 -0.1298937 -0.2558452 0.2720048 0.1761828 -0.03831593 -0.07323365 -0.1073319 -0.2852516 0.02646153 -0.09698147 -0.1207766 0.1642335 -0.03807196 -0.01047484 0.3264713 0.1536175 -0.150549 -0.1694802 -0.03449815 0.01544333 -0.10827 -0.2784891 -0.176966 0.03111265 -0.1553455 0.09682211 -0.08640437 0.2099356 0.1527745 0.2705728 0.08805916 -0.1886937 0.1744672 0.2517621 0.1617506 -0.06171963 -0.2500017 -0.05714234 0.1491603 -0.1919069 -0.08403838 -0.07656128 -0.1070146 -0.2795098 0.07285886 1.054157 -0.2589525 0.06368268 -0.0004193173 -0.1458711 0.09481786 -0.03206494 0.09347218 -0.4432528 0.01746923 -0.1399027 -0.1080144 0.3337528 -0.07340782 -0.2518232 0.2644763 -0.02136792 -0.05044386 -0.08869288 0.7326394 -0.3205915 -0.01040266 0.009858471 -0.2499627 0.2697124 0.1101868 -0.04259329 -0.0181861 0.153902 -0.0355779 0.06850089 0.01259644 -0.03667483 -0.08002076 0.2224769 0.2645345 -0.1364175 -0.2315548 -0.03190684 -0.00138743 -0.03607234 0.06216848 0.1550783 -0.05874905 -0.02002632 -0.07177833 0.08209445 -0.4587952 0.4110473 -0.02507678 -0.3318361 -0.06548411 -0.0969156 0.2131633 0.1190007 -0.09727579 0.04381577 -0.1645689 -0.1357815 -0.02915926 0.1554767 -0.06936019 -0.05270821 -0.03042503 0.02670097 0.5227777 0.01556651 -0.1999217 0.06791925 -0.06908394 -0.4346406 0.390463 0.1266977 -0.001624952 -0.0151344 -0.007371582 0.136094 -0.0889935 -0.1223581 0.05099543 0.004008743 -0.00543649 -0.2491062 -0.03455119 0.004853108 -0.36121 -0.05449872 0.02462956 -0.2432337 -0.1181867 -0.1499742 0.0908273 -0.1287607 0.3563346 0.1235415 -0.1641228 -0.2428908 0.01833656 0.02343819 -0.0516945 0.06374656 -0.03185085 -0.3297696 -0.0348538 0.1184375 -0.08342738 0.1504732 0.1609554 -0.06167394 0.3004708 0.1169722 -0.04660162 -0.1187019 -0.005319903 0.01267569 -0.2412853 -0.03580137 0.02034443 -0.01253216 -0.6242657 -0.1395392 -0.1122487 0.3082715 -0.2018766 0.01822569 0.1187553 -0.1516087 0.02348656 0.6160668 0.1465585 -0.04242882 0.03213738 -0.06571321 0.003560325 -0.0577622 0.208598 -0.003628604 -0.2113597 0.03541146 -0.01002211 -0.1168724 0.06903397 
  0.04453447 -0.2361487 0.001130332 -0.3019263 -0.05851514 -0.2273928 0.08836913 -0.2598005 -0.2369222 0.07506664 0.1101965 -0.05334465 -0.1002586 -0.4608589 0.1440658 -0.3261961 0.02420328 0.177499 -0.2988139 -0.1590468 -0.2838271 0.1086022 -0.09891099 -0.2518038 0.005302894 -0.08667319 -0.03662374 0.07290366 0.2495884 0.04201828 0.1394305 0.2296916 -0.3305851 0.07863341 0.06438654 -0.03882518 -0.0533468 -0.1715777 0.1778982 -0.0243414 0.2955501 -0.1540485 -0.4739073 -0.07261788 -0.76066 -0.1632978 0.189922 0.04236171 -0.308097 0.20681 0.04764596 -0.04289925 0.09252273 0.01385458 0.01534543 0.2920109 0.1234923 0.1591585 0.01482759 -0.0787069 0.0138414 0.08890247 -0.447914 0.07316434 0.08290169 0.07866257 0.05666106 0.04583211 -0.1091449 0.1779391 0.2365085 -0.6160394 0.1524832 -0.08618459 0.2329049 -0.01442649 0.02304024 0.341186 0.1125234 -0.2109278 -0.1142287 -0.1685643 0.2504311 -0.1194485 -0.0497328 -0.1664511 -0.4723665 0.188575 0.04841135 -0.01648762 0.08010535 -0.1990221 -0.1683376 -0.09077666 0.2261932 -0.5458483 -0.01477269 -0.07856651 0.2200274 0.3070861 0.1178374 -0.006333876 -0.08096674 -0.07305705 -0.02152604 -0.147352 0.2421104 0.1474566 0.222194 0.2743163 0.1098771 -0.07053005 -0.1902714 0.01589097 -0.1345286 0.165934 -0.1453841 -0.2636371 -0.1480042 -0.2220694 0.3387045 0.1346209 -0.02573626 -0.03262357 0.02893723 0.1197343 -0.1864943 -0.1731472 0.009549039 -0.1722506 -0.1249181 0.3043266 0.2916981 0.1006556 -0.09046984 -0.2038067 -0.4646389 0.1047081 -0.08674477 -0.1239434 -0.1593883 -0.1104449 -0.02090173 0.2577777 0.1400338 -0.2410172 0.03210289 -0.08385508 -0.06090925 -0.01027138 0.1219122 0.2951495 0.5233188 -0.1938178 -0.05582163 0.221588 -0.06834564 -0.518286 -0.1501504 0.01747818 0.2549632 -0.4062641 -0.1712913 -0.2057156 -0.1198128 -0.2856266 0.2184177 0.09804906 0.02087761 -0.1886727 -0.3525149 -0.05294975 -0.2393599 -0.02689595 0.1207073 0.3091595 0.024293 0.1816594 -0.401997 0.1861274 0.05795989 -0.09925821 -0.2350295 0.03973585 -0.06517764 -0.1379114 -0.2558001 -0.03622522 0.1284823 -0.5248524 -0.05401095 0.1962328 -0.5654578 0.05244529 -0.293536 -0.01737394 0.3972887 -0.1161214 -0.1177669 -0.01610725 -0.01019365 -0.1303084 0.1207587 0.2516418 0.355446 -0.3844765 -0.03073545 -0.2557734 0.2457865 -0.01751521 0.1908844 0.129406 -0.1492531 0.5497505 -0.2082517 0.01033526 0.4101335 -0.1436635 0.01513578 -0.1010014 -0.05675454 0.05875859 -0.2459161 -0.270256 -0.299553 -0.4310212 0.001222864 0.2228465 0.1996495 -0.696678 0.1443902 -0.1335563 -0.03380643 -0.0183747 0.1408447 -0.03398937 -0.5874631 0.2406642 -0.5527062 0.3762078 -0.3469332 -0.003741451 0.09750738 -0.07985503 0.02078925 -0.1783199 0.08974341 0.03325874 -0.1478002 0.02116697 -0.1367031 -0.2119838 -0.2791437 -0.1714767 -0.1476427 -0.0701279 
  0.3377823 -0.1029312 0.3650558 0.403103 0.08222936 0.1562494 -0.2043543 0.2482072 -0.0544681 0.05939503 0.372428 0.9684149 -0.4253818 0.3994992 -0.4357525 0.3333316 0.09312803 0.2869335 0.844176 0.3554605 0.548869 0.1015003 -0.2038345 -0.03727469 0.1532029 -0.4139853 -0.1584143 0.280042 -0.3343919 -0.09986115 0.2498997 -0.3161155 -0.264692 0.07500531 0.05355867 0.09615999 0.3808246 0.1554312 0.01323928 0.4368832 -0.1614655 0.002781831 -0.1091872 -0.4103622 -0.4589496 0.002678344 -0.09009722 -0.44525 0.08039289 -0.3046919 -0.3982849 -0.1771612 0.007144561 -0.5040342 0.10157 -0.2552342 -0.3634802 0.1854175 -0.1081881 0.1841601 -0.1606878 0.07115965 0.9016932 0.1702527 -0.2372745 0.6291928 -0.3094251 -0.9941808 -0.08334191 1.287711 0.2941542 0.3549427 -0.06016278 -0.7171264 0.2702907 -0.1417311 -0.3330847 -0.09570145 0.2360107 6.755916e-06 -0.3608106 0.6429628 -0.1746808 0.4469636 0.09606944 -0.02970526 -0.2826938 -0.142331 -0.07515259 -0.5017723 -0.3205477 -0.7177347 0.02695354 0.02517101 0.4391637 -0.395103 -0.08710948 0.162035 -0.1302844 0.00179706 0.4905919 -0.5911297 0.1001502 -0.6444073 0.0794526 -0.3376876 0.3121493 -0.1745551 0.205312 -0.8873186 -0.24667 -0.1798075 0.05420069 0.1473057 0.3096514 -0.1853039 -0.4952925 0.2511857 0.1201703 -0.02461078 -0.3055122 0.116542 -0.3970934 -0.3203906 0.6221048 0.1329395 -0.2501671 0.05378693 0.03000557 -0.02239041 -0.002622342 -0.05388992 0.08963719 0.267631 0.05110127 -0.03009332 -0.2780319 -0.1397315 -0.07138751 -0.1321684 -0.5723609 -0.1827477 -0.2378839 -0.1340888 0.4506921 0.4479834 0.1443874 -0.4319133 -0.08902466 0.1934532 -0.3887187 -0.1933583 0.02211255 0.457974 -0.6608656 -0.1613298 0.3177094 1.756073 0.1818951 0.09626354 0.2142232 -0.6187662 -0.2727382 -0.1519555 0.3460779 -0.2838997 0.8482385 0.2127897 0.2559687 -0.272716 -0.2736568 -0.2323949 -0.3982827 -0.0451736 -0.1379242 -0.1588029 -0.2509571 -0.4319576 -0.2349363 0.01357389 -0.3440919 -0.1706091 -0.2405119 0.04632404 0.1872111 -0.3608746 0.7152625 0.09299981 -0.2254891 0.1054678 0.01959324 -0.06194549 -0.7675107 0.1321317 0.08583327 -0.2577356 -0.1595395 0.01524497 -0.2286963 1.126279 -0.1669951 0.1890813 -0.09956515 -0.1032528 -0.08811641 -0.1911112 -0.08867317 0.168865 0.2372447 -0.04978473 0.1907211 -1.001182 -0.2704786 -0.4558431 0.2047878 0.07731144 -0.2749912 -0.1123677 -0.09007685 -0.006736404 -0.7299398 -0.09251249 0.02733496 0.1030431 -0.1326233 -0.5757469 -0.4856624 -0.440864 0.1466131 -1.360983 -0.5632219 -0.004161891 0.1905278 0.03183062 -0.2040596 0.2624966 0.4077444 0.2172835 -0.1443069 -0.5747424 -0.07546771 0.2350556 -0.1760969 -0.03719035 0.1034625 0.4727096 -0.2309443 0.4590077 0.007537164 -0.2086762 -0.2801861 0.6581295 -0.4334151 -0.1972002 -0.1364069 0.1670745 
  0.03234905 -0.0846799 -0.02768794 0.003465541 -0.4532069 -0.1870062 -0.3914991 0.2001436 -0.02954016 -0.1629113 -0.2150556 -0.1107179 0.01616196 -0.09229086 0.01645677 0.007767535 -0.2937972 -0.1359976 0.1045842 0.1486092 0.1561593 -0.09947815 0.05210484 -0.190873 -0.3169506 -0.1273501 0.2916428 -0.2952942 -0.4125837 0.03782593 0.1965404 0.1129979 -0.1696536 0.0240504 0.1500194 -0.2807894 0.1577959 -0.1173445 -0.1004307 -0.1860825 0.5125537 -0.03498577 -0.11315 0.2193838 -0.08991374 0.09032986 -0.1668889 -0.04104147 0.002889184 0.03552286 0.1791555 0.1242868 0.4066204 -0.01949816 -0.2029769 -0.1091377 -0.1276615 -0.02652982 -0.2351559 -0.2186161 0.2797162 0.3334606 -0.01591906 0.1812804 -0.07716824 -0.03140128 0.01585274 0.05110579 -0.09082608 -0.05338509 -0.2731574 0.1099596 0.2004882 0.03891737 0.2976196 -0.3032302 -0.01184879 -0.2452932 -0.5520906 -0.2795891 0.3992894 -0.1467558 -0.1994347 -0.006418275 -0.3146763 -0.2603713 -0.2008912 -0.1066488 0.3224732 -0.1134459 0.4846953 0.02687244 -0.8238304 0.13948 -0.04937273 -0.2593623 -0.227655 0.05028546 0.2498586 -0.02216319 0.06206812 -0.2810245 0.04509139 -0.01724605 -0.002679066 0.06412619 -0.1262141 -0.04057162 -0.3133609 0.1540588 0.4305009 0.4775202 -0.1005512 0.227888 0.01001856 -0.05455892 0.455734 0.1622497 -0.1562292 0.1355673 0.2143327 -0.1213145 -0.1779529 0.0986064 -0.3225401 -0.1328551 0.08956071 0.07793669 0.01829117 -0.036831 0.09232058 -0.09996644 0.0599512 0.0631571 0.4688038 0.02858348 -0.03611885 -0.03886012 -0.2198182 0.03769267 -0.08121903 -0.1712836 -0.2684017 -0.05368701 0.04134094 0.02312173 -0.6093596 -0.05588901 0.1367542 0.2628765 0.006653763 -0.09004531 -0.1788209 0.02757816 -0.08974598 0.0950179 -0.03656124 -0.3574106 -0.2363263 -0.08086538 0.2700318 -0.09861533 -0.2903801 -0.2191359 -0.2312949 -0.01318232 -0.05663045 -0.1387185 0.09194227 -0.2083058 -0.08208689 -0.0788791 0.3238251 -0.1134084 0.03096829 0.1957351 0.1007758 -0.2167069 0.2931127 -0.01106785 0.1625423 0.1790692 -0.2667124 -0.4086097 -0.2547808 0.596099 -0.04261573 -0.21392 -0.1081149 -0.4694023 0.3191519 -0.1947979 -0.04237445 0.2526556 0.2117653 -0.1149556 -0.2095289 -0.152898 -0.4384405 -0.08763512 0.5401214 -0.1293391 -0.8710582 -0.006360452 0.1218221 0.0668785 -0.06649156 -0.1856994 0.01204727 -0.2932531 -0.6086137 0.02870071 0.04668976 0.1723272 0.0706278 -0.09211862 0.02266888 -0.1437523 -0.2457074 0.09060115 0.2768452 -0.002793486 -0.04607764 0.06405974 0.1031625 -0.1423439 -0.07006361 -0.09827368 0.2240205 -0.06607593 -0.07480098 -0.2334217 0.1726988 -0.1914702 -0.2028395 -0.06847986 -0.1568151 -0.1933795 -0.1195485 0.1295339 0.03606136 0.1602659 -0.526976 0.2501055 0.05070574 -0.2553242 0.3810139 -0.06789733 -0.1493465 -0.1897022 0.1191392 0.3353485 0.2150928 -0.09211302 0.332476 0.4174994 
  -0.09059894 -0.2977038 0.06773083 0.1234113 -0.0702951 -0.09452378 -0.2167313 -0.2111183 -0.1607056 -0.1464601 0.07013357 0.03305779 -0.3887655 -0.1296422 0.04464919 0.1766823 -0.01540269 -0.0124723 0.08117475 -0.02402408 -0.2940455 0.1646465 0.013585 0.01044217 0.2411544 0.30913 -0.08943271 -0.004943777 0.2858955 0.1014761 -0.03559234 -0.0103421 0.2077454 -0.03853767 0.1709392 -0.05737754 0.2503244 0.1437855 0.001911966 -0.03494978 -0.005208123 0.2830797 0.6576067 -0.09415691 -0.1023937 -0.03694586 -0.6436436 -0.2987615 -0.03927523 0.2386044 0.170335 -0.2052899 -0.01589748 -0.02913702 0.1614262 0.02095354 -0.188348 -0.1562685 -0.1738826 0.03667728 -0.3603128 -0.001603712 0.03296611 0.01571063 0.1389842 -0.02091185 -0.05955438 -0.1114574 0.4038542 -0.1040792 0.03566299 -0.1111862 0.1528278 0.3708073 0.06552532 -0.188439 0.009477196 -0.0362886 0.4787742 0.00420953 -0.4465466 -0.3389041 -0.4252471 0.371946 -0.04460683 0.2094041 -0.3927218 0.04758162 0.106718 -0.160676 0.2349294 -0.06576367 -0.2127225 0.0882527 0.07220268 -0.1690755 0.07854645 0.0905105 -0.034403 0.1726846 -0.01465922 0.06653978 0.2698763 0.005160533 0.1109927 -0.03997284 0.1003351 -0.1392995 -0.0001594179 0.02830823 -0.03065285 0.03952973 0.2472409 -0.2069399 -0.0627999 0.3165503 0.3976787 0.1267202 0.08753166 0.09210222 0.1833468 0.04255642 -0.01756978 0.2955385 -0.1302594 0.1010103 -0.2892041 -0.187362 -0.003029819 -0.04786156 -0.1046178 0.0773709 0.1765076 0.1472214 0.05338334 -0.2597067 -0.09798717 0.04430548 -0.1289775 0.1448635 0.05515257 -0.1529305 0.004260343 0.1687932 0.1786121 -0.0002243386 0.05253676 -0.03192815 0.08991218 0.0007702332 0.06693123 0.1081102 -0.04306817 -0.03967867 -0.1893747 -0.04042186 -0.1265047 -0.1948659 -0.05419317 -0.05072051 -0.2353105 -0.1768628 -0.1298421 -0.1664508 0.03119416 -0.08323642 0.4218222 -0.04583317 0.06279627 -0.07761366 -0.288519 -0.07919572 -0.03440334 -0.7704607 0.4782906 0.07344322 0.09641295 -0.09722264 -0.1149312 0.1484805 0.4681354 0.1667769 -0.06931026 0.1479064 0.1049132 -0.008410926 0.02291701 -0.1521837 -0.06611232 0.006284165 0.1299034 -0.05794909 0.6101734 0.125722 0.08295509 0.1097686 -0.04687601 0.2796978 -0.2304583 0.06681206 -0.1032245 -0.4438768 0.05331394 -0.2420679 -0.2902512 -0.1342325 0.05311503 -0.1882282 0.132612 0.211417 0.2934121 -0.1174959 -0.1645491 -0.1416718 0.100158 -0.1561526 -0.01341214 -0.05647581 -0.06528053 -0.05762089 0.05256158 0.2167213 0.5390868 0.4199786 0.1054642 0.0405415 -0.005252233 -0.01514601 -0.1031729 0.02654817 0.2117981 -0.0141954 -0.1374377 0.1240913 0.2529556 0.1407901 -0.1419646 -0.06070581 -0.2785912 -0.05885727 -0.01157459 -0.004817951 -0.0397763 -0.1289829 -0.04034317 -0.1196087 0.08861197 -0.1836041 -0.2303439 0.9220098 -0.07916085 -0.01798279 0.1391728 -0.02634286 0.1316848 -0.009383524 
  0.3147795 -0.2766794 -0.4164928 -0.02550569 0.0691652 -0.4830945 0.05492682 -0.3762307 0.2859246 -0.04926511 0.06073734 -0.6777256 -0.07372676 -0.1260619 0.01503392 -0.1850685 -0.03987569 -0.3455341 -0.02505098 0.08797437 -0.1232914 -0.1995221 -0.0915705 -0.1147014 -0.007242487 -0.3261819 -0.2400501 0.2263766 0.003460485 0.3359472 -0.1524315 -0.2944123 0.0348409 -0.3457505 0.07776226 -0.09664447 -0.3470866 -0.06412654 0.06933231 -0.3825629 -0.05227576 0.3339293 -0.02005184 -0.1219494 -0.3302795 -0.1392156 0.209879 -0.4834817 0.4742967 -0.3581575 -0.7848999 -0.2628756 -0.2018006 0.2875984 -0.3389425 -0.05519604 0.006117726 0.01787801 -0.2422255 0.01079394 -0.009217231 0.01079761 0.1167734 -0.05606265 -0.04728895 -0.0173467 0.1730362 -0.03608324 0.08688255 -0.5554736 0.1104238 -0.04115041 -0.06715454 0.2147995 0.1404769 -0.02770648 -0.01050746 -0.2015805 0.5350628 -0.009113989 0.2278421 -0.08489341 0.07642639 -0.2450781 0.1939964 0.1632004 0.1082491 -0.2954365 -0.07156736 -0.2247736 0.03529892 -0.08056905 0.01420993 -0.2696812 -0.05155588 -0.03372711 -0.312359 -0.2840799 -0.289706 0.09122972 -0.1005782 -0.1465832 0.1014314 0.1295601 0.02765908 0.02573478 -0.02143276 0.2566147 0.2972034 -0.2428632 -0.4247597 0.02780467 -0.5746782 0.07774242 0.04806286 0.1848659 -0.2932502 0.03641649 0.2148587 -0.09269323 -0.1598101 -0.09347286 0.1030125 -0.2439842 -0.4623028 -0.3304628 0.5438033 -0.0728499 0.1680312 -0.07437901 -0.07222033 -0.09738871 0.2958676 -0.357277 -0.4305451 0.06555287 -0.1932265 -0.07757916 -0.2366093 -0.2202934 0.1263561 0.1564981 -0.1314003 -0.2040987 -0.2367959 0.1590027 -0.05913522 -0.1920671 0.3398946 -0.004739278 0.06387511 -0.1548053 -0.1005917 0.09431512 -0.07834239 0.1465336 -0.231629 0.01879502 0.2944443 0.8629048 0.135932 0.0005325727 0.1537773 0.003132815 0.07053719 -0.1177752 -0.3883893 -0.0130895 -0.1908089 -0.2231862 -0.16764 0.2153887 -0.6147286 -0.00877284 -0.1682043 0.05353626 0.10479 -0.01074189 -0.2962128 0.2796326 -0.1354219 0.5326536 -0.04930891 0.3188777 -0.5404114 -0.1137312 0.1143989 0.1463681 -0.3482675 -0.3345265 -0.1503488 -0.1553686 0.2143561 0.008311394 -0.03623294 -0.01703255 -0.2331716 -0.1002858 -0.04863589 -0.4829217 0.02880668 -0.1331929 -0.1682613 0.03454986 -0.04254639 0.2353682 0.1124034 0.1894232 0.1691072 -0.2474506 -0.1879073 -0.3801956 -0.1273196 0.316736 0.01168326 -0.06103783 0.147725 -0.2028652 0.00997155 -0.0455905 -0.2030986 0.2523935 -0.08069108 0.06385529 0.2798177 0.00666232 0.05190844 0.148526 -0.05130571 -0.1080012 -0.03243984 -0.2752896 -0.09115136 -0.5484885 -0.2010376 -0.1267765 -0.1377313 -0.07046173 -0.05875486 0.07755656 0.1687424 0.1557698 -0.3675139 -0.1742191 0.1905236 -0.02379223 0.04656718 -0.05835594 0.1178346 0.1612342 -0.1364979 -0.1525661 -0.08230004 0.1703979 0.02905812 -0.1524797 
  -0.0886215 -0.08350888 0.07289754 -0.0542824 0.7762641 0.1062246 -0.1422827 -0.3309759 -0.04108672 0.1322573 -0.2178891 -0.6147345 -0.06886499 -0.07301053 -0.02154995 0.1180675 0.08239632 0.1020212 -0.1218269 0.6704679 -0.09983348 0.02822899 -0.2882917 0.2206229 0.0486481 0.24175 -0.4013144 0.2287924 -0.0158607 0.1195312 -0.0006633809 -0.1435403 -0.3573214 -0.2186023 -0.001472957 0.4083565 0.1691578 -0.1532038 -0.2064308 0.1572874 -0.0807559 -0.04658972 0.03341809 -0.132104 -0.15704 0.05521099 0.1212736 -0.3318797 -0.1834551 -0.02480781 -0.08350533 -0.1155051 -0.00429833 0.04045311 -0.177542 -0.1572017 0.0450737 -0.05243521 -0.2730524 0.1047622 -0.1112866 -0.05400641 -0.2431788 0.02148817 0.0333765 0.03781942 0.02029177 -0.286613 0.1201725 0.002585896 0.01659794 -0.01947768 0.1903799 -0.217259 0.02466739 0.1304882 -0.1459828 0.0632375 0.06835181 0.6485329 0.5636739 0.1112672 -0.06308997 0.05628708 0.03356026 -0.1747229 -0.1785524 -0.3697358 0.05071516 -0.1516709 0.2521798 0.2169064 -0.05966631 -0.03417536 -0.03623111 0.09975588 0.01438154 -0.01023947 0.09289257 -0.1257843 -0.2189754 -0.2714008 -0.3522431 -0.3957578 0.007694431 0.09369684 -0.1832291 -0.04939614 0.02209234 -0.117681 0.1409664 0.05259029 -0.04170397 0.1543258 0.2000674 0.080594 0.1893483 -0.09620648 0.06191856 0.180402 0.1614904 -0.1118906 -0.510611 0.1036418 0.2073228 0.2951664 -0.1416761 0.103769 0.02601496 0.1427196 -0.04576644 -0.00755017 0.459979 -0.3794591 0.6283423 0.01048942 0.2260474 -0.07643882 0.9370343 -0.2744551 -0.06570349 -0.3570953 0.09089193 -0.0136554 0.07910235 -0.07211283 0.05354394 0.01582069 -0.05622614 -0.1800636 0.09081862 -0.09241054 0.07657038 0.01157374 0.05110747 0.03977567 0.04212112 -0.3282426 -0.07110519 -0.01568562 0.08128929 -0.1233316 0.1285407 -0.09301752 -0.09671775 0.06480913 0.1387265 -0.004762949 0.07071365 -0.1928353 -0.06932596 -0.1398413 0.1790409 0.0663674 -0.1592416 -0.1881472 -0.02956926 0.1244567 0.1448761 -0.710419 0.03700568 -0.09425151 -0.04471281 -0.2294981 -1.14481 -0.2511277 0.2176996 -0.01689872 -0.3243417 0.1163871 0.1921004 -0.05421246 0.1045097 -0.511796 0.1238764 0.02278358 -0.2729724 -0.07050777 -0.1604486 -0.5059638 0.06236767 -0.03243663 -0.06100694 -0.2627309 -0.1065703 -0.1273624 0.02406186 -0.1179541 -0.1571941 -0.06538487 0.242884 -0.2928775 0.04561893 0.03409028 0.005190088 -0.08594498 -0.4639771 -0.1761181 -0.1754033 -0.01199049 -0.1127821 0.01282158 0.08892934 -0.05753714 0.001915477 0.05407127 0.1135922 0.01679125 -0.1879636 0.05818378 0.1370192 -0.03989308 -0.137249 0.2598706 -0.226774 -0.05284786 0.3595023 -0.3636195 -0.003966021 0.1971618 0.05823276 0.1390043 0.2055091 -0.08243341 -0.1868821 0.08205468 -0.02476076 -0.008009638 -0.01646234 -0.07982025 0.127705 -0.3101493 0.04110446 0.2085817 0.2129543 0.1917502 
  -0.1250246 -0.2675445 -0.098084 -0.7276206 0.09259667 -0.06249852 0.1760424 -0.257425 -0.1442865 -0.5955825 0.03198108 -1.037649 -0.2546946 -0.03999343 0.3227132 -0.3322536 0.2845974 -0.2657886 -0.1533713 -0.0944236 0.9970988 -0.06263 -0.03236879 -0.128528 -0.03120804 -0.460688 -0.07511265 0.06756676 -0.2772395 0.2922551 -0.1441864 -0.2586268 0.09138317 -0.5337951 0.2553473 0.07027236 1.105923 0.0301933 0.09193092 -0.1659264 -0.3096061 -0.2027134 0.1181669 0.2549948 -0.4437286 0.116314 -0.1312026 -0.08984806 0.5427926 0.1274863 -0.7480199 -0.4725923 0.2683335 -0.09898332 0.5430226 0.04268903 -0.1078388 -0.3210591 -0.08842975 -0.09934572 -0.2049537 0.09178058 0.5225149 0.06443818 -0.191906 0.09866296 -0.4443923 0.2536601 -0.0500882 -1.294619 -0.349118 -0.03103534 0.08018369 -0.6345943 0.05797343 -0.02979373 -0.3021351 -0.1579921 -0.3716325 -0.5301014 -0.8989847 0.2290318 0.05325677 -0.1943813 -0.2488512 -0.0003028276 0.1091172 0.06292177 -0.1375176 -0.1155534 -0.01053233 -0.2303957 -0.01759582 0.193847 0.5046904 -0.0764896 0.292418 -0.1367953 0.07895347 -0.1697197 0.04116814 -0.6538787 -0.1408425 0.7256255 -0.06572487 -0.06406365 0.6507623 -0.3601918 -0.452941 -0.2236607 -0.3562551 0.3525959 -0.891477 -0.2658142 0.04472814 0.03547521 -0.5700619 0.003421878 -0.2535698 -0.2380829 -0.00658966 0.1124811 -0.03460025 -0.6437154 -0.2684189 -0.03191713 0.1219832 -0.279063 0.08451448 -0.3307894 -0.3768118 0.03404898 0.1299027 -0.2696307 -0.1826044 0.4746152 0.5191017 0.4560985 -0.09067095 0.1816839 -0.1904112 0.4284024 -0.324782 -0.3155374 -0.01297346 0.4958595 -0.03135409 -0.003148434 0.2991605 -0.3672335 0.1852131 -0.0427295 0.03668182 -0.09896253 -0.3042 -0.1802842 -0.4489277 0.7409126 0.1609081 0.4149118 -0.1593569 0.6026365 0.2560253 0.1075473 -0.1368679 -0.130648 -0.387526 0.2963947 0.1561533 -0.190633 -0.04291942 0.04804857 -0.4301428 -0.3308884 -0.03591659 -0.3502117 0.2135836 -0.05718919 -0.4342889 0.1211445 0.2805113 -0.4330078 -0.1533222 -0.3548738 0.1967166 -0.3014413 0.4872664 -0.2843217 -0.1155334 -0.2402475 -0.06487086 -0.005457381 -0.2061582 -0.3661732 0.04959099 -0.4100849 -0.2445967 -0.4295795 0.02462567 0.2206737 0.1342901 -0.09602731 0.09629885 -0.4843403 -0.1005868 -0.02923561 0.2787646 -0.4001123 -0.09026865 0.2235703 0.3366411 -0.01730591 -0.3708478 -0.01886345 0.3724894 -0.01326021 -0.5729558 -0.06796958 -0.02540085 -0.2264043 0.2798641 0.3688514 -0.2273946 0.1011521 0.2877154 -0.1363274 0.07555892 -0.01901559 -0.275192 -0.7728734 -0.3218107 -0.1187272 -0.4120206 -0.4811791 0.07791817 0.9478931 -0.2064126 -0.0202203 -0.1100563 -0.3228916 -0.0247039 0.08170518 0.3263338 -0.5855159 0.1310959 -0.4868245 0.1016987 -0.1156003 -0.1795533 -0.2716702 0.1607483 0.3018476 -0.03719621 0.01563924 -0.2722226 -0.3144979 
  -0.08905988 -0.2937382 0.04247802 0.06352606 -0.01062376 -0.06163304 -0.05428457 0.09739042 -0.005761316 -0.3691059 -0.2327932 -0.1521929 -0.1443345 0.09505384 -0.3439693 0.5860582 0.04666981 0.1963037 0.04239434 0.4647256 0.001276804 -0.08301522 0.04196894 0.3680901 -0.2022212 0.09769639 0.1172549 0.08324961 -0.1085178 -0.02857141 -0.1821906 -0.1846114 -0.005703212 -0.07653645 0.1369562 0.09753575 0.01330148 -0.112489 -0.297703 0.05064088 0.001562049 -0.09189791 -0.03217232 -0.01566698 -0.08439813 0.06956363 -0.2682422 0.1115921 -0.07697913 -0.2703988 -0.1346226 -0.06466846 -0.04714641 -0.01291214 0.1656146 -0.04205499 -0.1334122 -0.04542292 -0.1460901 -0.09430705 0.3680742 -0.2964123 -0.1414469 0.05713369 -0.01952923 0.01170071 0.04406609 -0.0305805 -0.1113566 -0.03829517 0.01180446 0.03046463 -0.08343013 -0.07040627 0.6052043 -0.05501531 -0.01852255 0.07710519 -0.1472051 -0.0476455 -0.3091419 0.01686703 0.1387663 -0.0171921 0.1835301 -0.1499473 -0.4088562 -0.06815105 0.01782148 0.1724217 -0.2168495 -0.131058 0.09709025 0.02892022 -0.05470765 -0.08509758 -0.1050478 0.2088716 -0.07448711 0.09530307 -0.0163279 -0.05968881 -0.0153379 -0.04241146 -0.08636356 0.2024456 -0.3051122 0.1299915 0.1422032 -0.1885324 -0.1245903 0.1094784 0.1408568 0.08436701 -0.04211481 0.01417343 -0.023596 0.06994233 -0.0902035 0.003462079 0.06891595 0.1934644 -0.05372098 0.02513591 -0.1695886 -0.09039526 -0.2659104 0.05334712 -0.2900788 -0.5611823 0.006636842 0.1108437 -0.01608031 -0.192491 0.2485735 -0.2247825 -0.04039883 -0.03539183 0.02084613 -0.008996322 0.1403036 -0.1182913 -0.0827922 0.1950139 0.1813676 -0.09376992 -0.1855538 0.04831573 -0.02096125 0.1389121 0.05173595 -0.4806472 -0.02801986 0.0123583 0.1643941 -0.0007404598 -0.0353608 -0.08281584 -0.1655804 -0.04646081 -0.02201944 -0.327868 -0.1041007 0.07050943 -0.05689627 0.04834871 0.1374891 -0.09387098 0.1405236 0.07649854 0.02740143 0.128676 -0.1603953 0.06998622 0.1321116 -0.05123245 -0.0473907 -0.03997719 -0.108119 0.2144501 0.03724033 -0.1494502 -0.1300725 -0.02393486 -0.2068946 0.2641282 -0.01372405 0.05981597 -0.09855016 0.1622753 -0.07130269 0.04808927 0.01382675 -0.2540138 -0.1456134 -0.098216 0.05191633 0.02385645 -0.005434791 -0.07796142 0.01476118 -0.0004652777 -0.04142836 0.03442515 -0.0848105 0.10703 0.04291562 -0.008947897 0.08091815 -0.2521146 -0.0926728 -0.05760629 0.0285446 0.05480265 0.1427524 -0.09052425 -0.02835929 -0.15504 -0.02081599 0.1263002 0.1235594 -0.2593936 0.02324762 0.03121103 0.1239685 -0.07586775 0.073929 -0.01374305 -0.09223647 -0.05047011 -0.0842433 -0.3420489 -0.05585724 0.0303848 0.3465175 -0.02741575 -0.04115884 -0.004011535 -0.06915581 -0.06320404 -0.1385407 -0.3118092 0.05924165 0.05429339 -0.0861169 0.1214322 0.07110457 -0.1797984 0.1403608 -0.01468544 -0.3779137 -0.2849708 0.03131342 -0.08691432 -0.1508247 -0.0282547 
  1.002292 -0.1670074 0.1486625 0.1386671 0.04009313 0.588302 -0.1818847 -0.1033693 -0.5773369 -0.1596634 -0.3015264 -0.01354289 -0.201576 -0.1728591 -0.320581 -0.2736675 -0.3051338 -0.1941078 0.1250314 -0.2197032 0.1778016 0.2245479 0.01837155 0.2777934 -0.220811 -0.2166304 0.2135404 -0.1054964 0.03469789 0.1666693 0.1354177 -0.1515613 -0.2286812 0.2311687 -0.08242314 -0.2551498 -0.09719651 0.1156124 -0.07276347 0.1901399 0.2117408 -0.03287829 -0.03401313 0.03571692 0.2416063 -0.1330776 -0.2811014 -0.07576584 0.005144574 0.1486937 0.02543383 -0.1508067 0.07413766 0.01304073 0.08596671 -0.2622774 -0.2361554 0.1792255 0.06287336 0.5881511 -0.128583 0.2317862 0.1223079 -0.05269845 0.1469654 0.06714462 -0.4664249 -0.4338223 -0.1129221 1.026657 -0.1064944 0.08261058 -0.2726726 -0.6163792 -0.2655436 0.1627848 -0.1187537 -0.1488836 -0.3846119 -0.2324618 -0.4340328 -0.06652685 0.1884423 -0.1959045 2.218742e-06 -0.3027992 0.171114 -0.209953 -0.09574864 0.1854279 -0.1275455 -0.08114016 0.09766688 -0.1622274 -0.06995355 -0.1664053 -0.1497454 -0.3243665 -0.1065995 0.2726035 0.1602985 0.6860353 0.08673187 -0.3567962 -0.002627277 -0.1830094 0.1011725 -0.1678033 -0.1003714 -0.1303584 0.02328014 0.03953509 0.9689443 -0.0306302 0.05923449 -0.09378357 0.2678418 0.1120084 0.1141526 -0.205467 -0.01974188 -0.078959 -0.2821144 0.03594579 -0.1617516 -0.4199334 -0.4350831 -0.1917632 -0.1647673 -0.6322657 0.1382599 0.01373333 -0.1258262 0.01888063 0.102109 0.07393743 0.4704671 -0.1623391 -0.1489336 0.1504332 -0.09023526 -0.2161991 -0.3495345 0.7953701 0.06860447 -0.579839 -0.04605511 -0.04927572 0.3498506 0.1344226 0.1621976 -0.3431826 -0.6039144 -0.1298372 -0.3646602 -0.02312678 -0.2298373 0.1422805 0.008476987 0.1978255 0.1537406 0.1642725 0.2066514 0.1516393 -0.1851555 0.06945272 -0.1398957 -0.02287006 0.1134912 -0.2996693 -0.01526481 -0.1918344 -0.4843756 -0.177778 0.06005448 -0.08056176 -0.03419407 -0.4004526 -0.309138 -0.3318354 -0.2637861 0.5920271 -0.4306415 0.09363995 0.1057511 0.3592122 0.7405856 0.1255229 -0.5373802 0.3734355 -0.1171691 -0.2771497 -0.01532296 -0.1489251 0.09352077 0.1487424 -0.08049705 0.234133 0.4839663 -0.2379348 0.06239897 -0.03112268 -0.168294 -0.1049987 -0.2095747 0.1857505 -0.7805638 0.004267512 0.1855456 -0.1315572 -0.2521035 -0.1894977 0.07178529 0.07339355 0.5981358 -0.03839062 -0.3947047 -0.1246054 -0.2573495 -0.06195656 0.1193926 0.04464056 -0.1883477 -0.1277665 0.01257364 -0.1171453 -0.01057399 0.002453346 -0.2858211 0.693958 0.3275351 0.1677597 0.1861107 -0.3970826 0.0324571 -0.7335147 -0.2785634 -0.1895944 -0.2646132 -0.3995716 -0.2787068 -0.007349267 -0.2327732 0.2284601 -0.5417432 0.8706418 -0.01084959 -0.1700626 -0.1357118 -0.1414075 -0.2212344 -0.08813967 -0.05485756 -0.2929029 0.1120399 -0.03026783 
  -0.09833132 -0.04647745 -0.3973646 -0.01995213 0.08911732 -0.1452819 -0.04739274 -0.1235395 0.0499832 0.03046932 0.1148593 0.04401982 -0.1917568 -0.6072365 0.3786326 0.1508795 0.08729956 0.3054807 -0.05468178 -0.1080275 -0.2770978 -0.03404013 0.171953 -0.1994306 -0.03394928 -0.4990617 0.1133014 0.1421594 -0.1512785 -0.1234193 0.1964928 -0.1084105 -0.2449318 -0.1682226 0.08192953 0.08081793 0.2134684 -0.0499406 0.005886448 -0.00195023 0.6931328 -0.1182295 -0.3260811 -0.06201058 -0.2681043 0.0376064 0.1425044 -0.184352 0.07929836 -0.1671254 0.1465654 -0.03403396 -0.2330818 -0.09139072 -0.2032795 -0.5297554 0.1893427 0.09374496 0.07343334 0.08441874 -0.0453674 -0.1810543 -0.2700863 0.1431652 -0.1739253 1.065455 0.1277097 -0.10501 0.4231442 -0.4153208 -0.06327679 0.6200873 -0.193145 -0.1842505 0.1731454 0.1838263 0.09334254 -0.03313244 0.1235529 0.1663391 -0.7636847 0.1316034 -0.3529517 0.003587912 -0.1192401 0.2310116 -0.7282325 -0.02415413 0.01463029 0.05033143 -0.254209 0.1820518 -0.3322063 0.2536267 0.1754778 0.2084261 0.2167084 -0.07738709 -0.09464306 -0.09395385 0.06761612 -0.07216759 -0.1312239 0.0095272 0.002220858 0.2696175 -0.5092942 0.008946357 -0.1276188 0.0968423 0.08866524 0.0659325 -0.2822222 0.157683 0.4047832 -0.08314434 -0.2300228 0.2547858 0.09210607 0.2313745 0.1192632 -0.2943176 -0.3286384 -0.09629832 -0.2718326 -0.1810455 -0.03142348 -0.1042059 0.07331 0.01829857 0.06927755 -0.2031624 0.01552356 0.05257646 -0.3578174 -0.08338259 -0.3781075 0.0395158 0.01364014 0.8674688 -0.1015994 -0.1549119 0.1712205 -0.09348534 0.06785615 0.210963 -0.2210096 -0.06871933 -0.0073831 -0.139948 -0.2104503 -0.3003877 -0.1559592 -0.05142635 0.1710422 -0.2716609 -0.02173385 -0.1952996 0.03357293 0.07198112 0.2902644 -0.5566816 -0.2997728 0.2143946 -0.1770061 0.009703289 -0.1775507 0.1010385 -0.2963907 -0.255675 -0.3354413 0.02180347 -0.05354854 0.0646696 -0.06013063 -0.02885053 0.02832819 -0.08208081 -0.03556134 0.002844548 -0.03838624 0.04727334 0.08260076 0.279436 -0.06703036 0.1090931 0.2382846 -0.218344 -0.04854052 0.3040524 0.002766348 -0.3179646 0.590601 0.1270677 0.1310532 0.07881574 -0.1174531 0.01783684 -0.185024 0.3577003 0.373358 -0.1036393 -0.01194437 0.5480604 -0.09372205 -0.3858001 0.018418 0.6162456 -0.2294132 -0.1420701 -0.5755156 -0.0826827 -0.1187738 0.08647162 -0.135908 -0.005680929 -0.1229889 0.2128544 -0.1030526 -0.04570129 -0.1462121 0.1007868 0.005656099 -0.2295939 0.106953 0.09357186 0.2133305 0.04031922 -0.02027924 -0.1943695 0.05686279 0.1309537 -0.1721759 -0.1601668 -0.3108518 -0.04223075 -0.08827289 0.06544321 -0.07948565 0.2188146 0.01818934 0.3152477 -0.04889727 -0.4234863 -0.4333231 0.1870903 0.3233594 0.02150352 -0.4251474 0.08502241 -0.2597364 0.1066617 -0.4662074 0.07105199 0.2538976 0.2300087 
  -0.09592023 -0.04785074 0.1179694 0.1345467 -0.03191113 -0.09165022 0.01355376 -0.02774151 -0.3762347 0.3262179 0.05826274 0.2718473 -0.02782672 0.1302135 0.2089622 -0.0204387 -0.4873618 0.3142851 -0.1189982 -0.07862539 -0.004851076 -0.0293118 -0.02780188 -0.1030022 0.08215421 -0.1599879 -0.06885984 0.04247979 0.04507405 0.07603817 0.04105628 -0.1288724 0.1483426 0.1135279 0.03725576 0.3555505 -0.03251143 -0.0303179 0.5087186 0.05820543 -0.4179753 -0.09411434 -0.05215468 0.07640497 -0.07700752 -0.1478238 -0.1321532 0.006460393 -0.003108075 0.07688861 0.2121935 -0.02683439 -0.255973 0.1846493 0.4013202 -0.008743349 0.0139973 0.1002184 -0.06733889 0.4003486 0.2572131 -0.2625315 0.1922495 -0.009275402 0.04840557 0.03297188 -0.04810082 -0.02350491 -0.06672914 0.2160103 0.08422017 0.01792852 0.09318241 -0.1382518 -0.1018471 -0.2866866 0.07593983 -0.3779679 0.1727564 0.05914979 -0.2528946 -0.07696857 0.08320087 -0.1022251 -0.2653461 0.03802235 0.05462717 0.2050543 0.04284011 0.06720436 0.1106083 0.0499247 0.1599135 -0.04217865 -0.09582262 0.04563696 -0.219442 0.09687106 0.06852067 0.04465215 -0.1595769 -0.02773469 -0.05924708 0.1066498 -0.2161653 0.0394778 -0.1868507 0.2382269 0.03092479 0.0904893 0.1280895 0.538693 0.04545134 -0.1137304 -0.1397781 0.004565777 -0.3056333 -0.2255138 -0.1865533 0.03626144 0.005015505 0.08438512 0.005337152 -0.007211096 -0.09816719 -0.08112399 -0.003406437 -0.2664963 -0.03729798 0.02814263 0.1521803 -0.4019025 0.007742559 -0.06290269 0.1513163 0.08678043 0.1147711 -0.05341467 0.05439509 -0.0361594 -0.02676067 -0.06233847 -0.4083931 -0.01134896 0.155743 -0.115236 0.516846 -0.07734228 0.1593982 0.1375176 -0.035795 0.08988079 -0.2505448 -0.07046273 -0.09784441 -0.2070021 -0.1846533 0.2310731 -0.05763379 -0.04410049 0.165799 0.1347635 0.1103319 -0.1117139 0.0361041 -0.06611907 0.03885639 -0.01192142 -0.2486859 -0.02452982 0.001922156 -0.002675107 -0.191694 0.09608048 0.1000818 -0.06540995 0.09203694 -0.03557239 -0.01592541 0.2598241 -0.05233612 0.1127279 -0.1106639 -0.07386559 0.04725774 0.2327275 0.03747309 -0.04426598 -0.1840513 -0.07721989 0.2346477 0.04699153 0.1287062 -0.573037 -0.1015159 -0.03668137 0.06862296 0.1662003 0.2000755 -0.08529049 -0.3114128 -0.05500447 0.1122695 -0.01465484 -0.1226401 -0.07609823 0.000696816 0.1670349 0.03442195 -0.1578146 -0.1455066 0.1272515 0.07482414 -0.05761053 0.2096947 -0.2449294 0.2865124 0.01085896 -0.08448137 -0.03021637 0.008385234 -0.3441008 -0.0467839 0.06014577 -0.3734489 -0.02557802 0.03819399 0.05576207 -0.03219781 0.08213589 -0.06417298 0.1106872 0.2132749 -0.6286774 -0.02124336 -0.01778442 -0.06037356 0.0874541 -0.04956187 -0.1665318 0.005741981 0.1626307 0.04824354 0.1104494 -0.02487523 0.2428154 -0.1793997 0.1168162 -0.4265547 0.06855563 0.1150927 -0.185112 0.231387 0.01086576 -0.01181195 -0.06730983 
  0.05222423 -0.1295533 -0.1665966 -0.1260623 -0.09938622 -0.4881554 -0.1546733 -0.250066 0.4633497 -0.308986 0.01440068 0.2760088 0.1753672 -0.2217729 -0.177487 0.07608966 0.1972084 0.4179125 -0.2500442 0.04365857 -0.09087345 -0.146752 0.04575489 -0.333878 0.2988802 0.1578562 -0.2469354 0.357401 -0.3519298 0.1142967 0.04030973 0.4920698 -0.5573437 0.03582633 0.02450056 -0.2314716 -0.1688358 0.2239423 -0.0774051 -0.1439513 0.3023054 -0.1646321 -0.3016695 -0.3432273 -0.3697647 0.05843484 -0.101437 -0.01303571 -0.1520061 0.2407647 0.3889995 0.2517325 -0.02748036 -0.06515791 -0.3549661 -0.548835 -0.2113951 0.02006681 0.2186614 -0.2794913 0.1619462 -0.06664336 -0.01169516 -0.06554984 0.05966584 -0.3545802 0.2412841 0.4196177 0.3273541 -0.1271469 -0.1028963 -0.0533985 0.1261849 -0.03538403 0.1179285 0.2397817 -0.09046112 -0.4224503 -0.1008885 -0.2218695 0.6296529 -0.2393481 0.1782375 -0.2165439 -0.004981221 0.0244766 0.01910155 0.01372485 -0.04962996 -0.2965498 0.2496949 0.03615902 -0.191955 -0.4000091 -0.06253144 0.1239804 -0.131318 0.1893492 -0.06461231 -0.01654646 0.1515756 -0.235545 0.03609503 -0.04914187 -0.3520988 -0.3473991 0.04160612 0.09157631 -0.07434412 0.02926378 -0.03725085 -0.3193345 -0.2149099 0.3634365 0.001426617 -0.2176726 -0.7300023 -0.2326145 0.03520146 0.1584301 -0.1333569 -0.2008706 -0.03494577 0.2236637 -0.07392585 -0.0735157 0.2898906 -0.4089597 0.1231839 0.166468 0.06436717 -0.4666117 0.05643118 0.2763447 -0.1915355 0.3745316 -0.06073218 -0.3699042 -0.1873128 -0.3323842 -0.1760337 0.1329549 0.2162474 0.1945795 0.1915466 0.002812466 0.01341816 0.0140737 0.193204 0.05171105 -0.1296004 0.2618632 -0.7735973 -0.3198808 -0.3400104 -0.3201044 -0.03883556 0.1470302 0.1687209 -0.2806028 0.05718248 0.07676809 -0.3026729 -0.6636753 -0.09280682 0.08397138 0.07249685 -0.3124737 0.08842518 -0.3413352 -0.009605293 0.06255782 -0.0376476 0.2110496 -0.01784577 0.2776362 -0.05017285 0.001623007 -0.005337131 0.09771268 0.7545868 0.05302858 -0.2207612 -0.06774253 0.06933018 -0.0784757 -0.4744575 0.5193514 0.00274054 -0.2261547 -0.005986344 -0.01952228 0.6587085 -0.03275414 0.0362224 -0.05243667 0.02686889 0.02548418 -0.5454218 0.1560066 0.04937819 -0.3530799 -0.2372063 -0.05175737 0.2015837 0.05288953 -0.05628588 0.02489121 0.2138358 0.009915601 -0.08563463 -0.2577261 -0.1092826 -0.0003653826 -0.07610758 -0.2280994 -0.4208048 0.1330321 0.1917854 -0.0180872 -0.06434721 -0.4338802 -0.05055591 0.1873741 -0.5061991 0.3612375 -0.04515705 -0.04637625 0.03846852 -0.2102205 -0.03958325 -0.02886684 -0.06896848 0.03194242 -0.1998746 -0.2912353 -0.4385569 0.03613357 0.238196 0.3394855 0.1982005 0.04230354 -0.1964664 0.6759332 -0.01868641 -0.4045184 0.1084192 0.2272647 0.4671331 0.1144114 0.09832644 0.02074249 -0.1555844 0.06290593 0.5231826 0.2204559 
  0.0676398 -0.4108652 0.7687247 0.2347831 -0.3296809 -0.418603 0.001625113 0.7457339 -0.3652468 -0.2195101 -0.2753973 -0.2161485 -0.222131 -0.4058227 0.03223984 -0.0412727 -0.1685529 -0.4204843 0.02009574 -0.2979044 0.01630669 -0.3680914 -0.480472 0.04674808 -0.06761993 -0.3647653 0.2064315 0.5478153 -0.1591743 0.1015974 0.7206585 0.4566498 0.1220668 -0.1023256 0.8400713 -0.1331176 -0.5387537 -0.3128505 -0.01409138 -0.1704104 -0.7844555 -0.2037383 0.05363733 -0.5101842 0.6036423 0.1281953 0.3674065 -0.2967023 0.0279059 -0.474884 -0.06156787 0.6022153 -0.1353013 -0.193562 -0.2035596 0.06846903 -0.127041 0.02097727 0.02156148 -0.1355978 0.2603149 -0.2303564 -0.2417378 0.01577976 -0.5617512 -0.2221508 -0.2357555 0.4021015 -0.1551206 -0.3771083 -0.1796103 -0.5060451 0.3742487 1.161504 0.2287412 -0.07233937 -0.4605946 -0.8071098 -0.2109121 -0.1726154 -0.5045985 -0.3279183 -0.1252446 -0.3785443 -0.5975536 1.104002 -0.1864012 -0.1258946 -0.06287955 0.3766262 -0.1656816 0.4099141 -0.4764118 -0.3016972 0.751627 -0.1379234 -0.284596 0.3952202 -0.05847501 -0.2459439 -0.2220749 -0.07512303 0.09477616 -0.1701412 -0.5822048 -0.03314127 0.2911307 -0.3580362 -0.2993773 -0.5066085 -0.3845694 -0.5176725 -0.06821755 0.1161985 -0.3588225 -0.3705162 -0.4979214 -0.8855295 0.1190142 -0.3320917 -0.3851761 -0.658206 0.01557255 -0.2940809 0.4425054 -0.3008634 -0.06457768 0.01072213 0.0497693 0.2110506 -0.4720126 0.05149646 0.3169841 0.0178326 -0.04366013 0.3878873 0.3230869 -0.4008518 0.0369366 -0.04010469 0.07777162 0.0316288 -0.4972912 0.02381763 -0.3073533 -0.01791114 0.239879 0.214951 -0.3662384 0.2642272 0.6681368 -0.001332548 -0.3934694 -0.0759303 -0.07002538 -0.2533205 0.04369602 1.013157 -0.01836466 3.128962 0.1305573 -0.3192055 -0.6340538 0.1436446 -0.03108844 0.09281803 -0.4532028 1.457772 -0.09448379 -0.3375438 0.1561992 -0.04835943 0.0249041 -0.1779536 -0.3177474 -0.1646935 0.372703 -0.4943653 0.01978525 -0.2748203 -0.1173366 0.1236849 0.0336458 -0.1844578 1.06991 -0.05818122 -0.469806 -0.3440822 0.2061909 -0.1614108 -0.1422529 0.4618063 -0.001532953 -0.1517494 0.03039077 -0.5114904 0.1616576 -0.2716266 -0.562704 -0.309505 -0.1634393 0.06825285 0.01095731 -0.2033147 -0.03039375 0.2055646 0.09265105 0.0171638 0.05092835 -0.1619557 0.3417292 0.9358338 -0.7061171 -0.2966527 0.2420902 0.1309704 -0.05209388 -0.1622899 -0.009532511 -0.166691 -0.1431065 -0.2394682 0.1640851 -0.03710048 -0.2899007 -0.1622224 -0.2064182 -0.4812303 -0.2873906 -0.2310875 -1.293096 -0.4755706 -0.03154995 -0.1873947 0.3875249 0.284346 -0.290444 -0.3088564 -0.5931815 0.1787818 0.1248044 0.1493921 -0.02726884 0.3042106 0.7459055 -0.3111676 0.003979668 0.1289571 -0.760074 -0.07245367 0.252975 -0.02947489 0.09179807 -0.2381433 -0.3298129 -0.01914037 
  -0.2683242 -0.0651466 0.3391399 -0.5534281 -0.08879665 -0.08521893 -0.1455511 -0.2815207 -0.03211252 0.2710842 0.1837096 -0.3391647 -0.2720547 -0.0428446 -0.1820858 0.149955 -0.03988501 0.2772168 -0.1728821 -0.06242702 0.14385 0.2061005 -0.02026999 -0.3145969 -0.189231 -0.8253059 -0.1498747 -0.1699795 0.2355338 0.1755391 0.2031881 -0.03164789 0.6194229 -0.1631549 -0.01170655 0.1130535 -0.1115118 -0.2159312 -0.04367735 -0.03555698 0.3531102 -0.05550805 -0.2450646 -0.2691852 -0.6765004 -0.3096086 0.06505398 0.1075109 -0.04151297 0.1694006 -0.04586111 -0.07664911 -0.007513898 -0.2456704 0.01423288 -0.6530669 -0.2415177 0.1756387 -0.4011266 -0.02078289 0.004919675 0.01429069 -0.1194059 0.1783952 0.4614122 -0.01472971 -0.1207504 -0.0223316 0.1111228 0.1724313 0.6445292 -0.1515718 -0.09563934 -0.8039569 -0.03315061 0.07958725 0.1025459 0.1326931 0.1458689 0.3693363 0.1902893 -0.08806756 0.1482517 0.02276274 -0.006792173 -0.1757109 -0.07398298 0.03985934 0.1958715 0.171989 -0.04241176 -0.1521475 0.05670513 0.1870858 0.00772536 -0.6910887 -0.05096468 0.22372 0.2070508 0.3443989 0.1041974 -0.05441791 -0.4972027 -0.2427226 0.2330603 0.03664148 0.03108285 0.1123383 0.313654 0.3539032 0.2535877 -0.02725132 -0.4345878 -0.07514149 -0.2859766 -0.1724523 -0.26037 -0.1091319 -0.2692529 0.09215088 0.07347448 0.1140395 -0.5218616 -0.01423501 -0.02909107 -0.1325692 0.08608393 0.1657094 -0.06737606 0.2242901 -0.02609757 0.2376431 -0.3484965 -0.2816681 -0.277934 -0.1858727 -0.4144105 0.1142876 0.08866218 -0.3158155 -0.3392184 -0.2959974 0.06991117 0.06021265 0.0951889 -0.2169501 0.01956448 0.03474966 -0.2077778 0.009823541 -0.05788771 0.08945641 -0.06645009 -0.2135321 -0.246805 0.5369807 0.06403555 0.1901269 0.08917245 0.07175563 0.4040431 -0.3677706 -0.01955842 -0.008915914 -0.2963657 -0.09757984 0.08615773 -0.1709304 0.04586479 0.4583396 -0.1854404 0.005479626 -0.1617899 0.0847005 -0.4227901 0.1248279 0.1588882 0.1125491 0.01674458 -0.1374158 -0.05047553 -0.201692 -0.03169589 -0.006755059 -0.04190064 -0.04004845 -0.03616351 0.02433752 0.4429094 -0.2590917 0.06508644 -0.06852619 -1.098009 0.08502051 -0.2208613 -0.05722966 -0.3158763 -0.18294 0.06704422 -0.4925562 0.06841607 0.1013811 0.1466035 -0.1610359 0.3757545 -0.06956439 -0.1974017 0.3710879 0.2137861 0.08098447 -0.04823575 0.1200113 -0.1322157 0.1570936 -0.1286918 -0.009999041 0.131548 -0.1290759 -0.09200197 -0.07610726 0.0211657 -0.1265659 -0.09920281 0.2286592 -0.05803084 -0.2667259 -0.1278377 0.3678596 0.2437265 -0.8279288 -0.2333487 -0.190208 0.03953131 -0.315419 -0.2220639 -0.1505418 -0.6893494 -0.2360297 0.004965362 -0.1337323 -0.3323791 -0.1599242 -0.3082908 0.1898706 0.04755893 -0.02597445 0.04774024 0.476685 0.01774191 0.2012298 -0.2230016 0.1984696 -0.1209388 -0.341348 -0.401282 -0.01046721 
  -0.0886146 -0.1332653 0.3828867 -0.208878 0.600068 -0.4915643 0.2657338 -0.3385602 -0.09124127 -0.3288407 -0.5280187 -0.293287 -0.124352 -0.2039769 -0.1974772 -0.03687993 -0.2461428 0.7677839 -0.2516645 -0.1237805 -0.04711831 0.3277006 0.01524452 -0.03150768 0.04409009 -0.3263688 0.6811187 -0.1818218 0.6315446 -0.1315723 -0.4397788 -0.1464181 0.4318541 -0.01855418 0.1231553 0.1042019 0.4400725 -0.01618827 -0.2615436 0.2153317 -0.2882963 0.1309805 0.09868488 -0.08986668 -0.05703168 -0.1704859 0.06245205 0.0556711 -0.4500286 -0.02605808 -1.247136 -0.216442 -0.01556347 -0.1534071 0.0173665 0.1028208 0.1784079 0.05804661 0.3469749 -0.1945398 0.0729667 0.1242363 0.3414217 -0.04748835 -0.4710431 0.2690148 -0.03620281 -0.7146867 -0.1228357 -0.08807602 -0.1294463 -0.1500488 -0.03257737 -0.01405688 0.2006582 -0.03278495 0.05214264 -0.09178651 -0.5989792 0.2180699 0.2322711 -0.3857858 -0.2035136 -0.1854351 -0.2654994 -0.03885717 0.02436033 -0.1533339 0.2099414 -0.1374983 -0.317767 -0.04267136 -0.02449924 0.0718063 -0.2009452 -0.291854 0.07509138 0.1255094 -0.1917053 -0.06578668 0.07818977 0.02152847 -0.03893344 0.2115317 0.04979924 0.2420515 -0.2157689 -0.3330269 -0.09478264 0.1046841 0.2185103 0.07408535 -0.01351464 -0.4529572 0.02283748 -0.06798952 -0.1501688 0.1985941 -0.152777 -0.05312148 -0.2684254 -0.02092203 -0.2696525 0.276511 -1.31858 -0.1146187 -0.2303835 -0.1550336 -0.1678999 0.1215756 -0.02395461 -0.1911797 0.150863 -0.3514987 -0.3599335 0.1997752 -0.0519009 -0.3002782 0.1409312 -0.2168568 -0.2028279 -0.4906422 -0.09121807 0.05023793 -0.3497987 0.1456834 -0.1552641 -0.1043326 -0.01417493 -0.1105892 0.2813501 -0.3274942 -0.3313394 -0.001193001 0.3477875 0.1395479 0.169895 -0.2742564 0.1680955 -0.2957831 -0.0002077239 -0.008639605 0.2728312 -0.4318671 -0.3227817 0.04041521 -0.06765763 -0.2490768 -0.1731838 0.03884617 -0.131674 -0.3969902 -1.23556 -0.3759991 -0.1943099 -0.06072896 -0.2086727 -0.1656194 0.1446992 0.08499241 0.3935851 1.100156 -0.1338942 0.1617026 0.1637672 0.2357288 0.0244123 0.02200527 -0.08836269 -0.3095491 -0.133466 0.1434707 -0.2922561 -0.04031113 -0.0139563 0.027461 -0.08397133 0.2078695 0.008543877 0.2855552 0.1079002 -0.05810773 -0.1090969 0.8473362 0.05391321 -0.1080726 0.04814147 0.05122257 -0.5494754 -0.172773 0.114126 -0.1569294 -0.004915499 -0.2593277 -0.2262214 0.05555483 0.01638959 0.2391797 -0.03812428 0.004211514 0.1120861 -0.09361049 -0.2019506 0.1659111 0.08563422 0.001835351 0.00762851 0.03781534 -0.4387571 -0.2248749 -0.07329488 0.2905531 0.08305096 -0.06965373 0.143465 0.4625281 0.3961914 0.02986933 -0.2520095 -0.02995115 -0.1860109 -0.1246211 0.1146394 -0.241808 0.06293806 0.1377493 -0.3132044 -0.2684753 -0.182731 -0.1424184 0.2701693 1.296161 -0.04943452 -0.2260318 -0.2601766 0.1599535 
  0.5688157 -0.112486 -0.2428645 0.5300649 0.6180797 -0.2221678 -0.4083053 0.9081596 -0.4326079 -0.62431 -0.515866 -0.7738104 -0.159134 -1.280161 -0.1132454 0.04827338 0.243208 0.1235867 0.144466 -0.14096 -0.3082545 -0.5955529 0.2100243 -0.3053962 0.05644067 0.08553167 0.01480252 1.957766 -0.08355004 -0.1136974 0.2803687 0.3311555 0.5035074 0.8010173 0.2345084 0.4415437 0.3355197 -0.2830918 0.1744196 -0.099733 -0.1984889 0.2560336 -0.3106998 -0.4060461 -0.02526004 0.0344074 0.03415309 0.03195499 -0.05036245 -0.2539351 -0.235933 0.8273252 -0.08752146 -0.1027752 0.2804607 0.4192247 -0.5383134 -0.008227348 0.2612247 0.2414266 0.133701 -0.4129122 -0.6737884 -0.1978213 -0.5309494 -0.4831116 -0.1202637 0.142305 -0.6501529 1.194978 -0.02599694 -0.09536071 0.04688201 0.210569 0.01788843 0.2464007 -0.3646837 -0.256703 0.1966666 -0.1825602 0.07888011 0.4940375 -0.1031641 0.9051579 -0.2169154 -0.04417452 -0.2594305 -0.3790018 0.1825594 -0.1259928 -0.4695268 0.7173087 -0.1372893 0.5432437 -0.2104463 -0.1438164 0.2655674 -0.3231355 -0.4173726 -0.09974041 0.5944701 1.200384 0.5049995 0.5608422 0.001708715 0.1310544 0.01864807 -0.4201269 0.008798257 -0.6680659 -0.1647145 -0.2331557 2.61641 -0.5259115 0.1032527 0.06230471 -0.05492608 0.2437168 0.05857796 0.3601511 -0.2273048 -0.1888079 -0.1147251 -0.01325129 -0.02269788 0.132274 -0.0145348 0.8088432 -0.06632264 1.212501 -0.166709 -0.3486848 -0.4520986 -0.2824567 -0.3048375 -0.9446052 0.6164111 -0.03837366 -0.2488623 -0.2775307 0.3373995 -1.046931 -0.2362598 0.02895786 0.4030864 -0.3435125 -0.000862136 -0.8247285 0.2261799 -0.6331463 -0.3349052 -0.05592745 0.2588176 0.197714 0.1379722 -0.3312601 -0.3493996 -0.169377 0.109929 -0.1696588 -0.1127726 -0.2183416 -0.06347901 -0.5261877 -0.2545799 0.07362594 0.1830956 -0.5443508 -0.07093414 -0.2094724 0.02634317 0.2520304 -0.7293494 0.150062 0.3048305 0.3397044 0.612606 -0.004172799 -0.1683177 0.459287 -0.2898391 -0.2158237 -0.1927372 0.07372916 -0.3858717 -0.01752259 0.5493142 -0.8503414 0.2759427 0.07421865 -0.8463674 0.08380435 0.004422867 -0.1175109 0.08098448 -0.2629552 -0.1630803 -0.04049459 -1.203989 -0.2381301 -0.6769666 0.02485418 -0.4222797 -0.1280226 -0.2614704 -0.2413309 -0.07733831 -0.09701158 0.3940392 -0.6392793 0.04949157 0.6809403 -0.6697227 0.2972442 -2.439825 -0.1512139 -0.2877481 -0.3403596 -0.1850962 0.0618148 0.2893291 0.1848336 0.3822844 0.1291531 -0.9313844 0.02837519 0.1870959 0.0491176 -0.06093999 0.5407085 -0.7119126 0.275812 0.0152982 1.058452 0.102731 0.5427612 -0.4104382 0.06097564 -0.2541973 0.2517685 -0.4678247 0.01977017 1.097411 0.5460128 0.2509072 0.5846382 0.3679075 -0.1731831 -0.3507272 -0.3579684 -0.3652652 0.1087103 -0.4924584 -0.6588423 -0.1461247 -0.2255147 
  -0.141501 -0.1248204 -0.06300785 -0.2826806 0.1417317 0.3313788 0.04463305 0.02939109 0.231959 -0.1943363 -0.1351703 0.1575941 -0.2124957 0.1663703 0.2740692 -0.6093928 -0.01453726 -0.06692366 0.2469715 -0.7284356 -0.1621568 -0.4602031 -0.1028198 0.3161261 -0.3681273 0.5216166 0.1329546 0.07642645 -0.03843449 -0.08532017 -0.04629964 0.339368 -0.1636695 -0.004317236 0.1528823 0.09457444 -0.1176183 0.30978 -0.1434248 -0.09667539 0.2334269 -0.1321752 0.1716722 -0.05590378 0.1828045 -0.1652935 -0.3159641 -0.2428321 -0.1553756 -0.4787748 0.09771885 -0.05999474 0.1720731 0.03856297 -0.2363351 -0.2713941 -0.08091813 0.02856076 -0.2769337 -0.001187443 0.1752484 0.05078742 -0.02638065 0.1066656 -0.3221271 0.2768244 -0.7669441 0.117497 -0.1319866 -0.1315903 -0.4876721 -0.1459346 0.1055296 -0.278547 -0.4598338 0.1694546 0.1070721 0.3797085 -0.2349209 -0.03164554 0.04473372 -0.1433778 -0.06649098 0.2420079 -0.1866466 0.001760524 -0.3980432 -0.5644838 -0.1285494 -0.05042262 0.1357655 0.1205754 -0.004479897 0.1619634 0.08474366 0.3007675 0.1707909 -0.5904152 -0.006915413 -0.1333676 -0.2662477 -0.2465885 0.03282947 -0.2473946 0.006349812 0.04120801 -0.1692414 0.5989044 -0.2312514 0.1604884 0.05219594 -0.1520322 -0.03834381 0.007537224 0.1656379 0.3802471 -0.03147361 -0.1867644 -0.3614508 -0.02813801 0.1603428 -0.0290396 -0.1013234 0.122965 -0.2450247 -0.1162882 -0.02774196 0.1754706 0.004882636 0.01180298 0.1578282 0.1599421 -0.2949153 -0.3595728 -0.5655739 0.1044545 -0.1163752 -0.1035079 0.1328401 -0.01639667 -0.07350218 -0.02900168 0.4353841 -0.1888307 -0.02931604 -0.06400581 0.1511813 -0.03147541 0.08072843 0.22114 -0.2406843 0.1210674 0.1973078 -0.1944842 0.09405153 0.0349799 0.1534963 -0.07632743 0.08624922 -0.08706708 0.1761208 -0.4818679 0.03213086 -0.0905846 0.3012387 0.02309715 -0.1258979 0.1800502 -0.03220026 -0.1411079 -0.1471076 0.07064379 0.01042339 -0.3050004 0.333244 -0.1710205 -0.3846548 -0.1262318 -0.009056486 0.009824703 0.01260666 -0.09035929 -0.009828124 -0.07569826 0.07072981 0.09171744 -0.3330168 -0.08367613 0.1683028 0.4522772 0.05389908 0.09047963 0.09584474 -0.06928527 0.1368971 -0.3085743 -0.07861608 -0.08730397 0.2082107 0.1937949 -0.06615142 -0.02779717 0.1695679 -0.4533685 0.1369407 0.1243591 0.09510934 -0.01102501 -0.0821251 -0.2602804 -0.094156 -0.2550221 -0.2107549 -0.1483087 0.04013422 -0.1232163 -0.2281801 0.116761 0.1830004 -0.1219141 -0.07851659 0.2531871 0.2098708 -0.0918958 -0.08281405 0.2888061 -0.2969544 -0.1906245 -0.1278234 0.03243215 0.06065365 -0.1201009 0.3374291 0.1891028 -0.2719968 -0.318798 0.325534 0.5052966 0.2873636 0.1700524 -0.1766919 -0.2229082 -0.1579912 0.03388 -0.02702053 0.3486181 0.1101238 0.1503305 0.01518592 0.2082104 -0.224281 0.1127961 -0.1017123 0.1167623 0.01076119 -0.02487381 
  -0.3612292 -0.2854562 -0.1633175 -0.09201922 -0.08292733 0.05871537 0.2592651 -0.4635012 -0.3043325 -0.3575838 -0.2294659 0.1935252 0.2284426 -0.424635 0.4462312 0.4288574 0.1183852 -0.3596193 0.2576635 -0.8191037 -0.3801627 -0.2410389 0.263555 0.2810866 -0.2704433 0.1191033 0.308233 0.04520746 -0.08272654 0.224519 -0.02477023 -0.0249783 -0.1456065 -0.08509168 0.5284662 -0.01991259 -0.3920535 -0.668663 -0.008280804 -0.04104186 0.5234534 -0.3111435 -0.102052 0.3240177 0.08576896 -0.08420355 0.005450333 -0.606213 -0.09000163 -0.2285766 0.4034771 0.1264889 0.05226239 0.2521242 0.1637085 -0.06292145 -0.1607998 -0.4930286 0.1126858 -0.06084001 -0.2210235 -0.1524224 -0.5761779 -0.08265864 -0.2785991 0.1722679 -1.031877 -0.00636393 -0.04104815 -0.1749567 -0.4770311 -0.2250109 0.08694173 -0.3172036 0.1855028 0.09663796 -0.09487835 0.1560859 -0.1877465 0.004809885 -0.4205151 -0.2088732 -0.1192762 -0.108318 -0.1740097 -0.4298168 -0.1630373 -0.026084 -0.001984553 -0.1864367 0.1181899 0.3943927 0.02261973 0.08061785 -0.1741279 0.5860911 -0.00920394 -0.7359632 -0.2306727 -0.8497862 -0.1104959 -0.3501111 -0.01048392 -0.3559023 -0.03616691 0.03889538 -0.3699282 -0.2951869 -0.09991339 -0.1723632 -0.06270166 0.2076851 -0.1460792 0.2184233 0.03616067 0.0001372168 -0.02337317 0.1034255 -0.389436 -0.3380931 -0.1113006 0.3030485 0.1327983 0.1475438 0.1253688 -0.01334218 -0.6807045 -0.1328219 0.007333561 -0.009631091 -0.1312083 -0.1076401 0.2321479 -0.0661509 0.1663563 -0.1575456 -0.0362703 -0.1879555 -0.06893222 0.1820283 -0.2318029 -0.2126376 -0.08482271 0.07408394 0.1334344 0.3189905 -0.1765242 0.3436566 -0.2441061 0.003257263 -0.278767 -0.03836612 0.03968662 -0.2134727 0.3454505 0.01172177 -0.1479617 -0.49179 -0.1231177 -0.2233843 -0.3489083 -0.1085419 -0.1865892 -0.1199117 0.03507198 0.01721468 -0.1698561 0.1754351 -0.1181192 0.07738194 -0.09225983 -0.006216163 0.1949371 -0.3574671 0.3123845 -0.196997 0.06340947 -0.3741061 0.02641708 0.1070008 -0.2181433 0.08422118 0.03805083 0.07416756 0.228961 -0.0458146 -0.6756663 -0.138524 -0.1194597 -0.1855091 -0.02564442 -0.009888358 0.5250903 0.1551735 -0.007447883 -0.4345745 0.04457282 0.3292513 -0.1328724 0.2044095 0.3571979 -0.1714084 -0.07813755 -1.241329 -0.425307 0.3275183 -0.03164305 -0.0134258 -0.1517548 -0.1097124 0.2801482 -0.3197424 0.140408 -0.3278283 -0.187623 0.003656562 -0.1332049 0.01265808 -0.3174101 0.3469341 0.02216842 0.1873451 -0.08022726 -0.1827136 0.05550689 0.4466511 0.1394664 -0.5395833 -0.4743993 0.03174439 0.3522545 0.1444054 0.01722895 -0.02514691 -0.05636945 -0.1537666 -0.2001944 -0.09847111 0.01650679 -0.1180847 -0.103354 0.08430559 -0.2184994 -0.183131 -0.07232393 -0.109583 0.07341545 -0.2633748 -0.1559927 0.01287156 0.1421615 -0.5178922 0.1055235 0.1306723 0.2538938 0.261798 
  -0.08909812 0.01681624 0.01269042 -0.05043153 0.09243742 0.1769291 -0.1710374 0.1109274 -0.1867729 -0.1681535 0.4376224 0.3144332 0.1411158 0.4598668 -0.07991491 -0.8830357 0.3141432 0.04924732 0.1189941 -0.1481822 0.1988851 0.1273378 -0.4991786 -0.2094087 0.02534935 0.1132387 -0.3977127 0.131603 -0.1617807 0.2983269 0.2973146 -0.2268585 0.01468293 -0.2486628 0.05718716 0.1584054 -0.02543098 -0.03554307 -0.1094956 -0.09153909 0.04941093 -0.07565336 0.05306277 -0.2167592 -0.06673631 -0.06383109 -0.1246569 -0.05466012 0.1397973 -0.0985052 -0.04567392 0.123524 -0.3054968 0.05866562 -0.08153932 -0.1259205 -0.03844174 -0.1741974 -0.09230518 0.3829396 -0.1525876 -0.2241023 0.006166129 -0.05389223 0.04036059 0.07309784 0.006310217 0.0454049 0.01518342 0.006403045 -0.1535655 0.07390868 0.1392663 -0.06788048 -0.3302749 0.05712549 -0.3561703 -0.2910271 0.08220468 0.1634048 -0.1661459 -0.05270029 0.09743278 0.001718209 0.09698934 0.06463757 0.1660079 -0.06859712 0.3305316 -0.2957124 -0.006384437 0.1812534 0.02163617 -0.06108084 -0.1973602 -0.006597416 -0.6380044 0.1537251 0.235819 0.00333035 0.1819544 0.06933921 -0.06493285 -0.1176784 -0.2219191 -0.01560373 0.2566688 -0.04111714 0.02748908 -0.2639296 -0.07835632 -0.2363886 -0.2048434 -0.209034 0.1441499 0.05910654 0.05491821 0.3559166 -0.1026497 0.09255152 0.02108882 -0.09272434 -0.09988491 -0.09055623 -0.05502363 0.009184865 -0.1356978 0.1992523 -0.6564652 0.3722562 -0.2314249 0.0588422 0.1469395 -0.219063 -0.1275744 -0.09525047 0.0722037 0.5671639 -0.2400621 0.04003694 -0.08328953 -0.07125423 0.05292254 0.06840044 0.2442096 0.05794815 0.10217 -0.01809041 -0.2073153 -0.05222289 -0.1899919 0.07675109 0.06713143 -0.09470535 0.3209619 0.1132862 0.707743 0.1759541 -0.05508092 -0.006788166 -0.1641272 -0.8315715 -0.1669076 -0.1186783 -0.1582602 -0.03782375 0.2444365 0.06552429 0.04233802 0.001404171 -0.1156395 -0.05358246 -0.08848686 0.08693976 -0.149492 0.01387003 0.0002665283 -0.07352816 -0.1328781 -0.1521554 0.05108764 -0.03071209 0.03984057 -0.5791717 0.1539115 -0.4077894 -0.2276745 -0.09128024 0.08128629 0.06650728 0.09510248 0.1154417 -0.01384342 -1.050404 0.1465193 0.05728291 0.1158394 0.05959454 -0.1850265 -0.3322766 -0.015731 0.1027694 -0.2432259 0.1082503 0.03742706 0.02659067 -0.03100186 0.1000067 0.06041038 -0.06732895 -0.4362387 0.2454532 -0.08820041 -0.03309388 0.1606001 -0.1902797 0.2329601 -0.3332204 0.01953753 -0.1414203 0.3072813 0.01543906 0.1064273 0.03730924 0.7641063 0.02343277 0.03394751 -0.02961049 -0.01484102 -0.1197695 0.01242769 0.02188393 -0.6722391 -0.2094195 -0.3271862 -0.05367169 0.1547402 0.07296654 -0.0243694 0.007277145 0.04130822 -0.3523637 -0.3238691 -0.02123855 -0.07662394 -0.02586212 -0.05342599 -0.06549311 0.1343157 -0.1318898 0.1554158 -0.1170633 0.1123335 0.08941665 -0.001161666 0.01103129 
  0.03669452 0.2515584 0.1278203 -0.001228403 0.1981199 -0.1284512 -0.004620738 -0.1043195 0.1495032 -0.06070894 -0.3340984 -0.07620467 -0.03206877 -0.1031787 0.1590339 0.411752 -0.01250404 -0.256245 0.02622593 0.3173264 0.03917703 0.03379251 -0.2005245 -0.2197851 0.009773203 0.1668088 -0.07255673 -0.0754412 -0.2342022 -0.2680683 0.3333646 -0.09384053 -0.1939737 -0.04846991 0.2352005 0.07506923 0.098649 -0.01381344 0.3769202 -0.08817847 -0.007137321 -0.02561908 -0.156704 0.1024115 -0.2152234 0.06972557 -0.1048771 -0.0317191 0.09885515 0.1134583 0.3131032 -0.1373511 0.1512858 0.118298 0.1736822 0.08708773 -0.1628511 -0.001007538 -0.1941754 -0.3771895 -0.01085621 0.0895194 -0.2699409 -0.01904752 -0.06038898 0.0963529 -0.08178242 0.3331524 0.08604707 -0.2110175 0.01967581 0.123592 -0.005050387 -0.3717164 -0.260149 0.4110857 -0.07812032 -0.0765218 0.01826394 -0.07544314 0.1300396 -0.08022848 0.2114329 0.2125544 -0.1976096 -0.1667293 -0.06310279 0.01143486 0.03030797 0.2152139 -0.1396759 -0.0758539 0.1752616 -0.1245354 0.2214924 0.1194349 0.4515062 0.0722274 -0.08622414 0.07863101 -0.05531717 0.4612998 0.1801598 -0.05994486 0.4919868 -0.1230397 -0.005313007 -0.101146 -0.05975579 -0.3530667 0.04590507 -0.03288492 0.3574146 0.1001764 0.1535864 -0.0554632 0.2650143 -0.244045 -0.1697765 -0.02591093 0.1593183 0.08358448 -0.03455144 0.02571319 -0.1819612 -0.08812269 0.0948167 0.05246339 0.2474675 -0.09055404 0.02012634 -0.2270983 -0.05059239 0.2343127 0.3146089 0.224995 0.1267136 0.04285368 0.08006715 0.04198733 -0.1230299 -0.0941345 -0.05305833 -0.03430922 -0.2790236 -0.05250058 0.09160165 0.1064217 0.105082 -0.01391167 0.03663034 0.01269098 -0.1943387 0.02597642 -0.05919103 -0.2585396 0.1105685 -0.09994183 -0.2061028 0.1238899 -0.09440022 0.01427636 0.01736998 -0.03708799 0.1056919 0.01624415 -0.05525298 -0.01508595 -0.2432746 -0.4070779 0.1266469 -0.0170099 -0.003130586 0.06184695 0.1812145 -0.0449063 -0.001913054 -0.125601 0.000965821 0.05551777 -0.1115789 0.2834861 -0.04901302 0.6087674 0.01473536 -0.5329749 -0.0566112 -0.07192405 -0.2912031 0.1272418 -0.003932656 -0.06835853 -0.06020862 0.2587709 0.1533284 -0.03943593 -0.1791861 -0.2173131 -0.1986131 -0.2417148 0.04253239 0.001100996 0.1735269 -0.004279289 0.1920615 0.07777392 0.005258264 0.08017337 0.08364012 0.07863305 0.1779232 0.1518666 0.02614767 0.0769726 -0.310633 -0.07505015 -0.03684828 0.3863902 -0.0008189674 0.0363484 0.0460435 0.1966204 0.02955792 -0.04242707 -0.1805231 0.005082563 0.006999813 -0.1385329 -0.1387566 -0.04633697 -0.04704897 -0.1282037 0.1547457 0.239938 0.130442 -0.1816755 0.0445391 -0.2330312 -0.1330427 -0.2357244 0.2588343 -0.07097562 -0.01947704 0.033926 -0.02667401 0.08494233 0.188161 0.009937355 -0.1175851 0.1154279 -0.1339462 -0.06444479 -0.0801541 0.21033 -0.2350054 0.07419513 
  -0.2788944 -0.02829961 -0.08304257 0.1039647 0.02958385 -0.2197281 -0.02863333 0.1306749 -0.3301232 0.2213858 0.1052598 -0.09081148 -0.1847054 0.02991664 -0.03022831 -0.1543767 -0.2576101 -0.2090376 -0.2140157 -0.04450477 -0.07237379 0.05809372 -0.08640707 -0.118711 -0.0861164 0.001070415 -0.4224759 -0.2198142 0.1963012 0.3648314 -0.3487193 -0.1306818 0.1850545 -0.2110151 0.2157703 0.1122263 0.05598893 -0.0202742 -0.1214084 0.1091286 -0.2579879 -0.4739811 0.004305786 -0.2065203 -0.1153597 0.1017334 0.04514075 -0.1480312 0.2280848 -0.0358793 -0.06248281 -0.06757823 0.05714047 0.6132916 -0.2637692 0.03541324 -0.00433299 -0.1643034 0.1053871 0.06208977 0.02912712 -0.3114291 0.09261915 -0.03488007 0.2045461 -0.05430421 0.2912155 0.06180014 0.08162113 -0.1334521 -0.1064394 0.01954423 0.03562799 -0.02402722 0.01696748 0.1039989 -0.0842456 -0.01344623 0.09522494 0.3962793 -0.1565905 -0.00481061 -0.2550843 -0.06432851 0.1763803 0.1344823 0.2477437 0.1994039 0.07047611 -0.07372013 -0.1236467 -0.2889982 -0.1838311 0.2248013 -0.05444065 -0.02350959 0.2891512 -0.05715549 -0.01206207 -0.1048626 0.2029915 -0.1403536 0.03065083 0.1257022 0.2345401 0.1634021 -0.03777778 0.08236805 0.08129014 0.04004057 -0.2395616 -0.03831379 -0.3299027 -0.1393449 -0.08958561 0.3668056 -0.07505564 0.1605152 0.001974213 0.07058489 0.01331427 0.1492156 0.1525807 -0.07614729 -0.4472869 -0.06859386 -0.1705875 -0.1038546 -0.122762 0.1727991 -0.03793417 0.0689979 -0.01118757 0.1986755 -0.4321603 0.1197277 -0.1130661 0.06203826 0.06443617 -0.2326508 0.1172262 1.86778 -0.0713014 -0.1538798 -0.3162844 0.1806846 -0.2274118 -0.04960294 -0.1928779 -0.3012744 -0.1703935 -0.1793213 0.1403095 0.1462666 0.1315402 -0.0865377 0.0934663 0.2824549 0.1348327 -0.3344692 -0.09229708 0.4215834 -0.08235203 -0.0469511 0.1711135 0.09068167 -0.06226276 -0.006837862 0.003236945 -0.0590382 0.107472 0.208536 -0.01961685 0.1387815 0.2376603 0.321081 0.09761478 -0.08549552 -0.08578036 0.1698088 0.107601 -0.7510032 -0.09681373 0.3267512 -0.08225401 -0.1844906 0.1581588 -0.0688131 -0.4314134 0.3910359 -0.05010306 -0.05541725 0.09398834 0.1884821 0.06626131 0.05817163 0.2880384 0.434911 0.29747 0.3077445 -0.2520732 0.08111427 -0.3062738 0.1142211 -0.05361102 0.09448946 0.2316984 -0.2502216 0.0690401 -0.3773605 -0.01564848 -0.1350213 -0.04296769 -0.180239 -0.3815232 -0.03494209 0.2787563 0.2308271 -0.05023406 -0.03481795 0.1875013 -0.09776127 -0.1162333 0.05575983 -0.1597045 -0.1572496 -0.2258681 -0.156195 -0.1022754 0.1533398 -0.1372423 0.01059632 -0.3740314 -0.6314759 0.1610611 -0.1306715 -0.06907506 -0.1254534 -0.1036614 -0.1797009 -0.08065698 0.1193027 -0.1114657 0.01684259 -0.05387308 -0.3588477 -0.081876 0.07428153 -0.2239151 -0.04758513 -0.2444606 0.2445199 0.03171532 0.3701677 0.183328 -0.007710202 
  -0.2123455 0.1566376 -0.08569498 -0.002410542 -0.02120524 0.101613 -0.08321985 -0.2914116 -0.282795 -0.1496078 -0.2454599 0.0858974 -0.09491359 0.0261879 0.2146077 -0.08638316 0.09301401 0.02787413 0.1038674 -0.6650148 -0.132728 0.3631281 0.02864741 0.4443911 -0.3014444 0.2007649 0.5586133 0.04615812 -0.01609278 0.2786974 -0.2132165 0.1341796 -0.1192922 -0.2063945 0.3254033 -0.03763704 -0.08376344 -0.6990646 -0.008567568 0.07168833 0.2941176 -0.1184758 -0.2820038 0.08243606 0.6434646 -0.008403356 0.2593747 -0.9582571 -0.2391404 -0.1692627 0.1991637 0.01465758 -0.06368492 0.05223706 0.09775776 0.1490893 -0.1789385 -0.4245465 -0.08416963 -0.1151391 0.06187953 0.07743824 -0.1603722 -0.006160667 -0.2403972 -0.01653545 -0.6163769 -0.3000261 0.07282368 -0.4282902 -0.1776893 0.08129118 -4.102375e-05 -0.2041012 0.09534466 0.1329979 0.2011564 0.3954041 0.2972095 0.02872207 -0.6220123 -0.1738649 -0.07782352 -0.03937617 -0.14893 -0.1347523 -0.1322798 0.007320376 0.038514 -0.3098136 0.02667188 0.04379325 0.05754505 0.04567288 0.07666377 0.6844602 0.008679238 -0.5632479 -0.1022056 -0.1843917 0.006167705 0.06311387 -0.4152725 0.02856752 -0.0374104 -0.1158676 -0.1489636 -0.09933934 -0.4371609 -0.02230896 -0.1653171 0.1007919 -0.1362283 0.01779706 -0.02709177 0.08563397 -0.295922 0.015586 -0.1273468 -0.01947419 -0.1284578 -0.01697076 0.06013942 0.1056182 0.03472563 0.05915127 -0.2361477 0.1464312 0.03807686 -0.01831021 0.03775556 -0.02710518 0.3396814 0.1805092 0.2146209 0.1456469 0.1673552 -0.1427235 0.04328703 0.1442792 0.01713474 -0.1782136 -0.1077361 -0.02812179 0.2191933 0.008108814 -0.04050665 0.01014064 0.1630549 -0.1455317 -0.04775378 0.05923671 0.1737312 -0.3567505 0.548346 -0.3763609 -0.1584354 -0.0673397 0.238974 -0.3769862 -0.3961961 -0.5142838 -0.1986675 -0.07007687 0.08288293 -0.05786448 0.0449733 0.1388821 -0.0464855 -0.18971 -0.2388864 0.05069652 0.09375779 0.6989977 0.3758103 -0.2884804 0.1036714 -0.3341344 -0.1867774 -0.05974352 -0.2939752 0.01498545 0.06207394 0.1398734 0.04848544 0.1137483 -0.3337093 -0.06056318 -0.2780986 -0.139881 0.143196 -0.1423979 -0.3593322 0.0720695 0.2881783 -0.2756292 -0.195429 0.3859823 -0.1310572 0.1508642 0.0192821 -0.4110505 -0.06266555 -1.186776 -0.4167542 0.1440745 -0.04337384 -0.1344982 -0.2801965 -0.1598008 0.003529348 -0.1522591 0.3283022 -0.0174033 -0.02496406 -0.02406401 0.1776238 0.02824671 0.0338987 0.1246148 0.4028647 0.2765015 -0.01455536 0.4060284 0.0555938 -0.04604979 0.1629084 -0.5355783 0.07234918 0.1826792 0.2306351 0.0732877 0.003981953 -0.08112445 0.1240337 -0.09528418 -0.09693407 0.04689681 0.1345644 0.00129378 0.06661563 0.07855255 -0.02711917 -0.05311053 -0.09791885 -0.1587263 0.3045916 -0.09472083 -0.05484235 -0.2329166 -0.03369723 0.05344416 0.2194446 -0.1089151 0.2158357 0.4488833 
  0.2593531 0.2126763 -0.02848918 0.08657676 -0.3773028 -0.7683646 -0.05981418 0.5546203 0.1061897 -0.1919625 -0.2731616 0.02565315 -0.009997729 0.0404451 -0.2834362 -0.0740004 0.06685539 -0.4024801 -0.07546589 0.1728993 0.1763099 0.02587867 0.01163431 -0.1608512 0.05108688 -0.07627623 -0.2672015 -0.00834407 -0.3194402 -0.1543841 -0.1805452 -0.1704408 -0.1055889 -0.129936 0.1869588 -0.1001386 0.1067284 -0.07300428 0.1474864 -0.1606375 -0.3897395 0.325243 -0.04692258 0.01295844 -0.03220737 -0.1480558 -0.06173082 0.1917936 0.002795403 -0.005333844 0.05863823 -0.1460499 -0.04797591 -0.2305604 0.0897337 -0.322437 -0.05343658 -0.01666437 0.09448238 0.1884095 0.0004913884 -0.2572367 0.1479219 0.1185824 -0.03528605 1.026644 0.05772799 0.02974853 -0.05362652 -0.2843162 0.1118374 0.2430576 -0.1065591 -0.06602253 -0.005708348 -0.3827019 -0.1694484 -0.2949775 0.1338941 0.06328312 -0.2299403 0.1652646 0.0537649 0.4522185 -0.2218519 -0.1070534 0.1682256 -0.1659873 -0.3596194 -0.03498281 -0.06117224 0.1458514 0.1116255 -0.2856882 0.1820697 -0.21008 -0.3117831 0.07870158 -0.1092568 -0.3352292 -0.00181916 0.2670031 -0.03378182 0.1628069 -0.2085962 -0.02301335 -0.1246091 -0.0462692 0.1691325 0.07740606 -0.1034421 -0.1988935 -0.09193308 0.101606 0.03785298 -0.2447254 -0.3179095 -0.01924657 0.08217791 -0.680238 -0.1671922 0.2449997 0.4565216 -0.1769806 -0.3894636 0.1145447 0.3289034 -0.03617636 0.1223253 0.1332853 -0.007610767 -0.3893643 -0.1521548 0.5561409 -0.1634234 0.01311283 -0.2771647 0.07755012 0.1148009 0.03491154 -0.05920618 -0.08329764 -0.4408765 0.2884907 -0.05497939 0.04149637 0.2830325 0.09299679 -0.1754874 0.1727558 -0.009416456 -0.2586829 -0.3939649 0.1750137 -0.0673948 -0.014823 -0.1551282 0.5488517 -0.04498103 -0.07385202 -0.03033371 -0.168237 0.4237134 -0.1654775 -0.01179778 -0.2394097 -0.3336533 -0.1787959 -0.2660248 -0.1405348 -0.1183905 -0.02802677 -0.0309008 -0.05467599 -0.1362936 -0.1695321 0.003633305 -0.1669248 -0.09349468 -0.1027263 -0.4763192 0.09177715 0.1798593 0.1098626 -0.1512477 -0.01676433 -0.04471273 -0.2173635 0.3011492 0.8819221 0.05103024 0.8567352 0.002798728 -0.06115909 -0.04653025 0.1426722 0.01896966 -0.1205014 0.1017687 -0.2589597 -0.140385 0.07523419 -0.1600059 -0.1727907 -0.14196 0.09795026 0.07380208 -0.3891618 -0.2551544 -0.2516709 0.0767889 0.03237993 0.04566363 0.1989837 -0.06285693 0.2212471 -0.1457163 -0.2879093 0.32986 -0.05921033 -0.07368801 -0.03525571 -0.1154958 -0.01624573 0.0144763 0.2627394 0.01307885 -0.01891286 -0.108736 -0.1418295 -0.004805328 0.09266372 -0.008850656 0.1015768 0.5088066 -0.04120816 0.2620814 -0.008770681 0.008191102 -0.1071209 -0.2377298 0.2011608 0.01315364 -0.1363593 0.166335 -0.1735512 -0.04968798 -0.3086596 -0.2351026 0.1528344 0.1995818 -0.0282162 -0.1710853 0.08077902 -0.06170643 0.1212901 
  0.1373283 0.1572665 -0.158308 0.1577111 -0.3337429 -0.0005639927 0.02411143 -0.3715477 -0.6082411 0.3396044 -0.09274241 -0.1486727 -0.2578481 -0.5177411 -0.338507 -0.1303228 -0.1590352 -0.2390504 -0.07958158 -0.004946496 0.08049069 0.2768348 -0.05300664 0.1839605 -0.09166106 0.1264949 -0.08371359 -0.2930301 -0.2346394 -0.08365832 -0.05565861 -0.11999 -0.3182836 -0.2095249 0.1957864 0.02722406 0.4834797 -0.3216055 -0.3743755 -0.01624894 0.149492 -0.1518653 -0.2538056 -0.2817646 -0.1812686 0.1558358 -0.4472706 0.5766058 -0.3422694 -0.3131035 0.3737848 0.08653385 -0.0492527 -0.00595865 -0.3004123 0.4406696 0.1389105 0.008112929 -0.09027822 0.005785234 0.3057057 -0.2070742 0.2229292 -0.07482139 -0.01811044 0.09349128 -0.1873538 0.2284346 -0.5065339 0.02895732 0.2468237 -0.01517529 -0.04479066 0.006825098 0.1588499 0.28658 0.01177898 -0.3395286 0.1267379 -0.1755971 -0.2468091 -0.1525185 0.1751156 -0.4239877 -0.2656242 0.03136376 -0.7001064 -0.3870266 -0.1154517 0.2534869 -0.1086854 -0.1157253 -0.07353462 0.05745767 0.2996455 0.1751878 0.07048865 -0.1585558 -0.2627004 -0.2114551 0.2366171 -0.1768872 0.006283227 0.3210939 -0.09114641 0.4123326 -0.2006073 0.01590732 -0.09087913 0.1097764 -0.432201 0.1210055 -0.2254225 -0.4615278 0.1715113 0.06053965 -0.03114176 -0.05610641 -0.1530475 0.2502885 0.06639108 -0.04670517 -0.02563875 -0.1176615 -0.1173838 0.08790175 -0.2185479 -0.02281325 0.0308068 0.0475837 -0.04146678 0.03378769 0.1537381 0.1813318 -0.2483989 0.1573404 -0.02480756 -0.1716687 -0.02701869 0.04772 -0.09832198 -0.4295473 -0.1792641 -0.05694828 -0.2422378 -0.4104865 -0.0825664 0.2469347 0.1047013 0.06848735 0.2661277 -0.144595 -0.5158228 -0.0671004 0.1316025 0.05281764 -0.01496356 -0.06965395 -0.05775632 0.2662931 0.1580656 -0.06143131 0.1336369 0.443026 -0.07629757 0.1426997 -0.2006037 0.03958374 0.05924036 -0.07709134 0.04562351 0.1522204 -0.1017722 -0.1245145 0.2398254 -0.3128183 -0.308312 -0.114638 -0.1954667 0.1386346 0.1181753 -0.1400514 -0.07082526 0.30228 -0.1822612 -0.2497679 -0.4621837 -0.3726982 0.08745749 -0.3509825 -0.03930663 -0.08820352 -0.07127675 -0.148704 0.1019545 0.01879231 0.2098343 0.1819319 -0.1722441 -0.2168074 -0.2209219 -0.1110149 -0.04446786 0.1155494 0.09737307 0.05413906 0.2589607 0.06189163 0.04840072 -0.1240473 -0.0420775 0.04531746 0.1352139 0.1653093 0.05918889 0.164898 -0.4725532 0.1082058 0.1540937 0.07989736 -0.2130972 -0.7328486 0.5159798 -0.2875789 -0.3627379 -0.2005439 -0.1347609 -0.1388995 -0.02528779 -0.2550656 0.365295 -0.3390452 0.08463438 0.2648126 0.3125392 0.1614414 -0.1648848 0.01830409 -0.2249528 -0.04743582 -0.1118456 0.1136492 -0.4588073 -0.1041737 0.1331251 0.04009025 0.07286864 0.06379072 -0.4953067 -0.3493925 0.2975859 0.009136206 -0.2184732 -0.5137953 -0.1544854 -0.1291777 
  0.4834619 -0.2145066 -0.07753909 0.2699559 -0.1228691 0.07210879 -0.05546006 0.8959247 -0.3331686 -0.1712815 0.07199051 -0.1762004 -0.02097118 0.3599772 0.1017489 -0.3864099 0.01989837 0.1909468 0.1152421 -0.2259163 -0.3013338 -0.2057837 -0.468874 -0.0702501 -0.05438763 -0.2179257 0.06646705 -0.03705988 -0.03937088 -0.3635461 0.05603846 -0.07148004 -0.04149324 1.234319 0.2587091 0.1284601 0.4354481 1.700491 0.4230927 -0.207095 -0.1473938 0.3087822 -0.05912807 -0.1793533 0.08577343 -0.0005300823 -0.267282 -0.5592245 0.9355405 0.02313334 0.09061222 0.1239328 0.04573721 -0.4927784 -0.203501 -0.3325642 0.05552522 -0.372043 -0.0183722 0.08723066 0.1969732 0.09744557 -0.4393688 -0.01990539 -0.1579041 0.1737901 -0.145548 0.1551046 0.3196034 0.01974645 -0.1050044 -0.2238014 0.4487529 -0.1405249 -0.0478873 -0.03515562 0.2253576 0.1245267 0.2889136 -0.1151308 0.3261972 -0.06091618 0.228461 0.4625735 0.08866703 -0.02132269 -0.3985952 -0.4400603 0.05358756 -0.3647404 0.433593 -0.2244644 0.2778423 -0.1873687 0.3544351 -0.08228502 -0.1580877 0.008357304 0.6928763 0.3038056 -0.1435796 0.4467178 -0.002055126 0.4157302 0.4913405 0.06031977 0.150532 -0.1834446 -0.1866537 -0.4394619 -0.1586001 -0.2692572 0.6855687 -0.200455 0.02526682 0.1356143 -0.1258944 -0.2639621 0.3599182 -0.2072672 -0.1957233 0.0446109 -0.3426345 -0.07098312 0.1060526 -0.09667034 0.5001464 -0.5727387 -0.1646109 -0.4859478 -0.09242919 0.2121364 -0.1272569 0.06024424 0.2561674 -0.1301368 0.5302787 0.01429542 0.04352462 0.0138198 -0.2176153 -0.3405586 -0.6114261 1.712681 0.5390113 1.238739 0.187648 -0.4347466 0.1173017 -0.1470594 -0.3000856 -0.05282605 0.3173972 -0.1215684 -0.5439867 0.02815479 -0.1782939 0.3809401 -0.229113 -0.3876433 -0.8438662 0.2713128 0.5393009 -0.253303 -0.2179572 0.06427877 -0.1100482 -0.2613117 0.3651028 0.4763013 0.01302014 -0.2367868 0.0573322 0.3541967 0.1864017 -0.5541626 -0.1223975 -0.0895134 -0.384337 0.03219408 0.04931786 0.4624042 -0.3687226 -0.1923077 -0.02768807 0.1245825 0.1527072 0.5655165 -0.4735325 0.5861856 -0.1725066 0.08434217 -0.001598866 0.003420552 -0.2756604 0.02682978 -0.05674376 0.3453391 -0.07090678 0.5157453 -0.1531577 0.1007177 0.2695261 0.1028706 0.5379965 0.2814374 0.3860655 0.02563254 -0.4376281 -0.2704598 0.5071967 0.3221747 0.169656 -0.01388715 -0.561596 0.07464211 0.01660719 -0.07470552 0.02882023 -0.188299 0.34416 -0.1480388 0.03564544 0.1062608 -0.1655131 -0.4891826 -0.001722714 0.0521992 -0.1299482 -0.3974333 -0.1659798 0.9681258 -0.4153874 0.1477252 -0.3229614 0.9138883 0.1686055 0.1798725 0.3158844 -0.2337064 0.3840257 -0.03143223 0.04356208 -0.2781771 -0.01988472 0.476961 0.02684414 -0.07806916 0.5583459 0.1755917 0.6794288 0.05402602 -0.01333158 0.1960741 0.04714867 -0.163175 
  0.1814902 -0.07239158 0.02332781 -0.06005315 -0.3014654 0.1290777 0.1512541 -0.04281419 -0.1712211 0.3342986 0.5570774 -0.1115618 0.2979623 0.2845444 -0.317525 -0.2503995 -0.7248731 -0.5436127 0.143944 -0.2026415 -0.2103624 -0.09133791 0.008325969 0.1124978 -0.471914 0.03144757 -0.1978857 0.08364207 -0.06297112 0.1049938 0.06548311 0.05658861 0.1010225 -0.04155264 0.1866084 -0.2267426 0.2889315 -0.221296 0.008820494 -0.007293506 0.1632292 -0.144283 0.172805 -0.09410575 0.06878798 -0.2596656 -0.3306306 0.02723026 -0.1779858 -0.2006992 0.1234097 0.1165701 0.1737218 0.06690203 0.03160192 0.06799466 -0.04482275 -0.1261801 -0.0687076 0.248506 -0.05022321 -0.171579 -0.07943235 -0.1092005 0.3325477 0.2414879 0.3763782 -0.3176439 0.1688515 -0.1703966 -0.2722131 0.008194691 0.0001810803 -0.4141475 -0.4495526 0.01086768 0.07297211 -0.2906297 -0.1643517 -0.348645 0.08809251 -0.308712 -0.08192705 0.02630365 -0.324133 -0.09516934 -0.1598839 0.07285908 -0.3041564 -0.1345471 -0.101473 0.04104164 -0.3710179 -0.264908 -0.4778526 -0.0991112 0.1534835 0.02611811 0.404294 -0.3164079 -0.3208237 0.1043332 -0.214402 -0.1376545 0.09075514 -0.245528 0.2720878 -0.05539563 -0.2383501 -0.1043969 0.06086518 -0.06268265 0.09860384 0.05402505 -0.1013293 0.04467482 0.2908839 0.7436745 0.2225515 0.07968503 -0.4842292 0.2571466 -0.01883034 0.07580445 -0.02451223 0.262002 0.03191533 -0.5728477 0.02447135 0.1381398 0.03693268 0.4871966 0.1282217 -0.1057622 -0.2702064 0.2767444 0.04246938 -0.1068991 -0.04849784 -0.2517836 -0.182583 -0.2618465 0.02062599 -0.02683508 -0.3257809 -0.08074565 -0.01233467 0.0003869192 -0.1428509 -0.06532969 0.06338668 -0.0931108 -0.01375487 -0.1778393 -0.01340124 -0.2424158 -0.28868 -0.2999651 -0.3299116 -0.05638493 0.134047 -0.5416194 -0.1904563 0.2752752 0.1553243 -0.0107149 -0.03643825 0.02261166 0.1520182 0.3567712 0.07312323 -0.02500488 0.1391502 -0.03285629 -0.07216396 -0.03789342 0.07852656 0.009693582 -0.148218 0.2308442 -0.1235137 0.03311346 -0.2643698 -0.01022992 0.52463 0.1538386 -0.07051225 -0.8553114 0.3363777 -0.1788037 0.02368049 -0.155965 -0.002730707 -0.00342503 0.02046107 0.2147369 -0.138989 0.5106655 0.3763828 -0.5696528 -0.438078 -0.1908654 0.2239068 -0.01064448 0.1453591 -0.1265863 -0.07324942 0.08687662 0.1726347 -0.191637 0.05804042 -0.2606287 -0.2145842 0.06669583 -0.1189045 -0.1827469 0.3802709 -0.01993009 -0.03485378 -0.01827317 0.01082911 -0.460154 -0.1805496 0.07803596 -1.245809 -0.04574468 -0.1690334 0.02823215 0.2015011 0.2305466 0.009188217 -0.3150367 0.7806615 0.2576316 -0.1786282 -0.1259368 0.1480154 -0.05634011 -0.3839434 -0.310906 0.0180035 -0.1853072 -0.1989737 -0.009218739 0.01660785 -0.1591081 0.1021077 0.1913899 -0.6066154 0.05150788 -0.06064053 0.0865754 -0.02549356 0.1128647 -0.1234206 -0.1118604 
  0.1028334 -0.0006074149 -0.2449917 -0.1007194 0.169163 0.1137189 0.06246022 -0.2987815 -0.3483304 0.1103356 -0.03494195 -0.05216816 -0.02849336 0.08885679 -0.4301395 -0.1215302 -0.07432726 -0.02174781 0.1137998 -0.06052877 -0.1517097 0.1078058 0.03753262 -0.3458452 -0.2086703 0.1164046 0.008515104 0.3065554 0.1468732 0.2557348 -0.02408125 0.1609743 -0.2737617 -0.4094043 0.2890131 -0.247833 -0.3014845 -0.1565067 -0.1338457 0.08249607 -0.112254 0.02223426 0.1439035 -0.1375901 0.3511955 0.0498536 0.195352 -0.08968327 -0.2352215 -0.3807029 0.03072845 0.05727296 -0.05672638 0.2758065 -0.04382589 -0.5805618 -0.08288857 -0.06143133 -0.3586727 -0.1408879 -0.05880272 0.07443383 0.04960915 0.5803441 -0.08955523 -0.1357745 0.1898677 -0.1217654 -0.145784 -0.241392 0.1992102 0.05742602 0.02613558 0.2288249 -0.1875827 -0.02985194 0.3741196 -0.03113198 0.02844123 -0.407013 0.2825498 -0.01603277 0.04356182 0.113836 0.4497717 0.1131963 0.0144893 0.2474718 0.3805748 -0.1268136 0.1992107 0.1359034 -0.258883 0.3650696 0.1132154 0.2280993 -0.3066126 -0.07403103 -0.06155845 0.03195545 -0.2654825 -0.250304 -0.1948291 -0.006321902 -0.1503852 0.09899643 0.09631877 -0.2654193 0.2141611 0.2072948 0.220269 -0.09987143 -0.1960816 -0.205509 0.2732318 0.5768332 -0.1822595 -0.03243762 0.1784 0.07760643 0.01956251 0.06727786 0.4074099 0.04375263 -0.2065464 -0.1347642 -0.1843845 -0.141534 0.03102111 -0.1322841 -0.08751895 0.03112224 -0.2824082 -0.1213794 0.1997194 0.2299682 0.1694296 -0.1611918 0.2206795 0.02770341 -0.08278279 0.07585344 -0.4002951 -0.1427289 0.1344721 -0.1301878 0.07857078 -0.1570529 0.2082843 -0.2243256 -0.2775794 0.2059628 -0.08832879 -0.01125197 -0.1004502 -0.1542234 0.4245428 -0.3017697 0.159082 0.0945697 0.6767288 0.05679406 -0.1563986 -0.1743789 0.03849546 0.05961598 -0.003069557 0.2916059 0.07862513 -0.1648075 -0.1213299 0.1570326 0.09654223 0.06948442 0.09507463 -0.5900578 -0.1041608 -0.05063884 0.0491599 0.2726088 0.09716439 -0.1264052 -0.0111198 -0.3138505 0.0864696 -0.2380972 -0.08382019 0.0305318 0.02624961 0.3641778 0.2703713 0.04422153 0.3248574 -0.1743961 0.04709556 0.09554999 0.002195978 0.03334139 0.1298009 0.2380671 -0.1832889 -0.2072337 0.1854533 0.1708508 0.05105844 -0.03704968 -0.3262016 0.124457 -0.07229774 -0.03469665 0.09887183 -0.3552647 0.06055101 -0.09342864 0.03620031 -0.02260659 -0.5084867 -0.3319978 0.09108546 -0.1155932 0.05887651 0.1096975 -0.07528527 -0.1746034 0.0491071 -0.2581485 -0.1923254 0.02474773 -0.4151155 -0.4814665 0.09862338 -0.1191297 0.2327469 0.2972415 -0.3512506 -0.2379933 -0.2466984 -0.07330512 -0.04665825 0.04017595 0.3408324 0.01659324 0.3361399 0.01559809 -0.01107082 0.03906409 -0.1490845 -0.3240677 0.2426999 -0.002610435 0.02510166 0.01056464 0.05891516 -0.1676426 -0.0178568 -0.1234324 
  -0.1005608 -0.06482598 -0.3265125 -0.1416753 -0.005073756 -0.0525146 0.1354706 -0.07419198 0.2062763 -0.01827632 0.04428492 -0.1881676 -0.1430767 0.254056 -0.3567286 0.1642102 -0.3531666 0.163744 -0.1289438 0.06423213 0.0531242 0.1565765 0.1335659 0.1445158 0.2936883 -0.2924032 -0.1065289 -0.09481966 -0.3903573 0.07343424 -0.0004268601 -0.1555903 -0.5808032 -0.1563232 0.2541497 0.01681395 0.272403 -0.01825349 0.04752029 0.05426026 -0.3072631 0.4349375 -0.3253401 -0.08842456 -0.1696534 0.4145122 -0.1011469 0.1377572 0.01322064 0.1652265 0.216997 0.2397549 0.08247961 -0.1055848 0.03754311 -0.1337374 -0.04480017 -0.008748708 -0.08632607 0.001181315 0.01244649 0.1607597 -0.1745146 -0.1204287 -0.09155815 -0.07460319 0.3029841 -0.1858871 0.09066662 -0.1469562 0.2907515 0.1524453 -0.0461936 -0.1214704 -0.227531 -0.1093927 0.1053234 0.2320526 0.08523813 0.2247581 -0.03070766 0.1479226 0.09175753 -0.2188901 0.01128151 -0.08505985 0.1125706 0.262543 0.101604 -0.0155248 -0.03909686 -0.158847 -0.05798728 0.04741025 -0.1097959 -0.3011665 -0.2438683 0.246767 -0.1711192 -0.4128441 0.09918173 0.08029795 0.1061139 -0.448857 -0.09315661 0.0769567 -0.05555213 -0.04487776 0.9434653 0.09147624 0.06048019 0.2238879 -0.4166311 0.05383796 -0.3742276 -0.2884143 -0.0779934 -0.03603701 -0.02719408 -0.4684777 0.07037304 0.1100286 -0.4734251 -0.2371961 -0.2897979 -0.3145985 -0.1101142 0.2898539 0.1697864 -0.02577377 -0.192703 0.3615236 -0.1634019 0.2240766 -0.09067399 -0.2901417 0.04370229 -0.00489592 0.1825793 -0.8391903 -0.03189757 -0.3633177 -0.1881472 0.06523813 -0.0671979 0.06708191 0.2691824 -0.1314369 -0.09565992 0.01347973 0.4366991 0.117039 0.1215106 0.4180108 0.01783533 0.03777133 0.2166635 0.05335524 -0.08298904 -0.03480357 -0.09424073 -0.358532 0.3075774 -0.112743 -0.5861663 -0.0281038 -0.09252725 0.04821758 0.1420761 -0.1170878 -0.2289429 -0.1126695 -0.1077486 -0.02870436 -0.4285545 0.04806331 0.285847 0.02940095 -0.1771426 0.1718898 0.4529431 -0.2535677 0.1876711 0.01605107 0.2170637 -0.2583219 -0.153097 0.03595022 0.3468441 0.0008380325 0.08522515 -0.3661186 -0.04959033 -0.01589689 -0.07918358 0.06587439 -0.2757165 -0.03074578 0.04314416 -0.04458827 -0.05140662 0.00673433 0.1066642 -0.07388952 0.3197189 0.4457554 -0.09090381 0.4019101 -0.08972855 -0.0621209 0.1311813 -0.06882504 -0.1805337 -0.4172954 -0.20101 0.1258833 -0.423835 -0.3390712 -0.01459711 -0.2936926 0.1137971 -0.2747599 -0.0567049 -0.03385361 0.2201148 -0.3635694 -0.06347481 0.2278312 0.0550859 0.1823529 -0.08095212 -0.2701322 -0.1586372 -0.2812545 0.06387849 -0.07060306 0.1071419 -0.6655884 0.05768292 -0.2918226 -0.2220951 0.1032868 -0.2648431 -0.04533599 0.1033677 -0.0001982412 0.05705438 0.4014023 0.03578319 0.2361695 -0.004647826 -0.01114599 0.1317868 0.04377111 0.2660976 -0.1831073 
  0.2455224 -0.6850209 0.2088105 0.4015177 0.4090658 -0.6371859 0.1066794 0.295379 0.2486907 0.04643793 0.2148193 0.5061183 -0.2863894 -0.1785184 0.4229794 0.1490498 -0.3477157 0.4118696 0.2507147 0.3538623 1.245456 -0.6328686 -0.5126507 0.2472711 -0.08960798 -0.3279157 -0.1012675 -0.3739764 -0.4958711 -0.4614079 -0.02639584 0.7068381 0.02064068 -0.1457981 0.3010144 -0.581606 0.4095974 0.4134039 0.07000841 0.6521044 0.3223512 -0.1990687 0.2492406 -0.7925184 0.2324466 -0.4497584 -0.3179804 -0.05569158 0.1751529 0.2331002 -0.225802 0.7442663 -0.9889765 -0.2954116 -0.06035606 -0.407532 -0.05375322 0.1610264 -0.4161959 -0.1224733 0.4740965 -0.370779 0.4349032 -0.4484067 -0.4700658 -0.4501575 0.2056464 0.1125735 0.117517 0.3459312 0.4749277 -0.2207032 0.4194378 -0.3611902 0.2531939 0.0482327 -0.06250179 1.064312 0.417064 0.0744957 -0.6110188 0.4410601 0.6462353 0.7756661 -0.7844422 -0.3520563 -0.1924496 -0.1068469 -0.172897 0.2420283 1.491104 0.5325441 0.1512957 -0.51524 0.1235695 -0.1235695 -0.1978867 -0.3414939 -0.09276149 -0.362911 -0.001278818 0.3803833 0.556953 0.3568578 0.2643525 -0.3616635 -0.007859239 -0.3633736 0.2853209 -0.4950683 -0.2877591 -0.3376271 0.07422124 -0.301071 -0.1760915 0.2067882 0.0774014 -0.1498806 -0.1362117 0.134174 -0.06407998 -0.00673801 0.2341374 -0.3218347 -0.09851347 0.09651478 -1.008702 -0.1596238 -0.1339912 0.6191679 -0.1710029 -0.07869966 0.1616115 -0.2172161 -0.3094698 -0.008196211 0.7562208 -0.1579809 0.1955982 0.1627412 0.3587728 -0.2687055 0.1606968 0.1346207 -0.1466726 1.648644 -0.2007815 -0.3140258 -0.3491939 0.01327403 0.0645903 -0.2072535 0.5094578 -0.03057407 0.3087991 -0.2886762 0.4595208 2.039865 -0.528054 -0.3722681 -0.1459335 -0.2622615 -0.7535508 -0.01352441 0.09643431 -0.5003607 0.1724427 0.2363576 -0.1821604 -0.7668181 -0.3026358 -0.1938349 -0.1364339 -0.1942634 -0.3850533 0.0647794 -0.4472699 -0.3793551 -0.5649309 -0.06270421 0.3345792 -0.6559542 0.6475535 -0.1569571 -0.7891225 0.2434238 1.062687 -0.6998172 0.008307651 -0.2667169 -0.05375164 -0.2987146 -0.1375241 -0.2565348 0.4058613 0.02850152 0.4058382 -0.2215081 -0.5071052 0.3259915 -0.2081878 0.02281632 0.1520501 0.3828087 -0.1762812 -0.1285523 -0.147312 -0.2624688 -0.1301429 0.1123308 -0.1536755 0.5458754 -0.3427322 -0.1080251 0.3277098 0.05246517 -0.2414002 -0.1402146 -0.10273 -0.2157372 0.06338422 -0.07764143 0.02686124 -0.07764582 0.140825 0.04727589 -0.07051905 -0.1354644 -0.002870059 0.7190031 -0.06066143 0.1257593 -0.8450838 -1.090912 -0.3838392 0.927455 0.406702 0.06690685 -0.03184978 0.09370949 0.1495373 0.126357 1.912257 -0.1450726 -1.29656 0.7129376 -0.07929216 0.08369128 0.1362787 -0.3443911 0.2053608 -0.2659111 0.05144691 -0.233251 -0.1914475 0.01398546 
  0.3893148 -0.07519271 -0.03152916 -0.2604889 -0.09100546 0.05221292 -0.004162548 0.1461769 0.1531295 0.1232706 -0.1227805 0.2604539 -0.236636 -0.38526 -0.1131478 0.2033331 0.1733853 -0.2889415 -0.2409983 -0.1938364 0.6767369 -0.01583061 0.1123502 0.2414575 -0.04163804 -0.07641589 0.06473665 -0.09370238 -0.1886776 0.03107265 0.08281579 -0.3766635 -0.2949783 0.1799507 -0.160842 0.05462072 -0.3736194 -0.2169422 -0.285333 0.1291369 -0.07262053 -0.1620124 -0.1485902 0.03379553 -0.1733104 0.01300903 -0.07594165 0.01486362 0.15243 -0.02260176 -0.2833367 0.5652624 0.03480972 -0.04843602 -0.0836782 -0.2125675 -0.1257879 0.1985047 0.03887783 -0.03390098 0.1478717 -0.079829 0.2184809 -0.02747996 -0.2135176 -0.2524529 -0.1487238 -0.9297037 -0.05959453 -0.746115 -0.01322749 -0.2237471 -0.1457753 -0.1926714 -0.6530463 -0.1025736 -0.146538 -0.3138316 0.1154165 -0.03329689 -0.160624 -0.03993951 -0.01478222 -0.2180144 -0.2797132 -0.226316 0.4184445 -0.228718 0.08601964 0.02328269 -0.1036945 -0.1977997 0.4368951 -0.3457738 0.05585296 -0.4165271 0.05385673 -0.2112977 -0.3445046 -0.07385045 -0.1183159 -0.2470232 -0.410561 -0.1868191 0.0474943 0.06260244 0.4414342 -0.1526628 0.007590983 -0.4628773 0.3091776 0.2617747 1.275185 -0.03735549 -0.1054237 -0.07949929 -0.01742138 -0.3211913 0.3628098 0.221405 -0.2252386 0.06537737 -0.186166 -0.06648491 0.004690856 0.1356612 0.4293928 -0.2169773 -0.1697345 -0.7055298 0.04304049 0.04847655 0.04003415 -0.2302903 0.1040619 0.0329662 -0.2679909 0.113393 0.1499729 -0.1644582 -0.1245458 -0.1193682 0.2239855 -0.01088605 0.02202282 -0.4251746 -0.1321582 -0.4421323 -0.1598385 -0.1969092 0.04816232 -0.2280443 -0.1482439 0.05285681 -0.3801784 0.1427523 0.3006631 1.249411 0.1550755 -0.0197184 0.2167096 4.168481 -0.07973201 0.2157134 0.001240088 0.02579775 0.1696094 0.2200196 0.09452292 -0.09119295 -0.007743069 -0.2982585 0.06311195 0.0674893 0.04731229 -0.06921347 -0.09960585 0.08868693 -0.06472375 -0.07365845 -0.1267055 -0.198979 0.1937377 -0.2040589 -0.2729362 0.1998766 -0.3437198 -0.3822103 -0.02522551 0.2952942 0.03433688 0.02243446 -0.06941249 -0.1346615 0.1058875 -0.6141281 -0.2930408 0.2248429 -0.1587076 0.05395655 -0.2980997 -0.1237531 -0.1144606 -0.4257936 -0.3486263 -0.2533079 0.04785354 -0.001128246 -0.02889916 -0.5647125 -0.09835577 0.7553434 -0.0808788 0.2556699 -0.2442284 0.03654101 -0.09585196 -0.1839342 -0.2920477 -0.1038832 0.4357904 0.08111298 0.05062154 0.1809595 0.3199214 -0.0889306 -0.2843312 -0.3607412 -0.111585 0.2287578 -0.0575845 -0.1296984 -0.2270015 -0.09013709 -0.182329 -0.392011 -0.2794655 -0.01864354 -0.1566561 -0.04904059 0.07040463 -0.4416036 0.2211954 -0.08890074 0.1403374 -0.09499826 -0.02513202 -0.1324859 -0.08072794 -0.01231072 -0.1889389 -0.02263387 0.04959157 -0.03568253 -0.3119589 0.1283908 
  -0.01611338 -0.0434432 -0.02965426 -0.134777 -0.0997954 0.2278889 0.4968886 -0.7434478 0.02513199 -0.02733026 0.4074834 0.2444001 -0.2171568 -0.06017471 0.01173062 0.2154914 0.2241304 -0.5024412 -0.0889338 1.137118 -0.3415129 -0.07108695 0.1068138 0.4235187 -0.1627826 -0.387455 -0.2757681 0.08581036 -0.1731057 -0.192166 0.09822054 0.07441398 -0.06092406 0.2719438 0.1015986 -0.1781066 0.2033856 0.0667662 -0.3078342 0.2929625 0.1355118 0.214599 0.05158824 -0.5796451 -0.3289987 0.1282303 -0.05168112 -0.4183953 0.1107003 -0.3464554 0.301419 -0.1517699 0.3356596 -0.3424087 -0.06962454 0.3475505 -0.1093975 0.01578661 -0.2591389 -0.09301523 -0.1754852 -0.01742034 0.02124813 -0.2509947 0.1506099 0.4100162 -0.2729973 -0.4786201 -0.09534119 0.1156941 0.3851894 -0.1804807 0.6258875 -0.0738636 -0.1746748 -0.4084832 0.2040532 0.1254566 -0.1455676 -0.1317345 0.07506797 0.1849745 -0.228022 0.05457169 -0.181082 -0.3202002 -0.0316195 -0.05902046 0.8052881 -0.1216387 -0.1408878 -0.07796589 0.2367624 0.02857728 0.3042477 -0.058452 -0.405057 -0.2206128 -0.478789 0.4350576 0.1524096 -0.3217604 -0.116529 -0.1211491 -0.3831314 0.1265275 -0.4933513 -0.2179678 0.2064615 -0.3577257 0.03527167 -0.07443719 0.03728232 -0.6447954 0.00797993 0.06797107 -0.4967697 0.4848687 0.0810431 -0.3347322 0.2619699 0.4393088 -0.2097217 -0.1786167 -0.115298 -0.03289447 -0.01320263 0.06091257 -0.3134367 0.4024989 -0.06926348 -0.004079628 -0.8680073 0.228706 0.2923091 0.01131784 -0.001434585 0.1699394 -0.3763501 -0.09316865 -0.03149159 -0.4412237 0.04020758 -0.2321111 -0.1248965 -0.1089035 -0.01769859 -0.2309639 -0.1184741 -0.05552354 0.1455926 0.3934519 0.8855206 -0.2542811 -0.06599318 0.5458335 -0.6656321 -0.4678641 0.1070682 -0.0473365 0.3357337 -0.4779392 -0.0914453 -0.7445314 0.05450332 0.04473985 0.09790201 -0.06111338 -0.0572811 0.2017273 -0.03127151 -0.3839222 0.337852 -0.06642895 -0.4471296 -0.3507188 -0.1818705 0.2490371 0.1990305 -0.2461231 0.07319454 -0.2413669 -0.03619931 -0.1021232 -0.01442207 -0.07983985 -0.4901861 -0.0867771 -0.3773932 -0.6927162 0.2174513 0.8475839 -0.2659011 -0.413615 -0.002504909 0.01842229 -0.1990815 -0.1503766 0.3506314 -0.0021515 0.1693741 -0.07871126 0.1043696 -0.4393715 -0.5993922 0.5270202 0.2524265 0.3115086 -0.1884398 -0.03507832 0.2114901 0.1929198 -0.03237783 -0.2282326 0.1572624 0.2902328 0.2089482 -0.04442182 -0.1316247 0.07828209 -0.02611825 0.0967053 -0.1896209 0.1295817 0.3114971 -0.2245491 -0.07548135 -0.306847 -0.2551551 -0.05385149 0.006250779 -0.09878702 -0.1674691 -0.1605103 -0.475248 -0.5539052 1.023733 0.0570245 0.2088242 -0.1666202 -0.2948559 -0.250078 0.02278099 0.0009827306 -0.007707746 -0.07154258 0.15648 0.1194459 -0.01549753 -0.1573161 -0.07220826 0.06651933 0.01819257 -0.2391852 -0.3070266 -0.05851086 
  -0.03656294 -0.2081005 0.06606764 -0.03521428 -0.1348813 0.06649107 0.1648723 0.1628626 -0.213972 0.2407258 0.02546044 -0.205105 -0.1626174 -0.01104267 -0.4588685 0.09566637 0.009884148 0.06176186 -0.02824938 0.4376916 -0.02573012 -0.01201977 0.01075076 -0.2976118 0.1887863 -0.07294573 -0.07402805 0.003507745 0.006111975 -0.1673265 0.07943601 -0.3004911 -0.007975997 -0.2911468 -0.06156958 0.01914473 -0.09483772 -0.2854606 -0.03719148 0.03158375 -0.001855303 0.1630121 0.2287606 -0.1889239 -0.2171272 -0.1896409 0.07253578 -0.0636759 -0.4511804 -0.2912677 -0.4688772 0.02162092 -0.2716754 0.228175 0.05054203 -0.1463704 0.05517085 0.06911428 -0.08658462 -0.0008524002 0.1441989 0.06646986 -0.006982295 -0.2347759 0.3761935 -0.09480521 0.01294021 -0.1670396 0.03968699 0.04323378 -0.04468871 0.3710186 0.3496082 -0.1215916 0.06154074 -0.1910004 0.08899198 -0.1520596 -0.3526316 0.06519388 0.217813 0.03627012 0.09526794 -0.3536342 0.3973424 -0.07660648 0.02966753 -0.002646444 -0.2496976 -0.01032174 0.1229017 -0.01327292 -0.1855551 -0.1050519 -0.1702613 -0.3338567 0.1987138 0.07662982 0.05297105 0.041533 0.08285815 -0.2899099 -0.01897392 0.03183897 0.004302724 0.01447904 -0.04486642 -0.7032461 0.1025523 -0.04706938 0.1319212 0.2587153 -0.1908386 0.343956 -0.08758935 0.180924 -0.3653126 0.008482512 -0.07837665 -0.1839297 0.04322621 0.07339705 0.234598 0.08528803 -0.2681721 0.2443902 0.006027419 -0.2027629 0.1262036 -0.1598927 0.2252481 0.1655695 0.07379859 0.04526151 0.790417 -0.03687099 0.2143945 0.322795 -0.2079061 0.04442995 0.006236258 0.04956901 0.05178203 -0.06058335 0.1846561 0.02340094 0.1115383 -0.1022792 0.1839992 -0.4667763 0.0935929 -0.04300978 0.1991428 -0.136018 -0.03929586 -0.1331309 0.1423584 -0.136162 -0.2697687 0.2157154 -0.04945985 0.01279453 -0.03096837 0.1021192 0.1390283 -0.1227871 0.1550946 -0.003909602 0.1280218 -0.09080639 -0.08202076 -0.1687364 -0.2728015 0.2005013 0.1207072 -0.1165879 0.1154805 0.1793216 0.2200249 -0.03367562 -0.01459636 0.006060162 -0.1296466 -0.16185 -0.2647931 -0.1247302 -0.01671707 -0.1062787 -0.04874921 0.002650164 0.1040878 -0.0373254 -0.1762353 0.04246861 -0.1237792 -0.1219461 -0.112069 0.3501076 0.2060482 -0.0753664 -0.04918848 0.0702145 0.1387782 -0.1392078 0.1769458 0.09465697 0.09269013 0.04755468 -0.05507693 0.148065 -0.110535 0.1201293 0.2408909 -0.185893 0.0995396 0.05903684 0.3706649 0.1037138 0.008967781 0.1431568 -0.3205224 -0.03337782 0.05995071 -0.2978886 -0.008709672 0.01131794 -0.04096089 -0.0649792 0.01397884 -0.1423606 -0.3071389 -0.09893192 -0.2242168 0.6202052 -0.09902917 0.2223953 -0.161237 -0.09822907 -0.09579795 0.1725974 0.1199386 -0.1236054 0.1196733 0.2423102 -0.1626948 -0.4527355 -0.06062695 0.1814465 -0.01951292 -0.005006677 0.312245 -0.2094156 0.1772314 0.3221879 -0.1253836 -0.003125032 
  0.02257229 0.0481757 0.1582255 -0.118427 0.01749904 0.1641717 0.05011644 0.06492611 -0.2028521 0.1000324 0.6494926 -0.08081838 0.04175815 0.2247102 -0.07829296 -0.224192 -0.5394673 -0.1867711 0.03368399 0.03149451 -0.108945 -0.05142743 0.4167921 0.2469714 -0.4295452 -0.08041142 -0.3337065 0.06185209 0.09467705 -0.0346862 0.1317354 0.0886586 -0.02513995 -0.1432917 0.04122861 -0.02447285 -0.09180062 0.5630444 -0.1471846 -0.003018861 0.01330532 0.06491227 -0.2059008 -0.5839151 -0.2092727 -0.2652027 -0.06160545 0.2563987 -0.2417141 -0.09390432 -0.1746809 0.1876873 -0.1466802 0.3001843 -0.03043923 0.2090362 0.01012469 0.1252614 0.2720858 -0.1523552 -0.1506794 0.5769804 0.1081938 -0.2210343 -0.1798671 0.04193546 0.006979105 -0.1881656 -0.2480215 0.3550635 0.1562277 0.08263772 -0.1712323 0.02696605 -0.2418514 0.05089191 -0.05634604 0.2813481 -0.09337855 1.179471 0.4543283 -0.05267068 0.1566313 -0.1616834 -0.3168549 -0.1105272 -0.2676242 0.5646269 -0.05223417 0.03772621 -0.2036889 -0.4742717 -0.3402815 -0.1838191 -0.05068697 0.03623464 0.9232426 0.07871865 0.1437863 -0.122966 0.02623964 -0.1999169 -0.1323902 -0.1398167 -0.2252918 0.110923 -0.06603379 0.03467417 -0.2515177 -0.08749025 0.1826146 0.0004693787 0.162877 0.4219294 -0.4186162 0.2119591 -0.0352991 -0.09982976 0.1178537 -0.194294 -0.1553269 0.08718915 -0.2366758 0.365257 -0.02041474 -0.2729766 0.6989919 -0.2028588 0.1130026 -0.1197634 -0.02751112 0.2549523 -0.6436875 -0.4085607 -0.2004204 -0.2659345 -0.2029897 0.3119217 -0.1549612 -0.2530893 -0.1587422 -0.4441152 0.2434659 -0.3419144 -0.1586014 0.1514572 0.1217787 -0.07650194 -0.3573487 -0.05353773 0.5481045 -0.1469046 -0.01964609 -0.2276285 -0.05744473 -0.002845155 -0.6649313 0.1553653 -0.1089888 -0.6425532 -0.5687901 -0.3856611 -0.231747 -0.6784825 -0.1149038 -0.007138615 0.2578794 -0.3001838 -0.07442753 1.193303 0.1164395 -0.2891151 -0.2608537 0.04103708 -0.2680557 -0.4453021 0.3521799 0.002268444 -0.07075404 0.0351528 0.3784322 -0.2223525 -0.4717565 0.2468812 0.2231633 0.2982521 -0.2315757 0.03693625 -0.2230651 0.1420268 0.224314 -0.2057379 -0.213558 0.4206549 0.3225582 -0.0920196 -0.1037868 -0.1246766 -0.2072055 -0.4804853 -0.02104665 -0.1245563 0.09485253 -0.02114117 0.01683093 -0.1441849 0.119763 0.02410712 0.2609644 0.1021658 -0.3210268 0.1036671 -0.3297853 -0.06126526 -0.200874 -0.2614263 0.3604683 0.6052514 0.1292707 0.03186845 0.002432473 0.0492936 0.09000918 -0.05357279 0.1158006 -0.1406067 0.02380957 -0.7014979 -0.04162183 -0.4729435 -0.154261 0.1117803 -0.5089213 -0.8404112 0.4333581 -0.133139 -0.3489482 -0.01893419 -0.1509666 -0.1139499 -0.1411034 -0.1194803 -0.1657673 0.141684 0.03225036 -0.3234884 0.3167309 0.03885179 -0.2025962 -0.01985272 0.2111369 0.1311173 0.01358427 -0.2810796 -0.09501462 0.41118 
  0.2534628 -0.02236347 -0.03901863 -0.009060819 -0.03298588 -0.005209112 -0.09328491 -0.5531993 -0.06890218 0.09759601 -0.3799875 -0.1221288 -0.03432392 -0.1573505 -0.01693351 -0.02696527 0.368205 0.05001311 0.2748275 0.02105669 -0.9140534 0.09668671 -0.02261629 0.006338085 0.07769678 0.06948315 -0.01899665 -0.1121564 0.08733109 -0.08212655 0.4016732 -0.09138778 -0.1167164 0.6827998 -0.4764396 -0.004596661 -0.2137822 0.1834617 -0.1196287 0.3832728 -0.07299803 -0.07590653 -8.497448e-06 0.1294186 -0.2852317 0.03454933 -0.2002077 0.06500385 -0.1656646 -0.05227534 -0.4250119 0.0140837 -0.01146715 0.02139726 0.002690794 0.04881137 0.1406806 -0.2079037 0.1117608 -0.2387803 -0.03827221 0.01694046 0.1546373 -0.1463171 -0.04182742 -0.1275935 -0.227402 -0.2472995 -0.0325292 0.2171779 -0.03274644 -0.07407152 0.04029593 -0.1185262 0.1591204 -0.09632907 -0.06523453 -0.1934592 -0.1491531 0.02320856 0.2562366 0.06826665 -0.08761062 -0.1210795 -0.1642422 -0.1004906 -0.2437398 0.001023219 -0.1235898 -0.2596215 0.03535646 0.2726063 0.04269003 -0.07665247 -0.08930326 -0.1408308 0.07908283 -0.07180412 -0.06340712 -0.2100368 -0.08168989 0.4316242 -0.02659785 -0.5132211 0.3177052 -0.004592957 0.3385372 0.0267011 0.08700781 -0.4165708 -0.1860473 0.2637465 0.1776172 0.0766829 0.01391643 -0.03606789 0.005420348 -0.03559098 -0.1211651 -0.1510192 -0.1027316 -0.1010807 -0.0004080736 0.1603767 0.1143916 0.07004251 0.1610002 -0.1900001 -0.07268181 -0.5957706 0.7975453 -0.1129272 0.1282088 0.04496484 0.05605943 0.4614562 0.1278566 0.2042222 0.009849724 -0.1227918 -0.1267381 0.4874157 -0.03895995 -0.0870914 0.1785729 0.3966209 -0.1658738 -0.2264565 0.3707124 -0.2092429 -0.008776503 0.1609132 0.02169742 -0.009256446 -0.5522987 0.07212286 -0.2809957 -0.3220956 0.7286273 -0.3573779 0.02880119 0.7683975 -0.3493455 -0.02857354 -0.1154799 0.2410631 0.2225331 -0.007676739 0.02595843 0.1165054 -0.1203196 0.09447162 -0.2013711 -0.0935522 0.02422287 -0.1190072 -0.1027364 0.08743192 -0.2227145 -0.07171945 0.2197429 0.2981482 0.05155267 -0.1816774 0.07659363 -0.0246312 0.1922121 0.271579 0.05078817 -0.1367451 -0.2920685 -0.0288537 -0.2605205 0.02033157 0.06940198 0.03658193 0.1230808 -0.2431666 -0.1746746 -0.3813491 0.2656529 -0.008471385 -0.06293342 0.1094283 0.05407103 -0.01567524 -0.02789661 -0.1576768 -0.07069065 -0.2138757 -0.3809502 -0.3298011 0.004273163 -0.1785591 -0.9117797 0.2765287 0.007432594 0.1662107 0.1127353 0.04992649 0.1837129 -0.09820893 -0.08522153 0.000563462 0.04532538 0.2416379 0.07577914 0.236621 0.1429607 -0.2641001 -0.4607946 0.07713596 0.02415354 -0.02803258 -0.01754997 -0.2033697 -0.1116373 0.1554863 -0.1314379 0.06358688 -0.1285554 0.04945216 -0.03725744 -0.1220483 -0.3585032 0.02367925 0.08800493 0.08985896 -0.2502476 0.04551686 -0.1948123 0.2619059 -0.08065107 -0.04368041 0.03493253 -0.1710563 
  0.06692381 0.2149455 -0.193734 -0.27837 -0.0131335 0.1446321 -0.2492042 -0.1406502 -0.2213938 -0.05449524 -0.08711911 -0.00442163 0.09153746 0.4673958 0.2488578 -0.1011015 0.3165099 -0.1156336 0.03417468 -0.2225793 -0.1731514 -0.1323189 -0.002567096 -0.07037363 -0.2330378 -0.1239295 0.06106291 0.05118309 -0.03418756 -0.02146459 0.1624189 -0.1001524 -0.0425123 -0.2512524 0.0906781 0.02610291 0.002153406 0.2317021 0.3409464 -0.3729731 0.2122185 -0.05338895 0.06876226 0.07420238 0.05854492 -0.02263787 0.1744663 -0.1771355 0.01776075 -0.1237112 -0.07183214 -0.1446603 -0.1694602 0.01752367 -0.06968664 0.001472637 -0.002902255 0.1815392 0.01948543 -0.1531305 0.003915564 -0.09577005 -0.004488597 -0.05562567 -0.2752111 0.066935 0.1929417 0.1917661 -0.2024392 -0.05444584 0.06805498 -0.194389 0.0242555 -0.2023697 -0.1567742 -0.1160597 -0.2112852 -0.6430984 0.135423 -0.06738691 -0.02451025 0.2116689 -0.1938467 0.06685352 0.0445083 0.01347916 0.162251 -0.127259 -0.02555042 0.2621556 0.117454 -0.1007926 0.3897432 0.03158564 0.04038033 0.1599849 -0.2307469 -0.05156098 -0.1058061 -0.0875941 0.02358077 0.003456597 -0.012142 -0.1030363 -0.01269369 0.3502923 -0.333846 -0.05842026 -0.1255871 0.07508401 0.0150106 0.06041344 -0.5210868 -0.1088381 -0.02251134 -0.04645882 -0.1730462 0.05186567 -0.04895016 0.04700922 0.1663969 0.01598804 0.01234336 -0.08957859 -0.04948233 0.07502427 0.1821512 0.2320594 0.09303509 -0.3648591 0.001407158 0.6704164 -0.2152729 -0.108665 -0.1149011 0.1997614 -0.2365945 -0.1541066 -0.0536361 -0.02658884 -0.07749248 -0.1353202 -0.03385666 0.04808204 0.3451232 -0.04591741 0.597659 0.2885898 0.5054557 -0.2779564 -0.1450248 -0.03084651 -0.8005358 0.02001769 -0.0780894 0.2271447 0.1080736 -0.1250303 -0.005510143 0.1372278 -0.3036953 -0.06470605 -0.0381335 -0.02295059 0.114052 -0.08904588 0.03513252 -0.01155517 0.2946276 0.327004 0.04838274 0.118997 0.01547955 0.2598736 0.1051782 -0.001488167 0.128241 -0.09229207 0.1677017 0.1201835 -0.02535385 0.05184087 -0.07202073 -0.1307837 0.0922647 -0.4212726 -0.09712305 -0.3290828 -0.09798449 -0.3794101 0.1440805 0.05456009 -0.02077758 -0.2500283 -0.03875862 -0.2610599 0.007638752 0.2223489 -0.05152208 -0.422491 0.2176137 0.007926404 0.9161494 -0.1200182 -0.1012413 -0.04057889 0.2749327 0.03402784 0.005531444 -0.1021164 0.08756416 -0.1709051 0.05038945 -0.06923619 -0.001283116 0.1218317 -0.3284826 0.04968772 -0.04174414 -0.08228935 -0.07857741 -0.229986 -0.03420451 0.08265872 0.1456258 0.1548254 0.02433932 0.0360007 -0.008878328 -0.2663539 -0.03426956 0.05292105 0.1742148 -0.02653894 -0.1484579 -0.07913058 -0.1639813 0.01820403 -0.09931339 -0.1920726 -0.1093005 -0.03185475 0.3125248 -0.08492253 -0.2142171 0.1992172 0.1738732 0.009458343 0.01225675 -0.2275048 0.06030406 0.07158696 -0.01699967 0.04767144 0.08935876 0.07225613 
  -0.004725317 -0.09225703 -0.006196704 -0.06828838 0.06045964 0.01089536 -0.1290225 -0.1467732 -0.1642505 0.03205984 -0.05397144 0.3074615 -0.03404022 0.04545479 0.2268293 0.07553233 0.2724379 0.0180375 0.04718833 -0.01633938 -0.1389174 -0.01400384 0.005165019 0.1804723 0.245803 -0.1292968 0.07260699 -0.1743143 -0.03332327 0.0289968 0.5079871 -0.0863573 0.00451231 -0.494127 0.08152844 0.1264626 0.2767903 -0.06619703 -0.129324 -0.04967226 0.02557602 0.3000675 0.1122478 0.3531666 0.04838877 0.004738026 0.06450467 0.2820561 0.171618 0.06737581 0.4084966 0.007098112 -0.01166918 0.02276379 0.2156925 0.06689538 0.0002710843 0.05850066 0.0721954 0.4367909 0.04195858 -0.1058683 0.06063092 0.09742583 0.05368709 0.04011832 -0.308486 0.1306408 0.2739125 -0.01376154 0.1306509 0.1774984 0.02946903 -0.1623059 -0.09474142 -0.1321827 0.05844649 0.2555104 -0.1981758 0.1367717 0.04524732 -0.09941851 0.1254232 -0.02266882 0.09588771 -0.1333404 -0.2376911 -0.0703017 -0.07485627 0.1043974 -0.1025635 0.2936629 -0.213998 0.03774877 -0.04432057 0.1168196 0.1486944 0.2553929 0.2313005 -0.003539629 0.2407892 -0.004048496 0.1097668 0.28351 -0.1562367 0.01768509 0.3260411 0.1680869 -0.117184 -0.1744461 0.09060276 -0.2128141 -0.1995932 -0.1280777 -0.1036639 0.2016822 -0.09595125 0.2850731 -0.01869582 -0.03367871 0.1682557 -0.2242485 0.05381525 -0.1697938 -0.1495212 0.07880645 0.005949935 0.0267213 -0.01658835 -0.1855735 0.111396 0.1014297 0.1972043 0.05080798 0.2178273 0.1029808 -0.04314442 -0.2280684 0.02199228 0.003836493 -0.08232426 0.09448329 -0.08596484 -0.2031481 -0.02775921 0.02213793 -0.1793433 0.0608944 -0.236092 0.009865281 -0.1309672 -0.03459155 0.2589647 0.07025749 -0.1776535 -0.2257095 -0.2237152 -0.2822316 -0.1890623 -0.02352654 0.6178986 -0.9595928 0.05380607 -0.1961998 0.06123515 -0.1774092 0.01902206 -0.02290757 0.3803371 0.057963 -0.04715064 0.07584926 0.2857911 -0.03173718 0.09182689 -0.1493982 -0.03539626 0.267998 0.1604462 0.1017907 -0.139099 -0.05005882 0.03890102 -0.09862436 -0.08445709 -0.08546373 0.06576295 -0.3133384 -0.04099801 0.03021269 0.04988892 -0.1844028 -0.06647941 0.1929082 -0.09562382 -0.1586469 -0.07297591 -0.2801298 0.1557102 -0.1769731 -0.1234975 0.08083839 -0.2210863 0.04631943 0.01277729 -0.02591014 -0.01174042 -0.2344783 0.03440945 -0.3259732 0.04745688 -0.1777954 -0.1419618 0.2171239 0.2693677 -0.03525615 0.3442562 0.002927624 0.340843 0.009105502 -0.1803472 0.2848545 -0.1351848 0.001847634 0.2475615 -0.10579 0.1080983 -0.02112472 -0.0332862 0.0294865 -0.08808209 0.06312984 0.02901254 -0.1220551 -0.1437866 0.2049373 0.08474807 -0.03162282 -0.0720019 -0.1020937 -0.08284372 0.02009275 -0.132848 -0.1306973 -0.3800217 -0.1598084 -0.1618149 0.02262186 0.1138238 0.033115 0.02062937 0.0379342 -0.04345141 0.1314312 0.1425575 0.002980748 
  0.1221837 -0.3386544 0.07523926 0.01560212 0.3631521 0.0194818 -0.1308799 -0.08730257 -0.2458605 -0.3874638 0.1624364 0.1225112 0.05768827 0.009871966 0.8472655 -1.371601 -0.240918 0.4027039 -0.07174539 -0.02884986 0.1898945 -0.0008587339 -0.1584498 0.04400019 -0.1369456 0.1443103 -0.09259305 -0.01417991 -0.3255464 -0.1292323 0.1125523 -0.5486681 -0.2182034 -0.2235797 0.1755285 0.2811097 -0.1803466 -0.325474 -0.1266848 0.1915536 -0.1193435 -0.1464515 -0.1507419 0.06242678 0.09694749 0.01639808 0.006279262 0.1392049 0.1385792 -0.1611794 0.05977134 -0.3179813 0.1549485 -0.3000883 0.2581511 -0.002256971 -0.1670208 -0.1283253 -0.3076582 -0.1342547 -0.354319 -0.3246931 -0.1710894 -0.01096984 -0.1282087 0.3685221 0.2143965 -0.3159876 0.3571106 0.1442031 0.1979056 0.3239267 0.7218189 -0.03983978 -1.043062 -0.2342498 -0.2778724 -0.1268816 0.02963011 -0.7624403 0.2711613 0.007096707 0.2048555 -0.06723866 -0.3728921 -0.1732738 -0.06893241 -0.02395278 -0.05429907 -0.05131967 0.8409693 0.1771531 -0.02688474 0.1214548 -0.229341 0.1012635 -0.2556043 -0.218609 0.3560316 0.2136077 0.3417885 -0.3350694 -0.3573054 0.09178048 0.1321892 -0.0714625 -0.03420666 -0.7277253 -0.2382412 0.6404242 0.1097747 0.366031 -0.2467488 -0.04629736 0.5715092 0.665123 -0.1306036 -0.02830377 0.357937 0.3086742 -0.02945654 -0.2742524 0.008687119 -0.1618092 0.1196729 0.4559694 0.266308 -0.4886483 0.6491328 0.06320382 0.08507553 -0.1286816 -0.06443262 -0.5475466 -0.4636459 -0.458708 -0.1932662 0.1844994 -1.072051 0.1422635 0.1035076 -0.1955487 0.5777399 -0.07222882 -0.3062294 0.09951825 0.5745196 -0.1217172 -0.1716872 -0.3146059 0.09501881 0.3147642 -0.7103922 0.2012845 0.2287498 -0.5302798 0.1324305 -0.01050081 -0.1310589 0.1536145 -0.2251966 -0.04381067 -0.08160456 -0.4798752 0.1053655 0.1751785 -0.01041142 -0.008101943 -0.1117076 -0.2012698 -0.1693588 0.13642 0.003541939 0.08061454 0.09803625 -0.1798358 0.6695999 -0.01529652 -0.06406833 0.4347403 -0.01801878 -0.118143 0.1411063 0.4175601 -0.4448432 0.4909684 -0.6054857 -0.2258341 0.3669787 -0.1260511 -0.2081165 0.1568495 0.3117966 -0.1660292 0.3918844 0.1584921 -0.3205343 0.03668819 -0.06512067 0.04592441 0.5684119 -0.2316461 0.3831929 -0.08227786 0.1379054 -0.05984177 -0.1221699 0.04520405 -0.4404316 -0.1072853 -0.4540343 0.03343019 0.01502288 0.4841081 -0.1820994 0.09604324 -0.4236594 -0.1507225 -0.06118742 -0.1124457 -0.2215906 0.3239199 0.1650601 0.0120137 -0.08141919 -0.01938382 0.1105426 -0.01306619 -0.1388803 -0.1226393 0.1445787 0.1860911 -0.5052462 -0.3672342 -0.6095946 0.2014907 -0.08511178 0.22056 0.2606608 0.324811 -0.4088421 0.0156984 0.02367347 0.480474 0.1120997 -0.4330583 -0.3631331 -0.4339491 0.04563669 -0.1484103 -0.08692532 0.3446682 -0.1053604 -0.3765495 0.1688642 0.1078812 
  1.05623 -0.02320778 0.1072229 0.3178653 0.2862339 -0.05464401 0.109168 0.5560977 -0.4471258 -0.2248761 0.3520278 0.2909027 0.06580627 -0.4450168 0.2725212 -0.06222403 -0.1431763 0.1879224 0.7352278 -0.1098884 0.7593997 0.0899191 -0.2189989 0.07247281 -0.1446065 -0.502993 -0.4620062 -0.08902292 0.3369163 0.5314704 0.1933408 0.216325 0.3170606 -0.2109088 -0.004217797 0.03134742 -0.2746836 -0.5507601 0.3838464 0.3099881 -0.006765218 -0.3663922 0.08600959 0.2430162 -0.1444992 0.1021783 -0.1720061 -0.08832297 -0.03376765 0.1184759 -0.4991191 0.6314566 -0.07720355 0.1233297 0.06641956 -0.2198782 0.001434109 -0.01124141 0.047224 0.107527 -0.1245488 0.389809 0.324355 0.03175847 0.102289 0.153695 -0.4754018 -0.1569696 -0.129737 -0.5010729 -0.03094116 0.3450027 -0.2110945 0.4850733 0.2720633 -0.05605591 -0.1364442 -0.2401417 -0.3765573 -0.2056826 -0.7034308 0.335553 0.2935743 0.04643815 0.1907956 0.2720994 0.7155452 0.1635762 -0.1618597 0.2292608 -0.02375252 0.1859796 -0.05449586 0.04925076 -0.08524155 0.04304728 -0.01104136 -0.02896532 0.5842841 0.07640454 0.1902638 -0.4663551 0.2349733 -0.403337 0.0875197 -0.06351901 0.4001181 -0.3789402 -0.2808216 0.2465601 -0.09672306 0.1050234 -0.07497862 -0.3684599 -0.05813624 -0.1506838 -0.1643264 -0.2646989 -0.1917244 -0.3035295 -0.2082012 0.3167918 0.07459904 0.04425249 0.3496654 -0.6129055 -0.3894204 0.04617614 0.2700123 -0.07299016 0.0600981 -0.007958451 0.07520874 0.02750068 0.3393446 0.02339548 -0.1901651 -0.2743889 0.006199577 -0.0468379 -0.02020098 -0.1742416 0.02658831 -0.4966453 0.01072955 -0.05106367 -0.004848004 -0.1380567 0.4258517 -0.2074398 0.04628363 -0.02068723 0.000847162 -0.02151707 0.1830341 0.08192075 -0.02823391 0.9642233 0.4515116 0.1170397 -0.1708128 -0.3482266 0.4237224 -0.1082516 -0.08690497 -0.2603242 0.5655317 0.1794497 -0.03578627 -0.3527238 0.03102518 0.02224305 -0.3666896 -0.05468018 -0.003085202 -0.1120512 0.01022815 0.2915738 -0.1130711 0.0599068 -0.1222634 0.2268345 0.01556762 -0.1066254 -0.5837208 -0.1572847 0.04121864 0.04358504 -0.06708627 0.07277495 -0.1328058 0.06614456 -0.3680523 0.08923104 0.01273011 -0.4991237 0.3002845 -0.188198 -0.2581543 0.3838679 -0.1384535 0.07488342 -0.1597705 -0.283464 0.125399 -0.03714745 -0.1108247 0.06920051 -0.0225283 0.4101493 0.3041179 0.9366881 -0.148435 0.2392102 0.1558892 0.07145283 -0.01332378 0.07672489 -0.008529786 0.1735812 0.1481092 0.1464982 -0.003996177 0.03166418 -0.07710554 -0.02608152 -0.07145336 0.09632964 -0.3177945 0.06211165 -0.4762038 0.05484706 -0.06932645 0.1709316 0.01207487 0.2170377 -0.1395291 -0.2583608 -0.2767408 -0.01031808 -0.1977039 0.304544 0.4578146 0.0302818 -0.1885539 0.1309919 0.03084149 -0.3799234 0.1000605 0.09181277 0.5047275 0.5681134 -0.1119534 0.002581683 0.4272032 -0.175706 
  0.07246111 -0.100387 -0.1904172 -0.03251591 0.4471185 0.3606878 0.01399886 0.3158209 0.07828666 -0.037217 -0.3207824 0.3023224 0.05410622 0.51341 -0.1821437 0.02256306 -0.2506692 0.0126073 -0.08361761 -0.8691567 0.143423 -0.06055275 -0.2250723 -0.1932435 -0.06491951 -0.1304148 -0.5683063 0.946012 0.4886489 0.2718546 0.3038153 -0.2642732 0.5674953 -0.05609703 0.725835 0.3750823 0.08633019 1.028237 0.4630316 0.6858435 0.2096436 -0.7132357 -0.1306582 -0.5448886 -0.02889142 -0.2685601 0.07979934 -0.1404778 0.3188061 0.4421149 0.1932159 1.094412 -0.02298645 0.1039098 0.4301167 0.07677257 -0.2843311 0.1727209 0.06347161 0.3565838 0.01970696 0.245692 -0.1349745 -0.4379581 -0.02997583 -0.5808032 -0.9119153 4.262463 -0.4442941 0.2758817 -0.06587481 -0.2639633 0.1181836 0.1722231 -0.3373378 0.05039345 0.1737669 0.7377669 -0.1961225 0.1866325 0.1039866 0.3346582 -0.1404962 -0.7523155 0.09010318 0.01955889 -0.4998072 -0.071417 0.06946176 0.01208463 0.2239752 0.3362499 0.8436998 -0.03080769 0.273432 -0.2893891 0.2316477 -0.7441997 -0.2346475 -0.1188403 0.220997 0.7102265 0.05188993 0.8379969 0.1218063 0.03879232 -0.8966792 -0.08460179 -0.3210495 -0.2008523 -0.6824481 -0.1913321 0.2393945 0.1037965 0.0237049 0.09762952 0.2752605 -0.6753859 -0.1792793 -0.3136279 -0.05195066 -0.1234845 -0.2455647 -0.4275587 -0.6281695 0.2414269 -0.3084413 -0.7649328 0.2703251 0.1767879 0.3445389 -0.1022826 -0.3551629 0.08208458 0.4129027 0.363853 0.79582 0.1225847 -0.1684495 0.01686935 -0.002848889 -0.2939708 0.2780239 1.01067 -0.7982935 0.2006312 -0.03082011 -0.3466714 0.3627697 0.2652919 0.2456256 0.3009939 0.0001536341 0.0615254 -0.2009398 -0.2941869 -0.02162095 -0.1703826 -0.4902026 -0.08284421 -0.03464714 0.3000213 -0.1168471 0.2430497 0.0002107316 -0.5570639 0.0650607 0.1998618 -0.7164111 -0.09628028 0.1139479 0.4459979 0.06944169 -0.3816252 -0.1235824 -0.07227363 -0.1624716 -0.0304683 0.07037951 0.3897182 -0.1007143 -0.4606979 1.136375 -0.07638877 -0.3512221 -0.2891662 0.1134208 -0.6720768 -0.1307843 0.326332 0.5194231 -0.165141 -0.05219138 -0.2034983 -0.5177434 0.06953486 0.1849092 0.59587 0.3823903 0.05584925 -0.1348932 -0.1418118 0.3715007 -0.1941096 0.7248344 0.3844672 0.1675871 -0.01771007 0.01192139 -0.2252267 0.1907054 -0.5866153 -0.05244065 0.0250765 -0.1126946 -0.3048688 0.253553 0.3049034 -1.599404 0.1546487 -0.3557025 -1.388453 -0.08201684 0.1996179 -0.2193752 -0.05183641 0.07014649 -0.04373975 -0.08121205 0.1828197 -0.1586739 -0.00231896 0.04993298 0.5178589 0.3887798 0.4971107 -0.09307922 0.1154218 0.2755058 0.3392842 0.1291827 -0.1465993 0.07349028 0.42784 0.1116855 0.1169093 0.005912255 0.05775407 0.2935867 0.02821938 0.07991496 0.1588564 -0.2781726 -0.7385421 -0.07349256 -0.3634988 
  0.1120743 0.3487572 0.2885455 -0.7460778 -0.1559616 -0.04233417 0.1469928 -0.1729824 0.3121517 -0.4577844 -0.08103742 0.2749464 -0.0914664 0.09989622 -0.3545119 -0.0901841 -0.168266 0.1916378 0.1430681 -0.7273731 -0.5900043 0.2392822 -0.2961797 -0.03720513 0.2600043 0.1152428 0.02836506 0.1791602 0.03227983 -0.07817691 -0.2625617 -0.052125 0.1895747 0.1024318 0.008362127 -0.1457282 0.1773911 0.2841967 0.1351828 0.3589198 -0.1353957 0.3246052 0.06738247 -0.2981237 0.2848929 0.04288436 -0.4175627 0.1983259 -0.147483 -0.0903022 -0.3068318 -0.121633 0.2029458 -0.02472597 -0.2907548 0.1892154 -0.6218566 0.2918355 0.09108231 -0.1686886 0.3053429 -0.05197344 0.2845441 0.1028244 -0.07193803 0.1347584 -0.9723015 -0.2202106 -0.05993026 -0.0214933 0.03417179 0.0920077 -0.07567871 -0.1119545 -0.7620112 0.2381646 -0.08112701 -0.3117615 -0.2423103 0.1842711 -0.3066399 -0.3747105 0.1158507 0.1288885 0.04683675 -0.6234055 -0.1328535 -0.07969774 -0.03739448 -0.2981547 -0.1646169 -0.148353 -0.3876936 0.2339776 0.162392 0.4110694 0.0442594 -0.2004036 -0.08681304 0.1713795 -0.09223129 0.03188781 0.4110572 -0.1192415 -0.03183904 0.07064972 0.2149028 0.129486 0.08737829 -0.02046187 -0.2616242 -0.1476605 0.3875451 0.2361203 0.001643888 0.002851663 -0.5684717 -0.1586419 0.07276378 0.1368761 0.1195112 -0.2633514 -0.1591216 0.7035036 0.04304706 0.333355 -0.3726123 -0.2149516 0.3764369 -0.5146217 0.02590139 0.07858104 -0.1651458 0.2347296 -0.7223677 -0.4834253 -0.09645034 0.03910384 0.2226759 -0.2280136 0.1105597 -0.203876 -0.2512789 -0.09047621 -0.1565578 -0.2863429 0.3543406 -0.3057607 -0.3740154 -0.1270147 0.3202855 0.2838661 -0.7835769 0.2538236 -0.3147213 -0.07486488 -0.0004230298 -0.5323121 0.3458554 0.09025282 -0.4057777 -0.7871986 -0.09112373 0.1413798 -0.0759861 0.1336993 -0.01363283 -0.05779941 0.2612172 0.08130617 -0.1310529 -0.1756997 -0.2315508 -0.07840459 -0.2472181 0.270253 -0.0665632 0.2121504 -0.3618637 0.02053523 0.003041435 -0.168772 -0.04643285 -0.2604465 -0.3947656 -0.4135912 -0.2863484 0.3215354 0.4136524 -0.01014959 0.07250061 0.07587583 0.2457051 -0.006762334 -0.1816589 0.1207258 0.2241988 0.04326251 0.1723258 0.1170486 -0.08674609 0.02277762 0.1575636 -0.3231129 0.781995 0.08984762 0.1596208 -0.0156193 -0.03630178 0.395498 -0.1406837 -0.2709553 -0.02473201 -0.03967585 0.0257777 -0.09432542 -0.3169445 0.06531871 0.1356746 -0.4415641 -0.1217179 -0.1281444 -0.04068084 -0.02499109 -0.4628727 0.107027 0.09727024 -0.03780882 -0.02441849 0.08776853 0.01480597 0.1878518 0.1465389 0.2204807 0.002054227 -0.7832679 -0.1067599 0.05943938 0.2389454 0.2153397 0.09454082 0.1594347 -0.05915523 -0.2000987 -0.3068821 -0.08951542 0.04354547 -0.03277257 0.1249835 0.2356935 0.01119798 0.07104933 0.01889049 0.0140365 0.1817228 -0.02433774 
  0.08367924 0.05841612 0.3843875 0.06872045 -0.287086 -0.1956047 -0.4501632 -0.001525426 0.0234888 -0.05803089 -0.2866963 -0.517327 0.05976715 -0.636466 -0.1018072 -0.3646533 -0.1963006 -0.3021107 -0.2236504 0.02326586 0.009640666 0.2737332 -0.02327349 0.02212336 0.1522505 -0.5727853 -0.1204467 0.3535917 -0.1993864 0.5564294 -0.2633485 -0.03308471 0.1161661 -0.3282852 0.2761441 -0.2760967 0.06226684 -0.0910477 -0.1582638 0.1923324 -0.1208152 -0.2140549 0.2545884 -0.04082314 -0.2310856 0.03592605 0.1726177 0.3033706 -0.09458212 0.2028276 0.01703674 -0.0927378 -0.004772157 -0.3730694 0.08314915 0.3086794 0.1201489 0.2949659 0.06705704 0.5890448 -0.1816474 -0.184053 -0.4899782 -0.2966426 -0.008957674 0.04182963 0.2442446 0.1343931 0.2635764 -0.2798309 0.2283784 -0.3233606 0.01018227 -0.001723729 0.2842996 0.0338131 -0.009942392 -0.6743456 -0.1322836 -0.02938932 0.1243822 -0.07494202 -0.1310698 -0.2667758 -0.01446176 -0.1043686 -0.1897875 0.09360354 -0.02751032 0.01488732 0.1315476 -0.1289583 0.1294745 0.01064402 -0.2209195 -0.227509 -0.3385417 -0.09965109 -0.06864821 -0.1560505 -0.1639089 -0.2248245 0.05470414 0.1178621 0.1338267 0.02023451 -0.5934041 -0.1762498 0.1657716 -0.07286793 -0.3225053 -0.1675625 -0.2811019 -0.1677671 -0.1013915 -0.009700495 -0.03393603 -0.2158357 -0.1832747 0.11231 -0.1408159 0.3463935 0.07661784 -0.2656591 -0.09554599 0.100696 -0.1076366 -0.4226257 0.1247633 -0.3967937 0.04410801 0.08777478 -0.1931476 -0.09973267 -0.1362137 0.4719757 -0.07494514 -0.04069449 0.4259077 -0.127671 0.1314044 -0.1631418 0.03155318 -0.3068944 -0.3138815 0.270825 -0.2051802 0.1110086 -0.07172921 0.02784532 -0.1868763 -0.3753231 -0.195566 -0.0266373 0.1332705 0.05386281 -0.01395132 0.6524222 -0.6272176 0.1142122 -0.3545648 0.03722634 -0.03914964 0.05496996 0.1754161 0.08072074 -0.0455492 -0.2896941 -0.164809 0.443951 -0.1530079 0.2694887 -0.0410338 0.2800793 -0.1951278 0.1865844 0.09485404 -0.1809333 -0.3064861 0.4991926 -0.3021995 -0.2671177 0.1191465 0.2128681 -0.2681325 -0.2639112 0.009491585 -0.04100034 0.05147395 -0.2081914 0.1723571 0.1323594 -0.06031565 -0.2270365 0.2731446 0.1900713 -0.3643118 -0.07369039 0.1298068 -0.3160021 -0.176893 0.1817637 -0.08129531 0.1746675 0.007111842 -0.01090942 0.08066563 0.09743765 -0.04653703 0.1717884 0.4476828 -0.5657566 -0.2484909 0.2300046 0.1183841 0.0234292 -0.04950607 0.03203563 -0.1243409 0.02748206 -0.08900113 -0.3691747 0.07081664 -0.1483225 -0.2812186 0.3364903 -0.185909 0.08789465 0.2446554 -0.3076764 -0.02891541 0.08905043 0.005464425 -0.4157289 -0.5178527 0.002743213 -0.1177545 -0.05370337 -0.7279671 0.07222929 0.1345263 0.3356018 0.09845226 -0.08422357 0.4843529 0.1311407 0.003775846 0.3873068 -0.3607059 0.1628453 0.3747252 -0.1083377 -0.0707175 -0.0468182 -0.09609082 0.1410995 
  -0.1598487 0.01894486 -0.261514 0.0110595 -0.05045732 0.03439245 0.0386026 0.08753148 -0.0370545 0.08155285 0.005584987 0.01603347 -0.0290143 0.01640875 0.2079611 0.1042299 -0.04607732 0.1937907 0.1330285 0.09053192 -0.3248561 -0.1136711 -0.04909651 -0.2573554 0.09127343 0.2443918 0.09611103 0.06373675 -0.1423773 0.140119 -0.02326165 0.2319918 -0.3595327 -0.05218544 0.2526919 -0.1066332 -0.1309353 -0.1555427 -0.0716741 0.06371731 0.04906574 0.09401332 -0.07441644 0.07342652 -0.006221534 -0.2262106 0.2025318 -0.458127 -0.01797589 -0.04419944 0.08315695 0.09605518 0.08625514 -0.1256383 -0.0001839704 -0.03710922 0.1207006 -0.05021401 -0.5668935 -0.1626138 -0.1442342 -0.1714379 -0.125098 -0.0818845 -0.3645582 -0.239636 -0.2126558 -0.1004261 0.08055926 -0.2052746 -0.01797455 0.1996735 -0.3581267 -0.2292383 0.2495715 0.2081736 -0.1901441 0.1035241 -0.08142734 0.03218783 0.08887349 -0.0579834 -0.05784427 0.0233158 0.1152739 -0.008967347 -0.2309216 -0.1484893 -0.0880105 0.2589823 0.4387025 -0.1907988 -0.0870612 -0.269114 0.2896 0.1768981 -0.04910174 -0.1780145 -0.008584315 -0.0403529 0.05017681 0.1463786 0.1672051 0.007570115 0.1086059 -0.05103892 0.002890599 -0.0803123 -0.3471016 -0.05426859 0.09978319 0.1193925 0.09710239 0.0592709 -0.2591116 0.02559591 -0.06581824 0.171812 -0.01385646 -0.05213897 0.2234602 -0.139465 0.5543692 -0.09007469 -0.05001483 0.2301072 -0.2436338 -0.06700415 -0.01704784 -0.07596864 0.02953259 -0.04879124 -0.1268567 -0.2619275 0.1039336 0.259106 0.003337991 0.0210972 0.1053118 0.6820166 -0.08259576 -0.3604434 -0.03316775 -0.04385728 0.0863824 -0.08457731 0.09636341 0.095242 -0.01071251 -0.1258357 -0.04754654 0.06901442 0.1533274 0.03666037 -0.06731711 -0.4357565 0.1457266 -0.1698605 0.159979 0.04396181 -0.5764937 -0.2243381 -0.2658826 0.05712558 -0.8483822 -0.1064216 -0.4347287 0.1351479 0.03665081 -0.3779149 -0.1597045 -0.05773911 0.01553352 0.04512159 0.5562607 -0.6229016 -0.1144461 -0.2379151 0.01848953 -0.3898023 -0.06609761 0.1811093 0.1040206 -0.05770352 0.04295554 0.180887 0.3479744 0.02272614 0.05062681 -0.018476 -0.1906339 0.0110928 0.2504272 0.01227858 0.00646768 -0.07350577 -0.2508206 0.1179389 0.2994594 -0.1806273 -0.06773731 -0.1891384 0.02612138 0.1035553 -0.1007702 0.1173825 -0.06321087 -0.365727 -0.09939478 -0.09952082 -0.02206863 -0.18119 0.1948924 -0.08222145 0.01607416 -0.05957583 -0.3157037 -0.02545918 -0.01374315 -0.0938859 0.03127429 0.09460416 0.1043343 -0.01187301 0.1092704 0.131395 -0.1050938 -0.1495506 -0.1265846 -0.01212774 -0.02788447 -0.1257422 -0.03826118 0.09733295 -0.05445002 -0.1536805 -0.2279126 0.7831032 -0.1579758 0.05324146 -0.03122314 0.007521893 -0.2274196 0.04962366 -0.06557809 -0.04490656 0.1238643 -0.5088937 0.03341845 0.2229727 0.03369344 -0.1852991 0.1815806 0.04356858 -0.127382 0.03806841 
  0.09059829 -0.1892166 0.2012849 0.02003685 -0.1028426 -0.2173389 0.2379124 0.3667643 -0.05172051 -0.09633435 -0.1046584 -0.0186084 -0.2350443 -0.04686339 -0.007419544 -0.1508125 0.003158906 0.1422867 -0.1169911 -0.1008274 -0.1219981 0.01362177 -0.1035688 0.003822726 -0.04049917 -0.1293608 -0.1498488 -0.1081258 0.09155543 -0.02152869 0.1843606 0.211523 0.1549132 -0.2395079 0.1174838 -0.1578576 -0.08169896 -0.1767838 0.09802368 -0.08364362 0.1811046 -0.04749432 -0.2640172 0.0561301 0.1459238 0.04075528 -0.1701944 -0.0239559 -0.04617387 0.02986697 -0.01407466 0.05233707 0.1658853 0.2309775 -0.1407921 -0.1437159 -0.1476281 -0.005551587 0.1503983 -0.1613112 -0.129338 -0.06384696 -0.01947243 0.1696919 -0.1426578 -0.1687373 0.259762 -0.1575441 -0.08603036 0.2146912 -0.1254445 -0.0507588 -0.02628303 0.1540729 -0.05728754 -0.1166256 -0.01546462 -0.002274676 0.02324008 -0.1213096 -0.0256671 0.2284445 0.2255163 -0.1751953 -0.3488855 -0.01590548 0.09973067 0.1012748 0.03395443 0.1383376 0.005381712 -0.1225084 -0.1812566 -0.1040018 0.01790424 0.05439137 0.2358796 -0.1516667 0.01073474 -0.04263201 0.02284293 0.01441372 0.04122745 0.03881308 -0.2385781 -0.1205415 -0.009634574 -0.2659293 -0.0254045 0.2314271 0.2508978 -0.09493401 0.2689143 -0.1093223 -0.2467539 0.09551015 -0.1623107 0.2536599 -0.08949157 0.001395511 -0.175514 -0.05922298 0.0608419 0.2158096 -0.1746707 -0.1623952 0.1195686 0.3527606 -0.1058533 -0.1948597 0.002068688 0.1416744 0.03821983 -0.006894019 -0.1376462 0.03423469 -0.09813037 0.01922904 0.1093387 -0.09868845 0.1387925 0.03667367 -0.03176608 -0.08573667 0.5639424 -0.02477728 -0.05169958 -0.0319454 0.0734641 -0.05575532 -0.1532196 -0.05369301 0.2104642 -0.02807298 -0.05355451 0.1074358 0.08890063 -0.1300458 -0.2950168 0.05244067 0.2416138 1.08218 0.1713821 -0.02298076 -0.01005338 -0.06921214 -0.118201 0.394822 0.04052686 -0.07857993 0.1356811 -0.1802543 -0.01465906 -0.1472899 0.1201018 0.06456555 0.2279146 -0.03224948 0.150137 -0.04978215 -0.1271178 0.1680824 0.0579218 -0.1406019 -0.1928969 0.1419351 0.02844812 -0.1314651 0.01314145 0.033436 0.07538922 0.05448476 0.0979705 -0.1313669 -0.05145009 0.001845052 -0.05763002 -0.1945044 -0.1111911 -0.1252168 0.03832865 0.09234291 -0.03656328 -0.07965109 0.09661165 0.05013039 -0.09725666 -0.02836682 0.1913002 -0.1305622 0.06915102 0.1571311 -0.06338181 -0.009326612 -0.06606448 0.04475402 0.1844007 -0.178287 0.208676 -0.00988699 0.06620132 -0.2589509 0.003119173 -0.02481154 0.08817427 -0.01135463 -0.007188058 -0.05969888 -0.07163388 0.06695689 -0.1859666 0.1295805 0.2585455 -0.1698189 0.2061803 0.1434178 -0.171676 0.09032881 0.2097883 -0.03482063 -0.04834564 -0.2413916 -0.07437161 -0.1882558 0.1955494 0.02826141 0.02367402 0.1276911 -0.08507461 0.2338352 -0.1458655 0.02452644 0.123875 0.06788936 -0.1807674 0.1980289 
  0.1005083 0.223566 0.02809179 0.8268449 0.1255478 0.0509132 0.1649291 0.1680928 -0.1925686 -0.3178249 0.09954107 -0.07765836 -0.4157532 0.7551339 -0.1552531 -0.1574275 0.05025758 0.5264959 0.05186461 0.1448397 0.683065 -0.2443819 -0.002431367 -0.008516788 0.07403189 -0.01680205 -0.1883856 0.1733746 0.1023746 0.1248619 -0.01723911 0.09208258 0.288871 0.1840117 0.09235774 0.4423936 0.1870368 -0.5429736 0.01598566 0.2911173 0.3913577 0.06323374 -0.007973714 -0.1716931 0.05803885 0.2151417 0.1170079 -0.07640284 0.2633789 0.4478885 0.2603516 0.3994987 -0.0129304 0.2830797 -0.1933945 0.3728646 -0.1552979 -0.4079306 0.08589505 0.003268219 0.2958696 -0.153796 0.3579578 -0.1883238 0.4970621 -0.05789299 0.1400176 -0.3455848 0.2290614 1.016202 -0.2858491 0.3135734 -0.1470273 0.6066331 0.3269691 -0.007104678 -0.03553595 0.3635048 -0.3219555 -0.03233382 0.1539607 0.3432928 -0.05282612 -0.2883755 -0.2687256 -0.08468001 0.0868759 -0.02732985 0.2353106 0.7671674 0.01578715 -0.7959476 0.1808093 0.009946943 0.2003822 -0.2603692 -0.2157812 -0.01390045 0.1484782 0.1967519 0.1483397 -0.02629017 0.1964533 -0.0719391 0.05228424 0.08652417 0.09355719 0.1105656 -0.2066167 -0.07297044 -0.3698002 0.3979894 0.1711035 0.1513367 0.1923682 -0.3234045 0.1718644 0.1506649 -0.4318698 0.0515748 0.3268502 -0.09095059 -0.109242 0.1167846 0.09525414 -0.4866841 0.04504724 0.2264005 0.03486549 0.0404627 -0.4198451 0.4340071 -0.04592774 -0.2850514 -0.3524512 -0.1335064 0.546263 0.3744315 0.1147453 -0.2213772 0.190101 -0.0975883 -0.3454545 -0.2739877 0.0716732 0.221289 -0.1428526 -0.2184925 -0.2423751 -0.1061484 0.1025612 -0.2431068 0.1723347 -0.01219099 0.2190061 0.04041634 0.1232998 0.3665309 0.3433947 -0.2309793 0.1244918 -0.1950447 -0.7720891 0.1910398 0.05646085 -0.03083845 -0.1644531 0.1225022 0.1845394 0.003285992 0.1497223 0.1942119 -0.3878193 0.3033619 -0.1221034 -0.03291455 0.2580562 -0.2905169 0.06802008 0.08354118 -0.06011553 -1.519628 0.05847549 0.5079503 -0.3783894 -0.08612842 0.5537122 0.2596393 0.3872977 0.4377426 -0.01486482 -0.07283463 0.02221551 -0.1994822 0.2352265 -0.508833 0.4452144 0.8831849 0.3309175 0.6124076 0.5613264 0.03750808 0.2736696 -0.2563881 -0.2634758 -0.1477932 -0.2049217 -0.008430597 -0.3776393 0.7200224 -0.02401769 0.08487637 -0.3639967 -0.1106464 -0.432552 -0.06435743 -0.09146981 -0.3557019 0.008093745 -0.07013537 0.5770553 0.06849393 0.2153028 -0.06902853 0.06369641 0.01571 0.913238 -0.2405971 0.01999462 0.4671979 -0.09216461 0.3274733 0.4761708 0.01602325 -0.1955286 1.17134 -0.03150391 0.01620688 0.1415502 0.3766945 -0.2197267 -0.1702183 0.4314018 -0.001090635 1.334551 0.3756868 -0.01465988 0.01948199 -0.08809636 0.2879009 -0.2698959 -0.2403173 -0.3672265 0.1312003 0.03180823 -0.1125965 
  -0.2490342 0.1501871 -0.1061878 -0.3794589 0.09487226 0.04370392 -0.434911 -0.04747337 0.01904992 0.1054204 0.07325872 0.09905657 0.02978975 -0.09574597 -0.1469281 0.1555635 -0.1739941 -0.05771213 0.2418816 0.2460262 -0.2137433 0.09484527 -0.02160402 -0.2895385 -0.06891919 -0.2244941 -0.2091504 0.06067285 0.3388764 -0.1358674 -0.3322192 -0.1035646 -0.0639641 -0.3285563 0.1107761 0.1595515 -0.2747913 0.1733594 -0.05225454 0.0583881 0.2097783 -0.2562387 -0.02399309 -0.2134497 -0.1519124 -0.3552519 -0.002557073 0.06364989 -0.208951 0.09722516 0.02707514 0.1779255 -0.1033554 -0.3534899 -0.1963843 0.2160225 -0.04610123 -0.02052486 0.4877853 -0.2445897 -0.008296749 -0.09807982 -0.09176184 0.03840909 0.2966268 -0.3567523 0.1006333 -0.2603479 0.2877915 -0.1008483 -0.0459643 0.1169996 -0.2144253 -0.08028848 0.06828661 -0.1385581 0.2800429 0.006966612 0.09492249 0.1502105 -0.3319932 -0.1772921 0.5420522 -0.04006001 0.1682164 -0.009264949 -0.3114479 -0.03993622 0.07753523 -0.09279187 -0.04705444 0.207079 -0.116926 0.03678276 0.1258177 -0.1122185 0.06472431 -0.02920974 0.02245744 -0.345792 0.1218095 -0.03701109 -0.01677903 0.05978792 0.2197084 -0.0994615 -0.1509158 0.1697389 0.1147031 -0.04164527 0.1984276 0.0799148 -0.3398283 -0.04780518 -0.08909954 -0.1233303 0.3364521 0.1869169 -0.03267647 -0.9215854 0.1054129 -0.2309326 -0.1450936 0.03267571 0.07201214 -0.1717469 -0.192388 -0.1019648 -0.09845025 0.1538866 0.009911466 0.2295729 0.0222562 -0.004426211 0.2256334 -0.1211638 0.1197245 0.02492243 0.255753 -0.1248007 -0.2163202 -0.3146955 -0.05065997 0.2149962 0.2654055 -0.1197127 -0.2063091 0.2738801 -0.1588521 0.0865887 0.007866684 0.3617588 0.0187574 0.0001483156 -0.1965436 0.1360583 0.0004355887 -0.2416011 0.1471177 -0.1768147 0.06136248 -0.06581993 -0.1218527 0.2191836 0.0376387 -0.07599597 -0.003066346 0.2132491 0.1789053 0.1640997 0.6242582 0.09531537 -0.1047759 0.04876887 -0.3348235 0.1020008 0.04211468 -0.2294526 0.01744034 0.0853706 0.1306729 -0.0742198 0.05017639 -0.009719756 0.08086543 -0.007120861 0.2270959 -0.004350681 -0.1419965 -0.2355912 0.3956654 0.2822888 0.03323203 -0.06531309 0.314892 0.1241034 -0.006523426 0.1522696 0.01660936 0.07938521 -0.07019582 0.0005374121 -0.02421637 -0.1245801 0.1902478 -0.05085362 -0.003724662 -0.09889942 -0.6275216 0.3703077 -0.1446753 -0.2114797 0.02986446 0.1866909 -0.1781046 -0.04091606 -0.07286667 0.3626835 -0.2997588 -0.2314891 -0.2956149 0.1182676 0.1123254 -0.01001881 -0.1706793 0.4442644 0.2515152 -0.0784381 -0.2521577 0.1113405 0.1082793 0.01190573 -0.02038037 -0.03745183 -0.2484604 -0.09136447 -0.02465387 0.1265897 0.1053364 0.1438516 -0.3871483 -0.183201 0.1314626 -0.1440849 -0.233501 -0.2452862 -0.07826168 0.2289648 -0.009770142 0.4893864 -0.006552851 -0.107074 0.03396513 0.4193906 -0.1083428 -0.2095686 
  -0.2266686 -0.24938 -0.4493385 0.7193723 -0.5317006 0.7138055 -0.1039562 1.371863 -0.661939 -0.1145078 0.39716 -0.2943623 -0.2189921 0.3075947 -0.01729723 0.2233932 -0.09561938 0.4846673 0.5080289 0.05550377 -0.0553628 -0.2511898 0.006338515 -0.2063519 0.03447073 -0.08096857 -0.1943975 0.1388518 -0.2330873 -0.07474566 0.3626737 -0.1551038 -0.3142849 0.09422433 -0.08401147 -0.3934343 0.06235761 -0.2298149 0.1665071 -0.8044326 -0.09120443 0.3099824 0.158441 0.03100355 -0.08230973 0.1754761 0.1774817 -0.01513134 0.6094466 0.08061999 0.2462863 0.08468359 0.2786942 -0.1249815 0.03309612 -0.4659973 -0.05503517 0.07187247 -0.3917101 -0.04261958 -0.153127 -0.4174951 -0.5507206 -0.2533934 -0.09687737 -0.04574422 -0.3258364 0.7359194 -0.119592 0.01465822 0.02008889 0.01509619 -0.2141486 0.04079089 -0.2877354 0.5803189 -0.2006252 -0.3748585 0.4838052 -0.003544329 0.06568799 -0.2470357 0.001921109 -0.08600197 0.2223804 0.541676 -0.6320626 -0.230444 0.05394314 -0.4355738 -0.2671792 0.1719988 -0.5988369 0.0288562 0.317999 -0.008375823 -0.4421969 -0.2770998 -0.7020646 -0.1341051 -0.2713163 0.426601 -0.09339951 -0.3248045 0.4574007 -0.3047967 -0.6879424 -0.1229964 -0.2764934 -0.157727 -0.4237671 0.3063187 -0.3011132 -0.5005076 -0.1388377 -0.5637583 -0.02836807 -0.1562586 -0.3131571 -0.1225055 -0.2013611 0.09106248 -0.4674243 -0.06159365 1.397509 -0.7083363 0.06375229 -0.0514792 -0.0638699 -0.0197977 0.1941995 0.8998315 0.3020041 -0.009887896 0.1594352 -0.3764662 0.715839 -0.4629079 -0.5675121 -0.2527436 -0.700848 0.9413626 -0.3620982 -0.05287908 0.2249403 -0.05860051 0.2956258 0.3200914 0.5574251 0.2784707 -0.1283602 0.2071373 -0.4108085 0.3550018 0.1897722 0.5544716 0.524843 0.2677138 0.3043028 -0.1414005 -0.6844553 0.8503692 0.1311565 -0.5675191 -0.08056396 -0.3928059 0.0861259 -0.3009645 0.2062333 0.7189738 0.007761653 -0.6344026 -0.2330083 -0.1008755 -0.1217102 -0.4377438 0.2559288 0.190366 0.1525763 -0.00815493 -0.1269923 0.2707376 0.1401805 -0.1779494 0.4519589 0.008334633 -0.0002165272 0.1162509 -0.9543725 1.84344 -0.1407071 0.07543343 -0.05271601 0.1070826 0.2082404 0.1259328 -0.4713939 0.4807996 0.6575977 -0.1382796 -0.418069 0.09560565 -0.04944452 -0.3222165 0.3328819 -0.3274111 0.1911697 -0.07230277 0.2921005 0.7288454 0.0688646 0.4708853 0.02249035 0.2465498 0.06587744 1.084659 -0.2694286 -0.3662172 0.1475959 0.2079011 -0.2212745 0.1245715 0.07283835 -0.09567803 0.227836 -0.3305151 0.1337541 -0.298108 -0.4479886 0.2494188 -0.5054871 0.3234366 -0.1582225 -0.1040264 -0.5153296 0.1098558 0.1518369 0.02813731 -0.1955897 0.1264872 0.07888567 -0.06488258 -0.3251678 0.3153941 -0.2303422 -0.3417345 -0.2395598 -0.2173776 0.2507815 -0.2408774 0.1728818 -0.3503234 -0.4029417 -0.2749143 -0.5781258 -0.2493834 
  -0.1297576 -0.1960106 0.09854433 0.09270369 0.09820956 -0.3577528 -0.08216078 0.225787 -0.1165336 0.1555231 -0.4331294 -0.5281932 -0.02829819 0.27631 -0.3035008 -0.07648809 0.1119791 -0.2329076 0.04472196 -0.002609265 -0.1223028 -0.1518897 0.5636591 -0.1494798 -0.1330451 0.3818613 0.02898788 -0.07273842 -0.1061913 -0.1104586 0.03081053 -0.3611761 -0.2010913 -0.02390633 0.1197247 -0.1366517 0.0346961 0.1068166 -0.4633027 -0.08788561 -0.3666587 -0.4126224 -0.04779499 -0.2311315 0.12297 0.08820279 0.1315139 -0.2002174 0.1056667 -0.2301894 -0.5986656 0.02664468 -0.2450042 -0.08920405 -0.08896418 0.07074136 -0.045783 -0.1435736 -0.1246352 0.1988221 -0.3804098 -0.3999124 -0.09877551 0.1034897 -0.02632209 0.1085797 0.2115941 -0.05175545 -0.05020756 -0.4039321 0.2112002 0.2351879 0.179386 -0.08259824 0.1412113 0.06145909 0.1245434 0.3493938 0.101184 -0.03232614 -0.2405199 -0.07698791 0.06955379 -0.6312711 -0.352171 0.2288751 -0.1083614 -0.1934325 0.06231867 0.2556989 -0.07222285 -0.02701006 -0.2970451 0.001190456 0.1918261 -0.02880724 0.5558931 0.1223039 -0.03995648 -0.04835049 0.3548667 0.1823509 -0.3647337 0.0733311 -0.1992251 0.05968821 -0.5387768 -0.03946492 -0.009449644 -0.07682835 0.01233253 0.306597 0.2293078 0.0342804 0.1621918 0.1080546 -0.03924265 0.1884734 -0.04470832 0.1008656 0.09545285 -0.01164779 0.04435661 0.0614452 -0.3499644 0.1239087 -0.08423106 0.654968 -0.5120078 -0.5678672 -0.06123207 0.07252348 -0.1619979 -0.07197069 -0.1986207 0.01065258 0.1183569 0.3769326 -0.07447896 0.1210559 0.09738147 -0.03846039 -0.01540786 0.01635622 0.03160737 -0.04826983 -0.6112447 -0.08061622 0.04390921 -0.2037324 0.05692342 -0.2773671 -0.4424715 -0.002697468 -0.1894391 0.2017931 -0.1476182 0.2451333 -0.3392318 -0.1757513 -0.3716701 0.05860114 -0.09446374 -0.1544376 0.02835373 -0.06501464 -0.151873 0.05079733 0.2789026 0.1572168 0.01589777 0.002795918 0.2412397 0.08573543 -0.0973866 -0.02929 -0.1229997 -0.02014425 0.1626493 0.1721178 -0.1682714 -0.3520132 0.05033311 0.09764016 -0.004871921 0.08701459 0.2142031 -0.2262887 -0.3571172 -0.2917859 -0.1094762 -0.1668077 -0.02517878 0.05899457 0.05473926 0.03237737 -0.346737 0.119867 0.002946732 -0.2330273 -0.2265288 -0.1800762 -0.379013 -0.06245745 -0.4196105 -0.1602516 0.04004455 -0.009232161 -0.03591526 0.01911934 -0.3341877 -0.4564048 0.226443 -0.155868 -0.2834378 -0.2306148 -0.5937036 0.1930357 0.06688868 0.1377003 0.1670727 0.0239553 0.06221245 0.05901316 -0.3323745 0.1634845 0.07749841 0.2069205 -0.09655163 -0.2091224 0.04366095 -0.2090055 -0.1105134 0.417885 -0.02089552 0.06294853 0.1288648 -0.1081844 0.2294298 -0.005507194 -0.06215927 1.390497 0.2666743 -0.01720061 0.108922 -0.1830785 -0.2590019 0.04551735 -0.5092494 0.0469083 -0.5660847 -0.2771284 -0.1301627 0.02243423 0.01571329 0.09571302 
  0.1207051 0.1030121 0.4368491 -0.1913545 -0.1981698 -0.08713789 -0.02898544 -0.4601805 0.1336871 0.1276798 -0.1384474 0.2163891 0.08985671 -0.07968223 0.06801377 0.0296073 0.06864223 -0.1627586 0.07484163 0.01827675 -0.2129461 0.05249894 -0.01178372 0.02790209 -0.04691152 -0.1950877 -0.1899214 -0.06105916 0.0666475 0.0431666 0.05830858 0.2075017 0.1880217 -0.2877677 0.05826764 -0.05710689 0.2972524 -0.08439507 0.04682872 0.07807472 0.1457333 -0.01216447 -0.02232065 -0.009017802 -0.1380351 -0.4648075 0.1942329 -0.03672013 -0.06102738 0.1300139 0.2356463 -0.2562594 -0.00130982 0.02780698 -0.01671846 0.2818019 -0.1062178 -0.160107 -0.3045516 -0.03450628 0.04141314 0.1366871 -0.08453611 -0.2592086 -0.2707455 0.2296038 -0.09551571 -0.04929283 -0.05326947 -0.09120881 0.2850058 0.1956511 0.08141104 0.005734066 0.03800612 0.1128479 0.1247019 -0.08474477 0.05924206 0.4946971 -0.08912079 0.1461396 -0.1375144 0.001422413 0.02005948 -0.001285085 -0.3469708 0.07070471 0.01503436 0.05248794 0.03195781 -0.1893231 -0.2168717 -0.009939799 -0.1851428 -0.02768758 -0.3375612 -0.09192155 -0.2420965 0.04653348 0.1692102 -0.270995 -0.48536 -0.1391259 -0.1800604 0.01597315 -0.06870397 -0.01321152 -0.5258855 0.110676 -0.1697924 0.05160957 -0.05098747 -0.2978411 -0.08935834 0.05935521 0.2773913 0.1652289 -0.006386844 -0.257866 0.1254126 0.1803676 -0.1026781 0.3225235 -0.1227897 0.0156665 -0.08425666 -0.09094948 0.08965012 0.3041741 -0.03817403 0.1540808 -0.2373471 -0.3818362 0.08142749 0.06251732 -0.165887 -0.481192 -0.2572844 0.163357 0.0683461 -0.08978213 0.2441578 -0.05184093 0.1186152 -0.1020216 0.1504865 0.2043368 0.2677219 -0.2004675 -0.1696922 0.2194651 0.02670472 -0.05749468 0.01518243 -0.1683389 0.09427833 -0.1837549 0.2500095 0.1611843 -0.1491974 -0.1022235 -0.03523148 -0.2257534 -0.1874283 -0.06788119 0.08708527 0.05393797 0.05954479 0.01772203 0.03880345 0.8395069 0.1064858 -0.0126684 0.07756049 0.3919863 0.08000936 0.0087174 0.1394589 -0.1943861 0.2234485 -0.1879435 0.04864499 -0.1858012 0.09270613 0.1305699 -0.1605005 0.06089737 0.009434381 -0.1235506 0.03985862 -0.06749316 0.09650318 -0.002354183 0.2559571 0.049244 -0.02226285 -0.04789866 -0.2016029 -0.3066811 0.09137237 -0.01276663 0.137491 -0.08386684 0.1423089 0.05540823 0.08506647 -0.03444736 -0.1947946 -0.05037204 0.3870872 0.02645174 -0.01397393 0.4330208 -0.05825336 -0.07799201 -0.01900227 -0.210862 -0.1130693 0.06883343 0.07149021 0.04802519 -0.06750508 0.03186395 0.1226444 0.2894525 0.1142318 -0.1836032 0.09251423 -0.0598562 -0.08380983 0.0005623152 -0.02954847 -0.1054291 0.1018951 -0.08421012 -0.1551155 -0.02745944 -0.01548317 -0.005335742 -0.3152648 -0.06329125 -0.1602717 -0.2003788 -0.09722169 -0.1503649 -0.01419924 -0.07032604 0.04624335 -0.07931542 -0.09349138 -0.08843829 -0.004169635 0.05148233 0.05288396 0.03660626 
  0.3794902 -0.2014913 -0.1219188 -0.2410576 -0.3096764 -0.3344424 -0.2948543 -0.670859 0.3339221 -0.3522697 0.04366133 -0.537795 0.219395 0.1734818 -0.3547047 0.1323307 0.1483136 0.05288144 -0.04340035 0.1751925 -0.1521229 -0.05662912 -0.8767638 0.1430086 0.1970634 0.2473389 0.2480802 -0.5652983 -0.423646 0.3360521 -0.2372342 0.4126516 -0.2382924 -0.2926626 0.2184094 -0.05823627 0.01368061 0.5690042 -0.3249354 0.03609589 -0.6364115 0.07209686 0.3153592 -0.1250469 -0.2426942 0.2022218 0.2862498 0.1100265 0.1904518 -0.1403373 -0.5173459 0.1457495 -0.1689217 -0.2374584 0.03056473 0.03540208 -0.3860342 0.7262788 -0.291226 0.2660309 -0.09453743 -0.1564265 0.3911616 -0.03429154 -0.1582243 -0.09655804 -0.5368398 -0.6549363 -0.1248911 0.3200127 -0.05383127 0.2459376 -0.08679999 0.0007985751 -0.3924286 -0.09047325 -0.1957229 -0.489893 0.05684375 -0.2773305 0.004312241 -0.02247965 -0.00280677 -0.02079791 -0.2384984 0.1437522 -0.5328708 -0.1719635 0.01520102 0.2639464 -0.0080169 -0.3730244 0.1799859 -0.125353 -0.1982788 -0.05093012 -0.01235886 -0.407674 0.01790462 0.0427458 -0.07539817 0.1899175 -0.2588578 0.1926075 -0.2793715 -0.05256573 0.3089555 -0.2165585 -0.08838823 -0.2318357 -1.013427 -0.3603946 0.1523621 0.2336242 -0.09469626 -0.1757349 0.05118195 -0.2362467 0.2824398 0.07175259 -0.1076802 -0.08738995 -0.0823563 0.6273977 -0.1111313 0.3036998 0.437844 0.1078083 -0.4816901 0.6565204 -0.1755028 -0.3659633 -0.07324815 0.2672113 -0.2476604 -0.0844998 0.02579074 -0.03785608 -0.2418132 -0.1790033 0.3247362 0.2173354 0.004454222 -0.08827114 -0.2385879 0.3545736 -0.04441183 0.08792362 0.8329018 -0.3380831 -0.03654008 -0.775511 -1.106583 -0.01253021 0.04865971 -0.0518924 -0.2947723 -0.1104401 0.2450418 0.1333119 -0.5201524 -0.7295916 -0.09578133 -0.01438802 -0.02796872 -0.2644629 0.07874109 0.1153689 0.06749377 -0.2282242 -0.0001152246 -0.0672059 -0.2479279 0.1131303 -0.1090681 0.04154653 -0.03534749 -0.3359692 0.084313 -0.1309935 0.1562781 0.1502488 -0.2085649 0.1719506 0.0002218839 -0.137544 0.4317603 -0.1814696 0.03195516 -0.03049692 0.2961922 -0.08339792 -0.1208948 -0.2576292 -0.545149 -0.4415301 0.009670485 0.1803397 -0.4553156 -0.1932478 0.1480518 -0.02180985 -0.1953384 -0.01191822 -0.124106 -0.06853155 0.1606506 0.01972695 -0.1463133 -0.05438238 -0.1068675 -0.0425855 -0.03417384 0.06170879 -0.111032 -0.6225283 -0.3675334 0.1309679 -0.2752311 0.3434349 -0.6896251 0.002934135 0.128881 -0.05850256 -0.3142808 0.06355433 0.07946064 -0.0691243 -0.04610178 -0.2768008 -0.422657 -0.1107201 -0.2708032 -0.370937 -0.4558093 0.5755959 -0.009529686 0.09961973 -0.1235604 0.02235534 -0.3041473 -0.2913247 -0.6799151 0.09272061 -0.1026898 -0.00769217 -0.2729089 -0.2454445 -0.2842407 -0.185176 -0.002712419 -0.1166182 -0.2906868 0.2882395 -0.02212274 0.3228809 
  0.4475881 -0.5827457 0.3619432 0.2324499 -0.2190838 -0.7767362 0.08725277 0.4663009 0.3864173 -0.1969433 0.3769812 0.5563082 -0.2742415 -0.09608109 -0.1255573 -0.3822403 0.1266449 1.289769 0.9479918 0.123963 -0.6395249 0.2973407 -0.5190612 -0.2535993 0.03198276 -0.3134031 -0.3692068 0.2310127 0.2662497 -0.1582215 0.1770125 -0.4869305 0.4565671 -0.01417031 0.5085238 -0.2238809 -0.2912673 -0.09031336 0.2649138 -0.4434452 -0.4469802 0.1616026 0.3291433 -0.1511893 -0.1580635 -0.1449232 0.29655 -0.04613202 0.2925821 -0.4320104 -0.4278287 0.2371084 -0.07247522 -0.519407 -0.6637332 -0.4055503 -0.3378158 -0.08939314 -0.5110162 0.2734599 -0.9421631 -0.08815268 0.206685 -0.1372741 0.1886498 -0.5031338 -0.3006416 -0.2538599 -0.220341 -0.3631937 -0.05762811 -0.03052414 -0.1964467 1.252567 -0.3477204 -0.3146179 0.5298196 -0.5772358 0.3491441 0.02094724 -0.1119233 -0.0004680417 -0.1022948 0.302102 -0.1716256 0.968608 -0.2508858 0.06224161 0.070856 0.2347643 -0.3136794 -0.04935213 -0.08468658 0.1855979 -0.491758 -0.1587654 -0.155302 0.07928237 -0.347891 -0.3001526 0.3177944 0.03209604 0.07443808 0.006038039 -0.2764363 0.1464046 -0.006696914 0.1591094 -0.01239259 0.4075219 -0.2015786 -0.2291686 0.04655675 -0.284673 -0.4467449 -0.004898284 -0.1793002 -0.5217522 -0.5118653 -0.1704177 -0.4072621 -0.3833174 0.04191072 -0.3674895 0.4543586 0.4258067 0.8396295 -0.5092328 -0.09665611 -0.9296535 -0.1588407 -0.08859381 -0.4905523 0.5714489 -0.4220884 -0.4980999 0.2704725 -0.1650901 -0.1438311 -0.2695477 -0.09753053 -0.2404589 0.6395294 -0.0290892 -0.4375294 -0.3068063 -0.4252495 -0.3933367 0.1081195 0.4763637 -0.4986584 -0.07962911 -0.6346755 0.06275781 -0.2168369 0.2441125 -0.4404512 1.242296 0.4522282 0.1146683 -0.406763 0.0008084248 0.002695122 -0.0531057 0.06585117 -0.3744187 -0.1060386 0.07336011 0.002162863 -0.04090545 0.04479843 -0.5289741 -0.6462354 -0.4726928 -0.2377561 -0.003516695 0.07638222 0.5675592 0.01547981 0.3275291 -0.1549779 -0.0430201 -0.001069621 -0.4399483 0.3655618 -0.02770627 -0.01572639 0.1405332 -0.37917 -0.5261056 -0.06694128 -0.2357868 -0.3419709 -0.2934541 -0.1727218 -0.5515117 -0.02125815 0.1209049 -0.1456798 0.2760704 -0.03383459 0.2253091 -0.2706839 -0.0952566 0.4527263 -0.05566812 -0.02097818 -0.1980134 0.2441153 0.07624459 0.5373446 0.9101471 -0.631155 -0.5178577 -0.1149938 0.08487551 0.407339 -0.09161995 -0.2241735 -0.03802951 -0.687631 -0.5709308 0.06873346 -0.3685693 -0.3385297 0.168253 0.1417372 -0.04675533 0.1085343 0.4975142 -0.3316153 0.4797598 0.03887008 -0.2292192 -0.2075172 -0.1650475 -0.007921448 -0.1968125 -0.3204877 -0.3870507 -0.6949146 -0.06350438 -0.1008399 -0.06188608 0.8898436 -0.299763 0.2328893 0.03036429 0.04218356 -0.06089336 -0.4197193 1.038457 0.3464892 -0.2466994 -0.4098403 0.09201122 
  0.1066282 -0.08885712 0.4161552 0.1017162 -0.2342022 -0.00731966 -0.08770598 0.1214357 -0.369923 -0.0158909 -0.4112698 0.3097603 -0.05322948 -0.6031391 -0.3141885 0.2632938 -0.1714068 0.5555827 0.4113136 0.4011619 -0.08882684 -0.5978969 -0.1873496 -0.03354957 -0.3289396 0.06128126 -0.009374523 0.4986184 -0.3970646 0.2217104 0.1943507 0.3010437 -0.01934434 -0.04540299 0.527397 0.176996 0.6466706 1.631049 0.06809916 0.1887275 -0.007153179 -0.2535456 -0.080717 -0.1350341 -0.1531565 -0.2745466 -0.04937733 -0.00699581 1.038306 0.2900982 -0.03353777 1.143802 1.507272 0.408619 0.3113932 0.3164133 -0.2168724 0.1798719 -0.01891788 0.2363413 -0.05801848 0.5726198 -0.2936236 -0.09260365 0.1286821 0.4340493 -0.1671402 -0.2862688 -0.3629964 0.3428194 -0.05318081 -0.3059289 0.01658821 -0.5876368 0.3581145 0.2092724 -0.1365055 -0.1420572 0.2360564 0.004889638 0.3599964 0.3993611 0.05659704 0.1271602 0.2049794 -0.0223106 -0.760858 0.01458649 -0.1159156 0.5901258 0.1350728 -0.03577416 -0.5149661 0.04390212 -0.2670096 -0.4395929 0.1872718 -0.482644 0.2896796 -0.1091603 -0.2345523 0.4246618 0.2307585 0.7430643 -0.07964618 -0.0311041 -0.7968805 0.1229828 -0.1833827 -0.5352071 -0.9781301 0.4759636 -0.1574829 -0.06566855 0.08059616 0.3024645 0.1136696 -0.140368 -0.1781008 0.217354 -0.2674105 -0.147497 -0.2481935 0.2725408 -0.2581327 0.02799792 -1.167437 -0.08887964 -0.1867343 -0.2100909 -0.3337194 0.2987086 -0.2655308 0.01085459 -0.3639809 0.2605099 0.746601 0.5717424 -0.2698921 0.1518796 0.3178137 -0.5041841 -0.2876438 0.1374689 -0.03450758 -0.2771531 0.04142628 -0.2840532 0.02437111 -0.6557421 -0.23712 0.3733565 0.1688609 -0.1041211 0.04520874 0.02900006 0.1090271 -0.06379097 -1.151939 -0.4033522 -0.2901592 3.993931 -0.1186341 -0.08026148 -0.09968539 -0.6565191 -0.3517309 -0.3711496 -0.07709179 0.2383696 -0.200795 0.07596624 0.1129437 0.1210584 0.1482799 -0.02423549 -0.6269739 -0.003799656 -0.01043772 0.2327976 0.4616537 -0.9218312 0.8487994 -0.001949994 -0.5004454 1.565655 0.8419433 -0.1986055 -0.3403467 0.004518687 -0.3424795 0.2431473 -0.2214844 0.2234365 0.6509951 0.2552244 -0.02311442 -0.02297345 0.4705327 -0.05886384 -0.5822899 -0.1505258 0.3107746 -0.1412362 0.2013326 -0.2023549 -0.4088577 -0.05158718 -0.1727901 -0.3417017 0.5301004 -0.1693666 -0.4289023 -0.3407755 -0.3013875 -0.3408551 0.1190897 -0.1845023 0.08967091 -0.09692249 0.1290034 -0.1520247 -0.2644722 0.2186036 0.4897773 -0.104134 -0.1767276 -0.3674651 -0.06130946 0.02865679 0.8569764 -0.1974319 -0.1457142 -0.0460108 -0.2322616 0.6435053 0.5041635 0.1237988 -0.1358636 0.216356 -0.3121645 0.08199063 -0.2859308 0.07157295 -0.1413338 -0.4106722 -0.05204996 0.1502271 0.3661373 -0.302397 -0.05817953 -0.4196486 0.3486498 -0.1669567 0.05419378 -0.3297354 
  0.05660291 -0.5246856 0.02183117 0.04748148 -0.0409428 -0.1015662 -0.04103353 0.1146494 -0.05080147 0.2522224 0.0006611687 -0.03371058 -0.2735845 -0.03128226 0.07838843 0.2348728 -0.1256515 -0.1438427 0.2915005 0.1296299 0.2456052 -0.01683751 -0.0827772 -0.08517002 -0.3051437 0.04002603 -0.1090631 -0.1440422 -0.05471946 0.07250259 -0.08935109 0.1515042 -0.1421322 -0.1682834 0.1369669 0.08495473 -0.2520016 0.06176064 0.02085479 -0.1703952 0.06252178 -0.2187155 0.02455123 -0.1156862 -0.2135728 0.04077801 0.1983161 0.08215067 0.2275671 -0.3118986 -0.7378931 0.1749984 -0.05277034 0.08024224 0.05136213 -0.02186889 -1.375048 0.3235632 -0.007421733 0.3273817 -0.02727768 0.3510184 -0.1829808 -0.1041286 -0.2569953 -0.1570127 -0.9785412 0.02254802 0.1930074 0.2048464 0.1101653 0.04802553 0.06110821 -0.2271253 -0.2399456 -0.1031092 0.1735102 0.1241654 -0.07491907 -0.01358981 0.3909432 0.1482569 0.08316239 -0.03239096 -0.1217219 -0.26737 -0.1810871 0.03908201 -0.1199184 0.07152083 -0.005918009 0.2840984 0.1069665 -0.1450426 0.3198292 -0.3219955 0.1599097 -0.1397558 0.1204466 0.1161365 -0.07963718 0.2004993 -0.1397515 0.2704243 0.2004275 0.05499833 -0.08137792 -0.2411966 0.03528111 0.06080825 -0.2965812 0.1676074 -0.2307754 -0.04519188 -0.06786732 0.04850435 0.07816714 0.2547876 0.07778771 0.1650296 0.06738821 0.1578648 -0.02029041 -0.04025426 -0.1721817 -0.05435423 -0.2822258 0.09314784 -0.06901566 0.03662394 0.07281715 -0.02970549 -0.02060787 -0.1253868 -0.20968 0.1662491 0.07005779 -0.09173248 0.07196705 0.04740614 -0.1427162 0.3293237 -0.06418652 0.01840333 -0.02696647 -0.1128595 -0.09668221 0.1227717 -0.1141353 0.02571119 -0.0324961 0.06960768 -0.1073145 -0.6670829 1.823629 -0.6657797 -0.1353096 -0.06958373 -0.008257596 0.04974201 0.04148953 -0.2726033 -0.2421875 0.1405618 -0.1564462 -0.2671518 0.1848068 -0.0790592 -0.1883133 -0.06824825 -0.1652287 0.02345675 -0.2518544 0.1590017 0.06637141 0.06971451 -0.1106385 0.1914182 -0.0246425 0.07439154 0.01504375 -0.4194966 -0.1047659 -0.0773594 0.02790566 0.2157272 -0.3000815 -0.4317544 -0.06339893 -0.2610556 -0.1930635 -0.1427204 -0.1533321 -0.02244539 0.03834594 -0.06963178 0.09573348 -0.2455487 0.01739443 0.03200732 0.02288778 0.3063031 -0.2290415 1.105682 -0.2529534 0.01517529 -0.1316335 -0.0255361 0.0451225 -0.1095073 0.01511097 -0.1344721 -0.1092054 0.2717906 -0.04030151 -0.05987049 -0.008585312 0.09063648 -0.1244849 -0.2410059 -0.1664927 -0.1062792 -0.001713891 0.1194947 -0.05444186 -0.002436957 -0.2100815 -0.03179119 -0.04292168 0.02351428 0.02235482 -0.125283 0.05728011 -0.04104639 0.04390962 0.2780114 0.0165163 -0.1044871 0.1825224 0.03175311 -0.02324941 0.2475675 0.08518787 0.1017504 0.2521778 0.1163325 -0.01119927 0.138465 -0.1024183 0.0008678312 -0.2428961 0.690209 -0.04998797 0.136531 0.1595997 0.1058084 
  -0.3620526 -0.1255351 -0.04425789 0.003847446 0.07761892 -0.09313619 -0.330685 -0.4701515 -0.2721165 0.049487 -0.08784796 0.1559533 -0.5464044 0.2448277 0.05723885 -0.1223001 -0.2423983 -0.07806446 0.09921336 -0.07873529 -0.3161743 -0.2333927 0.0688599 -0.2523672 -0.6069442 0.01785124 -0.3277225 0.09419814 0.01804839 -0.7499779 0.1186695 0.09766416 -0.1586359 -0.004116932 0.0250065 -0.2452437 0.3795135 0.7924333 0.05591219 0.1032566 -0.7107385 0.33529 0.2815743 -0.05649305 -0.1542904 0.06677034 -0.3564972 -0.05930666 0.4804445 -0.4036846 -0.8446159 0.09257876 0.2195263 -0.02783075 -0.07976466 -0.1512901 0.559225 -0.04663258 -0.04786308 -0.2675192 0.1875283 -0.4002809 -0.3133031 -0.1417935 0.2572193 -0.07707282 0.005780901 0.5494946 -0.1163929 0.0849371 0.03112379 0.2931169 0.05414506 -0.07270128 0.3862204 -0.3098369 -0.3465517 0.08529526 0.1122014 -0.1091514 0.2113123 0.3947602 -0.0380047 -0.0946232 0.2793332 0.3184805 -0.3367179 -0.3000168 0.231922 -0.2643943 -0.1040962 0.04025982 -0.1507829 -0.8603802 -0.4221416 0.01137379 -0.06294697 -0.4036765 0.1394439 -0.04221481 0.09080259 0.496365 -0.04255946 -0.6094664 -0.1217035 0.07515267 0.04466525 0.2619742 0.04226669 -0.4585653 -1.297317 -0.230802 0.2720554 0.5328991 0.1708883 0.01255928 -0.092898 0.05631831 0.1511166 -0.08604669 -0.2500202 -0.1834619 0.1178764 0.0652852 -0.2136357 -0.1062971 -0.1129466 0.4580503 0.1376086 0.1969725 -0.6283199 0.1257318 -0.03450418 -0.3495844 -0.04385719 -0.3890952 0.285351 -0.1508485 -0.1014373 0.07968031 0.3672018 -0.005092056 0.09399136 0.5941334 -0.3921351 -0.2691416 0.1307644 -0.1057791 0.009820505 -0.1577992 -0.3543386 0.09721833 -0.4441795 -0.2589088 -0.1040889 0.1131728 0.3037023 -0.117688 0.3976737 0.1894536 0.02174886 0.9721177 -0.3457758 -0.294214 0.1996625 -0.1035889 0.8816006 0.1652072 0.2453536 -0.575307 -0.3315563 -0.1342794 -0.4675561 -0.07785568 -0.1686139 -0.3075582 -0.2252581 -0.2494927 -0.2084545 0.02805708 0.1302388 -0.02342994 0.1438615 -0.2947414 -0.5487748 -0.2526114 0.726992 -0.3183727 0.8053778 -0.3428471 0.1281516 -0.1534014 -0.3711712 -0.08276342 -0.4755697 -0.1329832 0.3571874 -0.6694066 -0.07497556 0.09665394 -0.1514893 -0.1276594 0.2656356 -0.3841203 0.05727982 0.09467233 0.03478746 -0.00597103 -0.452401 0.293621 -0.06433771 -0.1224033 -0.04539257 -0.03376328 0.3248422 -0.2266512 0.3558054 0.09441163 -0.04163334 0.1995152 0.0280178 -0.004972965 -0.1834021 0.03199234 -0.2578594 0.1097139 -0.02213861 -0.018316 0.2258656 -0.3279858 -0.09201241 0.07631065 0.08276918 -0.00572958 -0.1429568 -0.2746616 -0.3467976 0.03172754 -0.1377589 -0.2797322 -0.1301235 -0.1248089 0.0833803 -0.5129914 0.1428108 0.1001616 -0.1666877 0.4077846 -0.2078193 -0.2957694 0.1505227 0.6095209 -0.08454865 0.1665356 -0.1534221 -0.292153 
  -0.0008795136 0.2424783 -0.5561469 -0.01359001 0.1409185 0.02997827 -0.3711766 -0.2800151 -0.2984858 0.2402827 -0.1566412 -0.4208531 0.669593 -0.311144 -0.1855651 -0.1514348 -0.2316644 -0.3911495 0.1625219 -0.3151403 0.2146699 0.07744664 -0.1544718 -0.08582856 -0.194516 -0.4260583 0.206348 -0.2127268 -0.2311782 0.01701806 0.2115498 0.156297 -0.3693478 0.2944925 0.05674141 -0.182293 0.1395475 0.4117172 0.2204816 0.03765875 -0.1561486 -0.08687784 -0.1986523 -0.390892 0.6517554 0.137042 0.09125397 -0.5206501 -0.317653 -0.2224065 0.1653014 -0.229696 0.001543779 -0.04839959 0.06995823 -0.3119881 0.3967029 0.2450836 -0.1636091 0.2077603 0.4037533 0.3959494 -0.1748027 0.04744104 -0.3139459 0.2666486 0.001212862 -0.3524356 -0.1035412 -0.406245 -0.1275864 -0.2162517 -0.1077479 0.3141078 -0.1499621 -0.0174255 -0.4245547 -0.7957006 -0.1845905 -0.2298631 -0.1190134 -0.04477503 0.1971884 0.1030376 0.2817316 -0.0851765 0.2623676 -0.04278295 -0.2361236 -0.03446097 -0.01447421 -0.3727021 0.1725519 0.07503229 -0.389879 -0.9135313 -0.2271612 0.3441492 0.2942742 -0.3342616 -0.1122424 -0.1051042 -0.2015232 0.1914609 -0.1382163 0.4268411 0.2958212 0.4460854 -0.4216295 -0.1802551 -0.08560923 -0.01092299 -0.05265342 -0.7293501 0.2819496 -0.04925275 -0.7860945 -0.1337225 -0.2023295 0.1548523 0.727454 0.1040607 -0.1135878 0.0857466 -0.05030484 0.04807208 -0.04165316 -0.3253098 0.07572378 0.2616239 0.00862979 0.1639732 -0.001630365 -0.1451721 -0.2292126 0.3835181 -0.5734604 0.1672598 0.02423398 0.1268691 -0.2416896 0.1780007 0.1648882 0.01106828 -0.1539487 -0.3686795 -0.03886207 -0.4848062 -0.3525251 -0.009286722 0.3820098 0.6218248 -0.6868722 0.2809295 0.01215255 -0.1349792 0.1476799 0.3787769 -0.312726 0.4119194 0.2413722 0.02288943 0.241652 0.1277583 -0.0584614 0.06697588 -0.2670413 0.03036128 0.1588093 0.04704054 -0.1308562 -0.5720473 -0.02091999 -0.1123717 0.07496222 -0.3937315 0.3156186 0.1221649 0.1564148 0.2133087 0.01141162 -0.3984082 -0.3565546 0.01666531 0.07119444 0.08570399 0.09274196 0.151401 0.08144359 -0.2887216 0.005690344 -0.4395078 -0.6559101 -0.01039953 0.05651433 -0.1333432 -0.06760454 0.07135616 0.08976251 0.1698072 -0.08486594 -0.05817641 0.00666988 0.8624367 -0.06383766 -0.3475194 0.01348203 -0.04385899 0.1371797 -0.001830051 0.1045493 0.1221324 0.01647342 -0.1308353 -0.04374304 0.3077148 -0.69027 -0.4408877 0.02714897 -0.04487595 -0.1447147 0.01457834 0.1564546 -0.03090335 -0.03617845 0.07809357 -0.336396 0.2075808 -0.5885006 -0.02891919 -0.1289188 -0.2727293 -0.009608985 -0.2100124 -0.2881725 0.02294836 -0.3580853 0.2211345 0.2580892 -0.1592429 0.08383103 0.07838331 -0.06899748 -0.3026192 0.3733815 -0.02732856 0.8268821 -0.1363986 0.1955224 -0.3336917 -0.3421454 0.1464764 -0.0277919 -0.4498981 -0.3603315 -0.666494 
  -0.174415 0.03278343 0.1955015 -0.204033 -0.2759912 0.113851 0.1461109 0.1442612 -0.1381231 -1.498427 0.1290629 0.4285553 -0.04358791 0.1387748 0.3641557 -1.077562 0.1653946 -0.09303576 -0.1611732 -0.226239 0.03253805 -0.2150145 -0.01047027 -0.177407 -0.3297842 -0.2315324 0.6620525 -0.2759856 -0.05358745 0.5808352 -0.2290734 0.004500872 0.09752873 -0.1128581 0.04161909 -0.141874 -0.07265688 -0.1739678 -0.08240886 -0.1591477 0.08140141 -0.1032906 0.07176801 0.1546021 -0.3663342 -0.1446384 -0.1358089 -0.05021539 -0.2212071 -0.7672986 -0.3102547 -0.07396337 -0.2309451 0.4250205 0.4113356 0.08340801 -0.2666098 -0.3462933 0.01000157 0.4272031 -0.3935581 0.1780081 0.1791874 -0.1319312 0.2976319 -0.1124596 -0.1844309 -0.04770501 0.06003182 -0.4306431 -0.07182491 0.0960288 0.1203172 -0.1992766 -0.8910016 -0.1404301 0.2546276 0.02775461 -0.09996036 -0.2294174 0.007132926 0.2671687 0.08415455 0.09616286 -1.427466 0.1676948 0.04437844 0.09073181 0.05315698 0.07744463 -0.06590401 0.2267018 -0.3134046 -0.1856848 -0.1101022 0.04682054 0.1364025 -0.1110412 0.1298979 0.2406859 -0.229616 -0.2104367 -0.08715645 -0.3038492 -0.1692814 0.09762704 0.0799567 -0.1359381 0.05409956 0.06016261 -0.0524717 -0.1224685 -0.4697286 -0.003462796 -0.08696687 0.244816 0.1376855 0.05802192 -0.1523241 0.04062931 0.1685324 0.09885572 -0.05394583 -0.17126 0.4168257 0.1699401 -0.03852711 0.08930793 0.01775856 -0.009085309 -0.1267253 0.162714 0.01722793 -0.2745419 -0.3377948 0.5995901 -0.1843225 -0.1302891 -0.04436131 -0.0502639 0.001029969 -0.4303073 0.06155639 -0.04233144 -0.002718733 -0.1378714 -0.05729241 -0.2269688 -0.3337102 0.3109402 0.03101627 0.1220064 -0.13181 0.07796426 -0.1646874 -0.03407453 0.05148491 -0.2466706 0.1769945 0.1624824 0.9370767 -0.6885082 0.1293215 0.03309449 -0.3764744 -0.0967491 0.03943721 0.1072231 0.1933037 0.3074068 -0.02624695 0.1781161 -0.1895815 0.1774814 -0.05700786 -0.1448565 -0.5647745 -0.01537839 -0.003891376 0.06411722 0.1803131 0.05069734 0.1215502 -0.06383959 0.1965653 0.4799431 0.08918972 -0.0228433 -0.03173721 0.0397066 0.1394095 -0.02717465 -0.007909995 -0.1034534 0.1511113 -0.1779343 0.03185517 0.2805411 0.08190023 0.1131343 -0.6744394 -0.0583282 0.2744005 -0.2416236 -0.09758977 0.3311971 0.1742843 -0.01651873 -0.09282552 0.2379935 -0.1401922 0.01439 -0.1750992 0.2012704 0.05159984 -0.01789143 -0.2855545 -0.1160455 0.1602537 -0.03925418 0.2763068 0.1240773 -0.1061168 0.1394795 0.08300926 -0.1655517 0.4179936 -0.07769351 -0.05167297 -0.2984582 0.3056784 -0.3281148 0.07042365 0.1820262 0.1274537 -0.07381226 0.02885909 -0.1561942 -0.05959024 0.1166684 -0.01380849 -0.1374574 -0.0954305 0.05331261 0.084063 -0.1387238 0.02754188 -0.04301639 -0.04678666 -0.2404727 -0.3173325 -0.3654314 -0.06880774 -0.0924303 0.1165814 -0.2885414 ]
 [ 0.13469 -0.08520251 -0.1885375 -0.003305187 0.2552472 -0.1792066 0.3470268 -0.1977347 -0.1589225 0.149754 0.03294144 -0.8473003 0.03167668 0.072615 -0.1149265 0.06528981 0.1067945 0.02319945 -0.02633733 0.1714133 0.03693639 0.105459 0.04192661 -0.6113978 0.07030009 -0.1914093 0.1492082 -0.2197704 0.004093103 -0.1564837 -0.1559571 0.01184323 0.1534713 -0.4715691 0.2907761 0.0004773143 0.06406993 0.3399345 -0.03356234 0.1250963 0.983048 0.02455951 -0.07365995 0.02892348 0.01314379 -0.1309579 -0.03732255 -0.0004282449 -0.09088739 0.07530632 0.05610318 0.2677435 0.198564 0.2468252 -0.3827218 -0.1044885 -0.06880513 -0.1994283 -0.208593 -0.09706436 -0.1682046 -1.40726 0.01329372 0.125481 -0.3191822 -0.7482554 -0.07991744 -0.7361217 0.09395526 0.1228471 0.2026015 -0.09912069 0.05417148 -0.03634338 -0.1799725 0.1829992 0.4144958 -0.107775 -0.002214991 -0.114888 0.1707426 0.08413775 0.1445645 0.5990018 0.1578605 -0.01686777 0.1731221 0.1074253 0.1532205 -0.1608955 -0.5576329 0.0004329114 0.137393 -0.1977953 0.3897316 0.5973977 0.2346151 0.4625838 0.1314349 -0.2132987 -0.1091198 0.2353908 -0.06155623 0.1158151 0.1162371 0.03180819 0.347161 0.16527 0.05926878 0.01194935 0.08124593 -0.4315579 -0.09661369 -0.394322 0.1758739 -0.2539007 0.07274403 0.2489509 0.1668151 0.04435185 0.06206843 0.1494066 0.2001651 0.3713096 0.5037146 -0.3044981 0.03213303 -0.03606393 0.1334929 0.1381879 -0.166576 -0.1966339 -0.3030557 0.06112402 0.2288598 0.2870633 -0.01984232 0.1079605 0.01804755 -0.1191984 0.1952065 -0.06878261 0.1708642 0.07603045 0.04136178 0.1007765 -0.04153402 0.1015492 -0.1920934 0.3579992 -0.09307278 0.1182926 0.0850813 -0.03955898 0.0419993 0.1803005 -0.2793493 0.1158904 0.09210142 0.02020562 0.04152056 -0.03002897 -0.1151482 0.474219 -0.9303365 0.5429977 -0.5164595 -0.3057079 -0.1450829 -0.2316149 0.1609617 -0.06908259 -0.4206232 0.1890358 -0.1509944 -0.1624677 -0.1319649 0.1213029 0.2143779 -0.5919685 -0.04042951 0.2753072 0.1868871 -0.3010005 0.1696768 -0.01739678 0.2394738 -0.01559063 0.004401523 0.1077162 0.03037293 0.2387518 -0.3909793 0.2654598 0.1959478 -0.7467967 -0.02646893 -0.1021759 0.4804522 0.1927767 -0.1727966 0.1229121 -0.04618376 0.07149297 -0.1229465 0.3182571 0.06401503 0.3869357 0.2138901 0.4299903 0.01218622 -0.09821509 -0.07393821 -0.04761083 0.1379021 0.1592935 -0.5553104 0.1695762 0.3021211 -0.0573481 0.1314671 -0.0415813 -0.004273629 0.1535776 0.05750523 -0.4096541 -0.06125815 0.03992631 -0.1276735 -0.9228935 0.3723299 0.1189 0.08623843 -0.1095031 0.1835777 0.1121465 -0.2338326 -0.3193683 -0.8102819 -1.628814 -0.08712557 -0.2545331 0.1990088 0.2039933 -1.025328 -0.07738973 -0.4155631 -0.04106462 -0.02284492 0.2743082 -0.1842792 -1.657915 -0.07623399 0.5319549 0.2844362 -0.1984825 ]
<!EndOfComponent> 
<ParametricRelu> 256 256 
<AlphaLearnRateCoef> 0 <BetaLearnRateCoef> 0 
 [ 1 1 1 1 1 1 1 1 1 1 1 1 1 1 1 1 1 1 1 1 1 1 1 1 1 1 1 1 1 1 1 1 1 1 1 1 1 1 1 1 1 1 1 1 1 1 1 1 1 1 1 1 1 1 1 1 1 1 1 1 1 1 1 1 1 1 1 1 1 1 1 1 1 1 1 1 1 1 1 1 1 1 1 1 1 1 1 1 1 1 1 1 1 1 1 1 1 1 1 1 1 1 1 1 1 1 1 1 1 1 1 1 1 1 1 1 1 1 1 1 1 1 1 1 1 1 1 1 1 1 1 1 1 1 1 1 1 1 1 1 1 1 1 1 1 1 1 1 1 1 1 1 1 1 1 1 1 1 1 1 1 1 1 1 1 1 1 1 1 1 1 1 1 1 1 1 1 1 1 1 1 1 1 1 1 1 1 1 1 1 1 1 1 1 1 1 1 1 1 1 1 1 1 1 1 1 1 1 1 1 1 1 1 1 1 1 1 1 1 1 1 1 1 1 1 1 1 1 1 1 1 1 1 1 1 1 1 1 1 1 1 1 1 1 1 1 1 1 1 1 1 1 1 1 1 1 ]
 [ 0 0 0 0 0 0 0 0 0 0 0 0 0 0 0 0 0 0 0 0 0 0 0 0 0 0 0 0 0 0 0 0 0 0 0 0 0 0 0 0 0 0 0 0 0 0 0 0 0 0 0 0 0 0 0 0 0 0 0 0 0 0 0 0 0 0 0 0 0 0 0 0 0 0 0 0 0 0 0 0 0 0 0 0 0 0 0 0 0 0 0 0 0 0 0 0 0 0 0 0 0 0 0 0 0 0 0 0 0 0 0 0 0 0 0 0 0 0 0 0 0 0 0 0 0 0 0 0 0 0 0 0 0 0 0 0 0 0 0 0 0 0 0 0 0 0 0 0 0 0 0 0 0 0 0 0 0 0 0 0 0 0 0 0 0 0 0 0 0 0 0 0 0 0 0 0 0 0 0 0 0 0 0 0 0 0 0 0 0 0 0 0 0 0 0 0 0 0 0 0 0 0 0 0 0 0 0 0 0 0 0 0 0 0 0 0 0 0 0 0 0 0 0 0 0 0 0 0 0 0 0 0 0 0 0 0 0 0 0 0 0 0 0 0 0 0 0 0 0 0 0 0 0 0 0 0 ]
<!EndOfComponent> 
<AffineTransform> 40 256 
<LearnRateCoef> 1 <BiasLearnRateCoef> 1 <MaxNorm> 0 
 [
  0.3100652 -0.1434353 0.2804564 -0.1160799 0.3953947 0.2485504 -0.03659172 -0.01977941 -0.05178868 0.1211882 -0.08533416 0.09474435 0.338856 -0.0476492 0.02702188 0.4190612 1.057432 -0.1050003 0.1163482 0.09353644 0.4487597 0.0609435 0.2228545 -0.2238866 0.5196983 0.1575581 0.03833526 0.005282789 0.04960165 -0.1712619 -0.2704414 0.09139535 0.153717 0.007258703 0.2847455 0.1984807 -0.06014841 0.2388389 -0.004134339 0.3251131 0.1393303 0.2579616 0.07816141 -0.08044641 -0.3828159 0.1552002 -0.127193 0.181093 -0.05335988 -0.03600928 0.1928754 0.1258742 -0.03437092 0.3042924 -0.1319245 -0.04763082 0.1075034 0.04303662 0.04827812 -0.2775685 0.3152359 -0.2458495 0.1346254 0.171567 0.08616295 -0.102534 0.2593335 0.1731171 0.111135 -0.2056702 -0.02281163 -0.04026891 -0.187108 0.009087189 -0.06680361 -0.03893619 -0.2057489 -0.09233025 -0.01815407 0.1145842 0.1088622 0.1149785 0.07212072 0.3401027 -0.2010319 0.08924042 -0.06231254 0.222803 0.1217648 -0.04963756 0.04738287 0.03704835 0.4649131 0.0006511747 0.2389986 0.1895057 0.03885221 0.08672991 -0.1051956 -0.2136391 0.0289399 -0.1622008 0.1332596 -0.08435835 0.04401922 0.09387571 0.02838352 -0.2340804 0.3537117 -0.2886209 -0.0228617 -0.2843465 0.01525792 -0.1667016 0.1361379 -0.2271461 0.01833276 -0.3137739 -0.117965 0.06412903 0.0651947 -0.02987286 -0.2211984 0.4235529 0.07143663 -0.1007054 0.00726768 -0.06350131 -0.0712731 0.1244907 -0.1696529 -0.5918469 -0.1581846 -0.04303625 -0.03339576 -0.0486704 0.1348955 0.2142621 0.3545303 -0.1599372 -0.1603356 0.3291675 -0.05393862 0.1595677 -0.009081959 0.3605075 -0.1521783 0.2547807 -0.05195757 0.1044808 -0.1633701 -0.19974 0.05812365 -0.07082868 -0.1035764 0.05758732 -0.05721836 -0.0866453 0.2811707 0.0416933 -0.06842864 0.1172547 -0.212811 -0.1419279 0.08970039 0.01784661 0.01302076 -0.01007045 0.07056323 -0.1214615 0.2346763 0.002572103 -0.149433 0.1807471 -0.4140114 0.05687128 0.1054421 0.05655772 0.003836469 -0.23564 0.5576737 0.02473654 0.03639883 0.2135351 0.3409354 0.133964 0.3783057 -0.007978764 -0.01000806 0.05586668 0.05255578 0.03730521 -0.2553852 -0.2036007 0.1686057 -0.05867194 -0.1522714 0.04237372 0.07814806 0.03270195 -0.2414117 0.1680744 -0.3867688 0.1876767 -0.01992917 0.3759656 0.121461 0.1149276 -0.05458464 -0.01616628 -0.04433394 0.170513 0.08125763 -0.3182569 0.1428622 0.2724581 0.07771022 0.2540196 0.02579484 -0.1220664 0.2935122 -0.1014431 -0.03467066 -0.01382773 -0.2960829 -0.08139302 -0.1926368 -0.08224063 0.07549212 0.0707311 -0.08933473 -0.08990343 -0.07201593 -0.08348154 -0.03888554 0.04307946 0.09406758 0.08947764 0.09299591 1.365324 0.08668339 0.2918519 -0.05133956 -0.02950198 0.1425085 0.1208056 -0.0825833 -0.1246565 0.1154723 0.1377186 -0.2963418 -0.2547497 0.1904479 0.200659 0.3082461 0.07989058 
  0.1309701 -0.04077571 0.2345082 -0.1580947 -0.05623508 0.1236919 -0.02632327 0.05319225 -0.2828285 -0.02559654 -0.03779723 0.02610675 0.0866411 0.04633502 0.1460517 0.04726437 -0.02832535 0.7290897 0.02898162 0.06226803 0.4622847 -0.005445949 0.06460024 0.1128604 -0.172632 0.1115477 0.4689245 -0.07445565 0.1629692 0.06544229 0.3160324 0.1299859 0.08944373 -0.1213831 -0.02674876 0.3864562 0.2520248 0.06961864 -0.1352202 -0.200452 0.06023874 -0.08130462 0.1466992 -0.1337158 0.07874037 0.141577 0.1236225 0.102487 -0.01139374 -0.1070357 0.2627786 0.0703308 -0.1320653 0.03634297 -0.05408204 -0.0345977 0.3611641 0.00362809 -0.09361309 -0.2875262 -0.1660869 -0.01952535 0.1662049 -0.01481508 0.2020443 -0.1011575 -0.458712 0.0220062 0.04827139 -0.08178889 -0.05260616 0.05577043 0.07121268 -0.1024228 0.1644738 -0.02266514 -0.1728785 0.1248036 -0.04781319 0.0495226 -0.1729325 0.1166525 0.1118468 -0.2814995 -0.2483314 -0.06290233 0.1014441 0.1448021 0.002142452 -0.09148055 -0.05361388 -0.3718896 -0.1557492 0.01073354 -0.08122181 -0.02940877 0.1417223 0.024122 0.1385407 0.01262436 -0.1791191 -0.06657763 -0.2451543 -0.2279638 -0.04778787 0.02928752 0.1629787 0.1299381 0.1937352 -0.2023238 -0.04462799 0.05639977 -0.0421394 0.08988236 -0.01423767 -0.09864202 -0.140833 -0.1949463 -0.08678227 0.05471067 0.1560656 0.03690247 0.2551592 0.02741192 0.08053203 -0.06105079 0.1578235 -0.106442 0.2206228 -0.09587753 0.2270129 -0.03181653 -0.02753827 0.1053171 -0.2015873 -0.09480926 0.1106674 -0.09725364 -0.11046 -0.0737775 0.3000312 -0.02020967 -0.03112192 -0.001624774 -0.0338177 -0.07153443 0.2856146 -0.1764516 0.1752335 -0.1168736 0.01937798 0.1407246 -0.3066554 -0.02389256 0.1404267 0.05025775 0.01328897 0.2135789 -0.07137664 -0.05367918 -0.02803632 0.09959812 -0.3189529 -0.1267117 -0.2751606 -0.1914161 -0.1445017 0.07503343 -0.08448962 0.07761773 -0.1484608 -0.2459338 0.319793 0.2149019 -0.4885556 0.03966282 0.08067065 -0.01579317 0.2630575 -0.0783701 -0.01125216 -0.1867874 0.1201635 0.1881037 0.4313716 -0.07483176 0.1223812 0.06223751 0.07327387 -0.07093153 0.04053386 -0.04787441 0.1520852 -0.261561 0.1315521 -0.1166012 0.1055263 0.214789 0.2426582 -0.08061135 0.08837273 0.1436893 -0.08891011 0.2921857 -0.03850283 -0.01506924 0.008875319 0.0007315185 0.01918298 0.07465688 -0.1213533 -0.004078257 -0.1565662 -0.1796119 0.07058927 0.07538988 0.17684 -0.1342665 0.1191499 0.5475019 -0.4672253 0.02209559 -0.07537112 0.1309819 0.1115855 0.009986232 0.3136616 -0.2293455 0.05693021 -0.02230732 -0.01923509 -0.1008666 -0.0323077 -0.208244 0.0765304 -0.1402637 0.1557336 0.3768983 -0.1387043 -0.1320215 -0.04363686 0.1532211 -0.2780058 0.1151765 -0.05241271 0.08403879 -0.06804417 0.1278785 -0.1428046 -0.2670833 0.1789156 -0.4122967 0.112927 -0.1169847 0.02839415 -0.127564 
  -0.0003886598 -0.07030024 0.04977752 -0.1827628 0.1605185 0.2171833 0.2362121 -0.06234468 -0.01765702 0.02091528 0.06312207 0.2461665 -0.1997553 -0.009617346 -0.001492332 -0.008306377 0.07959622 0.008444577 0.04971561 -0.06777122 0.3067337 -0.0391762 -0.09374194 -0.07146545 -0.02570555 0.07060782 -0.1264289 -0.1393702 0.003210921 0.2098395 -0.08068474 0.01775555 -0.05004158 -0.09251877 0.2667893 0.221277 -0.004952113 -0.1014324 0.05976197 0.09210432 -0.08089304 0.128702 0.1891262 0.007641422 0.1674583 -0.1297565 0.03690863 0.1352319 -0.1682857 -0.00520678 -0.3615624 -0.1792765 0.186522 0.1185333 0.01358763 -0.07174663 0.022385 -0.04444811 0.00090311 -0.02702839 0.05904336 -0.1263755 0.05867512 -0.05577535 0.05906533 0.01147912 -0.1443812 0.1895206 -0.07932346 0.2312717 0.08793774 -0.2894316 -0.09262037 -0.174009 0.03907105 -0.04156807 -0.1914634 -0.2187278 0.09871893 0.1523255 0.04842147 0.2304407 -0.1315229 0.05014636 -0.2039232 -0.02022527 0.3315714 0.1300233 -0.117795 0.05091909 -0.01114426 0.33809 0.06117854 0.1474144 0.05341678 0.005570042 0.1022998 -0.001449906 0.5501018 -0.01639649 -0.1120705 -0.07248736 0.09347239 -0.08755724 0.2398729 -0.06231535 0.1709003 -0.1235341 0.1649271 0.006418061 0.0436611 -0.06479351 -0.2932732 -0.1849845 0.0806663 0.04085683 -0.004195656 0.1462699 -0.02607956 0.05153092 0.8584142 0.04438912 0.1348861 0.2248291 0.2278401 0.02602929 0.08989695 0.1249114 0.0001131724 0.01262866 -0.05393042 0.06432356 0.0470196 -0.03998546 0.009735201 -0.02157031 -0.1564184 -0.09999143 -0.2547636 0.1191586 -0.2333565 0.005428654 0.04431113 -0.03769598 -0.008593948 0.0981552 -0.008878294 0.1950034 -0.1354851 0.1109206 -0.1481735 -0.03691507 0.2944046 0.378005 -0.03576028 0.240062 0.08256024 -0.1996725 -0.2415762 0.1095231 -0.03870934 0.01987825 0.06972207 0.3363506 0.08961877 0.2327444 0.08684247 -0.002648843 0.1983158 -0.2606663 0.2793296 0.2031008 0.1507611 -0.08074861 -0.1815695 0.02416556 0.07078536 0.4755659 -0.1722005 0.05238902 0.2081088 -0.08958345 0.2137636 0.006727578 0.1560682 -0.1449374 -0.08400801 -0.1039061 -0.03194895 -0.07015342 -0.03803931 -0.09023739 0.03022165 0.313761 0.02801977 0.06826566 0.1411714 -0.2052581 0.1125196 0.04284941 0.5019562 0.2660959 -0.01136078 0.1974493 0.2049644 0.1893345 0.2713368 0.2210602 0.006735121 0.0826173 0.6978825 -0.1106364 -0.07327057 0.05768702 0.02144452 0.1427544 -0.228316 0.04194594 0.1984405 0.1684284 0.06100316 -0.118291 -0.06136047 0.3728088 0.2929192 -0.02830373 0.121823 0.08207797 0.1750349 -0.6012653 0.7713513 -0.0673185 0.01234725 -0.1014959 -0.06363279 -0.01958886 -0.02653257 0.04533592 -0.1697713 -0.1755818 0.1151573 0.06939629 0.1046627 0.234793 0.2149577 0.2116299 -0.02621265 0.1119332 0.1082246 0.1009263 0.048559 0.7082199 0.0115121 -0.02713975 0.04363905 -0.005682067 
  0.2181823 -0.09474707 0.1767576 0.03666745 -0.1532912 -0.04334507 -0.001716043 0.014385 -0.04722283 0.0332009 -0.05460179 0.1717836 -0.1027473 -0.08470862 0.02225378 -0.09996247 0.1682998 0.08948145 0.1501024 -0.166563 0.04887073 0.02861115 0.04585814 -0.1289844 0.02621229 0.02304913 -0.05431534 0.09182506 0.06783061 0.01736934 -0.09441505 0.01811241 0.02368175 0.2074404 -0.003006411 -0.0256814 -0.03729202 -0.07006781 -0.07331517 0.1029952 -0.005452876 0.162257 -0.08720144 -0.1249907 0.4983781 0.1789495 0.1767925 0.07515129 -0.3236005 -0.3052747 -0.2701958 0.04004473 -0.0334454 0.1933757 -0.3258603 -0.0140562 -0.4191403 -0.1498794 0.3250932 0.07831836 0.2405899 -0.0231195 0.03046758 0.1245434 0.3523347 -0.05846998 -0.129217 0.1623607 0.4041296 0.08256681 0.09029432 0.4382602 -0.1502085 -0.0001697901 0.0330937 -0.02373493 -0.03488892 -0.05731721 0.6697774 0.2466118 0.1658162 0.04901993 0.09734948 -0.1910419 -0.2841672 -0.003701141 0.1431519 0.113914 0.07391346 0.1294339 0.005399437 0.09409567 0.1031815 -0.07943397 0.09994207 -0.1404601 0.04552903 0.05222519 -0.1151887 -0.2016269 -0.002392072 0.09759309 -0.04476023 0.03459987 -0.06594151 -0.2213239 0.2952124 -0.3583522 0.03266801 -0.06111027 0.01918035 -0.01899799 -0.1011864 0.08780658 0.1735326 -0.005978961 0.03262495 -0.211178 -0.184792 0.05970317 -0.0015043 -0.1734482 -0.08102991 0.05269678 -0.08345289 -0.07594229 0.02617041 0.03473249 -0.2188017 -0.2105846 0.05726089 -0.2364093 -0.131969 -0.2528861 0.1990151 0.4245851 0.05007357 0.00753729 0.1817321 0.07567511 -0.09591302 -0.2395879 -0.07908144 -0.03611278 -0.3078268 -0.1522579 0.1046284 0.02846272 -0.1770576 -0.1023101 0.2096291 0.3778318 0.1329229 0.07601847 0.02273 -0.2858454 0.01170065 0.2366347 -0.4077971 -0.007252615 0.02902909 0.04477377 -0.08662728 -0.08608431 -0.05696949 -0.09867853 0.1379791 0.1047195 0.08125884 -0.3913315 -0.03074435 -0.02995539 0.08155394 0.2839689 0.1302955 -0.0001394516 -0.1537748 -0.04809181 0.05318751 0.03307305 -0.173576 0.3621427 -0.08220617 0.09865309 0.4281712 0.02094489 0.4011767 0.5284275 0.2731841 -0.05247193 -0.1977163 0.02273685 -0.1376571 -0.1606881 -0.246596 -0.2693157 -0.1114126 0.2512462 0.1637839 0.178385 0.1656131 0.03145237 -0.2431851 0.07845688 0.00570957 0.2272427 -0.09045251 0.06514144 0.1142356 -0.1335726 0.1799487 0.09764284 0.0008519119 -0.6546813 -0.03778631 -0.0650642 -0.2036855 0.1803849 0.002357246 0.10404 -0.2325793 0.3146214 -0.04809176 -0.05321957 -0.2176796 -0.2362234 -0.04225153 0.093399 0.244284 -0.4264241 -0.02407331 -0.05288467 0.2826558 0.0004607686 -0.1566734 -0.1309551 0.1842436 0.3294194 0.02369317 0.1325702 0.245003 0.1162705 0.3086861 0.05296953 0.01199033 0.0212943 0.05171672 0.1140461 -0.3582715 0.4003399 0.05484398 0.4402104 -0.009935382 0.2227688 0.3030609 0.169771 
  0.1171332 0.002503367 0.1397129 -0.0900493 -0.06727625 0.01209136 0.3380876 0.05833059 0.1456905 0.07900252 0.03385343 0.0366847 -0.01649175 -0.06874258 0.1914659 0.0107073 0.2106904 0.1052235 0.3850468 0.1780661 0.03583354 -0.2281285 -0.2563938 0.02710298 0.110232 0.6552525 -0.03501007 0.05193444 -0.05103317 0.01527439 0.00297633 -0.08687034 -0.09450747 0.04955353 0.005665166 0.0355719 -0.0758386 0.4193592 -0.03813354 -0.1495752 -0.01247027 0.003619671 -0.1437661 -0.2731055 0.1878064 -0.007565726 -0.1147604 0.172604 0.0290689 -0.08500974 0.0002785152 -0.01837175 -0.02663166 -0.06803426 -0.2023283 -0.03577533 0.07127209 0.1303858 0.02756961 0.1046684 -0.06516907 0.2281643 -0.1485866 -0.3731523 0.06851524 0.5082738 -0.1280173 -0.212399 0.1367652 0.01354227 -0.45529 0.004997509 0.1188753 0.08791678 0.01539083 -0.09488271 -0.01680086 0.1038831 0.01048531 0.1463729 -0.05172345 -0.2027799 -0.01776548 -0.1528146 -0.2213494 0.06406838 0.03478924 -0.1241272 0.224595 -0.04306955 0.2139455 -0.03124247 -0.03983187 0.1586833 -0.3486428 -0.2429015 0.003963831 0.05518436 0.1364785 -0.1131469 0.03907284 -0.3975012 -0.04777633 0.04418039 0.08330182 0.0913568 -0.1050429 0.202726 -0.09857223 0.05314776 -0.09064868 -0.1483686 0.08256904 0.3388865 0.1291571 0.1684339 -0.08842247 0.07840869 -0.03838523 0.4190473 -0.04828444 -0.09411762 0.2934075 -0.379151 -0.1071866 -0.1181664 0.2368878 -0.01092347 0.009288096 0.04068458 -0.09020528 0.05661427 -0.1450388 -0.0263108 0.06406504 0.1728299 0.04083258 -0.1917819 0.1086993 0.2347344 0.05028646 -0.03439213 0.1141996 0.2768388 0.02408466 -0.1981772 0.1922072 0.0582643 -0.06590601 -0.04234822 0.03730969 0.05073246 -0.1748238 -0.009451721 -0.2442799 -0.04767369 -0.1084009 -0.0918772 0.14878 -0.1834263 0.05806331 0.2445781 -0.05412211 0.08895947 -0.05755236 0.05601022 0.2183186 0.2172804 -0.07772235 -0.09742656 -0.1892461 0.1168671 -0.2142764 0.07032069 -0.08607432 0.1230512 0.1684156 0.236485 0.1158715 0.336888 0.1020075 0.03111229 -0.1836835 0.6249504 0.2062902 0.06158173 0.06119055 -0.03914696 1.418773e-05 0.03008927 -0.02569078 0.01655411 -0.2812555 -0.3857552 0.03677208 -0.2887986 0.2601685 -0.03893103 0.1220829 0.2714957 0.07613578 -0.1947825 -0.09040686 0.3142639 -0.03922167 0.06748966 0.1843665 0.2710441 0.03569384 0.03755314 -0.03694293 0.07128938 -0.06699092 -0.6780406 0.05458452 0.01654578 0.2382982 -0.07294688 -0.1964594 -0.07292547 0.1424605 0.04316429 0.1760146 0.1434046 0.03901379 0.169374 -0.0914994 -0.02632302 0.0289628 0.4632781 0.1649471 0.03185262 0.05882601 -0.01204061 0.8814875 0.131638 0.6100319 0.1305134 -0.08720862 0.171214 0.02808512 -0.1376693 -0.02137117 -0.1991024 -0.1945717 0.002591735 0.1994797 -0.1066287 0.07839317 -0.05554593 -0.1186721 0.4961651 0.5282938 0.3659405 0.1792098 -0.1783729 
  0.02213777 0.07852401 0.07404574 -0.2502072 -0.2756939 0.1346994 -0.1881363 0.09000009 -0.04631793 -0.1586079 -0.01719423 -0.02971551 0.1242816 0.2475101 -0.2072887 0.03117589 0.4227766 -0.03799298 -0.1169084 0.1142246 0.3176651 0.009064324 0.1306532 0.1279048 0.1019914 -0.1561536 -0.1189331 0.05864963 -0.07022138 -0.1282171 0.1465571 -0.09790298 -0.06670556 -0.05270224 -0.3755698 0.1885352 0.2015896 0.3289172 0.171624 0.08501656 0.05860651 0.03286744 0.1576263 -0.10579 0.1327014 -0.04263769 0.04967376 0.06807538 0.2236012 -0.04006737 0.02252329 -0.09036746 -0.1640681 -0.1034786 -0.07413831 -0.02507009 0.09476449 0.1642984 -0.06755796 -0.1136533 0.232568 -0.03650609 -0.0157741 0.4170597 -0.2283775 0.2834597 0.07697966 -0.2230968 0.1828714 0.3001945 0.006390015 0.05643504 -0.03793551 -0.1731596 0.3982795 0.24814 -0.2583925 0.1302681 0.06502343 -0.1280746 0.2038057 -0.1904308 0.4012296 0.1044341 -0.1598329 0.1282851 -0.1677899 -0.3245405 0.02384462 0.2073141 0.1735682 -0.07468965 -0.05105 -0.1702102 0.5191238 0.1057269 0.1023984 -0.09911709 0.1741348 0.09373798 0.07259739 -0.2658726 0.1638959 0.1564386 -0.001055466 0.108906 -0.06317426 0.2277658 0.136073 -0.2241216 0.008058003 0.45443 -0.2746022 0.242631 -0.02194817 0.159453 -0.02373299 -0.1719281 0.1529516 -0.1899022 -0.08886531 -0.02077394 -0.1500352 -0.07584661 0.1567754 0.06863579 -0.04171712 0.2348553 0.06662373 0.04278798 0.09699879 -0.1254115 0.03636437 0.1266228 -0.08620895 0.003907581 0.1852357 -0.1359651 -0.1334761 0.3523371 -0.08389574 0.06871094 0.189466 -0.1379709 -0.04782571 0.1702929 -0.01798194 -0.01773982 0.2997807 -0.268356 0.1239248 0.06609716 0.3410412 0.2901475 0.3886625 0.3691453 -0.1997784 0.1379856 0.3060951 -0.1253751 0.3764022 0.02314005 -0.188385 0.154225 -0.1069651 0.1175696 0.0851032 0.2089919 -0.04321599 0.324896 -0.1971041 0.00724651 0.02173791 0.3768611 -0.2133111 -0.01496763 -0.01318411 0.09119716 -0.05480566 0.0903035 0.06634786 0.2119502 0.1668897 -0.1109377 0.3891861 -0.09312069 -0.03020617 0.06783975 0.2318678 0.1269041 0.3511322 -0.1177583 -0.01484274 -0.1440419 -0.05299261 0.06772561 -0.07453309 -0.1501787 0.06625067 0.01066173 0.09592893 0.08418104 -0.3787833 -0.08792534 0.06325161 0.07187951 0.04421319 0.3481132 -0.2327808 -0.006328097 -0.1217193 0.04507125 -0.1932333 -0.3892288 -0.09917599 0.1887467 0.07287878 -0.1271439 -0.1161659 0.02843672 0.1930787 0.08786383 0.2336888 -0.07905909 0.0917378 0.1268823 -0.01228466 -0.02634039 -0.02320502 -0.02858892 -0.07690097 -0.152183 0.3084002 -0.1739294 0.06316513 -0.01023575 -0.1573547 0.07444007 0.1113492 0.7465157 0.113079 -0.2049901 0.06009211 -0.0006211101 -0.01861081 -0.04491248 -0.170047 0.01803543 -0.08476955 0.4108498 -0.1304352 -0.2055055 0.03407836 -0.02964061 0.420564 -0.01092664 
  0.01385762 0.2705605 0.09482001 -0.1088751 -0.002528196 0.4481504 -0.1655281 -0.08860384 -0.05181635 -0.1182896 0.05105386 -0.1430693 0.2414541 0.08904919 0.2261405 -0.1011229 0.1848862 -0.09569094 0.2706429 0.03400634 -0.108493 0.003937981 -0.09795282 0.5399378 0.1708264 -0.03275177 -0.184261 0.1183405 -0.1407158 0.1027149 0.1437144 -0.272228 -0.01099061 0.7136746 0.04862674 -0.180043 -0.09406617 0.2174199 -0.07570245 -0.1334241 0.462017 -0.1535606 -0.1693198 0.5441938 -0.04784274 0.0280938 -0.04105687 0.1210964 0.2426652 -0.2130735 0.08499817 0.2236653 -0.1053845 0.1795787 0.2215155 0.3078883 -0.1169085 -0.1027886 -0.1273904 -0.1181584 0.1830585 0.2483189 -0.1898872 0.20811 -0.2723113 0.1697253 0.1778475 0.07443362 0.283785 -0.01297492 0.2973073 -0.06815974 0.210366 0.3334015 -0.1682588 -0.06318664 -0.07845782 0.6083881 -0.1152716 -0.03783858 -0.4028665 0.09879371 -0.1113049 0.04011161 -0.2576783 0.1441727 0.1544786 -0.1067362 0.01542629 -0.1233565 0.01900265 -0.2292159 -0.0148648 0.09083692 -0.3342887 0.02729373 0.1668115 -0.2316157 -0.08364727 -0.06244922 -0.2345438 0.04086279 0.1977014 -0.2699283 -0.1631227 -0.1092714 0.1061096 0.5507028 0.06359921 0.3113132 -0.02046968 0.109184 0.06325926 -0.1197732 -0.1721491 -0.1162488 0.01699238 -0.004213051 0.01460184 -0.2387529 0.1913126 0.03625651 -0.1952955 0.04758521 -0.2171935 -0.1546634 -0.03443961 0.1927905 -0.05426382 -0.1596018 -0.1584578 0.02545551 -0.254984 -0.3287835 -0.16922 -0.3098693 0.1093287 0.1125306 0.10312 0.3473235 0.1497999 0.02671108 -0.1357308 -0.2278261 0.1212182 -0.194063 0.2689189 0.0499832 -0.01205579 0.05350997 -0.1602535 -0.1384494 -0.03001057 0.0950849 0.0510044 -0.2654469 -0.05847396 -0.2232763 -0.04046794 0.2483377 0.0440337 -0.07356139 -0.1604838 -0.01570381 0.2638003 -0.1792776 0.5176663 -0.0243404 0.001406014 -0.1256709 -0.2642102 0.07076795 0.09719735 0.262376 -0.4657496 0.00668413 0.5257402 -0.1384536 0.05726162 0.1566507 -0.05183288 -0.1631281 -0.09036509 0.08712394 -0.03414715 -0.01632639 -0.09534559 -0.04335776 -0.08962826 -0.09118121 0.04321209 0.08376997 0.05400044 0.02503853 -0.145448 -0.1485805 -0.1288622 0.2138717 0.05859794 0.1795979 -0.2944184 0.1534667 0.08799519 0.06599412 0.05255756 0.2623334 -0.1871 0.2277177 0.1182735 0.03958703 -0.05070765 0.1739455 -0.1133413 0.5607508 -0.1334711 0.2586946 0.1111669 -0.1386285 0.1147438 0.2551241 -0.113332 0.1176241 0.1512915 -0.2134647 0.1438691 -0.04762156 -0.05161785 0.3262633 -0.09559227 0.1510307 0.1632954 -0.1930372 0.05649495 -0.2371624 -0.007459112 0.1435827 -0.03886591 0.1223072 0.01024226 0.6756994 0.2650661 -0.3603823 0.01685894 0.06644516 0.0405931 -0.01984525 0.07968058 0.07680091 0.240911 0.1816971 0.698963 0.3341802 -0.1522028 -0.05475377 0.1150471 -0.03141512 
  0.04828409 0.05130946 -0.1405893 -0.09518874 -0.1015712 -0.03261506 -0.1842871 0.3309718 0.2134067 -0.1843265 0.1536992 0.1691052 0.04916681 0.1620844 -0.0894668 -0.03216913 0.1132435 -0.1432192 0.07549725 0.09332412 -0.04949934 -0.01586369 0.2249469 -0.1678815 0.1030578 0.03761743 0.1485875 0.1459333 0.1679678 -0.237628 -0.282118 0.1583747 -0.119433 0.08891825 -0.07409926 0.1071133 0.05620011 -0.1124744 -0.05866681 -0.0682065 0.1086484 0.07142201 -0.06908058 0.02342248 0.1715532 0.2383355 0.07862739 -0.0326674 0.0418671 -0.1747107 -0.06224453 0.02307877 -0.07137878 -0.1811016 -0.01536443 0.08243559 0.03965527 0.1653181 0.085286 -0.2002441 0.1118714 0.1966483 -0.03066537 -0.1130551 -0.1510371 0.07609864 0.228079 -0.1976757 0.1276676 -0.03576264 -0.02138934 0.1002745 0.02071954 -0.101576 0.2908718 -0.08041286 -0.01180564 0.1457506 -0.01353491 -0.2547119 -0.138082 -0.008831894 -0.2195621 -0.004831181 -0.01532448 0.03001637 0.1678524 0.02318469 0.4773147 -0.06420831 -0.0208693 0.1032187 -0.2357248 0.3537052 -0.07415295 -0.005074643 0.09718176 0.3170188 -0.07784493 0.02760334 0.05047194 -0.1255125 -0.09008831 0.002302448 -0.1573908 0.01231376 0.09194871 0.02591453 -0.0829538 0.304216 -0.08808824 -0.1899335 -0.04848235 0.3708279 0.0786823 0.03899039 0.03689236 0.06213367 0.07979641 -0.00872306 0.02078354 0.0416811 0.1924988 0.04023606 -0.0557901 0.0664613 -0.07382973 0.02554798 -0.07475517 -0.0410726 -0.1638566 -0.02306024 -0.08137485 -0.01409833 0.127424 -0.01897892 -0.09649553 -0.1100185 -0.04901638 0.0114186 0.09492467 0.02413446 -0.1177502 -0.1595882 0.08904187 0.1083715 -0.02533588 0.1009432 -0.145663 0.2033339 -0.05656469 0.2827694 0.2121212 -0.1328945 -0.03431827 -0.1373604 0.1808082 -0.2308152 -0.06482195 0.1835587 0.06433942 -0.009794493 0.06033893 0.3238754 0.1624679 0.05500047 -0.06213779 0.4725396 0.01058658 -0.03467815 0.02888015 0.100741 0.2068423 0.03906962 -0.03282057 0.1416238 0.1476829 0.03615016 0.2031754 -0.03651886 0.2117167 0.1033013 0.394247 -0.127115 -0.1905285 0.1752108 0.06583353 0.01649333 0.2053093 -0.2720861 -0.1338179 -0.1636353 0.2529154 0.2592167 -0.04809074 0.02235113 0.1051513 0.03291648 -0.1978185 0.1208852 -0.02358365 0.06850799 0.02668091 0.4691366 0.1752629 0.1074594 0.04388984 0.02611874 0.2030718 -0.2044043 0.05306556 0.4164655 -0.1934844 -0.2258362 -0.0007015399 -0.02300213 -0.2180082 -0.05943031 0.02840734 -0.3530433 0.4292619 -0.02106001 -0.04401739 -0.133402 -0.2251115 -0.05081438 0.1555389 0.01638923 0.08261021 -0.2118815 -0.09700722 0.2581192 0.169187 0.1663623 -0.1235423 0.4680202 0.08805035 0.02583374 0.1606417 0.08920088 -0.1695345 -0.01462061 -0.06531817 0.4940156 0.06920753 -0.03299167 -0.01793362 -0.3331861 0.005000602 0.1108786 -0.3694942 0.2034291 0.0934597 0.003185126 0.04946888 -0.06761055 
  -0.06320262 -0.01362112 0.1852925 -0.09403424 -0.1471613 -0.01677194 -0.1303499 0.07752949 -0.0071665 -0.293214 0.2116613 -0.03749372 0.1607676 -0.1704281 0.2414608 -0.2015766 0.1686273 0.08013237 0.2313073 0.2527037 0.0265328 -0.1413605 -0.006628486 0.02117694 -0.01628521 -0.05992005 0.02919461 0.04089037 -0.1021941 -0.06000673 0.1978865 0.09667509 0.0324502 -0.1176194 -0.06640429 -0.07619946 -0.01442343 0.1523968 0.09106182 -0.001213715 -0.1981623 -0.08725092 0.3514802 -0.01466379 -0.03349568 -0.1871035 -0.2811635 -0.2574083 0.04536071 0.1381071 -0.2090192 0.281374 0.28027 0.05114454 -0.06290074 -0.1382872 0.09063218 -0.08086603 0.3116978 -0.04487851 0.1241264 0.2173523 0.002550452 0.3643512 0.06262601 -0.008791131 -0.09298021 -0.2544639 -0.1894656 -0.07952607 0.04347035 0.2389095 0.03088935 -0.0542663 0.1338932 -0.08322341 -0.0159735 0.07594917 -0.1878847 0.2403034 0.1348607 0.04211057 -0.03240559 0.03357662 -0.1697389 0.1348272 0.2757659 0.1374618 0.03184985 0.2436127 -0.1168363 -0.0917123 -0.1089878 -0.2035738 -0.1109824 -0.1530591 0.2775978 -0.205061 0.1407202 -0.08499016 0.2698906 0.06022287 -0.03488378 0.3576668 0.1036023 0.2731639 -0.08353903 -0.0006667917 -0.1084606 -0.007675011 0.2106039 0.08021359 -0.08941676 -0.06362499 -0.01618668 0.133525 0.1702761 -0.1223577 -0.1565902 -0.08411681 -0.1053714 -0.00834572 -0.1225898 0.1629528 -0.2666085 -0.00216396 0.04037295 0.2286775 0.09503204 -0.02455005 0.07666473 0.1004331 0.2604603 0.2879992 -0.09081572 -0.1250581 0.03337521 0.3848759 -0.008226723 0.03998338 0.296142 0.5681264 -0.04166487 -0.06953333 0.175284 -0.08813017 0.3305515 -0.2382894 0.1253854 0.06679385 0.2915656 0.007966929 0.1036215 -0.03449615 -0.009018168 0.0917961 -0.0945646 0.1121936 -0.04288599 0.08497043 -0.035519 0.07201646 -0.01715855 -0.0152056 -0.08715602 0.004928264 0.0160109 0.8260735 -0.02837107 -0.06334644 0.05572697 -0.1705406 0.2636171 -0.1267305 0.5391334 -0.07236503 -0.1113618 0.1448596 0.1657498 0.06653213 -0.004386884 0.1320917 0.004873079 0.03028969 0.01221688 -0.007617622 0.03403699 -0.08612694 0.2355119 0.2911113 -0.1001243 0.3621814 0.231811 -0.2773894 0.06899533 -0.03086418 0.09203131 -0.187789 0.1814172 0.3378625 -0.01647232 -0.170746 0.04447448 0.140302 0.03022572 -0.1400947 -0.1825751 -0.063028 -0.04299482 -0.1095971 0.04438588 0.09180391 0.274659 0.07618937 0.2068907 0.05616831 0.001191762 0.3526352 -0.05506073 -0.1885372 -0.000201299 0.05600191 -0.1707214 0.02290019 -0.1319923 0.08605633 0.06009755 -0.0523579 -0.2144432 -0.1182039 0.3609273 -0.2029275 -0.252485 0.009475653 -0.178116 -0.08167671 0.06050611 -0.1428975 0.000456681 0.6051212 0.2155882 0.04444349 -0.02639548 0.2061993 0.05175243 0.06146134 -0.06804608 0.00475198 -0.094093 0.01867387 -0.2488024 0.6532359 0.05348228 -0.1121681 -0.0452041 0.1116611 
  -0.2444235 0.5505705 0.1477878 0.02637997 -0.1294492 -0.2850605 -0.03312103 -0.05445959 -0.08433628 -0.02751415 0.002091371 -0.05063377 0.01418926 0.1903322 -0.02450498 0.0382062 -0.0784486 0.1934903 0.02174707 -0.2240945 -0.009955164 -0.2497399 -0.1651873 -0.003976924 0.2245049 0.09737428 0.1182319 -0.2158344 0.1724242 0.02460593 0.05492341 0.1225623 0.02952108 -0.03577135 0.02400253 -0.241748 -0.1421004 0.09796538 -0.1379682 0.06839023 -0.1894782 0.2006851 -0.05298887 0.02280801 0.0616184 -0.08129017 0.1330979 0.4116875 -0.02617613 -0.02251038 -0.08964412 -0.1980929 -0.01075853 0.238957 0.1478444 -0.1434562 -0.1176775 -0.06993316 0.06114872 0.01635728 0.09775528 -0.2965741 -0.06921674 -0.04782392 -0.06988966 -0.04487481 0.09228241 0.05129309 -0.02307994 -0.04028543 -0.0948029 0.4302885 0.1612293 -0.04874725 0.1824102 0.08240094 0.05666559 0.0001250942 0.2554174 0.006698859 0.09208744 0.1734965 0.00885853 0.3476369 0.1424507 -0.06804883 -0.03984686 -0.007709061 0.01646828 -0.05500167 0.1345614 -0.05610231 -0.1220813 -0.05468077 0.1153561 0.4858755 0.2515909 -0.4038424 -0.3201892 0.5199547 0.288553 -0.2317275 0.0804498 0.4768029 0.2881991 0.07791399 -0.1034776 -0.07372667 -0.08162173 -0.04455679 0.02003918 0.2896005 -0.3094797 0.0102889 0.1083733 -0.3500181 -0.04998446 -0.1408471 -0.09129316 0.1295879 -0.1977758 0.1244975 0.04924854 -0.3398824 0.05548858 0.00200695 -0.1766156 0.1239416 0.1723831 -0.08465172 -0.04132013 -0.04366959 0.08502243 0.1564802 -0.05466814 -0.269936 0.1927638 0.06037824 0.003583565 0.268389 0.1018848 -0.1531771 -0.003845066 0.1299469 0.06556109 0.3730956 -0.3955477 0.09528236 0.09900756 -0.2003158 0.1181473 -0.3042441 -0.068042 -0.0282499 -0.236923 -0.1026829 -0.1560604 -0.0670299 -0.03410566 0.216066 -0.3567634 0.1354975 0.1767817 -0.001047791 0.0001445112 -0.09255284 -0.01157597 0.01168283 -0.02063184 -0.0565371 0.1132192 -0.02446347 0.2491789 0.04357453 -0.1233224 0.05208509 0.6008435 0.006979185 0.1961597 -0.02810351 -0.2326339 -0.2857284 -0.01337362 0.07022223 0.01109464 -0.3566404 -0.03372867 -0.09871978 -0.193804 -0.0738744 -0.06495485 0.2755709 0.1165405 0.07183437 0.2032341 0.0668157 -0.005522195 0.06726483 0.1009327 -0.02372702 -0.1101802 0.415719 -0.1309477 -0.1485168 0.05738639 0.1545556 0.04326759 0.06973752 -0.001480084 0.2346134 -0.02552791 0.06735703 -0.05599414 -0.03877856 -0.02117984 0.1569027 -0.2683088 0.2586001 0.2343573 0.08121048 0.115418 0.3204154 0.06828112 0.374256 0.008925373 0.08703452 0.0920235 0.0738297 0.1746568 -0.1156716 -0.2566338 0.1254909 0.2827897 0.1222462 0.08949912 0.1621281 -0.1275287 0.134427 0.09693271 -0.2749555 -0.06521267 0.2890863 -0.02941565 -0.02500575 0.1455567 0.5050265 -0.1710133 -0.07174908 0.2073876 -0.07474797 0.07677092 0.04607737 0.06016031 0.09278573 -0.1896251 -0.01498597 
  -0.2956004 0.01503707 0.0551663 0.1880661 0.09949385 0.1154837 -0.1544936 -0.03456622 -0.1661073 0.1315318 0.2315067 0.3879329 0.2630055 0.06266136 0.1293827 0.03750705 0.114566 0.01101393 0.09237125 -0.076157 0.1017454 0.0228687 0.116555 -0.02541038 -0.02409949 0.003375902 0.1506684 0.3665889 0.06673336 -0.02548389 0.1278051 -0.03045942 -0.07541864 0.3132282 0.1973847 -0.01933162 0.003099302 -0.2211793 0.2731264 0.01604762 -0.1108883 -0.02062094 0.05155138 0.1103359 -0.009075846 0.221985 0.1835912 -0.125491 -0.02327689 -0.02324067 0.04093318 0.1284557 -0.1995616 0.1177477 -0.04858162 0.00457544 -0.1208127 0.0559689 0.06626842 0.108925 -0.04878284 -0.1440027 -0.1105275 -0.2724237 -0.0914939 0.04547952 -0.1612663 0.0872394 -0.1659345 -0.1271807 0.1621447 -0.1212956 0.03772798 -0.2667952 0.07595917 -0.1166046 -0.1852551 0.0332519 0.3117732 0.01302802 0.125552 0.1162227 0.2733545 -0.1491913 -0.2648702 0.2401311 0.2602997 -0.01915891 -0.1338359 -0.2214352 0.0516702 0.03829927 0.2481949 -0.09190207 0.1051164 -0.1351972 -0.08197851 0.0465314 -0.138289 -0.1079411 -0.2100596 -0.1345499 -0.07117119 0.3651721 0.2003868 0.394403 0.1732632 -0.05900086 0.05965145 -0.03163889 0.004252302 -0.05952017 0.06011864 -0.09924149 -0.05564515 0.06339745 0.3901478 0.1397756 0.09115629 0.2830104 -0.09595864 -0.09023862 -0.02252176 0.1046675 -0.07743035 0.02456786 -0.1248578 0.1986993 -0.1393421 0.1137491 0.3925382 -0.0757963 -0.07645547 -0.1363794 0.1443289 0.1934895 -0.06167442 0.06508864 -0.09025863 0.1056062 -0.4019198 0.09516571 -0.1560801 0.06668367 -0.1874758 0.03688013 -0.1036148 -0.1481154 -0.1622486 -0.2165087 -0.09067536 -0.3154789 -0.1224123 0.05118032 0.1376643 0.0516214 0.1177923 0.03913437 -0.05707692 -0.143646 0.2688897 -0.07540942 -0.4183391 -0.1312809 -0.04457029 0.01886202 0.1709145 0.2134652 -0.05708409 0.1337987 0.001317175 -0.2485715 0.04685165 -0.02693517 -0.3956154 -0.01571363 -0.100262 0.01707211 0.353633 0.01832888 -0.01900681 -0.2111723 0.03866081 0.01092172 -0.06942657 0.1667379 -0.02347937 -0.1352157 -0.1213856 -0.08519058 -0.1833121 0.3904567 -0.1248771 0.2403953 0.05539451 -0.1379524 -0.06229555 -0.228557 0.06607771 -0.2563921 -0.2470988 0.1225795 -0.2972241 -0.01163141 0.1282544 0.2329171 -0.1110806 -0.07064665 0.1528174 -0.08337452 -0.0608381 0.05177925 -0.1219392 -0.5396739 0.1171171 -0.03177239 -0.03736884 0.1195691 0.05906194 -0.01337696 -0.01115499 0.1791481 0.09853929 -0.03046669 -0.03690969 -0.2500946 0.2365626 0.104648 -0.1650207 -0.1692697 -0.0374982 -0.1402168 0.1353322 0.07484052 0.002826008 -0.0138239 0.1082536 0.1091361 0.1185964 -0.04954612 0.01719067 0.2284434 0.3758254 0.2772539 0.04250206 -0.007514325 0.162365 0.06779674 0.4731537 0.1080297 0.3337139 -0.2474224 -0.03132015 -0.05071856 0.2498527 0.2420869 
  0.1504691 -0.04525642 0.07435194 -0.2413005 0.1156693 -0.1270193 -0.3801531 0.3388895 -0.01919623 -0.1227491 0.06724742 0.008968158 -0.2459063 0.1616845 0.05578687 -0.01444515 -0.1158851 -0.1443733 0.04406293 0.2452759 0.02278764 0.05446268 0.09857854 -0.03260818 0.1039688 0.03103055 0.2120337 0.3629827 0.1682522 -0.01580889 0.004040423 -0.1467818 0.08081492 0.06140796 0.08552007 -0.3720624 -0.142215 0.1390914 0.2267996 0.06267364 0.3093127 0.1845485 -0.2720186 -0.2000934 -0.1508268 0.1120148 -0.1215609 0.08403297 0.07406287 0.348192 0.1148476 -0.08680192 -0.308508 -0.04412214 0.2688943 0.2181426 -0.1727818 -0.3380289 -0.07008176 0.1710338 0.1265284 0.06656794 0.1191379 0.03373905 0.1939542 -0.01892619 -0.02547784 -0.02600821 0.009871245 0.0156086 0.008083269 -0.07570337 0.04258725 -0.01950579 0.0425175 -0.1010899 0.04021566 0.0342171 0.4075663 -0.04141155 0.1682144 0.03145345 -0.1364861 -0.2651221 -0.332439 -0.3032324 0.3138073 -0.007598676 -0.07811511 -0.03454823 0.01316818 -0.01737371 -0.02366384 0.3262578 -0.06167664 -0.2135004 -0.1759733 -0.06314905 -0.1722208 -0.09999073 0.01634765 -0.10807 0.3175556 0.02371268 0.1485464 -0.3476262 -0.04419018 -0.239973 0.02468438 -0.07549933 0.02545579 0.2244337 -0.05393278 -0.0226486 -0.03107639 -0.06859034 -0.2716129 0.1661331 0.01490748 -0.1371666 -0.1335696 -0.1473404 -0.03721495 0.02261558 0.05248814 -0.1601603 -0.1460555 0.1309612 0.2391966 0.3714736 -0.005079038 -0.2476273 0.3001638 -0.2961544 -0.06651226 -0.1086168 0.1732497 -0.2230697 0.08715726 0.07846804 0.02657741 0.2039688 0.2719515 -0.04226889 -0.427887 -0.05666709 -0.1506208 0.07735755 0.01709247 -0.3598445 0.1153789 0.2328761 0.0226241 0.4285219 -0.05560115 -0.07030479 -0.1620534 -0.06905384 -0.2725277 -0.01550034 -0.04011855 0.06284282 -0.185702 0.186877 -0.01445677 -0.1260033 -0.02753433 0.01101276 -0.1612293 0.00465204 0.2417203 0.1430413 0.2005929 -0.2245163 -0.2266368 0.06852344 0.3255542 -0.08487353 0.1547148 0.01342594 -0.1124983 -0.1322699 0.09452854 0.2040505 0.1899606 -0.03564435 0.1936501 -0.1190097 -0.03235121 0.150937 0.1140803 -0.07003308 -0.1986799 -0.1414525 0.1504377 -0.2975622 0.4484557 -0.2885031 -0.03954348 0.1731667 -0.0007758299 0.0967868 -0.3551238 -0.1364879 -0.01575438 -0.06692934 0.2183803 0.09403153 0.09527968 -0.08531851 -0.2778575 0.2703573 -0.09058607 -0.4136966 -0.3205939 0.115656 -0.1921721 0.01624678 -0.1101428 0.01054531 0.02582479 0.181799 0.06099078 -0.09344418 0.277243 -0.1569313 0.1178901 -0.08141179 -0.1194475 0.05299946 -0.1151478 -9.613454e-06 -0.1665391 0.329643 0.2409562 -0.08653142 0.1553814 0.02460728 -0.1861193 -0.04210853 0.1449156 0.167006 0.6121321 0.01269992 -0.1497896 0.06483392 0.2805403 0.03224318 -0.03739883 0.3199929 -0.1702278 0.4132113 0.06809174 -0.250102 0.1565096 0.04652046 
  0.1222769 -0.1792464 0.1627367 0.1689378 -0.2248039 -0.2877586 -0.2394833 0.003394346 0.003507146 0.04954456 0.3232146 0.07068888 0.04264867 0.1940294 0.05957862 0.3235139 0.236776 0.2279956 -0.04135616 -0.03184946 -0.01576087 -0.1721612 -0.1111378 0.08872607 0.2700801 0.07944226 0.07930987 0.03635485 0.312022 -0.1137256 0.03995856 -0.06284078 -0.2939683 -0.2057019 -0.2174021 -0.09941451 -0.003968877 0.04780397 0.1098441 0.02777013 -0.1581762 0.02186953 -0.08106226 -0.03404156 0.005328062 -0.1508323 -0.2597293 0.1540622 -0.04201486 0.3627364 -0.06087792 0.2776192 -0.1938025 0.4225308 0.172383 0.1687615 0.02640956 0.04657359 -0.07708301 0.3946275 0.151258 -0.1407682 -0.07850138 -0.08080932 0.1344159 0.04510969 0.08284467 -0.2048229 -0.1718508 0.2199301 0.04547633 -0.2281948 -0.2310567 0.0410894 0.1477925 0.1466288 -0.1364332 0.1284258 0.01978981 -0.08128746 0.1382189 0.009980745 0.1717043 -0.05271335 -0.05091428 -0.2090266 -0.1080384 0.1557219 0.1066383 0.4142389 0.2641835 -0.2796907 0.1662098 0.03059403 -0.03327329 -0.003819925 -0.02931022 0.1799615 -0.2787725 0.0006906422 0.2898932 0.03212067 0.2507751 0.002858746 -0.002672682 0.1158356 0.000419718 -0.05915452 0.122523 0.2740199 0.1529534 0.14997 0.06396342 0.02634515 -0.08538888 -0.1422262 0.02407282 -0.1815834 -0.05178009 0.04872064 -0.08316915 -0.1278764 0.09167565 0.02058352 0.2482907 -0.08092164 0.05794001 0.1254749 -0.2700914 0.1730735 0.07481259 -0.1702435 0.2412608 0.06497552 0.07392338 -0.003433937 -0.04694442 0.02618946 0.03067934 -0.05661307 0.0357014 -0.02320917 0.1324753 0.06899329 -0.1874641 -0.1116815 0.3626432 0.1383587 -0.02804117 -0.01890518 0.2654443 0.1529294 0.05532669 -0.03518507 0.0171314 0.1002082 -0.09969082 -0.01106605 -0.1999168 0.1205824 -0.1059826 -0.01380845 0.09737207 0.01619902 0.1425945 0.1474404 0.04221561 0.03906028 0.04528779 0.09621418 -0.1704278 -0.07746936 0.1095606 0.1280601 -0.2348887 0.06831111 0.09247995 0.1337389 0.1581233 0.1900075 0.2820309 -0.01882794 0.1566926 0.02294438 -0.06313939 0.5683914 -0.118739 -0.1831614 -0.146745 -0.1449793 -0.3370383 0.2115226 -0.2415566 -0.1678318 0.1593117 -0.09064008 0.09089213 -0.2000989 0.0934091 0.05548574 -0.3062043 -0.01573384 -0.1929768 0.1263414 0.3577482 -0.02912531 0.09695961 0.01384683 0.07969905 0.1014258 0.05361319 0.1254096 0.217307 -0.2002043 0.237236 0.1211034 -0.4996649 0.05653511 0.2345415 0.07321447 -0.2031938 0.06114112 0.05724089 -0.1796023 0.2812563 -0.1525992 0.003719596 -0.05423279 -0.09056293 0.03494074 -0.4131392 -0.1627759 0.1100795 -0.2154902 0.03475004 0.1539013 -0.09666498 0.01279128 -0.2090406 -0.3031239 0.03901192 -0.06034299 0.4678862 -0.3212456 -0.06090125 -0.1468342 0.033629 -0.1139392 -0.1375708 0.3321264 0.1220479 0.1218045 0.1650434 -0.1207125 -0.04612169 0.1901595 
  -0.03251296 -0.04497452 -0.005698842 0.1851919 -0.1150691 -0.06408888 -0.2058018 0.08297446 -0.1056991 -0.07034648 0.5479562 0.1794398 0.06785779 0.06541356 0.2078637 0.01084962 0.003704605 0.05826665 0.05945762 -0.1382027 0.1688334 -0.002118449 -0.06820477 0.1681872 0.1456936 -0.2489758 0.04187033 0.07684496 0.01259703 -0.04182774 -0.002374639 -0.08135363 0.9032756 0.0767769 0.03740897 0.05991677 0.1653789 0.2787111 -0.002742559 0.2437852 0.04278667 0.1118993 0.2179968 0.1584964 0.2492694 0.08551829 -0.02728055 0.006866561 -0.07794786 -0.02512128 -0.2007643 0.09709892 -0.1953186 -0.03286823 0.3611262 0.2138411 0.1627628 0.1817182 0.08384178 0.01372901 0.004931795 0.04012717 -0.0381777 -0.0501596 0.1551897 0.1013811 -0.009965267 -0.2955449 0.01624318 -0.1296307 -0.09698342 -0.01171668 0.1129141 0.01482298 -0.1878387 -0.1459163 -0.2404775 0.02846743 -0.04636178 0.04475245 -0.1110436 0.1575594 0.3185761 0.1245448 -0.226868 -0.0242049 0.288356 0.1089283 -0.1073716 -0.009771981 -0.2367258 -0.02587945 0.04527493 0.1486254 0.1616307 -0.1917678 0.2203435 0.156966 0.05399617 0.306965 0.144382 0.2167721 -0.1282198 -0.03014035 -0.01559124 0.149803 0.01799509 0.05721784 0.07008139 0.1554155 0.002997785 -0.08630755 -0.15083 -0.06205867 -0.1429599 -0.01692106 0.2626778 0.2633536 0.1035024 0.1712568 0.134715 -0.08600783 0.2410221 0.04107104 -0.2489408 -0.02784063 0.1248588 0.1547571 -0.193363 0.07432681 0.1307119 -0.1423385 0.005663723 0.1153179 -0.02363031 -0.205345 -0.1764013 0.1525896 -0.04177765 -0.1638897 -0.1002366 0.0667316 -0.1373934 -0.1781008 0.06079035 0.1009916 -0.07446675 0.07825439 -0.0467074 -0.1154175 0.1134828 0.1027413 0.1467015 0.04689479 0.2451704 0.07912221 0.02413725 -0.1481542 -0.2600704 0.02209623 0.1055351 0.05234801 0.04249171 -0.06127995 -0.04851111 0.05838936 -0.006165582 0.2162669 0.08674835 0.01732229 0.1230085 -0.0863376 -0.01017425 -0.01995773 0.03065689 0.7057097 0.2215533 -0.1767679 0.1793338 -0.03425 -0.06829427 0.175325 0.1465698 0.03517213 0.2254469 0.1349932 -0.1113821 0.1361844 -0.02639406 0.1077686 0.0001016322 -0.05837392 0.1309691 0.006373882 0.1483121 -0.1145284 0.1454246 0.09536833 0.161219 0.01851942 0.05548537 -0.2078247 -0.1123093 0.1353484 -0.9289198 -0.05136189 0.06037417 0.3306526 -0.1397737 -0.05683582 0.04411908 0.0729833 -0.1536284 -0.2642965 -0.3148054 0.1259107 -0.1924172 0.125426 -0.315091 0.06199367 0.05660729 0.1405098 0.4992243 -0.07751492 0.007219829 -0.01865786 0.1826645 -0.05154244 0.0926581 0.08851252 -0.1160185 0.06856062 0.06324139 0.04199133 -0.2412461 0.1060546 0.008029116 0.07723202 0.01872514 0.08698958 0.09699426 -0.2301273 0.01888793 -0.215496 0.01940292 -0.03044351 -0.1595472 -0.1332326 -0.1825027 0.2451171 -0.02642457 0.3790256 0.03939936 0.07232656 0.05387145 0.1327279 
  -0.01399666 -0.01332258 -0.1511611 0.2119424 -0.05384644 -0.04548885 -0.03092278 0.2373371 0.4816987 -0.2803892 0.1657101 -0.1853407 -0.1734887 0.03878699 0.1779483 0.1073478 -0.3766502 -0.07638146 0.02873661 0.2100654 -0.08093155 -0.09274687 -0.05261219 -0.03980268 -0.04923411 0.06186077 0.08872066 0.03371058 0.2166807 -0.2629116 0.04751758 -0.04900744 -0.007603293 0.00553429 -0.01014423 -0.07826989 -0.1553319 0.299992 0.006172549 0.3299118 -0.3770394 -0.106768 0.1225998 -0.07379349 0.0371474 -0.06662308 0.1920125 0.1414834 -0.0580082 -0.1158516 0.07300535 0.08330202 -0.1979773 -0.1288373 0.05756431 0.03558026 0.09329307 -0.09103625 0.287562 -0.0546215 0.3435414 0.4356434 -0.01361609 -0.06928357 0.04533823 0.1776799 0.03788867 0.041582 0.0818706 0.1320181 -0.2234235 -0.03552108 0.1614117 -0.01510532 0.02676141 0.1024552 0.07184827 0.04803218 -0.005404681 0.05229403 -0.04511128 0.04722511 0.0174333 0.1227555 -0.1830818 0.001763904 -0.05061213 0.07704385 -0.2362127 -0.02681994 -0.02444834 -0.02659946 -0.04957965 0.1181567 -0.1380785 0.3179635 -0.01156663 0.03069265 -0.0612921 0.1248117 -0.09525585 0.1160219 0.3859574 0.04998109 -0.01067227 0.09071442 0.5322055 0.01635413 0.5049757 -0.3200299 0.2366696 -0.134888 0.09931158 -0.1989106 0.03867051 -0.3020824 0.007124887 -0.07142195 0.1096147 0.3140633 -0.002987302 -0.04509838 -0.3335474 -0.05130591 -0.09021327 -0.04467908 0.1788561 0.01674381 -0.0703695 -0.07895619 0.1056817 -0.3548031 0.2476826 0.02947913 0.1334017 0.01129667 0.06622377 -0.01819907 0.1602321 -0.006032123 0.008812172 0.07937603 0.3465552 0.1729197 0.02404509 0.3913019 -0.03528012 -0.2078376 -0.04313328 -0.3778302 -0.05444654 0.06844497 0.09031141 -0.005974069 0.05068259 0.006631136 -0.1088514 -0.4869396 0.06566871 0.08994538 0.2440067 0.183821 -0.01690915 0.08646493 0.01803669 0.006613208 -0.0601748 -0.04030039 0.1045505 0.03103878 -0.1109079 0.3520135 -0.1054584 0.08774011 -0.2274033 0.1341424 0.004161649 0.05217097 -0.123142 0.160871 0.07779554 -0.3023168 -0.1787694 -0.3121493 -0.1249127 -0.05931954 0.04399059 0.05796747 0.075257 -0.034134 0.2193656 0.03913878 -0.2711174 0.3739149 0.01172671 -0.0290054 0.02206651 0.06839836 -0.0505536 -0.3045585 -0.109589 0.08651544 -0.1353619 0.1860334 0.1148637 0.1500659 0.09092738 0.4475026 -0.3357823 -0.09979084 -0.02547829 -0.09849023 0.1075105 0.2136528 -0.0003317471 -0.1522348 -0.2953063 -0.02332976 0.002343255 -0.3163628 -0.2175136 -0.1549663 0.04480278 0.04471685 -0.02830593 -0.03495879 -0.09979207 0.01030399 0.09410323 0.5309837 0.1007645 -0.05644938 0.1591139 0.08146992 0.07496826 0.3043851 -0.2138426 0.3082765 0.1172292 0.2409961 0.2915215 0.156721 0.04710779 0.01178546 0.2113952 0.001724924 0.04322474 0.4852334 0.06318959 0.313455 0.466142 0.3452819 0.2076068 -0.1094506 0.17568 -0.06192208 
  0.02831507 0.09858055 0.1790107 0.3187068 -0.05251984 -0.0918459 -0.268846 0.1702384 0.1507003 0.163487 -0.0335393 0.3917037 -0.0101626 0.1584319 -0.4004146 0.04862631 0.006752789 0.2047644 0.127269 0.1668042 0.1073523 -0.07369969 -0.1424211 0.3174264 0.6589604 -0.1376153 0.1236789 0.04832566 -0.2961308 -0.04777468 -0.126809 0.08341856 0.1780163 0.05836767 0.01667204 -0.09600871 -0.004702631 -0.344503 -0.06633864 -0.03430615 0.05829322 0.06645826 -0.03842113 -0.2154047 -0.3397403 -0.0463284 -0.03348252 0.1771627 0.0561189 -0.04872268 0.06146146 0.251466 -0.2535597 -0.1355316 -0.1353383 0.01658645 -0.02989155 -0.2032693 -0.2307673 -0.3188192 0.0444601 -0.1406481 0.09387227 -0.0879841 -0.5082743 0.1307586 -0.05186448 -0.2711091 0.1847318 0.3246316 0.185789 0.07194323 0.0805557 -0.2238951 -0.05962791 0.00829259 0.4012284 0.1177761 -0.110948 -0.09698404 0.1715299 -0.1304168 -0.06630379 -0.3049236 -0.2677854 -0.04484542 0.2506393 -0.03031782 0.3445062 -0.07595728 -0.1509948 -0.2321817 0.1584171 -0.1986757 0.3268496 -0.1798188 -0.09986924 -0.0585367 -0.02746145 -0.1730522 0.007809339 -0.09836397 0.2965352 0.08466111 0.2776668 -0.02997751 0.3334044 -0.3205952 -0.03024397 0.02499693 0.1368934 0.2496537 -0.2259805 0.2002941 0.1828162 -0.08512406 0.1238544 -0.2702444 0.07095943 -0.0564523 -0.06150272 -0.1473331 -0.2279643 0.0338854 -0.07212614 -0.2164302 -0.1848289 0.441438 0.01020765 -0.0834842 -0.2625406 -0.2257772 -0.08045415 0.06734503 0.1186399 0.1351661 0.02909007 0.06105344 0.07785107 -0.06612659 0.06380413 0.1005266 0.2319345 0.24246 0.1409232 -0.114345 -0.2808168 -0.03096947 0.1178655 -0.4438013 0.2061372 0.06551161 0.4151028 0.08190254 0.383705 0.1481651 -0.3510777 -0.259097 -0.397216 0.3063837 0.5277115 -0.08536489 -0.4055343 0.0006365325 0.1974367 -0.1025727 -0.03382325 0.02652741 0.1956553 0.3227367 -0.2468184 -0.1146562 0.270891 -0.1529505 -0.1909971 -0.1903118 -0.0836216 0.2654261 -0.0590809 -0.05868842 0.2792459 -0.1028224 0.1393801 0.1537523 0.1757587 -0.1173174 0.0648786 -0.01723678 0.2280823 -0.09716007 0.04131332 -0.1299091 -0.2520054 -0.0396596 -0.04230369 -0.3256626 0.08139557 -0.09211221 0.1254749 0.2889875 -0.1239726 0.04025773 -0.3651075 0.3452768 -0.1360745 -0.05376797 0.04580172 -0.3885087 0.1107411 -0.05825267 0.06837843 -0.1006887 -0.1384768 -0.3737257 0.2509484 0.3747199 -0.1338007 0.05584216 0.1721442 0.1760963 -0.2787486 -0.02024925 0.8451305 0.1841424 0.2384141 -0.2678705 -0.1556979 -0.006185906 -0.08824278 -0.3179479 -0.3585831 0.009731101 0.1015405 -0.03684015 0.0307181 0.2087274 0.112404 0.04714879 -0.07008387 -0.4036485 0.007639423 0.04885869 -0.002851097 0.06905688 -0.09212703 -0.2258398 0.2773978 -0.0163308 -0.01588818 0.1724612 0.1211576 -0.2395329 0.01213969 -0.4050028 0.6958775 0.1719979 
  0.04186881 -0.03144119 0.1131266 0.1674794 0.1971315 -0.07805824 0.07932612 -0.09034037 0.01552484 -0.02561106 0.2188236 -0.01789774 0.06115667 0.001663732 -0.003543331 -0.1278715 0.1756503 0.1072392 -0.05536425 -0.04506163 0.1085622 0.330195 0.1082006 -0.08595264 0.1518293 0.04929203 0.09885909 0.1397113 -0.01414214 0.02782744 0.1799641 -0.3114122 -0.09466863 0.04671143 0.04246598 -0.007879301 0.02402357 0.1813321 0.3952432 0.05192618 -0.2916077 0.1073379 -0.2124955 0.1516662 0.06424683 0.03055013 0.159689 0.05311236 -0.1005938 -0.2410109 0.1935026 0.6992351 -0.07561145 0.07010046 0.2952714 0.421831 -0.2990843 0.1181347 -0.04344319 -0.1455213 0.04995953 -0.001613726 0.1101778 -0.0173114 0.03605742 -0.08406767 -0.06594581 -0.08256194 -0.07405386 0.1381827 -0.08080198 0.1009033 0.03213075 0.03212337 0.05736019 -0.1075533 -0.1617453 0.07785056 -0.1270489 -0.02333198 0.03271065 -0.05142508 -0.07676879 0.1498571 0.05447654 -0.1318461 -0.03820129 0.3094525 -0.05701619 0.05226972 -0.1481449 0.1568277 -0.04100015 0.05572638 0.03658753 0.09850311 0.1790581 -0.1098835 0.2998483 0.2293422 0.001130279 -0.01455214 -0.04252289 0.2967036 0.3344792 -0.08947207 -0.1806771 -0.05776687 -0.0253352 -0.1103582 0.002270564 0.09418343 0.03694559 0.01548155 0.07694386 -0.05881508 0.005563074 0.139393 -0.0473123 0.2244428 -0.1949908 0.1631037 -0.2052928 0.293458 -0.240147 0.007509093 0.3332033 0.06723828 -0.3799995 -0.1734225 -0.09316596 -0.05311466 -0.007902848 -0.1655031 0.04113471 -0.08835969 0.4964861 0.09140608 -0.1024527 -0.2347469 -0.4031397 0.04670521 -0.1446016 0.01925476 0.3256697 -0.02934721 0.03558645 0.07949136 0.1245434 0.01720051 -0.009383545 0.2829893 -0.05237846 -0.04382557 0.03703532 0.2866023 -0.1275014 -0.03188582 0.1699845 0.09044799 0.02637766 0.08527456 -0.07302197 -0.1621392 0.01029857 0.1900209 -0.06393723 0.1197552 -0.03808587 0.2386512 0.1638323 0.1428521 0.1267056 0.05855979 -0.1351325 -0.05851827 0.3113138 -0.05269436 0.01012685 -0.1499479 -0.1908322 -0.1220244 -0.01979044 0.0560561 0.2393702 0.1502647 -0.02260953 0.124625 -0.3698658 0.08338793 -0.01125169 -0.1774695 0.04950152 0.1140092 0.02301901 0.1600923 0.007121451 -0.003387856 0.08433308 -0.04724636 0.5114676 0.08583345 -0.07739598 -0.2440138 0.2037224 0.06395983 0.1684972 0.2190972 -0.04763404 -0.03170753 -0.03586879 0.01686856 -0.05715504 0.2827008 0.4110258 0.2429838 0.357381 0.2332599 0.2978428 0.106491 0.1825219 0.2414469 -0.09350178 0.2300767 0.0610127 0.0705479 0.09251628 0.2480939 -0.02980151 -0.06602334 0.0492163 0.1549357 -0.01664278 0.09421889 0.1606323 -0.04225279 0.003578095 0.1089264 0.06676614 -0.007692765 0.01358285 0.09310628 -0.09642598 0.03139826 0.001299739 -0.3553664 -0.2413301 0.06106307 -0.1796174 -0.09098293 -0.2630893 -0.2381689 0.08632316 -0.1023593 0.02261963 -0.06089556 
  0.002201815 -0.1549577 -0.07351127 0.3742635 -0.120254 0.3767217 0.2525422 0.03200347 -0.01076195 -0.01948601 0.2569349 0.2885566 -0.1302401 0.1239899 -0.09364276 0.3576907 0.05379023 0.06265506 0.186435 0.03328412 -0.2456682 -0.2302575 0.2375945 -0.03840003 -0.1244983 0.04218903 -0.1190628 0.04506085 -0.06631585 0.137663 0.02110079 -0.05823007 0.1003958 -0.05817856 -0.2033484 -0.120973 0.0346963 0.1133168 0.09010483 -0.1290164 0.01441586 0.09396134 0.01052686 -0.1013602 0.1098335 -0.07632165 0.4259143 0.1297039 0.1500692 0.1740168 0.1471041 0.04825923 0.02087285 -0.009436269 -0.05332748 -0.1047852 -0.004617905 -0.06185244 0.06234718 0.00179657 0.2155228 0.07876073 -0.04525905 0.3186791 -0.2360486 0.1025135 -0.03274887 0.2156557 0.04288798 -0.3028031 0.07015011 -0.216392 0.3190667 0.1048388 0.3608045 0.1332189 0.1679137 0.1181003 0.03061762 0.1090576 -0.0454757 0.1223245 -0.08478278 -0.09137267 -0.2699833 0.0523903 -0.1115718 0.3371254 -0.04379362 0.008993579 -0.01012735 -0.002655564 -0.05067338 0.2136882 -0.03435464 0.0571183 0.1372731 0.007769242 -0.05544242 -0.143166 0.1296462 0.4109799 -0.152607 -0.05720042 -0.1984601 0.06291768 0.09398849 -0.01240349 -0.1137814 -0.1981636 0.03764909 -0.1047833 -0.2666375 -0.1628075 0.109635 0.2925966 0.1451073 0.07789101 -0.130928 0.02273109 0.06315957 -0.01173042 -0.2762181 0.3846394 -0.2503058 -0.1135189 0.03796421 -0.01260849 -0.04193677 0.2639175 -0.09211545 0.06770972 -0.1269962 -0.01041015 0.05651039 0.2260927 0.1342151 -0.3526495 -0.02476504 -0.1478162 -0.1777984 -0.008359501 0.1589885 -0.1712458 -0.05632393 -0.1989248 0.05984099 0.3257369 0.1422981 -0.1181718 0.01415838 -0.3105156 0.2878754 -0.003255962 -0.1003249 0.1165206 0.06211182 -0.1404515 0.0190769 0.05749834 -0.07833615 0.001059409 -0.1433199 0.1395952 0.07668164 -0.09559189 0.061807 -0.2065325 -0.04779664 0.3420199 -0.09527666 -0.1700088 0.07413043 0.1452439 0.3278297 0.1009757 0.1205516 -0.2287778 0.4249538 -0.145314 -0.2445685 0.1364324 0.07068735 -0.06092113 0.3149551 0.04808059 0.281153 0.02816785 -0.08835378 0.1042419 0.1561689 0.1964709 -0.07467923 0.02068484 0.05901645 0.01202841 -0.1833507 -0.07398917 -0.02168093 0.1249067 0.05655506 0.04047241 0.1240412 0.1964618 -0.0432358 0.02978097 0.6218402 0.1121519 -0.1020508 -0.1656898 0.04112781 0.07729509 0.1250217 0.277805 0.05555696 0.07891069 0.1601344 -0.2022326 -0.03893762 0.2490456 0.002186933 0.2389303 -0.1469729 0.002447833 -0.1467821 0.0156872 0.1690695 0.09407653 0.1236862 0.03606505 -0.2531518 0.0818878 0.3739882 0.003433483 -0.04387181 -0.139573 0.1512609 -0.1249786 -0.4049391 0.4172886 0.01232715 -0.01170266 -0.1137292 0.09709213 0.01226108 0.1073089 -0.1394698 0.2038896 0.05453991 0.06216266 0.1871387 -0.2238902 0.001327583 -0.1615242 -0.1150096 -0.2139351 
  0.1431946 -0.02868819 -0.9038701 0.06192075 -0.01400816 0.01781314 -0.1810667 -0.1261674 -0.07405311 0.0864673 0.08024507 0.1464868 0.03584085 -0.002671186 0.06044269 0.06516346 -0.3438421 0.06947719 0.2907684 0.141219 0.404334 -0.02669194 -0.01348905 -0.1797655 0.197326 0.2074385 -0.07604364 0.1218641 0.3071263 -0.1240233 0.01607013 -0.02989014 0.0217704 0.02288332 -0.1526441 0.2429534 0.02080953 -0.4502778 0.001702206 0.03429095 -0.09552284 0.3497908 0.01030034 -0.06258983 0.002157825 -0.02184555 -0.02249427 -0.08312435 -0.0692577 -0.2174803 0.07916393 0.08700097 -0.262963 0.2123203 -0.0548734 -0.04517347 0.04026134 -0.04789444 0.04777347 0.1233192 -0.4156566 -0.04368526 -0.1151063 0.08588865 -0.01810167 -0.2248986 -0.1357565 0.003171338 0.06939478 -0.1210316 0.1940677 0.01271383 -0.1760096 0.02237539 0.2158061 -0.008092685 -0.1511541 0.008168394 -0.01743921 0.05560028 0.2554477 -0.08250127 -0.02267038 -0.04236263 -0.3025804 -0.1402413 0.3551973 0.1097425 -0.04661488 0.05427851 0.0877516 0.03736047 -0.04942388 -0.06512469 -0.3034651 -0.03490476 -0.2139276 -0.1716456 0.07059855 -0.1619842 0.07681382 0.03964008 0.1416579 0.1550465 0.08152744 -0.002258481 0.00782 -0.02092808 0.1856411 -0.06577676 0.1933561 0.2242498 -0.1266764 0.09644431 0.09349625 -0.07907674 -0.008793882 0.09447834 0.996595 -0.0004152585 -0.1493702 -0.2271197 -0.01720456 -0.0823406 -0.01000067 -0.2854034 0.05700715 0.2481216 0.07760008 0.02997333 0.07542685 -0.1399067 0.05719902 0.1543289 -0.03745848 0.09436998 -0.003885662 -0.0930877 0.2996852 0.07808878 -0.0318154 0.01740127 -0.01224747 -0.009743852 0.02299795 -0.07357009 -0.006199706 0.1267478 -0.0005173649 -0.4001412 0.1347855 -0.08705102 0.05018826 0.4023713 -0.1106657 0.1614202 -0.01089178 -0.08148506 -0.1259014 -0.1281951 -0.02466152 -0.02176996 -0.1401231 0.1034041 0.04185408 -0.2455532 -0.04883517 0.07590096 0.04785362 -0.1489996 0.03896502 -0.1364868 0.1262326 0.1226471 -0.628723 0.05205142 0.2157324 0.05694567 -0.04167631 0.1116571 0.0256574 -0.1853635 0.06188568 0.200083 0.2372507 0.03209859 -0.03885571 0.02020968 -0.1127177 0.0662686 0.01422396 0.03507077 -0.3647497 -0.2824251 -0.001002477 -0.4392381 -0.1249427 -0.09650562 -0.8256362 -0.1555467 0.06223733 0.08981328 -0.3447137 -0.04246176 0.008351065 0.08315577 0.07614584 0.1574294 0.08915032 -0.1678943 -0.08728342 -0.122158 0.0607916 -0.4907935 0.1576688 -0.002671343 0.003703207 -0.1874338 0.07247451 0.1379894 -0.09700404 0.05727077 0.05101701 0.126414 0.08639994 -0.1609677 -0.1444273 0.06086552 -0.03503627 -0.08730841 -0.1847956 -0.03753792 0.02808509 0.09142091 0.2281427 -0.04919665 -0.1426017 0.2000947 -0.06397463 -0.2850009 -0.3136764 -0.01515698 -0.09368167 -0.1468528 -0.1830524 -0.07252827 0.1546756 -0.02299258 -0.09341397 -0.04215881 -0.319198 -0.110381 -0.4823693 -0.4581522 0.0903433 0.2122822 
  0.113091 0.009065382 -0.184163 0.01994484 -0.08898968 0.08151226 0.6851353 -0.1302985 0.002609603 0.1539411 -0.05270202 0.06523473 0.1168238 -0.0471107 0.02430861 0.07042728 -0.4319699 -0.01876181 -0.2459143 -0.04178956 -0.1336315 -0.04819998 0.08204886 0.03598571 0.0248412 -0.08898526 -0.03250573 0.03570711 -0.03886462 -0.03775283 0.001005375 0.05696612 0.06256828 0.0399124 0.07306197 -0.1593516 -0.09888911 -0.2034031 0.06186466 0.1008274 -0.3331675 0.09150644 0.1137215 0.2412191 -0.007559128 0.07556608 0.06540333 0.07906079 0.01483522 -0.1109516 0.06155173 0.01180605 0.07005739 0.09623112 0.08315098 -0.02018143 -0.06790224 0.01880824 0.131508 0.08314507 -0.2507299 -0.1414511 -0.1280665 -0.05010834 -0.003088802 -0.08526374 -0.06111272 0.2668803 0.002821107 0.06970015 -0.75339 -0.07942361 -0.06071666 0.02135272 -0.007706843 0.2552171 0.09971505 0.206743 -0.03470511 0.5511708 -0.02148412 0.1048405 0.1570625 -0.08676504 -0.1379342 -0.04694223 0.03375463 -0.2058555 -0.07315107 -0.01996002 -0.08766644 -0.0870961 -0.01278519 -0.1432888 0.04762027 0.1415516 -0.4112843 -0.1819599 -0.03872802 -0.06070026 -0.03998163 0.07898583 0.2212815 0.05542153 0.06293199 -0.01677332 -0.02991827 -0.2798275 0.00910065 -0.1394477 0.2515068 -0.1196507 0.0314891 -0.001116093 -0.1124204 0.01741344 -0.04070234 -0.04112925 0.3736596 0.01257003 0.08359746 0.03984312 0.1179933 0.2118296 0.3622942 0.2253229 -0.12947 -0.01940574 0.01053513 -0.09586141 -0.1394821 -0.0391867 0.1833438 0.134748 0.03882168 -0.05867818 0.05896542 0.07220687 -0.1945798 0.1862448 0.1256736 0.06804844 -0.2181209 -0.3618294 0.04941989 0.1351228 0.03884789 -0.1297705 -0.1107497 0.09052972 0.1100768 -0.05741505 -0.01039179 -0.14127 0.07385574 -0.04640678 0.06514024 -0.4125743 0.1636774 -0.09842944 0.05115104 -0.01174228 -0.1094212 -0.1325132 -0.01204089 0.02109369 0.1124801 -0.1485136 -0.2004541 -0.04970829 -0.1305756 0.01545046 0.2129036 0.08181748 -0.3867111 -0.04517845 0.2256793 -0.1360984 0.0582279 -0.06044695 0.02779298 -0.321216 0.05316413 -0.1788988 0.006691849 0.2226591 0.05938941 -0.04376843 0.01308311 0.1044418 -0.2048117 -0.107109 0.001071839 0.1246416 -0.05642793 -0.01429575 0.239469 -0.1539195 -0.1252767 0.2687367 -0.06987478 0.01661632 -0.03234353 -0.1356953 -0.009938481 0.3314023 -0.03011272 0.5275258 0.3525201 0.03342306 0.05268784 0.04007421 -0.04246144 0.2548428 -0.2200223 0.07083322 -0.1712753 -0.1903369 0.2975931 0.004715309 0.04971625 0.2452813 0.0441405 -0.02656559 0.01945011 0.01719051 0.2850085 0.03558918 -0.01380693 -0.1067563 0.01961321 -0.003895084 -0.06068454 0.09147093 0.1731424 -0.324441 0.07299528 0.01439972 -0.08138303 1.01924 -0.4922096 0.09272331 0.01995076 0.1360712 0.1129527 -0.09828797 -0.1406942 0.1594188 0.08693166 0.02413061 -0.2004258 0.002040974 0.8380172 -0.08122042 -0.03337917 0.1428348 
  0.291904 -0.1720525 0.1263236 0.07107002 0.2077768 -0.1032971 -0.1142646 -0.03792067 0.2015646 0.04664092 0.0988501 0.2438724 -0.1078287 -0.1257571 0.117199 -0.03049942 0.229604 -0.02792536 0.1516212 0.1745959 -0.2649243 -0.1284967 0.1407141 -0.09669057 -0.02382674 0.09467936 0.009769475 0.0984913 0.6597354 -0.2457494 0.1579824 -0.0762452 0.1151677 0.1031169 0.1368557 0.06265555 -0.2619279 -0.06151541 0.2975117 -0.184515 0.07743362 0.0249181 0.272156 0.4678328 -0.1508108 -0.1847586 0.1783504 0.1251071 -0.1976116 0.009195509 0.06380177 -0.1721385 -0.2362049 0.7086906 -0.05394754 -0.2481888 -0.149614 0.2179647 -0.1216392 0.1356795 -0.1728839 -0.3025574 -0.07646516 -0.1310275 0.09361075 -0.195417 -0.1085609 0.08289924 -0.003900399 0.2448399 0.1593297 -0.2532876 -0.1728951 0.06017247 0.1759233 -0.07034529 0.3595014 0.001486489 0.07293613 0.04410266 0.06964574 0.09984357 0.02080743 -0.2353692 -0.4838975 -0.1540154 -0.02765146 0.145588 0.3188373 0.1717588 0.2188796 -0.1473962 0.2162328 0.2032997 0.0439432 -0.4163029 -0.04027295 0.28194 0.2287595 -0.3230457 0.2060179 -0.1880851 0.1511202 0.102288 0.1618237 -0.1023177 0.01449055 -0.4192592 -0.06533846 0.2615419 -0.3075533 0.02376723 -0.1288849 -0.1912139 -0.1624122 0.1575073 -0.3257559 -0.04909031 -0.01129205 0.3687949 0.06880897 -0.3271417 0.05600562 -0.13229 -0.09479497 -0.2824473 -0.09848075 0.1514365 0.176306 -0.06920815 0.1262169 -0.3450234 0.1662449 0.1620955 0.05272473 -0.1220068 0.213935 -0.04436623 -0.218724 -0.08409847 -0.1001203 0.1742109 0.1534427 0.1047852 0.04786449 -0.3695651 0.09489933 -0.1285609 -0.08998268 0.1447524 0.04826519 -0.1225142 0.1114044 0.04171868 0.162964 -0.0885559 -0.3985426 -0.1998851 -0.3992612 0.06493656 0.1231809 -0.08861536 -0.363811 -0.01451183 0.6291108 -0.1441465 0.07010107 0.1059324 0.002543367 -0.08968754 -0.1093138 0.05755651 -0.05571868 0.2480043 -0.02290571 0.003074934 -0.3473253 -0.1748889 0.1344951 0.05581107 -0.1496126 0.2346179 0.05952537 0.1584356 -0.3039524 -0.01578382 0.2536505 0.0174215 -0.08770061 -0.2087931 0.2564268 0.01650101 -0.5938722 -0.3638568 0.1363432 -0.3953941 0.1648563 0.05616224 0.01989102 0.01190277 0.07705394 0.2294377 -0.3757371 -0.002398907 -0.08654223 0.1328363 0.01703799 -0.3163477 -0.06373674 -0.1158459 0.1250377 0.05554678 0.3019701 -0.3705375 0.07098959 -0.06733569 -0.04222183 0.1677849 0.2309742 -0.4722794 0.2945382 0.01369341 -0.002320654 0.08718234 0.06300677 -0.4226541 0.3123587 0.3779959 0.04500675 -0.3314515 -0.4187652 -0.1485711 -0.07274065 -0.053569 -0.08470491 -0.2163908 0.2140918 0.2878402 -0.2584296 -0.01041331 -0.04821112 0.1074276 0.1275528 0.3083391 -0.2480633 0.2109249 -0.1207038 0.046562 -0.1482095 0.2467246 -0.3268588 -0.6106624 -0.06218117 0.5145169 -0.1028026 0.2059964 
  0.1214119 0.2129581 0.1309525 0.1983417 0.2516481 -0.004591544 -0.197336 -0.02301148 0.175959 0.1784257 -0.2289108 0.172108 0.158216 0.01804295 0.07343051 0.06696288 -0.1717735 -0.1751464 -0.1603976 -0.1730586 0.1459389 -0.1517948 0.4895483 -0.01007461 -0.04916371 0.1572746 -0.3232382 0.3337083 -0.01922808 0.04330468 -0.1710812 0.05747953 0.2090148 -0.05038374 0.2642983 0.08755038 0.1997299 -0.01442473 -0.06290281 0.1594425 -0.1106853 0.03936031 0.009556657 -0.2061682 0.1917704 -0.1327866 -0.02208726 0.2329171 -0.1375882 0.06443011 0.4308694 0.04962672 -0.1654483 -0.07757936 0.01812565 -0.05575529 -0.1661381 0.2846999 0.06471232 -0.1754198 0.2039237 0.02530525 0.1422246 0.1249642 0.06335879 0.1212734 -0.1067857 -0.2346594 -0.1392968 0.2600195 0.041082 0.1981689 0.06576783 0.1355377 -0.1163603 0.2230024 -0.2164483 -0.06336259 -0.04124202 -0.2096398 0.174083 -0.1927666 0.2296415 -0.2981344 0.1372672 -0.04648441 0.1902956 0.3712262 -0.1795534 -0.09075912 0.1699706 0.116523 0.1396991 0.1726477 -0.2352137 -0.1461032 -0.1407492 0.008848046 -0.03850034 -0.1046567 -0.08345134 0.2742313 0.2273782 0.138976 0.1952148 0.01637402 -0.01188631 -0.3274755 0.09475394 0.1546272 0.09349035 0.03148633 0.02111911 0.3371225 0.2813148 0.03145933 -0.2137561 -0.1730483 -0.1206716 -0.1128405 -0.202709 -0.04801454 0.1161776 0.2579184 0.01727857 -0.1359584 -0.02320861 0.0968855 0.2672542 -0.08357172 0.1731582 -0.15505 -0.271329 -0.001942633 -0.1820808 -0.2230801 0.06079164 0.02414056 0.0868335 -0.237947 0.1770625 -0.04605627 -0.01120926 -0.05061452 0.02133563 -0.1945977 0.1109184 0.2827778 0.06369539 0.1237003 0.0378031 0.04274424 0.1545931 0.4451648 -0.1314029 0.01018581 -0.1164027 -0.07246999 -0.05730802 -0.2822082 0.01407107 -0.05159738 -0.2527869 0.08991288 -0.184911 0.2858664 0.3937482 -0.112525 0.06049023 0.2450844 -0.09228528 0.02093894 0.06213567 -0.06698554 -0.05459288 0.08030345 -0.1672019 0.03792319 -0.1247068 0.4276221 0.290017 0.3825119 0.2618867 0.1525744 -0.07473198 0.1099561 -0.1524305 -0.1184844 0.1680945 -0.02408362 0.07545429 0.1101118 -0.2852992 -0.1406303 0.07659442 -0.1799058 -0.02593271 -0.07606691 0.1493791 0.2685216 -0.04585602 -0.01177816 -0.219574 -0.04676519 -0.08910365 0.06181867 -0.03427184 -0.005351602 0.3861043 -0.0455278 -0.1026396 -0.05800873 -0.0330182 -0.2494338 -0.1678449 -0.2216756 -0.1164807 0.1067467 0.1017689 0.3046778 0.008347846 -0.1981235 0.02623902 0.1824711 -0.01668 -0.09498972 -0.059778 0.2376796 -0.1142837 -0.3512879 -0.3221419 0.09537848 0.1687819 0.08661109 0.05530833 0.09425058 -0.0193992 0.006932083 -0.1537601 0.215653 0.2039523 -0.1950888 -0.03358413 0.1378934 -0.090074 0.2379498 0.1282818 0.1184022 0.1302229 0.4532949 -0.2533533 -0.006165844 0.1133203 0.3867441 0.1750422 0.0807559 
  -0.0204455 -0.02119921 -0.07907799 0.1798906 0.04040124 0.1021757 -0.05828716 -0.1243269 0.2115504 0.0101428 0.07982204 -0.1682909 -0.1717219 0.01443972 -0.1689349 0.120047 0.2720638 0.161941 -0.07909694 0.06707176 0.06872614 0.2647668 -0.07091209 -0.01537459 0.04498929 -0.05748371 0.001184028 -0.04187588 0.1046273 -0.03101222 0.07129413 0.1196818 -0.001767595 0.03188239 -0.07983268 -0.0498891 0.06208542 -0.1116382 0.08370422 0.2964822 0.02693906 -0.2066593 -0.1030909 -0.1012362 -0.05400176 0.05656829 0.2962831 0.1439623 0.06332421 0.1656484 0.02751273 -0.07099264 0.1672521 0.1062556 0.04941721 0.1393614 -0.2029464 -0.0192142 0.01951634 0.07445874 0.1483753 0.1395347 0.2390188 0.3167473 -0.05094115 -0.04711479 -0.32329 0.297834 0.07807392 0.2280028 0.1396423 0.0434365 -0.01381154 0.5567499 0.0007757278 0.0645908 -0.01235524 0.06500376 0.08748424 0.07540059 -0.1089328 0.06627559 -0.06971779 0.4872405 0.598689 -0.01029892 0.4140645 0.07023992 0.1468994 -0.05666375 0.3226752 0.016429 -0.0140388 -0.1266634 0.01169251 0.2222979 0.1081302 0.09164257 -0.1244756 0.3063936 0.5204751 -0.2995726 -0.07647555 -0.005094096 0.2056964 -0.2432861 -0.05685968 -0.01808005 0.2149661 0.2436371 -0.1588721 0.2671223 0.2188628 -0.06133697 0.07122427 -0.4601779 0.06956739 0.01735827 0.06040921 -0.04303286 -0.08404559 0.4779141 0.4229666 -0.1783079 0.264977 0.2755934 0.005111041 -0.1746318 0.06385594 -0.008323661 0.07541909 -0.1591619 0.4931922 -0.0797163 -0.08579259 -0.227025 0.03202501 -0.1290737 -0.1556428 -0.07780629 0.05368546 0.1236143 0.1979533 -0.03183491 -0.006238831 0.3143694 -0.1230817 0.04966407 0.1199175 0.3094296 0.08393348 0.09657063 -0.0472066 -0.01801958 0.1339033 -0.2092134 0.1320668 -0.1407453 0.4720998 0.1259466 0.162704 0.1120881 0.1543201 -0.0591755 0.07237326 0.3940957 0.06702834 0.05139301 0.03274387 0.1999125 -0.1771415 -0.1544051 -0.04669567 0.04101708 -0.02368589 0.007854495 -0.04825212 -0.01136738 0.07076241 -0.09176406 0.0739513 0.1091387 -0.07222228 0.1531352 -0.3107404 0.2596116 0.000345725 -0.02049538 0.115524 0.03629788 0.1731178 -0.1394426 -0.04029885 0.1469989 0.03733443 0.4459008 0.1503465 0.05793104 -0.1105778 -0.07823787 0.03127418 -0.05890839 0.03586673 0.1644676 -0.09036112 0.01282499 0.05996944 -0.2306917 -0.04928179 -0.316062 -0.1687977 -0.1464676 -0.1395526 0.03190904 -0.1310094 0.1581122 0.3078343 0.03403255 -0.04779717 0.1186846 -0.1253426 -0.03155696 0.2497664 -0.2648201 -0.1854945 0.1007009 -0.1202362 -0.01042124 0.1779207 0.2970785 0.2407012 0.07677431 0.04886636 0.3685197 -0.1547316 -0.1982848 0.1599776 0.1008524 0.5152818 0.7943058 -0.03727001 0.2163206 0.1621335 0.3417632 0.2503764 -0.1590761 -0.05231738 0.02506701 0.007489898 -0.1305859 0.1922267 0.462106 -0.08961327 0.686981 0.004107696 0.1025415 
  0.1898381 -0.1433029 0.06099852 0.04732619 -0.1702553 0.1226424 -0.2433192 0.050722 0.1957011 0.09915319 0.06181377 0.01561398 0.07250758 0.02242814 0.01607019 0.0925746 0.0994368 0.174714 0.03915977 -0.02534772 -0.3021858 0.238242 0.1427096 -0.03376125 0.2095624 0.1643413 0.1529411 0.5376024 -0.07544263 0.1328031 -0.02431837 0.182599 0.0729394 -0.06522268 -0.07289173 0.0156882 0.5020521 -0.1741178 0.08441481 -0.001250664 0.1772374 -0.04873393 0.07650116 -0.05428953 0.03351549 0.03720538 -0.1854539 0.05926754 -0.132944 0.04260555 0.1321111 0.08434024 -0.2177253 -0.09277884 0.1398391 0.0330969 0.04397892 0.2106078 0.2093381 -0.1283566 -0.01126331 0.15471 -0.1307542 -0.4687703 0.04973497 0.1303547 -0.1022167 0.02278402 0.08153214 -0.03011119 0.3381104 -0.02149675 0.04866021 -0.130705 0.2923128 0.03356738 0.175659 -0.05209609 0.01416066 -0.0352254 -0.05785714 -0.01479238 0.184919 0.1415457 0.02369899 0.03106501 -0.22508 -0.2401577 0.075551 -0.0153748 -0.0371515 0.06433125 -0.1706233 -0.009234577 -0.02046116 -0.08420639 -0.1118862 0.133706 -0.2320324 0.07598042 0.03162713 0.2157178 0.08164517 -0.1591413 0.3336823 -0.05585186 0.2219563 0.1918176 -0.005357335 -0.3302484 0.05080577 -0.3199427 -0.1002229 -0.1454951 0.1258174 0.3157195 0.0330484 -0.1885328 0.08535688 0.9395955 0.1824842 0.1286619 0.09988084 0.1696025 0.0776315 0.2678533 -0.06736153 0.0655657 -0.03814763 -0.03253375 -0.01163357 0.06258317 -0.04697184 -0.009616513 -0.2116526 -0.03168168 0.100501 0.1713211 -0.0874594 0.2531476 0.001013158 -0.08309249 0.1175387 -0.1132007 -0.0089065 -0.04128412 0.005652489 0.0994934 0.1590088 0.1399375 0.1007064 0.1130249 0.0783981 0.08897131 -0.130852 -0.2211864 0.4455469 0.01647399 0.1646193 0.1150149 -0.1619837 0.008297187 0.140772 -0.138417 -0.113339 0.05464566 0.03615118 -0.09284883 0.004867299 0.004062904 0.1051374 -0.1059416 0.1328986 -0.001162349 0.1180229 -0.02793251 0.4520274 -0.239452 0.01549324 0.03181409 0.09316674 -0.06147819 -0.02784851 -0.2926428 0.06877207 0.2168735 -0.1815937 0.01496046 -0.06462611 0.2743269 0.1040744 -0.1827082 0.2727003 0.2272808 0.04816752 0.05458301 0.4818886 0.05841539 -0.1931817 0.1153167 -0.1374967 -0.0574305 0.1764705 -0.07409796 0.05114068 0.1083433 -0.1034039 0.1018454 0.01606505 0.3080688 -0.1253745 -0.04469408 0.1478495 -0.1126843 0.03220814 -0.09751695 -0.1105952 0.0292328 -0.06342389 0.04450225 0.02199242 -0.0348892 0.07062656 -0.1400014 -0.1403582 0.2121551 -0.2146221 0.0007188894 -0.1394523 -0.1194616 -0.1360503 -0.03817616 0.0947028 -0.1848206 0.1073683 0.2146076 0.3409261 -0.1096605 0.1413881 0.2713278 0.04446542 -0.09660179 0.03263342 0.01454673 0.1696518 0.06598251 0.0529633 0.1598594 -0.01336601 0.1335058 -0.1747508 0.2391816 -0.2509857 -0.4986179 -0.03791774 0.05705787 
  0.01400349 0.0614996 0.06279302 0.01162078 -0.181655 0.1081904 0.09241106 0.09359271 0.04017613 -0.1174996 -0.008267016 0.2881219 -0.05708065 0.1243004 -0.1840211 -0.1502438 0.3059081 0.07678379 0.0978706 0.03907823 0.06210169 -0.001965279 0.08660236 0.1514572 -0.005425939 0.08118688 0.3000422 -0.006252454 0.009697976 0.09302387 0.09974086 0.2975643 0.04934634 -0.03298344 -0.1198866 0.01360394 0.1878028 -0.3202579 -0.09847523 0.1007279 -0.06814624 0.03965783 0.1572782 0.05048966 -0.03695121 0.07007319 0.03163276 0.002479191 0.09005436 0.02692815 0.129162 -0.06578323 0.3851617 -0.0197395 0.1794564 0.01313545 -0.01163122 -0.02926968 0.03986776 -0.01572026 0.2808498 -0.1096808 -0.07525417 0.225246 -0.004105118 0.3980261 0.1152924 0.6296086 0.01030645 -0.1720548 -0.02753588 0.01583587 0.005257472 -0.08957357 0.2913281 -0.07760639 -0.1645357 0.1720296 -0.02527292 0.06167863 -0.0260368 0.1164109 -0.0284252 0.1742822 -0.008404104 -0.009082498 0.1267275 0.0139267 0.006982167 0.07274722 0.08049103 -0.2301701 0.9050726 0.06096296 -0.008142907 -0.1314263 0.0284514 -0.1261633 0.2169837 -0.1198431 0.02037376 0.1552217 0.07732203 0.07117785 0.0619753 0.0342752 0.001976858 0.06053219 -0.06170364 0.129417 0.2687885 -0.1424939 -0.09456509 0.3017131 -0.007475006 -0.2211322 0.03466486 -0.09334351 0.02353618 -0.004493269 0.05084862 0.103635 -0.00960373 0.147756 0.06083303 0.262362 -0.006087748 0.03189088 0.03738384 -0.1221867 0.2137003 -0.09633312 -0.02152894 0.2235161 -0.2018464 -0.1242782 0.09931898 -0.05737762 0.1642882 0.04986746 0.06309713 0.05176893 -0.153917 -0.1517845 0.09822146 -0.1023814 0.04437803 -0.1284233 0.02214864 -0.0164598 0.1374472 0.1665157 -0.04971472 0.07521788 0.02527651 0.00752151 0.05157443 -0.08610725 -0.2001147 0.1163755 -0.02332255 -0.6901218 0.294756 0.02640709 0.2865295 0.02131782 0.01508696 0.08572313 -0.02424785 -0.03836362 -0.1804821 0.03346546 -0.8383229 -0.02567981 -0.6034407 0.08249664 -0.2676508 0.05390279 -0.02985905 -0.1414698 0.03974793 0.004309638 0.09493329 0.1861904 -0.13223 0.2207392 -0.1208501 0.085648 0.01986939 -0.1102194 -0.03585311 -0.2064866 0.2498189 0.06404682 0.02111594 0.317834 0.1203939 0.02086923 -0.1071402 -0.1648193 0.2135822 0.1997264 0.2808016 -0.006376455 0.04674765 0.009141692 0.08694271 -0.05098723 0.3695114 0.3869915 0.005382232 0.1798722 0.002889321 -0.1654085 -0.08747033 0.00635859 -0.1441284 -0.1728341 -0.02933424 0.1475181 0.06772397 0.2344701 0.08117771 -0.1197001 0.1140552 -0.1160164 0.04409977 0.04830875 -0.006141051 -0.08759851 -0.1078417 0.04222028 0.107037 -0.07036492 -0.1613844 0.1933998 -0.03609838 0.002665119 0.1328478 -0.01149877 0.2223831 0.1302782 -0.1112919 -0.10154 0.3092644 0.00255268 -0.1519571 0.1155051 -0.1487693 0.1552574 0.1192463 -0.2552501 0.1012649 -0.4686227 -0.00641708 0.07019806 
  0.09038519 -0.1020994 0.1502865 0.1107853 -0.1156003 0.0820866 0.007998825 0.7695991 -0.1590411 0.7327924 0.06060797 0.06897374 0.0446481 -0.07279646 0.08102308 0.003976708 -0.001612 0.1518697 0.02975689 0.009028081 -0.285414 -0.0931854 0.1315609 0.03943681 -0.08578278 -0.3314739 0.08703526 -0.02746416 -0.006773202 0.6106395 0.206913 0.02830023 0.01618169 -0.03654499 -0.05635137 -0.03776257 -0.007261727 -0.02948052 0.0371258 0.05999915 -0.3622205 0.3026911 0.145431 -0.03002205 -0.2045233 0.01167123 0.01859728 -0.008581776 0.002508746 -0.03293259 -0.07959419 -0.06096082 -0.09465618 0.006078046 0.04522932 -0.06765004 -0.03469071 0.3343706 0.2634941 0.1393255 0.0001741833 0.01255737 0.312968 0.134883 0.01619393 0.09650675 0.3019181 -0.1677065 0.0134209 0.08381976 0.03200025 -0.009801491 -0.02309542 -0.07017599 0.103867 0.1594474 -0.1923017 0.0772741 0.00856609 -0.3761218 -0.05881549 -0.0975711 -0.2885332 0.05236296 -0.03346575 0.05734566 0.3098577 0.05031717 -0.2101559 0.08991455 0.1007762 -0.02365523 0.01943497 0.0526875 0.02601518 -0.1290465 0.2059946 0.1719441 0.267287 -0.1045555 0.2270615 0.1779065 0.3379571 0.05401612 -0.2238423 0.02537497 -0.2818838 0.04874113 0.2817649 -0.07005472 -0.06324594 0.01773248 0.1076747 0.07442049 -0.09099898 -0.2775627 -0.03374647 -0.05586715 0.02600626 0.08472588 0.01497216 -0.01667605 -0.267801 -0.1149628 -0.1762295 0.04646735 0.02987611 -0.145761 -0.04955751 -0.06902635 0.05709857 0.180084 -0.07636137 0.1268103 -0.04509101 -0.05361827 -0.04538452 0.03121626 -0.1176373 0.118421 -0.0004970338 0.06553757 0.05527892 -0.07233123 0.008116509 -0.04270734 0.03283576 -0.1548946 -0.01920106 0.1141708 -0.05037174 0.03112432 0.08993693 -0.1077409 0.03975188 -0.04170289 0.09810968 -0.03409651 0.1003497 0.0258174 0.09549544 0.0418004 0.1811787 -0.05815688 0.2449737 -0.09398159 0.004470675 -0.2013221 -0.3219543 0.001532208 -0.005237788 -0.1651136 0.1047859 0.06419282 0.3841746 0.1276238 0.001745396 -0.0694303 -0.2076519 -0.02791416 0.01844352 0.3566942 -0.1067272 -0.02943367 -0.1148892 0.1806147 -0.1135469 -0.01625134 0.004476274 0.1146015 -0.07272337 -0.05359168 -0.07571025 -0.01434708 0.0905959 0.06818558 -0.02635405 -0.007347445 -0.008549868 -0.1803365 0.1108456 0.1003652 0.1013333 0.02560925 0.01986198 0.01517475 0.03838759 0.07815706 -0.1943298 0.1031078 0.101478 0.8908525 0.01661979 -0.1029826 -0.03033662 -0.1380574 0.04918563 0.04661448 0.07878392 0.09934237 -0.06314171 -0.007943543 0.03734496 -0.06778178 -0.08814502 0.02770185 -0.5211799 0.08016939 0.03546128 -0.109393 0.2692258 -0.007502848 0.05659384 0.02102407 0.1220279 0.06346913 0.1683793 0.2048999 0.1571806 0.1846149 -0.02709867 0.02564799 -0.1315278 -0.1493932 -0.006001155 0.01413275 -0.1946175 0.1734204 -0.06979459 -0.1289251 0.383688 0.07442855 0.1890833 0.1552722 0.01929814 -0.02721664 
  0.01632884 -0.02706072 0.2246998 -0.06951142 0.1447233 -0.04373509 -0.1310602 0.03964437 -0.1389029 0.09372785 -0.06000167 0.04219491 -0.1631437 -0.01085129 -0.0140179 -0.0602253 0.04693238 -0.1215234 -0.07686451 0.1141655 0.1609464 -0.1638135 0.2939801 0.358422 -0.0132213 -0.006316353 0.01415347 -0.05721364 -0.1483522 -0.00118667 0.2167449 0.0002482409 -0.01924625 0.334755 -0.11058 0.09354756 0.5301445 -0.05042448 -0.1477897 -0.1155322 0.242783 0.1181715 -0.1653952 0.1855839 -0.0218014 0.4000854 0.2607621 0.07583835 0.2763308 0.02191061 -0.06508834 0.05435962 -0.1862909 -0.2067371 0.1242785 0.1343602 -0.009365754 0.08383117 0.003643666 -0.03058927 0.07860611 -0.09834675 0.03735462 -0.2273289 0.04206012 -0.1504587 -0.28593 0.02787174 0.08307867 0.1389254 0.307755 -0.08120096 0.04851642 -0.09979022 0.08673126 0.3547626 0.03504414 0.3093126 0.02884127 0.04950972 0.3733524 0.09748684 0.003456203 -0.1205034 -0.3529018 -0.1060263 -0.02649857 0.2087881 -0.1588968 0.06439141 0.3289523 -0.2084352 0.1489037 -0.05548321 0.05469357 -0.1246515 -0.1026011 -0.04610739 0.4882023 -0.2243053 0.09810495 0.2754439 -0.2561878 0.0711166 -0.03913372 0.08945804 -0.07250824 -0.2014209 0.05791364 -0.249219 0.3461697 -0.1056568 -0.1435033 0.3461892 -0.2274205 0.01961028 -0.01107808 0.1366546 -0.09785487 0.2995644 -0.02020348 -0.2384344 0.1120712 0.02759915 -0.1528581 -0.2928349 0.03007697 0.2257503 0.1461173 0.01197851 -0.01742848 -0.09083243 -0.04501661 -0.02182784 0.5067686 0.0810396 -0.1319411 0.1219274 0.2042735 -0.05674875 0.06855889 0.1206074 -0.04230147 0.3279831 0.1053408 0.08414415 0.3093873 0.02736624 -0.1977492 0.2414441 0.1706469 0.005970682 -0.1011172 0.08562551 -0.03043007 0.03818627 -0.2877531 -0.06196242 -0.0357547 0.07898252 0.01924741 0.01602558 -0.2963305 -0.009799507 -0.09683223 -0.2755146 0.2426353 0.03088303 0.1515324 -0.1768954 -0.4287245 0.001016233 0.1744922 0.09961177 -0.03512983 0.05366475 -0.1599726 0.4957462 0.2804515 0.1342149 0.08390959 0.1811665 -0.02519914 0.05329294 0.1933547 -0.05127728 -0.19357 -0.05592085 0.06949004 -0.07531855 -0.2046356 -0.1784645 -0.05062991 -0.3747857 0.1722432 -0.219705 0.08862743 0.0508799 0.04769458 0.1729978 0.2086025 -0.2387802 -0.3521235 -0.009851604 0.04563123 0.1012856 0.0179186 0.04827158 0.06300916 -0.2012738 -0.09707105 -0.07712349 -0.1887898 -0.6315134 -0.2419751 -0.06049187 0.2790019 0.2683339 -0.05559677 -0.005697932 0.2972209 0.00251117 -0.09875361 0.02523038 -0.1733384 -0.2129644 0.1173597 -0.08343379 0.2451651 0.06259054 -0.08012726 0.07532275 0.04820412 0.2271129 0.09889095 -0.03989541 -0.2428734 0.04259673 -0.2018827 -0.2002214 0.137383 -0.3153255 -0.06302458 -0.07079037 -0.1590202 0.02822431 0.1946819 0.2849695 0.001701798 0.07548968 -0.0606519 -0.1947084 0.03071035 0.2459859 0.09956427 0.01072698 
  0.1123578 0.1034018 -0.0421601 -0.06635394 -0.06845881 -0.3686756 0.1431112 0.1726036 -0.2174778 -0.2332959 -0.01253015 0.1699394 0.1144527 0.1822767 0.3171391 -0.1496032 -0.05665704 -0.02775543 0.08219129 0.06852938 -0.1768012 -0.3747557 -0.02753432 0.1437881 -0.01465881 0.07698411 0.01892049 0.06200975 0.07590163 0.03839025 -0.004347523 -0.0815964 -0.0788717 0.05170844 -0.009791116 -0.05416815 -0.2146545 0.2517684 0.006867042 0.04517431 0.414323 0.151271 -0.09122133 -0.07934034 -0.1068324 0.05752358 0.1581408 0.0757563 0.04917862 0.008753024 -0.06701104 0.03493903 0.1612297 0.05748335 0.1091272 -0.02277516 -0.1503833 0.007484036 -0.002787288 0.002963027 -0.05361865 -0.1047559 0.2905338 -0.1862672 -0.04985762 -0.2784553 -0.07990324 -0.4674838 0.05640236 -0.06676866 -0.05892915 -0.001245604 0.05698913 -0.05734209 -0.06264726 -0.3114669 0.249961 0.09713486 -0.0402991 0.03308016 0.08108246 0.1744574 -0.01763065 0.03972824 -0.3096802 -0.1301941 -0.09894722 0.01273523 -0.1538105 0.07945055 0.08164964 0.1430161 -0.02489755 0.04951815 0.01057016 0.0868995 -0.0346565 0.3264817 -0.002841839 0.03384694 0.06557693 -0.5108872 -0.002209861 0.004855487 -0.1035553 0.1017003 -0.04761394 -0.2855126 -0.2020042 -0.4669526 -0.1520208 -0.1146573 -0.04949073 -0.3803603 -0.01221841 -0.09028046 -0.1437059 -0.1064121 -0.001609033 0.1363471 -0.1014678 -0.05868289 -0.2353313 -0.04597484 0.1520501 -0.5580567 0.03809049 0.01523324 -0.08610167 -0.006307915 -0.1276073 0.007669758 0.08961727 -0.001235854 0.01091144 0.01372266 0.04190836 -0.3309207 0.02918523 0.1097943 -0.008953429 -0.08929885 -0.01670828 -0.003343343 0.1357868 -0.03498902 0.1052309 0.225147 -0.3450747 -0.07221396 0.1874802 -0.006437032 0.0189454 -0.01062546 -0.06598581 -0.1952861 0.06771994 -0.3262863 0.3124387 -0.02963011 0.06854977 0.2457999 -0.2092251 0.2266134 -0.0604362 0.05021486 0.06134082 -0.0748306 0.02204513 0.1008534 0.3081335 0.1266577 0.003872556 0.1045904 0.3574083 0.03954825 0.1909029 0.1528166 -0.3414565 0.03772521 0.09550956 -0.01156731 -0.1835571 0.008767372 0.2986818 -0.2087994 -0.008082665 0.05622256 0.0196765 0.04825386 0.0456635 -0.1649304 0.07872635 -0.02706277 0.1301644 -0.1486975 -0.3490355 -0.006260733 -0.2852377 -0.2840629 0.03011404 -0.08407491 0.1499093 0.1186706 0.1480511 -0.2446896 -0.08129292 0.3135732 -0.6383867 -0.09071548 0.07110195 0.03028217 0.04402383 -0.0134802 0.08116877 0.02920995 0.0248976 0.2346276 0.03349414 0.2591793 -0.2829932 -0.06717797 0.1128234 -0.2682711 -0.09480067 -0.05355478 0.3188698 -0.02385726 -0.004889869 -0.1154178 -0.001023471 0.009124348 -0.007643695 0.0126591 0.009278652 -0.1123189 0.006029581 0.1268746 0.2866888 0.7349921 0.09235286 -0.2297469 0.0203138 -0.09146395 0.03672102 0.08249962 0.2934427 -0.2068596 0.06449053 0.03733956 0.02861388 0.299269 0.01168348 -0.1560495 0.1689769 0.6894319 
  -0.05034667 0.02387262 -0.06427315 -0.02731483 0.03421189 -0.02143711 0.2234305 -0.2256678 -0.03503932 0.1553726 -0.09916414 0.08859766 -0.1106538 0.1654362 0.08300068 0.1421427 -0.1124096 -0.08539721 0.4235012 0.04958634 0.197762 -0.1236993 0.2494209 0.1181036 0.0485407 0.05503758 0.070456 -0.1828968 0.01525564 -0.1098419 0.1395465 -0.01469308 -0.08051816 0.1098816 -0.09202606 -0.09579504 0.2653974 0.1036816 0.06958213 0.08590152 -0.2623073 0.4089079 0.005815327 0.03008976 -0.1524198 0.1111338 -0.0611559 -0.05641965 0.03268157 -0.07557835 -0.1104515 -0.05533231 0.02803847 0.1973792 0.1682056 0.01581718 0.0171959 -0.05851455 0.0369801 0.2616004 0.05307157 0.1570014 0.4817312 0.09874911 -0.09393149 -0.03748604 -0.3311214 -0.1926219 -0.03976918 0.09305788 -0.2725992 0.06569507 -0.01427297 0.1442104 -0.0005887711 -0.3565874 0.0556537 0.07318153 0.0112968 0.1170508 -0.1252286 -0.5755743 -0.09093156 -0.09903859 0.01365878 -0.1070867 -0.1029519 0.09756586 -0.1232389 0.02675561 0.0111727 -0.1656151 -0.003601159 0.279042 -0.0170591 -0.0303663 0.2747528 0.05286445 0.1620169 -0.002302942 0.3051595 0.2395549 0.0309567 0.09273265 0.3035347 0.04946961 -0.07903206 0.02369806 0.1367288 0.2033533 -0.5602068 -0.04619857 0.005619374 0.004692017 -0.09360663 -0.0919696 0.0953473 0.0289227 0.002154126 -0.00683506 0.2517535 -0.0670117 -0.1641134 -0.1874887 -0.2857135 -0.2128337 -0.05083927 -0.2268777 -0.08647302 0.01144922 -0.009659328 0.05168296 -0.06159964 0.05366485 0.1517271 0.1574459 -0.1132216 0.08648092 -0.1433203 0.08329218 0.07607805 -0.002703801 -0.1691923 -0.1605545 0.05374717 -0.04921167 -0.01925479 -0.03653447 0.001495724 -0.1452449 0.08813623 -0.06745135 -0.03546481 0.2288589 0.1919592 0.03631869 -0.02066689 0.04551941 0.1164275 -0.02438028 0.1056422 0.07124718 -0.01079993 0.09410094 0.3806592 0.01853581 0.01551048 -0.1555797 0.9670349 -0.1336103 -0.15461 -0.1825191 0.09630527 0.07145561 -0.1779773 -0.01620473 -0.002180087 0.03758709 0.1241808 0.0692855 0.1913861 -0.07608429 -0.2634438 0.07164964 -0.2276023 0.1158193 0.1512178 -0.07605612 0.1514595 0.1482659 0.02458368 -0.00653987 -0.1135291 -0.004398027 0.02236489 -0.1714954 -0.3031075 -0.03060374 -0.0797527 -0.04371082 0.02994154 0.1282214 -0.00979679 -0.1562773 0.1601434 0.02424744 -0.03491868 0.003375462 0.1770358 -0.1131017 -0.01058464 -0.2623046 0.06378253 -0.1808721 -0.08905624 -0.1925042 0.01328615 0.04973428 -0.05795949 0.1564533 -0.05326359 -0.2601894 0.01289219 -0.003427597 -0.09501049 -0.03825641 -0.4488705 0.006220789 0.1481692 0.2104807 -0.1900919 0.1210691 0.1511412 0.1829689 -0.06222092 0.3905433 0.5213437 -0.01222508 -0.02094048 0.05043131 0.1746404 0.02916106 -0.07782195 0.2351314 0.007087287 0.01956443 0.1874996 0.2391823 -0.01358949 0.02442386 -0.04260974 -0.05669601 -0.04441901 -0.03737402 0.02265253 -0.06840184 
  -0.1967392 -0.1038728 0.05733957 0.04799827 0.08386247 0.06317677 0.1536186 0.0637371 0.2513912 0.08712277 0.01110576 0.003681892 0.8818939 -0.110761 -0.03312599 0.4317585 0.175226 -0.1430425 0.08664753 -0.01313933 -0.1265009 0.08827647 -0.02089321 -0.007927709 -0.01304018 -0.1395993 -0.1168284 -0.1504714 -0.1506004 -0.005814332 -0.2634172 -0.2810961 0.1553678 0.0483667 0.07051744 0.1342363 0.1093946 0.05054341 0.002012029 -0.1282202 -0.09284218 -0.06509049 -0.1436521 0.02432923 0.06532048 0.131562 -0.1556991 -0.1276416 0.328164 0.0274248 -0.04815308 0.05676727 -0.0240883 -0.1784297 0.2000923 0.09537986 0.1486479 0.2616139 0.390639 0.1788953 -0.02185014 0.006872923 0.01401067 0.2426061 0.07778731 -0.029625 -0.2263869 -0.07087049 -0.1513385 -0.09975911 -0.02955386 -0.02296617 0.2270195 0.1054908 -0.02717013 -0.05679193 0.05730272 0.2059214 0.5557008 -0.02829167 0.08547682 0.05332057 0.1206471 0.2204463 0.06397061 -0.1634681 0.03126307 0.04749579 0.0159136 -0.02420556 -0.1024947 0.01589514 0.02311517 0.04533021 -0.04193216 -0.1868291 0.1594192 -0.1186478 -0.01656404 0.03452623 -0.09060924 -0.02881647 0.02358681 0.4733927 0.2000986 -0.2098274 0.2699036 -0.1998696 -0.05263895 0.01797892 -0.0396267 -0.2232206 0.1622292 -0.1595796 0.06635662 0.2514235 0.1628067 0.1292761 -0.02949497 -0.08007827 0.1164157 0.03929914 0.1812722 0.14945 -0.09610943 0.001224906 -0.2305588 -0.1051002 0.3763204 -0.04001514 0.04795885 -0.1948741 0.2598304 -0.06801867 0.05421117 -0.02241749 0.1572296 0.00907083 0.1920652 0.09643021 -0.1965976 -0.05522838 -0.3543572 -0.009953446 -0.5812023 0.09656265 0.2336257 -0.1263851 0.1599269 0.2432379 0.1886816 -0.01559902 0.03382109 -0.02938219 -0.0306645 -0.1732482 -0.05709966 -0.007093154 -0.1065943 0.4996558 -0.02410069 0.008762932 0.08263236 0.003770018 -0.01206264 0.07827539 -0.2094392 0.1642407 -0.07409892 0.1173965 -0.1294503 0.2919657 0.01002785 0.2395612 0.4223214 -0.03494741 0.1563418 0.02883547 -0.2410411 -0.2208592 -0.09008422 0.6159304 0.0781936 0.1359046 0.2204915 -0.04051745 -0.01437971 -0.3284663 -0.1082675 -0.1689979 0.01292242 -0.0552415 0.1031125 -0.2633747 -0.02121637 0.02056267 -0.1592555 -0.5315505 0.08752745 -0.02678588 -0.3238462 0.03770662 0.02540768 0.1488449 -0.0553129 -0.2209165 -0.06512636 -0.08904856 -0.09171439 0.08996838 -0.01436731 0.1589202 -0.1129719 -0.2910017 -0.235856 0.1583472 0.0583069 -0.0505821 -0.1544146 -0.01113299 0.07069936 0.01659383 -0.04544885 0.3362991 0.02422336 0.1314752 -0.07397392 0.2681682 -0.2473145 -0.3045476 -0.1996129 0.4200244 0.06275178 0.3598538 0.08292353 -0.06925988 0.07525062 0.3025841 0.2777699 -0.09331805 0.001315059 0.115836 0.6934202 -0.03196302 -0.0001405256 0.1288165 -0.0407658 -0.2338783 0.07884991 0.03718745 0.2252785 -0.1187722 0.1453703 -0.1037081 -0.07484149 0.3707408 
  0.2572734 -0.09831891 0.009219361 0.1869071 -0.04468882 -0.1594898 0.1542068 0.0962977 -0.07962199 0.01842522 0.0559953 0.06234393 -0.001891244 -0.1862219 0.1361113 0.05396848 0.5098055 -0.1714453 0.3180299 -0.07380931 0.4012552 -0.1375367 -0.08136751 0.07130145 -0.0276431 -0.1271783 0.01465528 -0.02810326 -0.0474903 -0.1209819 -0.02357136 0.06003216 0.07818187 0.08421198 0.1694315 0.1004662 0.3712551 -0.131207 0.2025845 0.278901 0.5300508 0.2950793 0.1565594 -0.07593038 -0.1740098 -0.0828797 0.2484408 0.1924081 -0.08097113 0.08625364 -0.002869407 -0.001181852 -0.06859234 -0.03909114 0.2204296 -0.1292395 -0.2445374 -0.02403779 0.1031562 0.1483669 0.1309494 0.08085966 -0.06433462 0.1710014 -0.02957676 -0.09361541 0.1141316 -0.01556274 -0.1248367 -0.1650407 -0.09184466 -0.3008516 -0.2200809 -0.03417218 0.003135692 0.05670157 -0.1469021 0.1909343 -0.09304438 0.05389307 0.2322693 -0.1420749 0.05245145 -0.09015963 0.0006834719 -0.132822 -0.06462613 0.004392075 0.1273173 0.1889049 0.2095917 -0.2612121 -0.3373657 -0.2166252 0.08904418 0.3395206 0.2027997 0.1414135 -0.1214565 0.1515698 -0.05695851 -0.210881 -0.111385 -0.1076237 0.1370289 0.1135844 0.03236379 0.1908177 -0.08306219 -0.1079765 0.3776942 0.124186 -0.0593573 -0.04871514 0.1491154 0.020529 -0.1179297 0.1865581 -0.04552893 -0.1758578 0.1416359 0.04043738 -0.215915 0.2265237 0.1744087 0.1886833 0.09526741 0.04304913 0.197166 0.2470978 0.3213958 -0.334429 0.158802 0.2438519 -0.1724116 -0.129928 0.2915097 -0.04068951 0.1022237 -0.03963025 0.1153086 0.2284357 -0.01696277 -0.0377073 0.01166985 -0.02932847 0.1831709 -0.04100646 0.220391 0.1538875 -0.1405456 -0.1861109 0.2133575 -0.1319284 0.07266816 0.06115417 0.3339319 0.2879288 -0.1107832 0.147098 0.1234504 0.002897846 0.1283667 -0.1898848 0.1354352 -0.07841861 0.00991826 0.1569524 0.2850088 -0.1474197 -0.4347748 0.2115495 0.3993861 0.04093324 -0.3291201 0.1209785 0.1158721 0.1676523 0.1463163 0.01350782 0.2054884 -0.02921257 -0.1443044 0.1467636 0.267919 0.1372487 0.09697151 -0.1374309 -0.0405411 -0.2046497 0.05359906 -0.263347 0.05082991 -0.2252167 -0.2139668 -0.1235402 0.09938607 -0.1412936 0.1443403 -0.1903858 -0.1375914 -0.08119358 -0.04967934 -0.03982374 -0.1313524 0.1478931 0.4199023 0.5803382 0.3599198 0.232731 0.05552372 0.2126782 0.0687859 -0.1621999 -0.07604263 -0.1659032 0.01703565 0.04329562 0.05669114 0.3738028 0.04974692 0.4423253 -0.09901846 0.1343995 0.1527155 0.07772377 0.009425429 0.3247087 0.06524112 0.5286712 -0.03643858 -0.01232161 0.01743071 -0.04622025 0.3216172 0.2268387 -0.05317484 -0.02992643 0.438286 0.07857422 0.1349089 0.08054963 0.148534 -0.154111 0.2617407 -0.1504753 0.347009 -0.1576951 0.1682136 0.06287384 -0.01369763 -0.4606547 -0.07060894 0.06073922 -0.1180672 -0.1815247 
  -0.005558487 0.01033059 0.006869393 0.3057524 -0.1205531 -0.1952253 -0.2632881 -0.04455392 -0.2639356 -0.1809834 -0.138662 -0.05637678 0.1012765 -0.1267883 0.04336914 0.03934365 0.2806158 0.1684566 -0.03000399 -0.1163688 0.1448444 0.04428266 -0.03486179 -0.0567153 0.02270359 -0.08031227 0.003519119 -0.1258054 0.2447948 0.03286742 -0.01771476 -0.07852016 0.1035617 -0.08741083 -0.08709172 -0.1111902 -0.3129599 0.03105479 0.2650905 -0.1249496 0.02753007 0.0888968 0.05066015 -0.08515044 0.3624637 -0.09130058 -0.2833411 0.1117305 -0.01641499 -0.04145421 0.09228968 0.06654644 -0.1498905 0.1982946 0.04329462 -0.0509124 0.1651382 -0.3005925 0.04377176 0.0798194 0.1494103 -0.06457078 0.4970926 -0.1371084 0.2034517 -0.1228906 -0.01951847 0.09428374 0.04524293 -0.212052 0.1587705 -0.07566677 0.03623988 0.05543791 -0.04448044 0.1831096 0.08861687 0.07719138 0.0138167 -0.2576582 -0.09056231 0.147079 0.2425827 0.1691441 0.01155048 -0.04937982 0.07137445 5.380872e-05 0.007109807 -0.09605967 -0.04371243 -0.04935136 0.004372258 -0.007938114 -0.04575786 0.2080935 -0.2505053 -0.05055629 0.11244 0.007014361 -0.1281239 0.1898693 0.313159 -0.05473969 -0.1807752 -0.05830241 -0.2751511 -0.1795719 -0.1019314 -0.2244842 -0.1997566 0.1735706 0.04638492 -0.1735989 0.02382833 -0.1600097 -0.06968631 -0.1293396 0.1045164 0.01779015 0.2449628 0.09070732 6.395732e-05 -0.1294049 0.0740409 0.01061195 0.1834117 -0.1083013 0.1087779 0.10706 0.2612056 0.1099188 -0.0325162 -0.02395507 0.05098137 0.07555427 0.1220255 0.3272547 -0.1850557 0.183907 0.02486512 -0.1054719 0.02723901 0.5641887 0.09023143 0.0852415 -0.06518276 -0.1063384 0.1898437 0.09664436 -0.1434723 -0.2540006 0.2131917 -0.09406055 0.2213721 -0.03222542 -0.2109514 -0.1322738 0.01750938 -0.04381956 0.2303112 -0.1894803 -0.1869722 -0.2797869 -0.1106714 0.2016849 -0.09039638 0.1989118 -0.01139847 0.06265509 0.01677151 0.02371365 0.1461895 0.05046381 0.2419206 0.1196837 -0.05024139 0.02914654 0.2302818 0.005704229 -0.1477337 -0.3931293 -0.04824702 -0.1019435 0.004954972 -0.006068767 -0.06806573 -0.01456278 -0.003183998 0.3350886 0.06653365 -0.0833816 0.1675035 0.08645149 -0.04245227 0.05048709 0.009610031 0.110286 -3.523221e-05 -0.06117857 0.2310222 0.1004752 0.1889053 0.05104425 -0.1637717 0.2095929 0.4200988 -0.003974007 0.8200398 -0.05595421 0.06370011 0.2239984 -0.03705186 0.2449477 0.1080302 0.1265175 0.3675003 0.003820284 -0.05939418 -0.1798946 0.1007183 -0.1317244 0.02803032 0.06278301 -0.2007803 0.01420159 -0.01292546 -0.09822912 0.1489738 0.2400506 0.03103147 -0.02264688 -0.01989379 -0.07435936 0.01518853 0.2667853 -0.006669417 0.0919646 0.05173993 -0.08917983 0.05356552 0.2226812 0.04766206 -0.1747117 -0.03757944 -0.03186538 -0.1369542 -0.01616419 0.1498083 -0.1154391 -0.1433458 -0.6306008 -0.03652171 0.1153927 0.0677878 -0.09108607 
  0.05717057 -0.1210856 -0.04532997 0.01893901 0.04641276 0.2229003 0.1927248 -0.06399652 0.1075493 -0.104891 -0.04955403 0.05802625 0.06251243 0.02913382 -0.05307023 0.008939273 -0.1241833 0.1356741 0.03333545 -0.05170188 0.04871938 -0.01130688 0.2314497 0.3101145 0.0857409 -0.02626678 0.08682835 -0.1585638 0.07562526 0.02036674 0.156371 0.106181 0.04630353 0.05682286 0.1058715 0.06420214 -0.1829665 -0.07354391 -0.07586413 0.01207774 -0.06573655 -0.0787697 0.1049453 -0.01738847 -0.02129492 0.07014585 0.1377264 -0.03135856 -0.007322042 -0.06263994 0.08876968 -0.01787689 0.2211977 0.1031828 0.02165167 0.01954872 -0.009860891 0.1136894 -0.146905 0.05237719 0.001379134 0.1057434 -0.1396366 -0.1158505 -0.07004006 0.09681217 0.1020716 0.02001143 0.04974619 -0.1696104 -0.0620456 -0.03612481 0.1025326 0.05104977 -0.03081033 0.06511712 -0.04749368 0.05353928 0.001612548 0.07658527 0.02193538 0.1159581 -0.03139254 0.223937 0.1331296 0.06492166 0.01991249 0.0586926 -0.1258466 0.05633711 0.1084809 -0.05853836 -0.2876711 0.0857691 0.1599269 0.02129224 -0.3171617 0.362515 0.1686124 -0.03676872 0.09328105 0.5782391 0.2808197 0.0730771 -0.2169638 0.01111783 -0.01851492 0.2131632 0.01457203 0.6386656 -0.1366559 -0.2119594 -0.05795616 0.1369947 0.01615363 0.2306122 0.01219719 -0.08100879 0.02243588 -0.08488902 -0.0838673 0.1820801 -0.013732 0.007100323 -0.04703673 -0.02048458 -0.1182918 0.09058814 0.03265676 -0.02322982 0.2034627 0.06202553 0.1016732 -0.06078479 -0.1227248 -0.02215562 -0.1155095 0.07351173 0.5471252 0.1848542 -0.07883281 -0.006656478 -0.03090005 0.6418017 0.004814509 0.04498581 -0.03097796 0.02093231 -0.02474905 -0.1148899 0.2924467 0.06848909 -0.01984284 0.2344041 -0.04888812 0.0511175 0.4776193 -0.1263574 0.3438421 0.09079941 -0.02938684 0.1118781 0.1341736 0.1813619 0.431866 -0.1292107 0.1274613 -0.04948504 -0.01414456 0.1797049 -0.06673449 0.02890877 0.3124235 -0.03629426 0.02694813 -0.04118983 0.168724 -0.00883839 -0.1964623 -0.1407554 0.05753558 0.1666341 0.1457162 -0.1201269 0.1000815 0.245849 0.002387906 0.1135952 0.07812479 -0.1065857 0.1194295 0.1733988 -0.1150962 0.179301 0.01185316 -0.02466219 -0.1314001 0.06494708 0.1331059 -0.2227533 0.07578464 0.00629699 0.08580747 0.08236889 0.01953027 0.01309373 0.02241402 0.02877112 0.2255537 0.1664957 -0.03873071 0.08806251 -0.02708537 0.07369352 0.002246281 0.05129115 -0.1817748 -0.01046169 0.02148833 -0.3428284 0.237065 0.1748186 0.3022664 -0.1596594 0.1308766 0.0321135 0.2359743 0.001422732 -0.004577379 -0.1488592 0.0829262 -0.07528432 0.1335069 -0.02745944 0.07138132 -0.2056371 0.2323548 0.0008819299 0.2988162 0.4658265 -0.02684639 0.1283163 -0.02927908 -0.1544983 0.08868466 0.0912353 0.1262609 0.2374705 -0.01155001 0.1505425 0.1801221 0.1925298 -0.004859967 -0.198223 0.1499501 -0.06034539 
  -0.1398329 -0.1898298 -0.009222095 0.04114811 0.1294222 0.1533855 -0.1792326 0.0109223 -0.1259367 -0.06402259 -0.09495383 -0.04260051 0.02568226 0.2700174 -0.01299159 -0.06609224 -0.00149586 0.02316623 0.3095453 0.004514409 0.042541 -0.1312426 0.04372307 -0.09804258 0.01575025 0.07454786 0.05050238 -0.001859986 -0.07602239 0.01521808 -0.1418999 0.01817284 0.06507076 -0.03755166 0.1870409 -0.07131542 -0.07496947 0.005778642 -0.1410944 -0.03307612 -0.02899206 -0.1151797 -0.004454341 0.02046909 -0.1158089 -0.04986218 -0.003643279 0.1104317 -0.08799231 -0.01279677 0.489933 -0.1380893 -0.234023 0.3573344 0.06290473 -0.1034901 0.3226016 -0.2679059 0.1536142 -0.1130303 0.1038249 -0.2406059 -0.09928267 0.1630059 0.08745833 0.1389627 0.08939804 0.2143015 -0.13483 -0.1008136 0.2198729 -0.1436177 0.1819827 0.1271598 0.01039982 0.09850328 0.03947591 0.03887526 0.08626871 0.1205802 -0.1511921 0.01330246 0.09481724 -0.183196 -0.06350072 0.03433277 -0.07968775 0.01370794 -0.04031827 -0.06511606 0.1909786 -0.1446062 -0.2544086 0.04417268 -0.1514095 0.07560726 -0.1153516 0.2063528 0.3640381 0.1849588 0.1285063 -0.2836418 0.1080275 0.214437 0.3742538 0.1689075 -0.03626573 0.198631 0.08373069 -0.47609 0.1403644 0.1571445 0.01426409 0.2648722 -0.03256153 0.01082516 -0.1758842 0.02741332 -0.007068485 0.03575603 -0.1298314 0.2234886 -0.1241387 0.07664778 0.2547021 -0.009529687 -0.2731466 0.0119205 -0.1521046 -0.06208774 0.2374758 -0.232699 0.09600013 -0.1491304 0.2619967 0.1392178 -0.2004887 -0.2616729 -0.1112171 0.06994969 -0.2831366 0.1619217 -0.1368642 0.0867411 -0.07410439 0.124082 0.131409 0.001850073 -0.03946979 0.315005 -0.05059439 0.148813 0.02269017 0.04508441 0.04151178 0.07827716 0.09554908 -0.002249091 0.1394873 0.08031039 0.3584706 0.2885975 0.04589191 -0.18332 0.131218 -0.00516197 0.1663205 0.1159997 -0.08714095 -0.1190688 -0.1807607 0.1552256 0.2438402 0.22629 0.3271905 -0.03025099 0.5227233 0.05143869 0.1822132 0.1409532 0.2579187 0.2971768 0.2748574 0.0426859 -0.05630127 0.4805948 0.1771297 0.04536356 -0.1244058 0.1731054 0.07552484 0.1252595 -0.3379571 0.1786212 0.1752206 -0.115443 -0.3591478 0.06785022 0.1131758 0.2298116 0.1827249 0.235626 -0.07775313 0.1888054 -0.06807456 0.06603183 0.02361479 -0.06553184 0.1784251 0.1693338 -0.08770215 -0.1296066 0.340601 -0.2241688 -0.1678021 -0.1573766 0.01680739 0.2610407 0.1013472 0.01118746 -0.03452456 -0.04845267 0.01739085 -0.324188 0.1031194 -0.08390378 -0.1082151 0.1533514 0.1716787 0.007618824 0.3674098 -0.05997874 0.1146796 0.1250841 0.02674594 -0.09717057 -0.07152861 0.4775524 0.1047366 0.4270123 -0.01818506 0.3079164 0.04358665 0.02090395 0.04417834 0.07807855 -0.1982932 -0.02649519 -0.01476078 -0.03964064 0.140448 0.07371461 -0.1399804 0.08842394 0.1678583 -0.2016029 
  -0.03249015 0.1102879 0.1688758 0.2728205 -0.04318681 -0.04286844 -0.2150614 0.1403864 0.2605796 -0.01102694 -0.02204313 0.2834816 0.0719685 0.06337068 0.03954733 0.1067676 0.05643643 0.02468509 0.1456659 -0.2680497 -0.3245268 -0.1029263 -0.05252869 -0.02631455 0.1823773 0.0387629 0.1149501 -0.108479 0.1985421 -0.06483822 0.2121375 0.1747624 0.03361893 -0.07319239 -0.1003166 0.03300713 -0.1383294 -0.08599443 0.0005472578 -0.2026835 0.06403015 0.02630148 0.05922532 0.04484497 0.173866 0.05385463 0.08076557 0.01614377 0.01533166 0.02254218 0.01135343 -0.01952143 -0.1177538 -0.03524107 -0.03645224 0.07458945 -0.05788327 0.07547563 -0.0820451 0.02633166 0.05315036 -0.2205545 -0.1135502 0.542766 -0.03312239 -0.1191652 0.09543282 -0.1604198 0.05898226 -0.06765722 0.2403216 0.1519421 0.08333448 0.05085286 0.1615619 -0.04681534 -0.03258248 0.1804669 0.005000237 -0.1531491 -0.05304395 0.1113904 0.3429202 -0.1234686 -0.1414954 0.03561054 -0.207987 0.2073405 0.1448947 0.0008607483 -0.09168297 -0.1036112 -0.06453892 -0.02744837 -0.06657135 -0.008245404 0.1355815 -0.1537515 0.2134241 -0.2241315 0.01336263 -0.243666 0.2230968 0.04263595 0.1632892 -0.02882592 0.1665837 0.09951021 -0.2134222 -0.3885272 -0.1166775 0.2216425 0.03572206 0.152554 -0.07882807 0.05036048 -0.066168 0.05438395 -0.1098798 -0.2041862 0.1026277 -0.01536431 0.3664438 -0.1865102 0.2797703 -0.05014193 0.2950547 -0.0458275 0.05995226 -0.008931038 0.1665509 0.5381416 0.1951919 -0.08709509 -0.0003729859 -0.1017532 0.05366057 0.01884186 0.3736783 0.06258871 0.1855405 -0.2427774 0.1694954 -0.3992333 0.1222221 -0.0555029 0.02994099 -0.01263016 0.00942215 -0.1972387 -0.02864249 0.08816619 -0.07319874 -0.009010118 0.1589801 0.3347063 -0.1751902 0.1380194 0.355971 -0.1889098 0.1489533 -0.2923439 0.03868688 -0.08917779 -0.1532561 -0.1162047 -0.03639012 -0.1889101 0.1207881 -0.01903517 0.03971846 -0.009727744 0.4374715 -0.08776791 -0.02254252 0.1183533 0.02727317 0.002757264 -0.005609626 -0.07112845 0.05634038 -0.04196188 -0.07966802 -0.02997463 0.07353972 0.1535393 0.06054929 0.02328416 0.0327599 -0.1122489 0.01689889 -0.03913802 -0.0230221 0.02453826 0.03333214 -0.0416362 0.2921165 0.1386866 0.07358436 -0.2912854 0.1766694 0.1639494 0.05228961 -0.07261759 -0.0656438 0.120213 0.03645456 -0.1849814 0.1480626 -0.05743002 0.07062317 -0.1544125 -0.106536 -0.2010159 -0.03467885 0.1006213 -0.1131229 -0.01543987 0.04928586 -0.3858159 0.3044782 0.1811204 -0.06928582 -0.09456456 0.3111524 0.01675714 -0.2895004 -0.1841303 0.1050231 -0.09850696 -0.05901427 0.0544905 -0.0545538 -0.04729821 -0.1091065 0.1855022 0.248978 -0.1213165 0.1633707 0.6441324 -0.0753568 0.2628374 -0.1521952 -0.1331009 -0.1383106 -0.1158591 0.2142452 0.4574602 0.09524453 -0.156818 0.009507673 -0.1035868 -0.2015008 -0.04599907 0.1345872 0.1568739 
  0.01884172 0.3422225 0.08761126 0.05309932 0.1788566 0.04917425 0.03327693 0.1267416 0.2344597 0.001672233 -0.3035626 0.09245769 0.03685955 0.06665758 -0.04582744 -0.09628949 -0.04178538 0.1178087 -0.04531032 0.4541108 0.235931 -0.08417866 0.06346957 0.1484212 -0.0036683 0.0438498 -0.0338315 0.05592456 0.1283796 -0.1991877 -0.0403614 0.1270473 -0.07472708 0.1734633 -0.02955614 0.1076557 0.1555943 0.03756342 -0.1988436 -0.0290629 -0.1374154 0.1777658 -0.08924524 -0.08024518 -0.3134645 -0.2382629 0.1485606 0.1729524 -0.0276121 -0.2606312 0.009598026 0.06754842 -0.1934636 0.0114664 0.2933422 0.05870463 0.1230129 0.2097822 -0.1328135 0.2213794 -0.03992847 0.07222927 0.07504437 -0.0266483 -0.1880695 0.0368556 -0.02956627 0.4134607 0.05273588 0.02812178 0.01483016 0.5764765 -0.07175902 0.0784166 0.006281182 0.005821056 -0.2546605 0.08870728 0.6111789 -0.2486726 -0.1171473 0.06106924 0.06096048 -0.069108 0.07479373 0.0220669 0.02266389 -0.180795 0.07308132 -0.003599287 -0.007412058 -0.07313455 -0.07255855 0.01462042 0.0836884 0.1874417 -0.166226 0.1320366 -0.05222537 0.102759 0.01478102 -0.04478456 0.157901 -0.09848941 0.1098594 -0.1372637 -0.06022317 0.1763309 0.1674677 -0.06896901 0.03737938 -0.07613382 0.04586761 0.2785929 0.02585199 0.05939413 0.02620878 0.5319772 -0.03959631 0.09525505 -0.1973768 0.01652412 -0.003551177 -0.1900183 0.08871812 -0.05704901 -0.06208654 -0.04026935 -0.0462579 -0.2927512 0.04655844 -0.01874324 -0.2271897 0.1731677 0.1133436 0.02341065 -0.1427181 0.3845729 0.01481189 0.05221119 -0.06849618 0.499073 -0.2536195 0.006996405 -0.5119697 -0.07125263 -0.2339032 -0.06397257 -0.1286799 0.2962613 0.01162801 -0.02954686 0.06229315 -0.1088044 0.07339018 0.09519907 0.05327345 0.04269746 0.45357 -0.2003756 0.04970237 0.03380805 0.06885877 -0.2377189 -0.07450166 0.07538969 -0.02286185 0.0351992 0.04417818 0.02150422 -0.2055462 0.009532755 0.1802163 -0.01815067 -0.1524426 0.2371063 -0.1681056 0.1742974 -0.02099188 -0.04738273 -0.1548008 -0.001094551 0.1424468 -0.01323238 0.1289074 -0.07388717 -0.1329438 0.3767705 -0.08671118 -0.01896752 0.006469261 -0.0361529 0.1679781 -0.02596315 -0.3025573 0.09453347 0.2291811 0.1622803 0.07948352 0.1451782 -0.06329323 -0.03130798 -0.1166491 0.1368765 0.09388012 -0.1100692 -0.2210296 0.2657979 0.05243158 0.1613878 -0.03944929 0.07957125 0.1363788 0.1333387 -0.1302229 -0.09065679 0.1540014 -0.04197939 -0.1271511 0.04223425 -0.008609497 0.06343832 0.02388649 -0.02344525 0.04091628 0.2029238 0.09668489 0.07320011 0.2695872 -0.2494549 -0.3307102 0.05432374 -0.2762453 -0.07983101 -0.002958291 0.208932 0.08533124 0.1580266 -0.01831529 1.000906 -0.003649082 -0.01605187 0.01429681 -0.07648975 0.09794206 -0.06792624 -0.08416391 0.0244274 -0.2835733 -0.1033186 -0.01530291 -0.2975212 0.09790929 0.192302 -0.01180071 -0.07841755 
  -0.008328489 -0.1264957 0.08419009 -0.1214034 0.3550257 -0.02180137 -0.2212755 0.09057173 0.007183372 -0.009355846 0.213554 -0.02022338 0.1180005 0.1662924 0.2072677 0.09163971 0.002853073 0.1205498 0.08820331 0.01259341 -0.04080538 0.3105498 0.3310639 0.1369599 0.1236804 0.02183567 -0.01068124 0.1545692 0.06035149 0.08234667 -0.0895425 0.1407047 -0.03038706 -0.1080819 0.3742836 0.00309541 0.1795478 0.3089257 -0.1718058 -0.137765 -0.07548723 0.08068363 0.3359757 -0.09354728 0.07125876 -0.06258421 -0.04211794 -0.2056839 0.5083391 -0.2183666 0.03691851 -0.2447098 -0.09163071 -0.02403096 -0.01827968 -0.3337265 -0.0393007 0.02463002 0.08809677 -0.01031951 0.06176659 -0.222733 -0.01672597 0.0391091 0.09235823 -0.03034596 0.05491437 0.08909968 0.421701 0.06332021 -0.1767572 -0.274931 0.01391236 0.09619617 0.06487101 -0.08829918 -0.07356584 0.2468643 -0.2160965 -0.1824858 -0.1210733 -0.04249896 0.08697737 0.1905135 -0.1505959 0.07122796 0.121311 0.1673007 -0.06047837 0.03707214 0.134573 -0.235833 -0.07622939 0.2665327 -0.06871068 -0.04203285 0.03011817 -0.009722371 -0.1999073 0.0335882 0.01906235 -0.06823988 0.1934401 0.02669677 0.3321465 -0.3777454 -0.0463345 -0.1850055 0.08522256 -0.1430485 0.03532974 0.09030287 0.1247942 -0.08191885 -0.04042089 0.05278875 0.6259976 -0.2203418 -0.2143825 -0.0886739 0.02126155 0.05970788 0.1214113 -0.2520067 0.373596 -0.1983293 -0.07329728 0.06006401 0.3975787 0.03362403 -0.001850114 -0.1467285 0.1582333 0.2704778 0.3193597 0.3672566 -0.3360155 0.147751 0.08761103 -0.06906413 0.04367504 0.106687 0.2433956 -0.1238371 0.2824098 0.1674638 -0.2035347 -0.02725233 -0.2378593 -0.01020404 0.2813151 -0.3886947 -0.01302261 0.2520089 0.004862266 0.1003166 -0.1369528 0.01448712 -0.1232086 0.01681713 -0.1765067 0.2329767 0.1662651 -0.1625087 -0.042243 -0.007073154 -0.02710159 0.02848088 -0.1134949 -0.07453668 0.03653258 0.1013341 0.2164962 -0.02208793 -0.04258657 -0.2113341 0.4907068 -0.07193222 -0.06751417 0.06943514 -0.1201047 -0.006238337 0.121946 0.2581691 0.2046188 0.2591587 0.0743359 0.3329177 0.1643052 -0.04760931 0.05814225 0.008826227 -0.09096784 0.1054398 -0.3357394 -0.02454001 0.1364111 0.1667729 0.1936634 0.07094713 -0.1125925 -0.2715083 -0.1685109 -0.01815395 0.2676882 0.1236778 0.2971598 -0.04327662 0.00289137 0.3032589 -0.2809044 0.1241061 0.102696 0.04342503 0.06633807 -0.03176223 0.04246813 -0.01631892 -0.4102234 0.06997222 0.03690358 -0.006403656 0.0486545 -0.1799926 0.1992754 -0.05343421 0.1417161 0.1053221 0.2140671 -0.09592266 -0.1546186 0.2203536 -0.07079297 0.07114423 0.1199621 -0.01719672 -0.007083869 -0.03723052 0.1306622 -0.1648194 0.02776019 0.2231101 -0.1659077 -0.1873226 -0.04595695 0.08586161 -0.150445 -0.08394857 -0.0654237 0.1088767 -0.2491559 0.01775914 0.1146064 -0.2838265 -0.03867511 -0.005073701 
  -0.1258551 -0.0457476 0.03458575 -0.03408894 -0.1720877 -0.1460888 -0.1829895 0.06411082 0.09750366 0.03320912 -0.148175 0.1607489 -0.08011723 0.5294789 0.0463155 0.1338892 0.009866661 -0.1406364 0.09530398 0.1221308 0.0240341 0.0610678 0.1629973 0.5741813 0.09907813 -0.02771326 0.6475774 -0.1727428 0.08382092 -0.01485613 -0.07700931 -0.4144286 0.1347496 0.2862844 -0.05399647 0.03146453 0.4540584 -0.04558918 0.4809233 -0.09341935 -0.129428 -0.02550783 -0.2652406 0.1509028 -0.02617651 -0.1228562 0.1171807 0.06803732 0.2043743 -0.03677265 -0.2956299 -0.1125756 -0.1771555 -0.06733432 -0.3021503 0.281734 -0.0254576 0.2098124 -0.0951698 -0.2135796 0.006164627 -0.1180227 0.1565766 0.0394658 -0.1104207 -0.1073202 -0.1446867 -0.05646572 -0.3650066 -0.09340548 -0.0228892 -0.04102095 -0.4253716 0.3079943 0.04794896 0.06784656 0.06877319 0.3979459 -0.0393318 0.1458808 -0.5371898 -0.05366601 0.06435935 -0.1995819 -0.2135181 0.6399185 -0.1571308 0.1230305 -0.00211111 0.6675032 0.217555 0.6764729 0.02944549 0.1083159 -0.01665226 -0.1848164 0.06890413 -0.09599764 0.04498272 -0.1429499 -0.2173343 0.3647725 0.3266011 -0.0927195 -0.01669442 0.004393545 -0.1470798 -0.275657 0.09945537 0.1217638 0.0748779 0.08483753 0.04776482 0.2346385 0.3458634 -0.04992901 -0.1071021 0.4134793 0.01430113 -0.07712178 -0.1775802 -0.1648413 -0.07987311 -0.099025 -0.1875862 -0.2358021 0.03481642 -0.1623629 -0.01335836 -0.02708886 -0.04761118 -0.2239446 -0.1012713 -0.4722513 0.007851798 -0.27451 -0.1702572 -0.1008919 -0.05665015 0.1987578 -0.2694852 0.1586885 0.1001526 -0.04438245 0.03705113 -0.1935244 0.2430239 -0.0446539 0.259237 -0.3133792 -0.4962978 0.05989866 -0.0220142 -0.02265236 -0.2520038 -0.07022347 -0.2119626 -0.1523439 -0.2343831 0.04696206 -0.01199147 0.1969234 -0.205815 -0.1925948 0.08029989 -0.09418698 0.1056604 0.1553605 -0.03542469 0.1582304 0.181333 0.1868831 0.06190064 0.1286319 0.164194 -0.2382205 0.1070623 0.08110484 -0.1623447 0.1392533 0.3100995 -0.6060287 0.02398925 0.2951593 0.06014523 -0.1016486 0.002240005 -0.1964315 -0.0201831 -0.02277703 -0.09702942 -0.006376637 -0.2692489 -0.2548297 0.0227345 -0.2627985 0.1274847 0.3701502 -0.03062127 0.04924845 0.155156 -0.03943904 -0.2583008 -0.08628275 -0.09658978 0.1512321 -0.003821204 -0.180853 0.01111601 -0.1533801 0.1362475 -0.1573633 -0.05376734 -0.3971371 -0.2442413 -0.1216888 0.007496008 0.3622892 -0.168339 0.02679857 -0.1215407 0.05373153 0.02710608 -0.1866094 -0.344432 -0.1498098 0.1451263 0.2223553 0.5759763 0.06566773 -0.4869615 0.1067742 0.04946574 0.05034238 0.02464535 -0.2671911 0.002237295 -0.01367388 -0.08432212 -0.1786555 0.06195981 0.1801728 -0.1411742 0.1374109 -0.1861843 0.1876707 -0.1797508 0.07180505 0.1852081 0.08094747 -0.1668609 -0.4111853 0.1506127 0.136667 -0.08017698 0.04646476 
  0.1018583 -0.04395611 -0.1313819 -0.08655437 -0.1090988 -0.07030552 -0.2105129 0.007780998 -0.01889036 -0.003653134 -0.03494299 0.3047956 0.07415925 -0.2372062 -0.09941273 -0.02768874 -0.04883917 -0.02880087 0.02844452 -0.1297408 -0.02617166 0.2279162 0.09699533 -0.1676743 -0.1640386 -0.2596288 -0.1895136 -0.07886621 0.0339133 0.06240216 -0.1741213 -0.03342564 -0.082118 0.01844246 0.05255637 0.2148582 0.02667451 -0.1904173 -0.2561606 -0.01237789 0.0168325 0.167559 -0.1201684 0.1357932 0.07027905 0.1401384 -0.08968599 0.490921 -0.03991381 0.133598 -0.006973981 0.1034101 -0.1406419 -0.1423428 0.1374937 0.140487 0.4083877 0.2726529 0.06102485 -0.06108514 -0.009152931 -0.01653412 -0.09319354 0.2827774 0.05905226 0.04654509 -0.2620567 -0.2483993 -0.07097743 -0.2676327 -0.05848094 -0.2881345 0.4687908 0.05143541 0.211087 0.1466887 -0.1015648 0.01786332 -0.3552744 0.04146583 -0.0827781 0.01494713 0.02075068 -0.1513031 -0.2480792 -0.2175031 0.06378517 -0.2630578 -0.07976487 -0.1818817 0.1288644 -0.007427057 -0.02521849 0.05401525 -0.0519575 -0.04672085 0.08086639 -0.1470453 -0.3830364 -0.09066523 0.01524959 0.01214308 0.07327517 -0.3387462 0.1966854 -0.07452817 -0.09350154 0.02749924 0.0741295 0.2483068 -0.03203521 0.007103527 0.2469338 -0.09080634 0.1046607 0.1544739 0.03215634 0.2180377 0.04141163 -0.1430168 0.1366694 -0.1513042 -0.08593816 -0.1573285 -0.1707235 -0.2771993 0.01552813 0.06985956 -0.3550768 0.1471948 0.3820684 -0.05759168 0.01859271 -0.1396913 0.2695874 0.08881117 0.1628883 0.2317184 0.4126082 0.6021003 -0.1344483 0.1804802 0.2215209 -0.335225 0.2276848 -0.02671459 -0.002668772 0.04332411 -0.09000289 -0.418653 0.2490272 0.1903555 0.160597 -0.09359198 0.2004233 -0.3464217 0.103854 0.1088877 -0.4825425 0.1653578 0.07363656 -0.1952327 -0.2723859 0.1832798 -0.256757 -0.2429093 0.06611697 0.2402874 -0.05952346 0.1059499 -0.09535961 0.1903541 0.1186218 -0.2341546 0.07147679 0.002624808 -0.1895444 -0.1756857 -0.08127771 0.1316773 -0.07786059 0.05987935 0.01489289 0.1151917 0.2397091 -0.1874191 0.09896667 0.1044673 -0.2818382 0.01037897 0.07497171 -0.221553 0.004664555 -0.04444617 0.1417341 -0.2415734 0.05657257 0.2186656 0.1086153 -0.007891135 -0.1869109 0.1622642 -0.113294 -0.04291803 0.1340899 -0.01305941 0.02036047 -0.2361369 0.01239844 -0.07493912 0.1026758 0.1024244 -0.4281329 -0.07595988 0.1759606 0.02091112 0.03435947 0.3207405 0.3009098 0.1125263 -0.1431722 -0.150267 -0.1152071 0.2106216 -0.1980651 -0.01852798 0.08190163 -0.04207571 0.05749298 0.06860714 -0.05978162 0.1827745 -0.1930646 0.09161483 -0.06742953 -0.1192537 0.1176712 -0.2103526 0.09859329 -0.5744064 0.2009943 0.008764463 -0.1464242 0.1284018 -0.09554791 -0.100832 -0.01346701 -0.2013431 0.04633842 0.317108 0.1414531 -0.01533143 0.005882671 0.1577447 -0.02576455 0.0591318 
  -0.0359931 0.1184415 0.2135854 -0.04807756 -0.2309773 0.162339 -0.1662798 0.1445114 0.1545449 0.09945179 0.1287109 0.0119089 0.06153927 0.0609504 0.07853046 0.02581371 -0.09587339 -0.1035527 0.04306016 0.5219032 0.0572558 0.1006574 -0.238053 -0.2260381 -0.1939745 0.1606551 -0.1356972 0.08168539 0.1040434 -0.01731589 -0.1068113 -0.03488659 -0.01094952 -0.1368347 -0.2797585 0.05450955 -0.1910679 0.1063429 -0.05532537 0.1617447 0.05556874 -0.02423996 0.3072224 -0.04661911 -0.2821041 0.01211242 0.02937112 0.1053881 -0.05545157 0.06489427 -0.1035541 0.06513869 0.1393711 0.08585718 -0.05587724 -0.139531 -0.1186826 -0.2496171 0.004210369 -0.1017771 0.1433696 -0.1219249 0.09861723 -0.1335906 -0.140404 -0.002674295 -0.1360687 0.1920804 -0.1527218 0.1000793 0.2520537 -0.1172912 -0.2667934 0.02336849 0.1685297 0.09839984 -0.09162563 -0.0847921 -0.1273457 0.09421848 -0.2273848 0.3039994 0.22982 0.006333052 -0.1983546 0.06237509 0.08650281 -0.2969156 -0.09527385 0.08761434 0.08389778 0.1542122 -0.093554 0.4275961 0.287485 -0.08044481 -0.06582131 0.08307978 -0.04907699 -0.2037859 -0.06304085 0.01251173 0.0178468 0.3483552 -0.2138587 0.05307607 -0.01936977 -0.2486385 0.0961667 -0.3101895 -0.0845079 0.1342757 0.5385248 -0.08840118 0.1730077 -0.2102004 0.06404214 0.2368444 -0.1762788 0.3599825 -0.06626651 -0.03723921 -0.04550344 0.04713468 0.2171491 -0.03488438 -0.2102819 -0.1984047 -0.102394 -0.09289908 -0.005050133 -0.3072866 0.2664199 0.4786385 0.03198971 -0.3643911 0.05416935 -0.5190068 0.08584561 0.1726166 0.0469282 0.1864715 -0.02317702 0.2960873 0.3153812 0.06096086 0.1393599 0.2448914 -0.1330778 -0.07578413 -0.2434447 0.2428613 0.006787562 0.3409775 0.06098504 0.03331401 -0.1075815 -0.01502 -0.1484509 -0.1862152 -0.03302688 0.3059512 0.04566839 -0.1844378 -0.07100508 -0.06447928 0.1302024 -0.2613855 0.02408859 -0.02987888 -0.09183423 0.09714295 0.1132581 0.1570034 0.1250615 0.5039943 -0.2682979 0.02915883 -0.07647989 -0.1021015 0.0129757 -0.2514102 0.2161889 -0.1440621 -0.3195487 0.04602714 0.0329273 0.004077288 -0.01681934 -0.1669253 -0.2951154 -0.05156847 -0.08937763 -0.09136121 -0.06009793 0.01163938 0.1696666 -0.0755067 0.1619157 0.03251837 -0.04326809 0.009040388 -0.1933819 -0.07186377 0.01148419 -0.1472213 -0.0106014 -0.2852347 0.3079282 0.02643207 -0.008333233 0.1068581 -0.079143 -0.2238452 -0.05748488 -0.220342 -0.3017212 -0.2325129 -0.1251555 -0.01854802 0.0274241 0.05690453 -0.01999331 -0.07041588 0.175093 -0.156428 0.1260232 0.3916574 -0.1584012 -0.3404591 -0.2458729 0.3141676 0.2012578 0.4207514 -0.08238979 -0.1029655 0.1605992 0.090074 0.007453126 0.3343498 0.0377249 0.1134482 -0.09141844 -0.139892 0.05180331 0.08316083 -0.1462581 0.17854 0.2788919 -0.009486276 -0.09310456 -0.02658415 0.02834599 -0.1477913 0.006043547 0.1349539 ]
 [ 0.2159563 0.9831479 0.1155889 0.3419319 0.5406724 0.4724551 0.5612722 0.47057 0.3105128 0.3749042 0.327108 0.6791489 0.4409783 0.3347026 0.4604054 0.0829827 0.4628573 0.3462386 0.9943008 0.8004876 0.5020654 0.1115337 -0.038285 0.5058502 0.5588963 0.4737122 0.4082386 0.6115561 0.6465423 0.4452733 0.3251153 0.4785356 0.1891589 0.3503132 0.1595186 0.5278407 0.2384747 0.4998731 0.7719446 0.6819764 ]
<!EndOfComponent> 
</Nnet> 
